<unk>	0
<s>	0
</s>	0
▁の	-0
▁、	-1
▁。	-2
▁た	-3
▁に	-4
▁を	-5
▁は	-6
▁が	-7
▁で	-8
▁と	-9
▁て	-10
▁し	-11
▁な	-12
▁1	-13
▁い	-14
▁」	-15
▁「	-16
▁2	-17
▁0	-18
▁(	-19
▁)	-20
▁も	-21
▁日	-22
▁か	-23
▁さ	-24
▁す	-25
▁こ	-26
▁する	-27
▁3	-28
▁だ	-29
▁ま	-30
▁れ	-31
▁大	-32
▁あ	-33
▁5	-34
▁いる	-35
▁年	-36
▁や	-37
▁4	-38
▁から	-39
▁・	-40
▁人	-41
▁よ	-42
▁など	-43
▁6	-44
▁ない	-45
▁市	-46
▁こと	-47
▁中	-48
▁7	-49
▁月	-50
▁会	-51
▁一	-52
▁8	-53
▁9	-54
▁そ	-55
▁者	-56
▁ら	-57
▁つ	-58
▁ある	-59
▁国	-60
▁自	-61
▁同	-62
▁ア	-63
▁お	-64
▁日本	-65
▁出	-66
▁ス	-67
▁時	-68
▁県	-69
▁いう	-70
▁地	-71
▁高	-72
▁さん	-73
▁発	-74
▁東	-75
▁今	-76
▁開	-77
▁新	-78
▁ます	-79
▁見	-80
▁生	-81
▁選	-82
▁前	-83
▁対	-84
▁上	-85
▁カ	-86
▁事	-87
▁最	-88
▁イ	-89
▁行	-90
▁的	-91
▁目	-92
▁シ	-93
▁なっ	-94
▁メ	-95
▁フ	-96
ート	-97
▁円	-98
かっ	-99
▁分	-100
▁サ	-101
▁関	-102
▁まで	-103
▁約	-104
▁でき	-105
▁回	-106
▁よう	-107
▁後	-108
ール	-109
▁れる	-110
▁へ	-111
▁全	-112
▁られ	-113
▁本	-114
▁コ	-115
▁内	-116
▁長	-117
▁よる	-118
▁だっ	-119
▁政	-120
▁戦	-121
リー	-122
▁実	-123
▁万	-124
▁取	-125
ット	-126
ター	-127
▁入	-128
▁以	-129
▁ため	-130
▁公	-131
▁氏	-132
▁米	-133
▁なる	-134
▁マ	-135
▁小	-136
▁連	-137
▁現	-138
▁です	-139
▁機	-140
▁決	-141
▁ほ	-142
▁通	-143
ラン	-144
しい	-145
▁安	-146
▁プ	-147
▁受	-148
▁ば	-149
▁き	-150
▁方	-151
▁世	-152
▁社	-153
▁その	-154
▁せ	-155
ント	-156
▁代	-157
▁キ	-158
▁強	-159
▁オ	-160
▁東京	-161
▁経	-162
▁学	-163
▁たい	-164
▁作	-165
▁女	-166
▁部	-167
▁不	-168
▁この	-169
える	-170
▁初	-171
▁パ	-172
▁思	-173
▁バ	-174
▁多	-175
▁手	-176
▁記	-177
▁ド	-178
▁共	-179
ック	-180
▁ト	-181
▁主	-182
▁=	-183
▁チ	-184
▁当	-185
▁北	-186
める	-187
ーム	-188
▁第	-189
▁つい	-190
▁支	-191
▁み	-192
▁場	-193
▁調	-194
▁話	-195
▁%	-196
▁区	-197
▁性	-198
▁指	-199
ング	-200
▁予	-201
▁デ	-202
▁男	-203
▁平	-204
▁金	-205
▁三	-206
▁セ	-207
ース	-208
▁ご	-209
▁感	-210
▁ロ	-211
▁家	-212
▁相	-213
▁あり	-214
▁エ	-215
▁先	-216
▁投	-217
▁受け	-218
▁所	-219
▁電	-220
▁原	-221
▁教	-222
▁増	-223
▁活	-224
▁問	-225
▁町	-226
▁く	-227
▁ク	-228
▁まし	-229
▁保	-230
▁向	-231
▁運	-232
▁勝	-233
▁-	-234
▁ず	-235
▁化	-236
▁～	-237
▁車	-238
▁テ	-239
▁続	-240
▁使	-241
▁できる	-242
▁名	-243
▁進	-244
▁リ	-245
▁都	-246
▁特	-247
▁知	-248
▁位	-249
▁なかっ	-250
▁なく	-251
▁下	-252
ライ	-253
▁首	-254
▁あっ	-255
▁法	-256
▁山	-257
▁体	-258
▁午	-259
▁二	-260
▁意	-261
▁期	-262
▁参	-263
▁.	-264
▁ど	-265
▁協	-266
▁発表	-267
▁世界	-268
▁立	-269
▁再	-270
▁党	-271
▁う	-272
▁外	-273
ップ	-274
▁気	-275
▁海	-276
▁打	-277
▁言	-278
▁合	-279
▁昨	-280
▁ブ	-281
▁これ	-282
▁より	-283
▁議	-284
▁無	-285
▁】	-286
▁広	-287
▁結	-288
▁福	-289
▁明	-290
▁タ	-291
▁警	-292
▁【	-293
▁企	-294
▁レ	-295
スト	-296
▁次	-297
▁中国	-298
▁もの	-299
▁選手	-300
ュー	-301
▁試	-302
▁交	-303
▁それ	-304
▁集	-305
▁重	-306
▁文	-307
▁取り	-308
▁水	-309
▁ジ	-310
▁成	-311
▁店	-312
▁制	-313
▁提	-314
▁グ	-315
▁総	-316
▁計	-317
▁確	-318
▁改	-319
▁会社	-320
ョン	-321
▁被	-322
▁子	-323
まっ	-324
▁ハ	-325
▁数	-326
▁住	-327
▁共同	-328
▁ホ	-329
▁たち	-330
▁可	-331
▁来	-332
ード	-333
▁A	-334
▁時間	-335
▁持	-336
▁考	-337
▁おり	-338
▁力	-339
ける	-340
▁組	-341
▁五	-342
▁だけ	-343
▁近	-344
▁始	-345
▁ん	-346
▁なり	-347
▁昨年	-348
▁利	-349
ーク	-350
▁書	-351
ティ	-352
▁関係	-353
▁基	-354
▁設	-355
▁委	-356
▁動	-357
▁理	-358
▁問題	-359
▁変	-360
▁表	-361
▁代表	-362
▁優	-363
▁ウ	-364
▁わ	-365
▁加	-366
▁イン	-367
▁報	-368
▁検	-369
▁引	-370
▁必	-371
▁点	-372
▁情	-373
▁容	-374
▁各	-375
▁女性	-376
▁億	-377
▁食	-378
▁ミ	-379
▁野	-380
▁元	-381
▁企業	-382
▁られる	-383
ディ	-384
▁大阪	-385
▁』	-386
ション	-387
▁観	-388
▁可能	-389
▁『	-390
▁向け	-391
▁歳	-392
▁商	-393
▁過	-394
▁楽	-395
▁反	-396
▁:	-397
▁解	-398
▁付	-399
▁ビ	-400
▁工	-401
▁ソ	-402
▁両	-403
▁語	-404
上げ	-405
▁台	-406
▁大会	-407
▁ボ	-408
▁度	-409
れる	-410
▁以上	-411
▁間	-412
▁話し	-413
▁民	-414
ージ	-415
▁モ	-416
▁死	-417
▁大き	-418
がら	-419
▁政府	-420
▁そう	-421
▁西	-422
▁登	-423
ープ	-424
▁また	-425
▁少	-426
▁調査	-427
▁認	-428
▁C	-429
▁J	-430
▁半	-431
▁終	-432
ートル	-433
▁監	-434
▁情報	-435
▁ベ	-436
▁リー	-437
▁行わ	-438
▁ニ	-439
▁状	-440
▁有	-441
▁ポ	-442
▁直	-443
する	-444
▁業	-445
▁求	-446
▁考え	-447
▁権	-448
レー	-449
▁ワ	-450
ンド	-451
▁必要	-452
▁研	-453
▁株	-454
▁空	-455
▁示	-456
▁ながら	-457
▁正	-458
▁委員	-459
▁プロ	-460
▁事業	-461
▁メートル	-462
▁団	-463
▁役	-464
めて	-465
リア	-466
▁参加	-467
▁防	-468
▁建	-469
▁判	-470
▁省	-471
▁地域	-472
▁セン	-473
▁比	-474
▁神	-475
▁とも	-476
▁物	-477
▁規	-478
▁容疑	-479
▁―	-480
▁乗	-481
▁道	-482
イン	-483
▁思い	-484
▁ダ	-485
▁仕	-486
▁試合	-487
▁起	-488
カー	-489
▁番	-490
▁経済	-491
▁N	-492
▁南	-493
▁展	-494
▁施	-495
▁減	-496
▁なら	-497
▁ファ	-498
▁伝	-499
かり	-500
わせ	-501
▁”	-502
んな	-503
▁たり	-504
▁製	-505
▁消	-506
ャン	-507
▁何	-508
▁十	-509
▁P	-510
▁S	-511
▁スタ	-512
▁四	-513
▁米国	-514
▁全国	-515
▁首相	-516
▁販	-517
▁員	-518
▁得	-519
▁年度	-520
バー	-521
▁!	-522
▁放	-523
▁チーム	-524
かし	-525
▁私	-526
▁研究	-527
▁担	-528
▁宮	-529
▁今年	-530
▁多く	-531
▁韓	-532
▁資	-533
▁自分	-534
▁訪	-535
▁周	-536
▁引き	-537
▁予定	-538
▁声	-539
▁販売	-540
▁国際	-541
ろう	-542
▁側	-543
▁“	-544
▁午後	-545
▁活動	-546
▁いい	-547
▁支援	-548
▁残	-549
▁映	-550
▁館	-551
▁石	-552
▁男性	-553
▁移	-554
▁ラ	-555
▁心	-556
▁コン	-557
▁用	-558
▁キロ	-559
▁応	-560
▁追	-561
▁韓国	-562
▁監督	-563
▁大学	-564
▁ガ	-565
▁要	-566
▁午前	-567
▁いた	-568
▁客	-569
▁割	-570
▁今回	-571
▁サー	-572
▁説	-573
▁ユ	-574
▁目指	-575
▁呼	-576
▁ぶ	-577
▁いく	-578
▁流	-579
▁ほか	-580
▁I	-581
▁違	-582
▁ひ	-583
▁開催	-584
▁開発	-585
▁朝	-586
▁医	-587
▁売	-588
▁課	-589
▁現在	-590
▁復	-591
▁美	-592
▁姿	-593
▁利用	-594
▁配	-595
イト	-596
▁含	-597
▁産	-598
▁述	-599
▁さら	-600
▁九	-601
▁F	-602
▁述べ	-603
▁学校	-604
▁ライ	-605
▁け	-606
▁一方	-607
▁天	-608
▁品	-609
▁様	-610
▁ち	-611
▁早	-612
▁いっ	-613
▁市場	-614
▁松	-615
▁ね	-616
▁記者	-617
ころ	-618
▁個	-619
ジア	-620
▁注	-621
▁どう	-622
▁愛	-623
▁駅	-624
▁T	-625
▁官	-626
▁定	-627
ビス	-628
▁競	-629
▁軍	-630
まり	-631
▁職	-632
▁もら	-633
▁収	-634
▁説明	-635
▁初めて	-636
ーン	-637
▁技	-638
▁英	-639
▁楽し	-640
▁影	-641
▁実施	-642
▁好	-643
▁施設	-644
▁率	-645
ーズ	-646
▁今後	-647
▁選挙	-648
▁税	-649
▁リーグ	-650
▁派	-651
▁事件	-652
▁中心	-653
▁振	-654
▁幹	-655
▁社会	-656
▁府	-657
▁案	-658
▁八	-659
▁負	-660
▁ゴ	-661
▁サービス	-662
▁安全	-663
▁震	-664
▁出場	-665
▁料	-666
▁事故	-667
▁土	-668
▁演	-669
▁結果	-670
らか	-671
▁横	-672
▁遺	-673
▁確認	-674
▁構	-675
▁ネ	-676
▁示し	-677
▁影響	-678
▁対応	-679
▁B	-680
込み	-681
ょう	-682
シア	-683
▁専	-684
▁担当	-685
▁局	-686
▁ペ	-687
▁病	-688
ラム	-689
▁切	-690
▁対し	-691
▁真	-692
▁川	-693
▁ドル	-694
▁風	-695
▁村	-696
▁会見	-697
▁ぶり	-698
イル	-699
▁失	-700
▁着	-701
▁め	-702
▁信	-703
▁べ	-704
▁超	-705
▁他	-706
▁千	-707
▁W	-708
▁聞	-709
▁新聞	-710
▁優勝	-711
▁農	-712
▁限	-713
▁うち	-714
▁若	-715
▁価	-716
▁和	-717
▁G	-718
▁ケ	-719
▁さらに	-720
▁京	-721
▁せる	-722
▁M	-723
▁国内	-724
がっ	-725
▁別	-726
▁低	-727
▁ところ	-728
▁女子	-729
▁線	-730
▁毎	-731
しく	-732
▁青	-733
▁飛	-734
▁ほど	-735
▁環	-736
▁時代	-737
▁原発	-738
よう	-739
▁指摘	-740
▁場合	-741
ランド	-742
▁太	-743
統領	-744
▁大統領	-745
▁こう	-746
▁財	-747
▁深	-748
▁平成	-749
▁親	-750
▁タイ	-751
▁写	-752
▁推	-753
▁式	-754
▁管	-755
▁求め	-756
▁未	-757
▁白	-758
▁面	-759
▁敗	-760
▁技術	-761
込ん	-762
▁買	-763
▁D	-764
▁感じ	-765
▁つな	-766
▁年間	-767
▁提供	-768
▁訴	-769
▁対象	-770
▁拡	-771
わっ	-772
▁会議	-773
▁高校	-774
▁良	-775
▁就	-776
▁費	-777
▁震災	-778
▁整	-779
▁政権	-780
▁末	-781
▁計画	-782
▁生活	-783
▁五輪	-784
▁対策	-785
▁同じ	-786
▁被害	-787
▁決め	-788
▁ル	-789
▁ただ	-790
っと	-791
▁当時	-792
▁落	-793
▁だろう	-794
▁明らか	-795
▁捜	-796
▁庁	-797
▁べき	-798
▁地元	-799
▁準	-800
▁自動	-801
▁写真	-802
▁キャ	-803
▁種	-804
▁佐	-805
▁観光	-806
▁新た	-807
▁開か	-808
リン	-809
▁音	-810
▁始め	-811
▁高い	-812
▁完	-813
▁田	-814
▁自民	-815
▁公開	-816
▁疑	-817
▁でし	-818
さい	-819
▁グル	-820
▁審	-821
▁最大	-822
▁取り組	-823
出し	-824
▁社長	-825
▁方針	-826
▁カ月	-827
▁ナ	-828
▁続け	-829
▁クラ	-830
▁期待	-831
▁地方	-832
▁商品	-833
▁人気	-834
▁センター	-835
▁多い	-836
▁ごろ	-837
▁環境	-838
▁賞	-839
▁かけ	-840
▁守	-841
▁たら	-842
ナー	-843
▁球	-844
ーツ	-845
▁ツ	-846
▁E	-847
▁候	-848
▁いただ	-849
▁映画	-850
▁避	-851
▁候補	-852
▁ピ	-853
▁入り	-854
▁文化	-855
▁非	-856
▁条	-857
▁処	-858
▁送	-859
▁ふ	-860
▁撮	-861
▁形	-862
▁株式	-863
▁語っ	-864
▁号	-865
▁仙	-866
▁状況	-867
▁申	-868
▁ノ	-869
▁思っ	-870
▁評	-871
▁六	-872
▁署	-873
▁会長	-874
▁富	-875
▁与	-876
▁木	-877
▁連続	-878
▁テレ	-879
▁逮	-880
▁逮捕	-881
▁行っ	-882
▁歴	-883
▁独	-884
▁安倍	-885
▁武	-886
▁笑	-887
▁決勝	-888
▁差	-889
ベント	-890
▁ませ	-891
▁フォ	-892
▁検討	-893
▁健	-894
▁福島	-895
▁ほしい	-896
▁難	-897
▁掲	-898
▁銀	-899
▁イベント	-900
▁最高	-901
▁左	-902
ッカー	-903
▁北朝	-904
▁北朝鮮	-905
ンス	-906
▁場所	-907
▁アジア	-908
▁迎	-909
▁寄	-910
▁内容	-911
▁七	-912
▁グループ	-913
▁/	-914
▁決定	-915
▁創	-916
ども	-917
▁危	-918
▁ゲ	-919
り返	-920
▁住民	-921
▁作品	-922
▁視	-923
▁科	-924
▁効	-925
▁ジャ	-926
▁急	-927
▁消費	-928
▁隊	-929
▁とき	-930
たり	-931
▁入っ	-932
▁中央	-933
▁仙台	-934
▁秋	-935
▁テレビ	-936
▁際	-937
まる	-938
▁しかし	-939
▁知事	-940
フト	-941
▁攻	-942
▁目指す	-943
▁一部	-944
▁アイ	-945
▁岩	-946
▁大きな	-947
▁異	-948
▁さま	-949
▁スポ	-950
▁団体	-951
▁園	-952
ーマ	-953
▁件	-954
▁鉄	-955
▁豊	-956
▁判断	-957
くり	-958
▁最終	-959
げる	-960
ダー	-961
▁狙	-962
けれ	-963
▁採	-964
▁労	-965
▁旅	-966
▁伊	-967
かけ	-968
▁以降	-969
▁悪	-970
ンジ	-971
▁教育	-972
▁島	-973
▁ヒ	-974
▁火	-975
▁身	-976
▁野球	-977
▁花	-978
▁価格	-979
▁報告	-980
▁適	-981
▁民主	-982
▁経営	-983
▁ショ	-984
▁走	-985
▁歌	-986
▁男子	-987
▁スト	-988
▁練	-989
▁足	-990
▁ロシア	-991
▁右	-992
▁満	-993
▁政治	-994
▁使っ	-995
▁近く	-996
▁管理	-997
ータ	-998
▁光	-999
▁育	-1000
▁協力	-1001
▁京都	-1002
▁証	-1003
▁沖	-1004
▁街	-1005
▁盛	-1006
▁読	-1007
▁東北	-1008
▁子ども	-1009
▁転	-1010
▁赤	-1011
▁組織	-1012
▁プレ	-1013
▁拡大	-1014
▁使用	-1015
▁欧	-1016
▁導	-1017
▁じ	-1018
▁▽	-1019
がる	-1020
▁議員	-1021
▁機関	-1022
▁思う	-1023
▁開始	-1024
▁歩	-1025
▁電力	-1026
合わせ	-1027
▁ニュー	-1028
▁政策	-1029
▁突	-1030
▁従	-1031
▁協議	-1032
ブル	-1033
ッチ	-1034
ックス	-1035
▁事務	-1036
▁仕事	-1037
▁船	-1038
▁とっ	-1039
▁週	-1040
▁サッカー	-1041
わり	-1042
▁家族	-1043
▁※	-1044
▁分かっ	-1045
▁L	-1046
▁報道	-1047
▁母	-1048
▁撮影	-1049
▁運転	-1050
▁ヘ	-1051
▁見つ	-1052
▁黒	-1053
▁福岡	-1054
▁裁	-1055
▁務	-1056
▁口	-1057
ーチ	-1058
▁ラン	-1059
ステ	-1060
▁講	-1061
メント	-1062
▁国民	-1063
▁背	-1064
▁投票	-1065
▁香	-1066
▁夏	-1067
▁地区	-1068
▁ヤ	-1069
▁設置	-1070
▁殺	-1071
▁イス	-1072
▁強化	-1073
ラー	-1074
▁スマ	-1075
▁関する	-1076
▁維	-1077
▁作業	-1078
がり	-1079
▁成長	-1080
▁期間	-1081
▁特別	-1082
▁離	-1083
▁やす	-1084
ディア	-1085
ネル	-1086
▁渡	-1087
▁合わせ	-1088
▁少な	-1089
▁海外	-1090
▁持ち	-1091
▁運営	-1092
▁細	-1093
▁出し	-1094
▁フィ	-1095
▁捜査	-1096
らし	-1097
▁展開	-1098
▁衆	-1099
▁生産	-1100
▁春	-1101
▁記念	-1102
▁勝ち	-1103
ッド	-1104
ンバー	-1105
▁紹	-1106
▁補	-1107
▁統	-1108
▁伝え	-1109
▁紹介	-1110
▁夜	-1111
▁進め	-1112
▁苦	-1113
▁古	-1114
▁くだ	-1115
▁市民	-1116
▁記録	-1117
▁舞	-1118
▁吉	-1119
▁航	-1120
▁制度	-1121
ーション	-1122
▁まま	-1123
▁通信	-1124
▁並	-1125
▁関連	-1126
▁達	-1127
▁来年	-1128
▁型	-1129
▁取材	-1130
▁厳	-1131
▁普	-1132
▁過去	-1133
▁系	-1134
▁発生	-1135
▁呼び	-1136
▁くれ	-1137
▁量	-1138
クト	-1139
▁やっ	-1140
▁校	-1141
▁挙	-1142
▁増え	-1143
▁?	-1144
▁避難	-1145
▁相手	-1146
▁−	-1147
▁知ら	-1148
▁理由	-1149
掛け	-1150
テル	-1151
▁強調	-1152
ャー	-1153
▁階	-1154
▁練習	-1155
▁建設	-1156
▁ファン	-1157
▁>	-1158
まれ	-1159
▁会場	-1160
▁いき	-1161
▁積	-1162
▁軽	-1163
▁図	-1164
ロー	-1165
▁出身	-1166
▁めぐ	-1167
▁兵	-1168
▁副	-1169
▁重要	-1170
▁帰	-1171
▁実現	-1172
▁以来	-1173
▁規模	-1174
▁見せ	-1175
▁発売	-1176
▁市長	-1177
▁現場	-1178
▁在	-1179
▁協会	-1180
▁熱	-1181
▁責	-1182
▁しか	-1183
▁自治	-1184
▁同社	-1185
▁評価	-1186
▁外国	-1187
▁住宅	-1188
▁認め	-1189
▁一般	-1190
▁ネット	-1191
ギー	-1192
▁登場	-1193
▁労働	-1194
▁なけれ	-1195
▁段	-1196
▁歴史	-1197
▁踏	-1198
▁ユー	-1199
▁博	-1200
▁強い	-1201
▁デザ	-1202
▁JR	-1203
▁病院	-1204
▁機能	-1205
ナル	-1206
して	-1207
ランス	-1208
▁輸	-1209
▁つく	-1210
▁電話	-1211
▁K	-1212
▁常	-1213
▁よっ	-1214
▁室	-1215
▁批	-1216
▁士	-1217
▁延	-1218
▁警察	-1219
▁王	-1220
▁将	-1221
▁営	-1222
▁立ち	-1223
▁懸	-1224
▁投資	-1225
▁昭	-1226
ンク	-1227
▁画	-1228
▁勢	-1229
イント	-1230
▁修	-1231
▁経験	-1232
▁飲	-1233
▁洋	-1234
▁ゆ	-1235
▁議会	-1236
▁ください	-1237
▁被災	-1238
▁描	-1239
▁専門	-1240
▁周辺	-1241
▁伸	-1242
▁整備	-1243
▁アン	-1244
▁味	-1245
▁サイト	-1246
▁存	-1247
▁弁	-1248
▁アル	-1249
▁杯	-1250
▁自衛	-1251
▁状態	-1252
▁衆院	-1253
▁森	-1254
▁職員	-1255
▁死亡	-1256
▁見通	-1257
▁H	-1258
持ち	-1259
▁意見	-1260
▁停	-1261
▁データ	-1262
▁責任	-1263
▁批判	-1264
▁メディア	-1265
▁っ	-1266
▁全体	-1267
▁子供	-1268
▁働	-1269
▁ドラ	-1270
▁退	-1271
入れ	-1272
▁頭	-1273
▁今季	-1274
▁トップ	-1275
▁個人	-1276
▁精	-1277
わる	-1278
▁動き	-1279
▁ポイント	-1280
▁持っ	-1281
ぞれ	-1282
▁州	-1283
レス	-1284
▁最後	-1285
▁行う	-1286
▁言葉	-1287
▁届	-1288
▁インター	-1289
▁指導	-1290
▁複	-1291
▁それぞれ	-1292
ラク	-1293
▁平均	-1294
付け	-1295
▁<	-1296
かる	-1297
海道	-1298
▁大手	-1299
▁訪れ	-1300
▁教授	-1301
▁果	-1302
▁ブラ	-1303
▁調べ	-1304
▁放送	-1305
ルト	-1306
▁値	-1307
▁ギ	-1308
▁打ち	-1309
▁O	-1310
▁宮城	-1311
プリ	-1312
▁通り	-1313
▁課題	-1314
▁見通し	-1315
▁医療	-1316
▁サイ	-1317
▁入れ	-1318
ニア	-1319
▁岡	-1320
▁活用	-1321
▁倍	-1322
▁藤	-1323
▁臨	-1324
▁温	-1325
▁憲	-1326
▁学生	-1327
▁導入	-1328
▁順	-1329
▁色	-1330
▁犯	-1331
▁スポーツ	-1332
▁対する	-1333
▁センチ	-1334
▁素	-1335
▁通じ	-1336
▁同市	-1337
▁話す	-1338
▁程	-1339
▁キャン	-1340
ラス	-1341
▁総合	-1342
▁加え	-1343
▁目標	-1344
▁規制	-1345
ステム	-1346
▁質	-1347
▁彼	-1348
▁効果	-1349
ールド	-1350
▁会談	-1351
▁例	-1352
▁本部	-1353
▁夫	-1354
じめ	-1355
▁義	-1356
▁契	-1357
▁接	-1358
▁続い	-1359
▁産業	-1360
▁清	-1361
らい	-1362
▁挑	-1363
▁持つ	-1364
▁国会	-1365
▁連携	-1366
▁浮	-1367
▁裁判	-1368
▁生まれ	-1369
▁システム	-1370
古屋	-1371
▁起き	-1372
▁復興	-1373
▁治	-1374
▁ニューヨ	-1375
▁気持ち	-1376
▁空港	-1377
▁名古屋	-1378
▁まと	-1379
▁父	-1380
▁休	-1381
▁屋	-1382
▁迎え	-1383
▁ニューヨーク	-1384
▁しま	-1385
▁すれ	-1386
▁食べ	-1387
▁程度	-1388
▁よく	-1389
▁フェ	-1390
▁欧州	-1391
込む	-1392
▁表明	-1393
▁自身	-1394
▁生徒	-1395
▁沖縄	-1396
▁ホーム	-1397
▁メンバー	-1398
▁イスラム	-1399
▁ここ	-1400
▁論	-1401
ッシ	-1402
ずれ	-1403
▁オープ	-1404
イス	-1405
▁航空	-1406
▁友	-1407
▁陣	-1408
▁投手	-1409
▁激	-1410
▁編	-1411
▁U	-1412
▁北海道	-1413
▁挙げ	-1414
▁活躍	-1415
▁命	-1416
▁救	-1417
▁大きく	-1418
▁児	-1419
▁想	-1420
▁訴え	-1421
なる	-1422
▁獲	-1423
▁巡	-1424
▁津	-1425
▁緊	-1426
▁ホテル	-1427
やか	-1428
▁自由	-1429
▁いずれ	-1430
▁ちゃ	-1431
▁法人	-1432
▁登録	-1433
▁もう	-1434
▁保護	-1435
▁広島	-1436
▁攻撃	-1437
▁押	-1438
▁前年	-1439
▁盛り	-1440
▁デザイン	-1441
▁繰	-1442
▁ゲーム	-1443
▁契約	-1444
▁企画	-1445
▁疑い	-1446
ーカー	-1447
▁取引	-1448
▁マン	-1449
▁紙	-1450
▁目指し	-1451
▁銀行	-1452
▁宇	-1453
▁単	-1454
▁改革	-1455
▁災	-1456
▁銭	-1457
▁ソフト	-1458
スク	-1459
▁喜	-1460
▁河	-1461
▁獲得	-1462
▁主張	-1463
▁展示	-1464
▁静	-1465
▁版	-1466
▁続く	-1467
▁除	-1468
▁乗り	-1469
▁くる	-1470
▁サン	-1471
▁マイ	-1472
▁含め	-1473
▁まだ	-1474
▁二十	-1475
▁暴	-1476
▁理事	-1477
▁症	-1478
▁破	-1479
▁開幕	-1480
▁アップ	-1481
▁求める	-1482
▁策	-1483
▁支持	-1484
▁橋	-1485
▁同日	-1486
▁上昇	-1487
▁抜	-1488
イツ	-1489
▁具	-1490
▁議論	-1491
▁昭和	-1492
▁買い	-1493
▁オープン	-1494
▁熊	-1495
▁購	-1496
▁逆	-1497
▁災害	-1498
ジェ	-1499
▁戻	-1500
▁金融	-1501
▁そんな	-1502
▁被告	-1503
▁最も	-1504
ベル	-1505
▁祭	-1506
▁i	-1507
▁そこ	-1508
▁都市	-1509
▁交渉	-1510
▁カップ	-1511
▁反対	-1512
▁置	-1513
▁意識	-1514
▁プレー	-1515
▁顔	-1516
▁注目	-1517
ウン	-1518
▁絶	-1519
▁能	-1520
ーター	-1521
▁待	-1522
▁抱	-1523
▁晋	-1524
▁巨	-1525
▁売り	-1526
▁路	-1527
▁そして	-1528
▁目的	-1529
▁たく	-1530
▁答	-1531
▁新しい	-1532
▁おい	-1533
▁体験	-1534
タル	-1535
▁遅	-1536
▁番組	-1537
ニー	-1538
▁,	-1539
▁漁	-1540
▁幹部	-1541
▁存在	-1542
▁交通	-1543
▁核	-1544
▁店舗	-1545
▁ステ	-1546
▁額	-1547
▁高齢	-1548
▁姿勢	-1549
▁憲法	-1550
▁R	-1551
▁毎日	-1552
シャ	-1553
▁始まっ	-1554
▁院	-1555
▁伴	-1556
▁自宅	-1557
▁酒	-1558
▁含む	-1559
▁所属	-1560
▁主催	-1561
▁ドイツ	-1562
▁調整	-1563
▁羽	-1564
ネット	-1565
▁景	-1566
▁スペ	-1567
▁クリ	-1568
▁今月	-1569
▁抑	-1570
▁詳	-1571
▁国家	-1572
ュース	-1573
デル	-1574
▁科学	-1575
ソン	-1576
ケット	-1577
▁つけ	-1578
▁遠	-1579
▁江	-1580
▁違反	-1581
▁申し	-1582
▁廃	-1583
▁地震	-1584
▁ディ	-1585
▁魅	-1586
▁舞台	-1587
リカ	-1588
▁短	-1589
▁厚	-1590
スタ	-1591
▁戦略	-1592
▁営業	-1593
ティー	-1594
▁合意	-1595
▁時期	-1596
▁応じ	-1597
▁記事	-1598
▁準備	-1599
リーズ	-1600
▁保障	-1601
▁都内	-1602
▁百	-1603
▁比べ	-1604
ネス	-1605
▁づ	-1606
▁バス	-1607
▁購入	-1608
▁幅	-1609
▁判決	-1610
▁装	-1611
せる	-1612
▁格	-1613
▁改正	-1614
▁トラ	-1615
▁自然	-1616
▁恐	-1617
▁改善	-1618
▁希	-1619
▁禁	-1620
▁オー	-1621
▁許	-1622
▁生き	-1623
わら	-1624
▁返	-1625
▁根	-1626
▁冷	-1627
から	-1628
っかり	-1629
▁等	-1630
▁枚	-1631
▁寺	-1632
▁弾	-1633
▁薬	-1634
▁一緒	-1635
▁旧	-1636
▁いつ	-1637
▁燃	-1638
▁前日	-1639
▁果た	-1640
▁級	-1641
▁仲	-1642
▁幸	-1643
▁供	-1644
▁断	-1645
込ま	-1646
▁音楽	-1647
▁無料	-1648
▁処分	-1649
▁料理	-1650
▁招	-1651
▁充	-1652
▁シャ	-1653
▁切り	-1654
▁出席	-1655
▁仮	-1656
▁安打	-1657
▁チェ	-1658
▁継	-1659
▁ブランド	-1660
▁奪	-1661
▁卒	-1662
▁製造	-1663
▁逃	-1664
▁甲	-1665
▁提出	-1666
▁晋三	-1667
▁確保	-1668
▁様子	-1669
▁界	-1670
止め	-1671
▁一人	-1672
▁稼	-1673
▁世代	-1674
▁予想	-1675
▁競技	-1676
▁介	-1677
▁集め	-1678
▁交流	-1679
▁以下	-1680
▁ひと	-1681
▁九州	-1682
▁追い	-1683
ースト	-1684
▁降	-1685
▁陸	-1686
▁兆	-1687
たる	-1688
ンチ	-1689
▁史	-1690
▁理解	-1691
▁各地	-1692
▁すべ	-1693
▁探	-1694
▁限定	-1695
▁モデル	-1696
▁圏	-1697
パー	-1698
▁速	-1699
▁鹿	-1700
▁しよう	-1701
▁シリーズ	-1702
▁電子	-1703
▁余	-1704
▁勝利	-1705
▁当局	-1706
▁テーマ	-1707
▁芸	-1708
▁焼	-1709
▁スタート	-1710
▁インターネット	-1711
▁フランス	-1712
▁損	-1713
▁相談	-1714
▁任	-1715
フォ	-1716
▁欠	-1717
▁事実	-1718
▁城	-1719
▁問い	-1720
▁公園	-1721
合い	-1722
▁V	-1723
メージ	-1724
▁障	-1725
▁なか	-1726
▁審査	-1727
▁テロ	-1728
▁秒	-1729
▁助	-1730
ッセ	-1731
▁鉄道	-1732
▁採用	-1733
▁務め	-1734
▁聞い	-1735
▁けど	-1736
▁工場	-1737
▁神戸	-1738
んど	-1739
▁ビジ	-1740
▁変更	-1741
▁基本	-1742
▁駆	-1743
▁社員	-1744
▁すべて	-1745
▁出演	-1746
▁以外	-1747
▁占	-1748
ビュー	-1749
▁〇	-1750
▁久	-1751
▁シン	-1752
▁取り組み	-1753
▁製品	-1754
▁ライン	-1755
▁連合	-1756
コン	-1757
▁拠	-1758
▁健康	-1759
▁いけ	-1760
ザー	-1761
▁工事	-1762
▁懸念	-1763
▁阪	-1764
▁落ち	-1765
▁提案	-1766
▁安定	-1767
▁しれ	-1768
▁振り返	-1769
▁患	-1770
▁披	-1771
▁部分	-1772
▁オリ	-1773
▁言い	-1774
▁回復	-1775
▁平和	-1776
▁戦争	-1777
▁実際	-1778
▁弁護	-1779
▁指定	-1780
▁混	-1781
フィ	-1782
▁披露	-1783
▁防衛	-1784
ざま	-1785
▁就任	-1786
▁浜	-1787
▁付け	-1788
▁否	-1789
▁増加	-1790
▁固	-1791
▁皆	-1792
▁曲	-1793
▁途	-1794
▁いわ	-1795
▁携	-1796
▁座	-1797
▁進ん	-1798
▁スマート	-1799
▁魅力	-1800
ビー	-1801
▁訪問	-1802
▁わけ	-1803
直し	-1804
▁既	-1805
▁原因	-1806
▁ワールド	-1807
▁推進	-1808
▁暮	-1809
▁使い	-1810
▁作り	-1811
▁志	-1812
ッグ	-1813
▁ダイ	-1814
アー	-1815
▁意味	-1816
▁いたし	-1817
▁基準	-1818
▁コー	-1819
▁負担	-1820
▁って	-1821
▁緩	-1822
▁カ所	-1823
▁やすい	-1824
▁丸	-1825
▁資金	-1826
▁願	-1827
▁児童	-1828
ニング	-1829
▁開い	-1830
▁分析	-1831
▁御	-1832
▁進める	-1833
▁集団	-1834
▁複数	-1835
▁絵	-1836
▁でしょう	-1837
▁しっかり	-1838
▁後半	-1839
▁及	-1840
▁カメ	-1841
アル	-1842
▁夢	-1843
▁予算	-1844
▁促	-1845
▁閣	-1846
▁やり	-1847
▁アク	-1848
▁イメージ	-1849
▁メーカー	-1850
▁更	-1851
サー	-1852
▁圧	-1853
▁ちゃん	-1854
▁言っ	-1855
▁つつ	-1856
▁領	-1857
▁現地	-1858
ダル	-1859
▁諸	-1860
▁失点	-1861
▁会合	-1862
▁業務	-1863
▁公表	-1864
▁印	-1865
▁極	-1866
▁辞	-1867
▁鈴	-1868
ントン	-1869
▁得点	-1870
シー	-1871
▁ニュース	-1872
▁ばかり	-1873
続き	-1874
▁関西	-1875
▁狙い	-1876
▁遊	-1877
▁掲載	-1878
▁起こ	-1879
▁終了	-1880
▁笑顔	-1881
▁呼ば	-1882
▁クラブ	-1883
▁障害	-1884
キング	-1885
▁努	-1886
▁カー	-1887
▁千葉	-1888
立て	-1889
▁利益	-1890
▁沿	-1891
▁決まっ	-1892
▁少し	-1893
出す	-1894
▁減少	-1895
▁拠点	-1896
▁傾	-1897
▁連絡	-1898
▁きっ	-1899
▁続ける	-1900
▁まとめ	-1901
▁まず	-1902
▁方法	-1903
▁さまざま	-1904
▁流れ	-1905
▁発電	-1906
▁映像	-1907
▁時点	-1908
▁ページ	-1909
▁奈	-1910
▁言わ	-1911
▁自ら	-1912
▁かつ	-1913
▁募	-1914
▁覚	-1915
▁争	-1916
▁あれ	-1917
▁誘	-1918
▁執	-1919
▁愛知	-1920
▁運動	-1921
▁表現	-1922
▁受賞	-1923
▁井	-1924
▁いか	-1925
▁削	-1926
ルフ	-1927
▁位置	-1928
▁想定	-1929
▁鳥	-1930
▁しまう	-1931
▁前回	-1932
▁罪	-1933
▁患者	-1934
▁危険	-1935
▁ユニ	-1936
▁もっと	-1937
▁再生	-1938
▁横浜	-1939
▁保険	-1940
▁列	-1941
▁妻	-1942
▁先発	-1943
▁十分	-1944
▁興	-1945
▁ゴール	-1946
▁一時	-1947
▁少なく	-1948
ウンド	-1949
▁関し	-1950
▁ホール	-1951
▁不明	-1952
▁応援	-1953
▁熊本	-1954
▁原子	-1955
▁幹線	-1956
▁変化	-1957
▁首脳	-1958
▁カメラ	-1959
▁告	-1960
▁便	-1961
▁訓	-1962
オン	-1963
▁頑	-1964
▁インド	-1965
▁発言	-1966
▁回答	-1967
▁挑戦	-1968
キー	-1969
▁司	-1970
▁分野	-1971
▁チャン	-1972
▁迫	-1973
▁将来	-1974
▁トン	-1975
▁本格	-1976
▁じゃ	-1977
▁パー	-1978
▁ボール	-1979
▁人間	-1980
▁好き	-1981
▁誰	-1982
▁脱	-1983
▁結婚	-1984
ロン	-1985
パン	-1986
ウス	-1987
▁人口	-1988
▁アプリ	-1989
▁旅行	-1990
▁富士	-1991
▁控	-1992
じる	-1993
▁上回	-1994
なり	-1995
なっ	-1996
▁向上	-1997
▁通算	-1998
▁慰	-1999
▁強く	-2000
▁宣	-2001
▁稼働	-2002
▁本当	-2003
▁はじめ	-2004
▁不安	-2005
▁触	-2006
▁茶	-2007
▁参院	-2008
▁備	-2009
▁維持	-2010
▁解決	-2011
▁雪	-2012
▁戸	-2013
▁あい	-2014
▁注意	-2015
▁ブラジ	-2016
▁エネル	-2017
▁アニ	-2018
▁行動	-2019
▁行為	-2020
▁希望	-2021
▁のみ	-2022
ーズン	-2023
▁長官	-2024
▁閉	-2025
▁港	-2026
▁ビル	-2027
▁質問	-2028
▁特に	-2029
▁検査	-2030
たい	-2031
▁次い	-2032
▁徹	-2033
▁雨	-2034
▁大切	-2035
▁具体	-2036
▁裏	-2037
▁当初	-2038
ウル	-2039
▁劇	-2040
▁田中	-2041
▁依	-2042
▁飛行	-2043
▁背景	-2044
▁エネルギー	-2045
ッシュ	-2046
▁操	-2047
▁道路	-2048
つけ	-2049
▁豪	-2050
バル	-2051
▁押し	-2052
▁付近	-2053
▁認識	-2054
▁とど	-2055
▁顧	-2056
▁兵庫	-2057
▁対戦	-2058
▁進出	-2059
▁佐藤	-2060
▁ツアー	-2061
▁機会	-2062
▁同時	-2063
▁どこ	-2064
▁種類	-2065
▁終え	-2066
▁こそ	-2067
▁完成	-2068
▁問い合わせ	-2069
▁なん	-2070
▁カ国	-2071
▁維新	-2072
▁いえ	-2073
▁超え	-2074
▁示す	-2075
▁車両	-2076
▁卒業	-2077
▁納	-2078
▁シーズン	-2079
▁ブラジル	-2080
▁うれ	-2081
▁宿	-2082
マン	-2083
リング	-2084
▁節	-2085
▁ごと	-2086
▁群	-2087
▁フォン	-2088
▁ガス	-2089
▁爆	-2090
▁コメント	-2091
▁静岡	-2092
▁英国	-2093
▁ドラマ	-2094
▁授	-2095
取り	-2096
▁栄	-2097
▁しまっ	-2098
▁札	-2099
▁方向	-2100
▁バー	-2101
▁ゼ	-2102
▁竹	-2103
▁る	-2104
▁首都	-2105
▁著	-2106
▁需	-2107
▁崩	-2108
▁発見	-2109
▁試験	-2110
▁楽しみ	-2111
▁最近	-2112
▁体制	-2113
▁気象	-2114
▁福井	-2115
▁上げ	-2116
▁すぎ	-2117
▁撤	-2118
▁作っ	-2119
たっ	-2120
▁成功	-2121
▁中学	-2122
▁訓練	-2123
らす	-2124
▁困	-2125
▁勤	-2126
▁スー	-2127
▁停止	-2128
▁習	-2129
▁朝日	-2130
▁冬	-2131
▁小学	-2132
▁追加	-2133
▁カード	-2134
▁もと	-2135
▁防止	-2136
▁繰り返	-2137
▁ケース	-2138
▁皇	-2139
ルス	-2140
組み	-2141
▁最初	-2142
▁頑張	-2143
▁組み	-2144
▁コミ	-2145
▁危機	-2146
▁トラン	-2147
▁みんな	-2148
▁野党	-2149
▁基づ	-2150
リスト	-2151
▁ビジネス	-2152
▁はず	-2153
▁日間	-2154
▁鈴木	-2155
▁同様	-2156
▁答え	-2157
▁感染	-2158
▁使う	-2159
▁日米	-2160
▁厳しい	-2161
▁僕	-2162
▁再開	-2163
▁週間	-2164
▁岩手	-2165
▁設立	-2166
▁貢	-2167
ティング	-2168
▁故	-2169
▁考える	-2170
▁ハイ	-2171
▁メール	-2172
▁治療	-2173
▁え	-2174
▁増や	-2175
▁菅	-2176
▁公式	-2177
▁使わ	-2178
▁入る	-2179
ポート	-2180
▁層	-2181
▁&	-2182
▁植	-2183
▁雇	-2184
▁見る	-2185
ラクター	-2186
▁動画	-2187
▁プロジェ	-2188
替え	-2189
▁全て	-2190
▁ヨ	-2191
▁ユーロ	-2192
▁津波	-2193
▁大型	-2194
▁食品	-2195
▁師	-2196
▁工業	-2197
▁見つかっ	-2198
▁ほぼ	-2199
▁国連	-2200
▁地裁	-2201
クス	-2202
▁巻	-2203
フェ	-2204
▁貢献	-2205
▁すぐ	-2206
▁条件	-2207
▁派遣	-2208
ライナ	-2209
▁行政	-2210
▁メダル	-2211
ニュー	-2212
▁投げ	-2213
▁行い	-2214
▁阪神	-2215
▁人々	-2216
▁部門	-2217
▁長野	-2218
▁伸び	-2219
▁アニメ	-2220
▁行き	-2221
▁痛	-2222
▁報じ	-2223
▁ジェ	-2224
▁協定	-2225
▁ほと	-2226
▁貴	-2227
▁つくる	-2228
込め	-2229
▁どの	-2230
▁一番	-2231
▁問わ	-2232
▁細胞	-2233
▁秘	-2234
▁最多	-2235
▁駐	-2236
▁不足	-2237
▁米軍	-2238
▁良い	-2239
▁果たし	-2240
▁寄せ	-2241
▁スピ	-2242
▁主義	-2243
▁知っ	-2244
▁見え	-2245
▁チャ	-2246
▁包	-2247
▁言う	-2248
▁ム	-2249
▁池	-2250
▁簡	-2251
▁フリー	-2252
▁実験	-2253
▁マー	-2254
▁模	-2255
ンドン	-2256
▁出る	-2257
▁多数	-2258
▁敗れ	-2259
▁馬	-2260
▁くれる	-2261
▁慎	-2262
▁与え	-2263
イド	-2264
▁当たり	-2265
▁選ば	-2266
▁席	-2267
▁もらい	-2268
▁介護	-2269
▁ほとんど	-2270
▁祝	-2271
▁輝	-2272
▁ウク	-2273
▁快	-2274
ッション	-2275
▁開業	-2276
▁養	-2277
▁亡	-2278
▁デジ	-2279
▁直後	-2280
▁組合	-2281
てる	-2282
▁大幅	-2283
▁片	-2284
ーナ	-2285
▁能力	-2286
▁距	-2287
▁積極	-2288
ンツ	-2289
▁距離	-2290
▁認定	-2291
▁家庭	-2292
▁公明	-2293
▁搭	-2294
さん	-2295
▁早く	-2296
▁誕	-2297
▁キャラクター	-2298
▁誕生	-2299
▁周年	-2300
▁m	-2301
スター	-2302
▁ウクライナ	-2303
▁機構	-2304
▁プロジェクト	-2305
▁君	-2306
▁朝鮮	-2307
▁贈	-2308
▁トランプ	-2309
▁連盟	-2310
▁非常	-2311
▁防災	-2312
▁バイ	-2313
▁きっかけ	-2314
▁夕	-2315
▁桜	-2316
▁需要	-2317
▁付き	-2318
▁特定	-2319
▁移動	-2320
▁長崎	-2321
▁山口	-2322
▁ゴルフ	-2323
▁主要	-2324
カル	-2325
▁弱	-2326
▁共産	-2327
▁内閣	-2328
▁太平	-2329
▁ブル	-2330
▁首位	-2331
▁農業	-2332
▁少年	-2333
▁従来	-2334
イロ	-2335
▁コース	-2336
▁奥	-2337
▁男女	-2338
▁雇用	-2339
▁張	-2340
▁札幌	-2341
▁警戒	-2342
▁甘	-2343
▁民間	-2344
▁支払	-2345
▁ロンドン	-2346
▁難しい	-2347
▁景気	-2348
ワー	-2349
▁北京	-2350
▁配信	-2351
▁特徴	-2352
▁婦	-2353
▁こんな	-2354
▁ジャン	-2355
▁高橋	-2356
ファ	-2357
▁シェ	-2358
▁台湾	-2359
▁賛	-2360
▁診	-2361
▁けが	-2362
▁つながる	-2363
▁衝	-2364
▁伝統	-2365
▁給	-2366
▁続き	-2367
▁制作	-2368
▁大きい	-2369
▁デジタル	-2370
▁段階	-2371
▁新人	-2372
ケート	-2373
▁丁	-2374
▁事態	-2375
▁務める	-2376
▁侵	-2377
▁端	-2378
ディング	-2379
▁消防	-2380
▁枠	-2381
▁ぬ	-2382
▁翌	-2383
▁越	-2384
▁資料	-2385
▁バンク	-2386
▁医師	-2387
▁達成	-2388
▁禁止	-2389
▁ウェ	-2390
▁恐れ	-2391
▁県内	-2392
▁締	-2393
▁表情	-2394
ウェ	-2395
▁不正	-2396
▁前半	-2397
▁現状	-2398
▁永	-2399
▁増税	-2400
▁起訴	-2401
▁イタ	-2402
▁外交	-2403
リンピ	-2404
▁汚	-2405
▁排	-2406
▁設定	-2407
▁驚	-2408
▁通常	-2409
▁抗	-2410
▁近い	-2411
▁用意	-2412
▁財政	-2413
▁駆け	-2414
▁タイム	-2415
▁波	-2416
▁刺	-2417
▁老	-2418
▁発信	-2419
▁独自	-2420
▁継続	-2421
▁運用	-2422
▁コンテ	-2423
▁秀	-2424
▁若者	-2425
▁票	-2426
▁石川	-2427
▁アド	-2428
▁携帯	-2429
▁阿	-2430
▁セット	-2431
▁株価	-2432
▁吉田	-2433
▁直接	-2434
▁いま	-2435
上げる	-2436
▁レベル	-2437
▁遅れ	-2438
▁青森	-2439
▁噴	-2440
▁指示	-2441
▁到	-2442
バマ	-2443
ボール	-2444
▁ミサ	-2445
▁器	-2446
▁延長	-2447
▁電気	-2448
▁軍事	-2449
▁措	-2450
▁連覇	-2451
▁措置	-2452
まえ	-2453
▁感謝	-2454
▁実行	-2455
▁倒	-2456
▁渋	-2457
▁岐	-2458
▁ワシ	-2459
▁アピ	-2460
▁輸出	-2461
ちら	-2462
▁星	-2463
▁造	-2464
▁全員	-2465
▁地下	-2466
▁途中	-2467
ッター	-2468
▁捕	-2469
リンピック	-2470
▁望	-2471
▁宇宙	-2472
▁与党	-2473
▁イタリア	-2474
▁開き	-2475
▁ウィ	-2476
▁オバマ	-2477
▁兼	-2478
▁観測	-2479
▁離れ	-2480
▁名前	-2481
▁重ね	-2482
▁集中	-2483
▁奈良	-2484
▁殺害	-2485
でに	-2486
▁すでに	-2487
エル	-2488
▁もち	-2489
▁価値	-2490
▁材	-2491
▁血	-2492
▁ワシントン	-2493
わい	-2494
▁構成	-2495
▁ジャパン	-2496
▁取締	-2497
▁意向	-2498
▁話題	-2499
▁由	-2500
▁ウォ	-2501
▁誇	-2502
▁いただき	-2503
▁賃	-2504
▁鹿児	-2505
▁鹿児島	-2506
▁秋田	-2507
▁徳	-2508
▁坂	-2509
▁若い	-2510
▁誤	-2511
▁なぜ	-2512
ジャ	-2513
▁部屋	-2514
▁建物	-2515
▁ミサイル	-2516
▁おけ	-2517
▁本社	-2518
▁飛び	-2519
▁壁	-2520
▁要請	-2521
▁息	-2522
▁掲げ	-2523
▁犠	-2524
▁予選	-2525
▁もらう	-2526
▁緩和	-2527
▁大使	-2528
▁照	-2529
▁更新	-2530
▁働き	-2531
▁あまり	-2532
▁スマホ	-2533
▁c	-2534
▁山形	-2535
▁復帰	-2536
▁敷	-2537
▁亡く	-2538
▁行方	-2539
▁マーク	-2540
▁動物	-2541
▁高く	-2542
▁超える	-2543
▁歓	-2544
▁埋	-2545
ンダ	-2546
▁免	-2547
▁およ	-2548
▁ぐ	-2549
▁違う	-2550
▁アピール	-2551
▁スーパー	-2552
▁少ない	-2553
▁いろ	-2554
▁立場	-2555
▁メッセ	-2556
▁福祉	-2557
▁目立	-2558
▁岐阜	-2559
▁行使	-2560
▁雑	-2561
▁語る	-2562
▁どんな	-2563
▁楽天	-2564
ディー	-2565
▁料金	-2566
▁下旬	-2567
▁水準	-2568
▁球団	-2569
▁すご	-2570
▁費用	-2571
▁競争	-2572
▁踏み	-2573
取っ	-2574
▁吹	-2575
▁PR	-2576
▁オースト	-2577
▁ブロ	-2578
▁服	-2579
▁会員	-2580
▁開く	-2581
▁聴	-2582
▁見直し	-2583
▁公演	-2584
さつ	-2585
▁オン	-2586
▁む	-2587
▁AP	-2588
▁小さ	-2589
▁発展	-2590
▁編集	-2591
▁印象	-2592
▁発行	-2593
▁あら	-2594
▁負け	-2595
▁純	-2596
ペーン	-2597
合っ	-2598
▁処理	-2599
▁思わ	-2600
▁中村	-2601
▁再び	-2602
▁選択	-2603
▁刑	-2604
▁谷	-2605
ュア	-2606
▁毎年	-2607
▁かかる	-2608
ジアム	-2609
▁フル	-2610
▁渡辺	-2611
▁アフ	-2612
▁埼	-2613
▁〜	-2614
▁傾向	-2615
▁神奈	-2616
▁前後	-2617
▁申請	-2618
▁神奈川	-2619
▁エンジ	-2620
▁燃料	-2621
▁s	-2622
▁天皇	-2623
▁意気	-2624
▁プレゼ	-2625
▁語り	-2626
▁上がっ	-2627
▁リスク	-2628
▁関心	-2629
▁キャンペーン	-2630
ッフ	-2631
▁削減	-2632
ジャー	-2633
▁売上	-2634
▁ぜ	-2635
▁胸	-2636
▁戦後	-2637
▁裕	-2638
▁遺体	-2639
▁隠	-2640
▁当選	-2641
▁伴う	-2642
▁保育	-2643
▁先行	-2644
▁受け入れ	-2645
▁留	-2646
▁建て	-2647
▁取り組む	-2648
▁大事	-2649
▁暮らし	-2650
▁埼玉	-2651
▁取得	-2652
▁表示	-2653
▁分から	-2654
▁聖	-2655
▁金沢	-2656
▁プラ	-2657
▁骨	-2658
▁連勝	-2659
▁あいさつ	-2660
▁人材	-2661
ビア	-2662
▁基地	-2663
▁進む	-2664
▁聞き	-2665
▁各国	-2666
▁役割	-2667
▁雄	-2668
ろん	-2669
▁高速	-2670
▁インフ	-2671
合う	-2672
▁届け	-2673
▁堂	-2674
▁スタッフ	-2675
▁幕	-2676
▁書き	-2677
▁戦い	-2678
ュニ	-2679
▁集まっ	-2680
▁俳	-2681
▁美術	-2682
▁ソウル	-2683
▁林	-2684
▁設備	-2685
▁同県	-2686
▁立っ	-2687
▁がん	-2688
▁浴	-2689
▁新潟	-2690
▁否定	-2691
▁麻	-2692
▁決める	-2693
▁請	-2694
▁反発	-2695
▁にて	-2696
▁広がっ	-2697
▁詰	-2698
レン	-2699
▁未来	-2700
▁シュ	-2701
▁Q	-2702
▁変え	-2703
ばし	-2704
▁幼	-2705
▁講演	-2706
▁過ぎ	-2707
▁最新	-2708
▁精神	-2709
▁看	-2710
▁ジョ	-2711
▁振り	-2712
▁香港	-2713
▁宝	-2714
▁作成	-2715
▁慰安	-2716
▁母親	-2717
▁標	-2718
▁NH	-2719
▁従業	-2720
▁塩	-2721
▁始める	-2722
▁元気	-2723
▁専用	-2724
▁つか	-2725
▁東海	-2726
▁握	-2727
▁守る	-2728
▁残る	-2729
▁備え	-2730
▁り	-2731
▁態	-2732
▁詳細	-2733
▁もらっ	-2734
▁浅	-2735
▁迎える	-2736
▁出す	-2737
▁承	-2738
▁大変	-2739
▁悲	-2740
メン	-2741
▁隣	-2742
▁機器	-2743
▁めぐる	-2744
デン	-2745
▁長期	-2746
▁済	-2747
▁努力	-2748
▁構想	-2749
▁描い	-2750
▁審議	-2751
▁限り	-2752
▁違い	-2753
▁にく	-2754
▁うま	-2755
▁逆転	-2756
▁魚	-2757
▁折	-2758
▁搭載	-2759
切り	-2760
▁富山	-2761
▁受ける	-2762
▁甲子	-2763
▁クロ	-2764
▁なれ	-2765
シャル	-2766
▁アメ	-2767
▁大人	-2768
▁スク	-2769
▁応募	-2770
▁パラ	-2771
▁願い	-2772
▁借	-2773
▁緊急	-2774
▁顧客	-2775
▁もちろん	-2776
▁かつて	-2777
そう	-2778
▁学園	-2779
▁踏まえ	-2780
▁神社	-2781
▁要求	-2782
▁相場	-2783
▁既に	-2784
▁牛	-2785
▁衣	-2786
▁ランキング	-2787
▁成立	-2788
▁取り組ん	-2789
▁遺産	-2790
こう	-2791
▁盗	-2792
▁信頼	-2793
ニック	-2794
▁悩	-2795
▁繰り返し	-2796
▁×	-2797
▁勢力	-2798
▁指数	-2799
▁JA	-2800
▁謝	-2801
▁幹事	-2802
ショ	-2803
▁至	-2804
▁訴訟	-2805
▁恵	-2806
▁忘	-2807
▁傷	-2808
▁文書	-2809
▁世紀	-2810
▁NHK	-2811
▁成果	-2812
▁ずつ	-2813
▁演説	-2814
ても	-2815
▁みる	-2816
▁勤務	-2817
▁梅	-2818
▁脅	-2819
▁声明	-2820
▁英語	-2821
▁簡単	-2822
▁たくさん	-2823
▁人生	-2824
▁事前	-2825
on	-2826
とう	-2827
▁勧	-2828
▁くらい	-2829
▁うれしい	-2830
▁ザ	-2831
▁過激	-2832
▁メニュー	-2833
▁設計	-2834
▁荒	-2835
▁教委	-2836
▁グラ	-2837
▁帯	-2838
▁場面	-2839
▁コーチ	-2840
▁見込み	-2841
▁乗っ	-2842
▁読み	-2843
▁広告	-2844
▁議長	-2845
ドル	-2846
▁正式	-2847
▁年齢	-2848
▁シリア	-2849
▁筋	-2850
レット	-2851
▁浮か	-2852
▁世帯	-2853
▁築	-2854
▁アー	-2855
▁早期	-2856
▁レース	-2857
グラム	-2858
▁列車	-2859
▁双	-2860
▁触れ	-2861
▁出発	-2862
▁居	-2863
▁同署	-2864
▁パリ	-2865
▁楽しん	-2866
▁国立	-2867
▁実績	-2868
▁ミス	-2869
▁ジュ	-2870
▁飾	-2871
かい	-2872
下げ	-2873
▁明治	-2874
▁揺	-2875
▁頼	-2876
ジオ	-2877
▁以内	-2878
ーフ	-2879
▁殺人	-2880
▁匹	-2881
▁けん	-2882
▁残っ	-2883
▁交換	-2884
▁拉	-2885
▁完全	-2886
▁仕組み	-2887
▁支え	-2888
▁終わっ	-2889
▁まい	-2890
▁充実	-2891
▁艦	-2892
▁メッセージ	-2893
▁出来	-2894
▁作る	-2895
▁検証	-2896
▁拉致	-2897
▁犠牲	-2898
▁季	-2899
▁低下	-2900
▁ベル	-2901
▁誌	-2902
▁現実	-2903
▁上位	-2904
越し	-2905
▁戦闘	-2906
▁懲	-2907
▁なし	-2908
ずか	-2909
▁捜索	-2910
▁仲間	-2911
▁宮崎	-2912
▁設け	-2913
▁犯罪	-2914
ラル	-2915
▁アクセ	-2916
▁作家	-2917
▁込め	-2918
▁振興	-2919
▁行く	-2920
▁手続き	-2921
ラリア	-2922
▁ざ	-2923
▁みな	-2924
▁とても	-2925
▁ミリ	-2926
▁浦	-2927
▁意欲	-2928
▁独立	-2929
▁幅広	-2930
▁やる	-2931
▁密	-2932
っくり	-2933
▁コンビ	-2934
▁かか	-2935
▁供給	-2936
▁ロボ	-2937
▁パス	-2938
▁扱	-2939
▁南部	-2940
▁めぐり	-2941
▁やすく	-2942
▁抑え	-2943
▁飲食	-2944
▁育成	-2945
▁デビュー	-2946
▁制限	-2947
▁教え	-2948
▁飼	-2949
▁執行	-2950
▁海上	-2951
ウム	-2952
▁募集	-2953
▁トヨ	-2954
▁スイ	-2955
▁学習	-2956
▁襲	-2957
▁エリア	-2958
▁ショー	-2959
▁普及	-2960
▁EU	-2961
イズ	-2962
▁手術	-2963
ーブ	-2964
▁当たる	-2965
▁ステージ	-2966
▁巨人	-2967
▁活性	-2968
▁@	-2969
▁安心	-2970
ワーク	-2971
▁スター	-2972
▁娘	-2973
▁こだ	-2974
▁呼び掛け	-2975
▁プラス	-2976
▁ドーム	-2977
上がり	-2978
▁ター	-2979
▁範	-2980
▁プレゼント	-2981
▁コミュニ	-2982
▁コンサ	-2983
▁三十	-2984
▁間違	-2985
▁岸	-2986
▁スタジアム	-2987
▁サポート	-2988
▁勝負	-2989
づくり	-2990
▁剤	-2991
リート	-2992
▁トヨタ	-2993
▁過ご	-2994
▁本塁	-2995
▁外務	-2996
▁アナ	-2997
▁画像	-2998
▁端末	-2999
▁柔	-3000
▁関東	-3001
▁平方	-3002
▁宿泊	-3003
▁俊	-3004
▁コスト	-3005
▁生かし	-3006
▁巻き	-3007
▁球場	-3008
▁寝	-3009
▁草	-3010
▁勇	-3011
▁厚生	-3012
▁ベース	-3013
▁始まる	-3014
▁補助	-3015
▁湖	-3016
▁ロイ	-3017
▁宣言	-3018
▁引退	-3019
▁俳優	-3020
▁リオ	-3021
▁朴	-3022
▁悪化	-3023
▁オーストラリア	-3024
▁自信	-3025
▁そろ	-3026
▁狙う	-3027
▁取っ	-3028
▁ライブ	-3029
▁誠	-3030
▁肉	-3031
▁授業	-3032
▁シング	-3033
▁円安	-3034
▁ベスト	-3035
▁透	-3036
▁窓	-3037
▁券	-3038
▁湯	-3039
▁ユーザー	-3040
▁ハウス	-3041
▁山田	-3042
▁輸入	-3043
▁改めて	-3044
▁統一	-3045
▁加速	-3046
▁ちょ	-3047
▁財務	-3048
▁台風	-3049
▁楽しめる	-3050
▁頂	-3051
▁忘れ	-3052
▁尽	-3053
▁川崎	-3054
▁智	-3055
▁住む	-3056
▁確定	-3057
▁オリジ	-3058
タン	-3059
ッツ	-3060
▁和歌	-3061
▁判明	-3062
プト	-3063
▁勉	-3064
▁路線	-3065
▁緊張	-3066
▁予約	-3067
▁プラン	-3068
▁シナ	-3069
▁総務	-3070
▁歯	-3071
▁陸上	-3072
▁暴力	-3073
▁勝っ	-3074
▁就職	-3075
▁および	-3076
▁体育	-3077
ジー	-3078
▁自転	-3079
ミア	-3080
▁山本	-3081
▁アメリカ	-3082
▁太陽	-3083
かく	-3084
▁守備	-3085
▁事情	-3086
▁宗	-3087
▁比較	-3088
▁修正	-3089
▁物語	-3090
▁無職	-3091
▁まさ	-3092
▁異なる	-3093
▁スペイン	-3094
▁笑い	-3095
▁高め	-3096
▁先制	-3097
▁ラグ	-3098
▁相当	-3099
▁ころ	-3100
▁うえ	-3101
▁成績	-3102
▁書い	-3103
▁デモ	-3104
▁保存	-3105
▁債	-3106
ゅう	-3107
▁乗客	-3108
▁役員	-3109
▁敵	-3110
▁困難	-3111
▁瞬	-3112
▁放射	-3113
▁マネ	-3114
▁洗	-3115
われ	-3116
▁恋	-3117
▁立て	-3118
▁監視	-3119
▁カン	-3120
なか	-3121
▁北部	-3122
▁浸	-3123
太郎	-3124
▁是	-3125
▁友人	-3126
▁女優	-3127
▁投稿	-3128
▁あと	-3129
▁義務	-3130
しかっ	-3131
▁情勢	-3132
▁図る	-3133
▁e	-3134
▁連れ	-3135
▁現代	-3136
▁突き	-3137
▁以前	-3138
▁優先	-3139
▁為	-3140
▁耐	-3141
▁野菜	-3142
▁遺族	-3143
er	-3144
▁引き上げ	-3145
えば	-3146
▁検察	-3147
▁かね	-3148
▁制し	-3149
▁ロボット	-3150
▁差し	-3151
まら	-3152
▁控え	-3153
▁濃	-3154
▁漫	-3155
ッテ	-3156
▁重視	-3157
▁華	-3158
▁恩	-3159
▁昇	-3160
▁大量	-3161
かす	-3162
▁残し	-3163
▁本人	-3164
マー	-3165
▁適切	-3166
▁オリジナル	-3167
もり	-3168
▁政党	-3169
▁ワン	-3170
▁リリー	-3171
▁残り	-3172
▁現行	-3173
▁伝える	-3174
▁徹底	-3175
▁解散	-3176
▁下落	-3177
▁北陸	-3178
▁加藤	-3179
▁様々	-3180
▁新設	-3181
▁隆	-3182
ちゃ	-3183
▁範囲	-3184
▁材料	-3185
▁両国	-3186
▁里	-3187
▁雰	-3188
囲気	-3189
▁雰囲気	-3190
▁呼びかけ	-3191
▁黄	-3192
▁復活	-3193
▁稲	-3194
▁タイプ	-3195
▁選ん	-3196
▁パン	-3197
▁食事	-3198
ケーション	-3199
▁日経	-3200
▁人物	-3201
▁衛	-3202
▁向かっ	-3203
▁請求	-3204
▁仁	-3205
▁網	-3206
▁演奏	-3207
▁資産	-3208
▁クル	-3209
▁現金	-3210
▁一致	-3211
▁制裁	-3212
▁運行	-3213
▁あの	-3214
レンジ	-3215
▁漏	-3216
▁パート	-3217
▁相撲	-3218
▁始まり	-3219
▁心配	-3220
▁いただい	-3221
▁薄	-3222
▁伊藤	-3223
▁橋下	-3224
▁登板	-3225
▁警視	-3226
▁門	-3227
▁角	-3228
▁インタ	-3229
▁慎重	-3230
▁温泉	-3231
▁焦	-3232
▁主導	-3233
▁たっ	-3234
▁詐	-3235
▁自己	-3236
▁中日	-3237
▁和歌山	-3238
キュ	-3239
▁入場	-3240
▁含ま	-3241
▁赤字	-3242
▁融	-3243
▁飯	-3244
▁出版	-3245
▁きれ	-3246
▁アンダー	-3247
▁強制	-3248
▁搬	-3249
▁貿	-3250
▁響	-3251
▁わずか	-3252
▁パソ	-3253
▁迷	-3254
▁おら	-3255
▁部隊	-3256
▁那	-3257
▁中止	-3258
▁貿易	-3259
▁エンジン	-3260
▁康	-3261
▁スカ	-3262
▁資源	-3263
ティア	-3264
▁各社	-3265
▁欧米	-3266
▁発足	-3267
上がっ	-3268
ニス	-3269
▁中旬	-3270
▁浩	-3271
▁効率	-3272
▁杉	-3273
▁周囲	-3274
▁松本	-3275
▁緑	-3276
▁通し	-3277
レーション	-3278
▁負傷	-3279
▁エン	-3280
▁落と	-3281
▁玉	-3282
ざい	-3283
▁たた	-3284
▁ファッション	-3285
▁再建	-3286
ミング	-3287
▁人事	-3288
▁雅	-3289
▁ロー	-3290
▁犬	-3291
▁構造	-3292
マス	-3293
▁移転	-3294
▁送っ	-3295
▁関与	-3296
▁総額	-3297
▁対立	-3298
▁ゼロ	-3299
▁外相	-3300
▁製作	-3301
▁合計	-3302
▁渋谷	-3303
▁商標	-3304
▁変わら	-3305
▁共有	-3306
▁づくり	-3307
▁建築	-3308
▁パソコン	-3309
▁知り	-3310
▁認知	-3311
▁日程	-3312
▁乱	-3313
▁変わっ	-3314
▁繰り	-3315
▁有効	-3316
▁広報	-3317
ナム	-3318
▁フロ	-3319
渡し	-3320
▁学院	-3321
▁沈	-3322
▁地球	-3323
▁装置	-3324
ーグ	-3325
▁多かっ	-3326
▁高まっ	-3327
ウト	-3328
▁止	-3329
▁仏	-3330
▁矢	-3331
▁預	-3332
▁加工	-3333
▁噴火	-3334
▁証券	-3335
▁陛	-3336
▁陛下	-3337
▁オフ	-3338
▁二塁	-3339
クロ	-3340
▁マル	-3341
▁商店	-3342
▁年金	-3343
▁爆発	-3344
▁一定	-3345
育て	-3346
▁東部	-3347
▁衝突	-3348
▁プログラム	-3349
▁推薦	-3350
▁賠	-3351
▁切っ	-3352
▁昼	-3353
▁タイト	-3354
▁高級	-3355
▁次々	-3356
▁o	-3357
分け	-3358
▁江戸	-3359
▁釣	-3360
▁なお	-3361
▁グラン	-3362
▁働く	-3363
▁イラク	-3364
▁キャンプ	-3365
▁ツイ	-3366
▁まち	-3367
▁彩	-3368
▁エア	-3369
▁初日	-3370
▁金利	-3371
▁板	-3372
▁リリース	-3373
▁素材	-3374
▁+	-3375
▁革	-3376
▁普通	-3377
▁悔	-3378
▁小説	-3379
▁勉強	-3380
▁倉	-3381
▁賠償	-3382
▁》	-3383
▁開設	-3384
▁要望	-3385
▁我	-3386
▁豊か	-3387
▁土地	-3388
▁博物	-3389
▁祈	-3390
▁興味	-3391
▁とり	-3392
▁子育て	-3393
ズム	-3394
▁昨季	-3395
▁柱	-3396
▁規定	-3397
▁スタイル	-3398
▁感じる	-3399
▁県立	-3400
▁長い	-3401
▁先生	-3402
▁適時	-3403
▁貸	-3404
▁頃	-3405
ぱい	-3406
▁現職	-3407
▁操作	-3408
リーン	-3409
▁主将	-3410
▁ティ	-3411
▁帰国	-3412
▁役所	-3413
▁ござい	-3414
▁閣議	-3415
▁騒	-3416
PO	-3417
▁若手	-3418
▁条例	-3419
▁観客	-3420
▁戻っ	-3421
▁総会	-3422
▁創業	-3423
▁互	-3424
▁低い	-3425
▁払	-3426
▁即	-3427
▁マンション	-3428
▁謝罪	-3429
▁文字	-3430
▁当日	-3431
▁IT	-3432
▁散	-3433
▁統合	-3434
▁寄付	-3435
▁X	-3436
▁議席	-3437
▁談	-3438
▁小型	-3439
▁ラグビー	-3440
▁少女	-3441
▁タイトル	-3442
▁芸術	-3443
▁紀	-3444
▁CM	-3445
ノミ	-3446
▁産経	-3447
▁優秀	-3448
▁現役	-3449
▁大分	-3450
▁繁	-3451
ピング	-3452
▁確か	-3453
▁唯	-3454
▁けれ	-3455
▁ぜひ	-3456
サン	-3457
▁定期	-3458
▁カナ	-3459
▁動産	-3460
▁マラ	-3461
▁致	-3462
▁三重	-3463
▁巨大	-3464
▁アマ	-3465
▁《	-3466
▁けれど	-3467
▁買収	-3468
▁広げ	-3469
▁振り返る	-3470
▁菊	-3471
▁跡	-3472
切っ	-3473
▁解説	-3474
▁敬	-3475
▁番号	-3476
▁掛け	-3477
向き	-3478
▁兄	-3479
▁趣	-3480
▁喫	-3481
▁解除	-3482
ッズ	-3483
▁滑	-3484
▁増える	-3485
▁チャンス	-3486
ガー	-3487
▁樹	-3488
▁ベンチ	-3489
▁指揮	-3490
▁走行	-3491
▁縮	-3492
▁見える	-3493
▁教室	-3494
▁突破	-3495
▁菓	-3496
▁官房	-3497
▁水産	-3498
▁ボラン	-3499
掛ける	-3500
▁並ぶ	-3501
らしい	-3502
▁組み合わせ	-3503
ダン	-3504
▁堅	-3505
▁a	-3506
▁詐欺	-3507
▁名誉	-3508
入り	-3509
▁ー	-3510
▁生命	-3511
▁像	-3512
▁割合	-3513
▁箱	-3514
▁空間	-3515
▁暗	-3516
▁好調	-3517
▁サイズ	-3518
▁業績	-3519
▁吸	-3520
▁リーダー	-3521
▁良く	-3522
▁嫌	-3523
▁達し	-3524
▁拘	-3525
▁シーン	-3526
▁容認	-3527
▁スコ	-3528
▁賛成	-3529
▁諸島	-3530
▁晴	-3531
▁得る	-3532
▁長男	-3533
▁閣僚	-3534
▁フライ	-3535
▁収入	-3536
▁直前	-3537
▁新規	-3538
▁菓子	-3539
▁減っ	-3540
▁同士	-3541
▁脳	-3542
▁対抗	-3543
NA	-3544
▁把	-3545
▁ネットワーク	-3546
▁滋	-3547
▁亡くなっ	-3548
スコ	-3549
▁出会	-3550
▁劇場	-3551
▁岡山	-3552
▁漫画	-3553
▁承認	-3554
▁似	-3555
▁抽	-3556
▁明確	-3557
▁リード	-3558
▁尾	-3559
ヤー	-3560
▁伊勢	-3561
なた	-3562
▁日中	-3563
▁決意	-3564
▁反応	-3565
▁部品	-3566
▁構築	-3567
▁見つけ	-3568
▁陽	-3569
▁夫婦	-3570
▁市議	-3571
▁全面	-3572
▁総裁	-3573
▁トラブル	-3574
▁半数	-3575
▁小さな	-3576
▁記憶	-3577
▁近づ	-3578
▁深い	-3579
▁物質	-3580
▁五十	-3581
ゆる	-3582
▁到着	-3583
▁最低	-3584
▁瞬間	-3585
▁おか	-3586
▁インタビュー	-3587
▁把握	-3588
▁入れる	-3589
▁商業	-3590
▁併	-3591
▁逃げ	-3592
▁父親	-3593
▁連邦	-3594
▁FW	-3595
▁克	-3596
▁決算	-3597
▁原則	-3598
▁概	-3599
▁資格	-3600
▁まつ	-3601
なし	-3602
▁茨	-3603
▁よい	-3604
▁いただけ	-3605
▁浜松	-3606
▁アルバ	-3607
▁止め	-3608
▁トレー	-3609
▁同国	-3610
▁同期	-3611
▁証言	-3612
▁満足	-3613
▁原油	-3614
▁視聴	-3615
▁全く	-3616
▁ビール	-3617
▁ベト	-3618
▁確実	-3619
▁多様	-3620
▁絶対	-3621
▁スピード	-3622
▁宅	-3623
▁らしい	-3624
▁郵	-3625
▁皮	-3626
▁譲	-3627
▁支配	-3628
▁龍	-3629
▁公共	-3630
▁近年	-3631
トル	-3632
レク	-3633
▁あたり	-3634
▁項	-3635
▁アイドル	-3636
▁電車	-3637
▁ちょっと	-3638
▁起こし	-3639
▁鳴	-3640
▁農家	-3641
▁佐賀	-3642
▁三菱	-3643
▁トレ	-3644
▁演出	-3645
▁チョ	-3646
▁めぐっ	-3647
▁k	-3648
▁いっぱい	-3649
▁必ず	-3650
▁銃	-3651
▁浮上	-3652
▁疑問	-3653
▁日常	-3654
▁弘	-3655
▁ハン	-3656
▁ベトナム	-3657
▁主人	-3658
▁膨	-3659
▁半島	-3660
▁カリ	-3661
かせ	-3662
レート	-3663
▁期限	-3664
▁深刻	-3665
▁勢い	-3666
▁イラン	-3667
▁もた	-3668
▁国土	-3669
▁自殺	-3670
▁滞	-3671
▁合同	-3672
一郎	-3673
▁為替	-3674
▁鮮	-3675
▁祖	-3676
▁土砂	-3677
▁今日	-3678
▁解消	-3679
▁条約	-3680
ウェー	-3681
▁打撃	-3682
▁バック	-3683
▁コンテンツ	-3684
▁並ん	-3685
▁分け	-3686
▁珍	-3687
▁IC	-3688
▁にくい	-3689
▁占める	-3690
きり	-3691
▁明る	-3692
▁クラス	-3693
▁気温	-3694
▁記載	-3695
▁棟	-3696
▁茂	-3697
▁中部	-3698
▁促進	-3699
▁レン	-3700
▁テニス	-3701
▁ミュー	-3702
▁げ	-3703
しゃ	-3704
いろ	-3705
▁境	-3706
▁唯一	-3707
▁ハム	-3708
▁固め	-3709
▁経緯	-3710
ナス	-3711
▁要因	-3712
▁収益	-3713
▁ボランティア	-3714
▁配慮	-3715
▁絞	-3716
▁砂	-3717
▁拒	-3718
▁囲	-3719
▁次第	-3720
▁クリス	-3721
▁人権	-3722
据え	-3723
▁抗議	-3724
かう	-3725
▁類	-3726
々木	-3727
▁錦	-3728
▁トラック	-3729
▁汚染	-3730
▁有名	-3731
▁発射	-3732
▁尊	-3733
▁業界	-3734
▁引き続き	-3735
▁チェック	-3736
▁内部	-3737
▁来場	-3738
▁実態	-3739
▁国防	-3740
▁適用	-3741
ッケ	-3742
▁カナダ	-3743
▁走り	-3744
▁下げ	-3745
▁仮設	-3746
▁液	-3747
▁〕	-3748
▁アフリカ	-3749
▁紅	-3750
▁たかっ	-3751
▁疲	-3752
▁p	-3753
▁松井	-3754
スタン	-3755
▁上回っ	-3756
▁一体	-3757
▁横綱	-3758
▁油	-3759
▁案内	-3760
▁ヴ	-3761
▁佳	-3762
▁下し	-3763
▁一環	-3764
▁岡田	-3765
▁透明	-3766
▁〔	-3767
▁ぼ	-3768
▁除く	-3769
▁区域	-3770
ランダ	-3771
▁依頼	-3772
▁普段	-3773
▁振り返っ	-3774
▁つき	-3775
▁アカ	-3776
▁死去	-3777
▁せい	-3778
▁鑑	-3779
▁彼女	-3780
▁乗用	-3781
▁題	-3782
▁研修	-3783
▁小林	-3784
▁エース	-3785
▁グロー	-3786
▁診断	-3787
▁ドライ	-3788
▁酸	-3789
▁怒	-3790
▁予測	-3791
▁浴び	-3792
▁息子	-3793
▁輪	-3794
▁象	-3795
▁スペース	-3796
▁与える	-3797
▁昔	-3798
ブリ	-3799
▁増やし	-3800
▁うまく	-3801
▁注文	-3802
▁主演	-3803
▁バン	-3804
▁石巻	-3805
▁日々	-3806
▁共通	-3807
▁ありが	-3808
▁定め	-3809
▁出荷	-3810
▁見守	-3811
▁送り	-3812
▁李	-3813
▁詰め	-3814
▁画面	-3815
▁感覚	-3816
▁潜	-3817
▁中間	-3818
▁栃	-3819
▁つながっ	-3820
▁ヤン	-3821
押し	-3822
▁ケア	-3823
▁新宿	-3824
▁出馬	-3825
▁ちな	-3826
▁知識	-3827
▁式典	-3828
▁初戦	-3829
▁所得	-3830
コール	-3831
▁調べる	-3832
▁視察	-3833
▁哲	-3834
▁パネル	-3835
▁取る	-3836
▁当然	-3837
もと	-3838
▁発覚	-3839
▁ルール	-3840
▁ほう	-3841
▁ダウン	-3842
▁上旬	-3843
ルコ	-3844
▁清水	-3845
▁幅広い	-3846
▁性能	-3847
▁フィリ	-3848
▁悪い	-3849
▁恒	-3850
ジュ	-3851
▁言え	-3852
▁来日	-3853
▁敏	-3854
▁指名	-3855
▁千代	-3856
▁選出	-3857
リオ	-3858
▁われ	-3859
▁ソー	-3860
▁転換	-3861
▁切れ	-3862
▁測	-3863
▁選考	-3864
▁ノー	-3865
▁明かし	-3866
▁喜び	-3867
▁互い	-3868
▁竜	-3869
▁非難	-3870
▁提携	-3871
▁有権	-3872
▁氷	-3873
シュ	-3874
▁いえる	-3875
▁輸送	-3876
▁秘密	-3877
▁傘	-3878
▁激しい	-3879
▁終値	-3880
▁高める	-3881
▁病気	-3882
▁育て	-3883
▁反映	-3884
▁対話	-3885
▁冒	-3886
▁Y	-3887
▁避け	-3888
▁広がる	-3889
▁羽田	-3890
▁積み	-3891
モン	-3892
▁滋賀	-3893
パス	-3894
▁いろいろ	-3895
▁寒	-3896
イク	-3897
▁群馬	-3898
▁通報	-3899
▁例えば	-3900
回り	-3901
▁失敗	-3902
▁代理	-3903
▁交代	-3904
ピン	-3905
▁丁目	-3906
▁インフラ	-3907
▁肌	-3908
▁引っ	-3909
▁走る	-3910
▁もらえる	-3911
▁西武	-3912
▁イチ	-3913
▁態勢	-3914
キシ	-3915
▁選抜	-3916
▁収集	-3917
▁守り	-3918
▁聞か	-3919
▁拘束	-3920
▁朝刊	-3921
▁ボー	-3922
▁上回る	-3923
▁わたっ	-3924
▁伴い	-3925
▁読む	-3926
▁勝ち点	-3927
▁茨城	-3928
▁人工	-3929
▁覆	-3930
▁筆	-3931
▁シード	-3932
▁空気	-3933
おう	-3934
▁スパ	-3935
リス	-3936
▁書類	-3937
▁行事	-3938
▁焼き	-3939
▁自主	-3940
▁支部	-3941
▁登山	-3942
▁見送	-3943
▁ヒット	-3944
▁打線	-3945
▁パーク	-3946
▁レスト	-3947
▁結ぶ	-3948
▁猛	-3949
▁創設	-3950
▁ブルー	-3951
▁連敗	-3952
らく	-3953
▁担う	-3954
▁分かり	-3955
▁安保	-3956
開票	-3957
▁投開票	-3958
ネイロ	-3959
▁誓	-3960
▁地上	-3961
▁銘	-3962
▁保有	-3963
▁作戦	-3964
▁あなた	-3965
ンプ	-3966
▁バランス	-3967
▁訴える	-3968
▁慶	-3969
▁冠	-3970
▁書か	-3971
シング	-3972
まし	-3973
▁復旧	-3974
▁敷地	-3975
▁〉	-3976
▁聞く	-3977
▁香り	-3978
ジャネイロ	-3979
▁防ぐ	-3980
it	-3981
▁リオデ	-3982
▁知る	-3983
▁リオデジャネイロ	-3984
▁芝	-3985
▁法律	-3986
▁ガイド	-3987
▁アベ	-3988
▁打者	-3989
▁移籍	-3990
▁源	-3991
▁駐車	-3992
▁涙	-3993
▁湾	-3994
▁発揮	-3995
▁所有	-3996
▁偽	-3997
▁人民	-3998
▁辺	-3999
▁念	-4000
▁ライフ	-4001
▁モン	-4002
▁言及	-4003
▁ラウンド	-4004
▁司法	-4005
▁栽	-4006
▁許可	-4007
▁廃止	-4008
▁投入	-4009
▁出資	-4010
▁石油	-4011
▁売却	-4012
▁売り上げ	-4013
▁栽培	-4014
▁なかなか	-4015
ない	-4016
▁面白	-4017
▁MF	-4018
▁民進	-4019
▁参考	-4020
▁加盟	-4021
▁狙っ	-4022
▁ウイル	-4023
▁鶴	-4024
▁もっ	-4025
▁合格	-4026
▁締め	-4027
▁配布	-4028
▁微	-4029
▁づけ	-4030
▁こちら	-4031
▁極めて	-4032
▁徒	-4033
▁共和	-4034
▁ミニ	-4035
▁アンケート	-4036
▁医学	-4037
▁入院	-4038
▁ダンス	-4039
▁バラ	-4040
▁かかっ	-4041
▁シー	-4042
▁耳	-4043
▁訪れる	-4044
▁詳しい	-4045
▁主な	-4046
▁カラー	-4047
▁季節	-4048
ッジ	-4049
▁主力	-4050
▁臨時	-4051
▁腕	-4052
▁残念	-4053
▁擁	-4054
▁ツイッター	-4055
▁苦し	-4056
▁郡	-4057
▁物価	-4058
▁日韓	-4059
▁論文	-4060
▁〈	-4061
▁長く	-4062
▁マラソン	-4063
▁メジャー	-4064
▁症状	-4065
▁啓	-4066
▁増やす	-4067
リーム	-4068
揚げ	-4069
▁種目	-4070
▁三振	-4071
▁混乱	-4072
▁レストラン	-4073
▁び	-4074
▁ヘリ	-4075
▁両親	-4076
▁パラリンピック	-4077
▁兵器	-4078
▁認める	-4079
▁火山	-4080
▁われわれ	-4081
▁スキー	-4082
▁待ち	-4083
▁ファイ	-4084
▁間違い	-4085
▁搬送	-4086
たく	-4087
べる	-4088
▁借り	-4089
▁分か	-4090
▁往	-4091
ーブル	-4092
▁食材	-4093
▁良かっ	-4094
▁国内外	-4095
▁柳	-4096
ティブ	-4097
▁床	-4098
▁集会	-4099
▁全力	-4100
▁マイナス	-4101
▁玄	-4102
テム	-4103
▁拍	-4104
▁損害	-4105
▁武器	-4106
▁踊	-4107
▁スケート	-4108
▁諸国	-4109
▁プレミア	-4110
▁小売	-4111
ーチン	-4112
▁にぎ	-4113
▁カフェ	-4114
▁楽しむ	-4115
▁いじめ	-4116
▁ずっと	-4117
▁NPO	-4118
▁圧力	-4119
▁ワイン	-4120
つい	-4121
▁警備	-4122
▁咲	-4123
▁頑張っ	-4124
▁ギャ	-4125
▁犯行	-4126
▁*	-4127
▁限ら	-4128
▁武装	-4129
▁すごく	-4130
▁強め	-4131
▁炭	-4132
▁深く	-4133
▁違法	-4134
▁公判	-4135
▁講師	-4136
タール	-4137
レント	-4138
▁決議	-4139
▁教諭	-4140
▁アイテム	-4141
▁イスラ	-4142
▁添	-4143
▁スイス	-4144
▁本来	-4145
▁業者	-4146
▁埋め	-4147
▁生み	-4148
バイ	-4149
▁松山	-4150
▁辞任	-4151
▁ウイルス	-4152
▁向かう	-4153
▁同月	-4154
っきり	-4155
返し	-4156
▁孝	-4157
▁闘	-4158
リュー	-4159
▁振る	-4160
▁成田	-4161
▁教員	-4162
▁バル	-4163
ミー	-4164
▁姉	-4165
▁未明	-4166
▁フィリピン	-4167
▁てる	-4168
▁項目	-4169
ウド	-4170
▁回転	-4171
ディングス	-4172
▁統計	-4173
▁肩	-4174
▁ましょう	-4175
▁かかわら	-4176
▁官邸	-4177
▁シェア	-4178
▁演じ	-4179
▁王者	-4180
▁テスト	-4181
▁天然	-4182
▁置い	-4183
▁粘	-4184
▁実感	-4185
リエ	-4186
かける	-4187
▁意思	-4188
▁喜ん	-4189
▁グローバル	-4190
▁半分	-4191
▁シュート	-4192
▁斎	-4193
出さ	-4194
▁遭	-4195
▁ぐらい	-4196
▁ショップ	-4197
▁スキ	-4198
▁ウエ	-4199
▁見解	-4200
▁たび	-4201
▁中東	-4202
▁抱え	-4203
レル	-4204
▁主席	-4205
▁不満	-4206
▁コミュニケーション	-4207
ノミクス	-4208
ワイ	-4209
▁賃金	-4210
リティ	-4211
▁とら	-4212
▁東電	-4213
▁反省	-4214
▁死者	-4215
▁見学	-4216
▁落とし	-4217
▁堀	-4218
▁交付	-4219
▁倒れ	-4220
▁単独	-4221
▁ルート	-4222
▁権利	-4223
▁世論	-4224
▁手が	-4225
AN	-4226
▁圭	-4227
▁覚え	-4228
▁上海	-4229
▁移設	-4230
▁差別	-4231
▁さえ	-4232
デオ	-4233
プル	-4234
▁縁	-4235
▁新型	-4236
▁ギリ	-4237
▁コーナー	-4238
ポール	-4239
▁つもり	-4240
▁戻る	-4241
▁準々	-4242
▁パナ	-4243
▁レー	-4244
▁オリックス	-4245
▁絡	-4246
▁使える	-4247
▁工夫	-4248
▁シンガ	-4249
▁大半	-4250
▁あふ	-4251
▁宏	-4252
▁まいり	-4253
▁冊	-4254
▁瀬	-4255
▁策定	-4256
▁乳	-4257
▁手法	-4258
バイス	-4259
▁受験	-4260
ラボ	-4261
▁来る	-4262
▁加入	-4263
▁懲役	-4264
▁金額	-4265
▁保健	-4266
▁シンガポール	-4267
▁布	-4268
▁歓迎	-4269
▁○	-4270
ガン	-4271
▁供述	-4272
▁在住	-4273
▁投球	-4274
▁オリンピック	-4275
▁地検	-4276
起こ	-4277
▁有力	-4278
▁当社	-4279
▁タブ	-4280
▁再現	-4281
▁定例	-4282
▁救助	-4283
▁格差	-4284
▁陥	-4285
▁敦	-4286
▁ライト	-4287
▁方式	-4288
▁流し	-4289
▁刑事	-4290
▁放っ	-4291
▁亀	-4292
▁結び	-4293
▁かける	-4294
▁IS	-4295
▁プーチン	-4296
▁ダブル	-4297
▁県民	-4298
▁真っ	-4299
▁広がり	-4300
▁未満	-4301
▁慣	-4302
トロ	-4303
▁わたり	-4304
▁機械	-4305
▁幸せ	-4306
▁つくっ	-4307
▁軽減	-4308
▁乾	-4309
co	-4310
▁立つ	-4311
ピー	-4312
▁泰	-4313
▁文部	-4314
▁日銀	-4315
▁嘉	-4316
▁保守	-4317
▁出産	-4318
▁あたる	-4319
▁献	-4320
▁過ごし	-4321
▁持た	-4322
▁廃棄	-4323
▁突然	-4324
▁さい	-4325
▁わが	-4326
▁プライ	-4327
▁回っ	-4328
▁実質	-4329
▁脚	-4330
▁美しい	-4331
jp	-4332
▁オランダ	-4333
チャ	-4334
ーグル	-4335
▁アベノミクス	-4336
▁尽く	-4337
▁栃木	-4338
▁賞金	-4339
▁滞在	-4340
▁任期	-4341
▁銅	-4342
▁高度	-4343
▁ホールディングス	-4344
▁シングルス	-4345
▁旗	-4346
ワイト	-4347
▁占め	-4348
▁了	-4349
▁かなり	-4350
▁沿岸	-4351
▁施行	-4352
▁事例	-4353
▁失っ	-4354
▁あげ	-4355
▁素晴	-4356
▁描く	-4357
▁化学	-4358
▁起用	-4359
▁向き	-4360
▁もらえ	-4361
▁イスラエル	-4362
▁祭り	-4363
▁先輩	-4364
▁どれ	-4365
▁基づく	-4366
▁縦	-4367
▁香川	-4368
▁塗	-4369
▁織	-4370
▁促す	-4371
▁ホワイト	-4372
立ち	-4373
▁象徴	-4374
▁気圧	-4375
▁オフィ	-4376
▁表彰	-4377
▁異常	-4378
▁伸ばし	-4379
▁寿	-4380
▁泉	-4381
▁取れ	-4382
ミット	-4383
▁用い	-4384
▁品質	-4385
▁なんて	-4386
とり	-4387
▁ざる	-4388
▁数字	-4389
▁井上	-4390
▁焦点	-4391
エン	-4392
▁アクセス	-4393
▁保安	-4394
▁ヤマ	-4395
▁信じ	-4396
▁パワー	-4397
▁支払い	-4398
▁フレ	-4399
▁接続	-4400
▁カル	-4401
▁下回	-4402
▁及び	-4403
▁タレント	-4404
▁忠	-4405
▁証拠	-4406
リット	-4407
ろし	-4408
▁内野	-4409
▁歌手	-4410
▁編成	-4411
▁虐	-4412
▁流出	-4413
▁配置	-4414
▁株主	-4415
▁保管	-4416
▁結成	-4417
▁]	-4418
▁調達	-4419
▁大臣	-4420
▁面積	-4421
▁風速	-4422
しろ	-4423
アン	-4424
▁職場	-4425
▁掲げる	-4426
▁四十	-4427
▁演じる	-4428
▁結論	-4429
▁釜	-4430
▁栗	-4431
▁豊富	-4432
▁退職	-4433
▁百貨	-4434
▁描か	-4435
▁昌	-4436
▁巡る	-4437
▁自社	-4438
▁公務	-4439
▁進み	-4440
▁やら	-4441
▁ことし	-4442
▁校長	-4443
▁しん	-4444
▁アート	-4445
▁尋	-4446
▁封	-4447
▁コンビニ	-4448
▁チケット	-4449
▁留学	-4450
▁回収	-4451
▁降り	-4452
ーリー	-4453
ブン	-4454
▁雑誌	-4455
▁クラウド	-4456
▁前提	-4457
▁詩	-4458
▁盛り込ん	-4459
▁火災	-4460
▁コラボ	-4461
▁しまい	-4462
▁卵	-4463
▁飲み	-4464
▁済み	-4465
▁染	-4466
▁不可	-4467
▁縮小	-4468
▁バッグ	-4469
▁学ぶ	-4470
▁大和	-4471
▁上場	-4472
▁回り	-4473
▁炉	-4474
▁比例	-4475
▁通過	-4476
▁祐	-4477
▁張り	-4478
▁貯	-4479
▁出さ	-4480
▁基礎	-4481
▁待っ	-4482
▁誘致	-4483
▁ぎ	-4484
▁方々	-4485
▁よかっ	-4486
BC	-4487
▁フジ	-4488
an	-4489
▁千代田	-4490
▁沢	-4491
▁許さ	-4492
▁体調	-4493
▁つながり	-4494
▁抽選	-4495
▁通行	-4496
ラスト	-4497
▁葬	-4498
▁まる	-4499
▁東大	-4500
立つ	-4501
▁マレー	-4502
▁阻	-4503
チェ	-4504
クシー	-4505
▁提示	-4506
▁射	-4507
▁ふる	-4508
▁特殊	-4509
▁エコ	-4510
▁棋	-4511
▁パートナー	-4512
▁双方	-4513
▁佐々木	-4514
in	-4515
▁終盤	-4516
▁孫	-4517
▁満た	-4518
▁サイバー	-4519
▁郷	-4520
リティー	-4521
スン	-4522
▁自体	-4523
▁まっ	-4524
▁ロイター	-4525
▁区間	-4526
やく	-4527
▁会館	-4528
▁きょう	-4529
▁姫	-4530
▁外部	-4531
▁離脱	-4532
▁励	-4533
▁主婦	-4534
▁年内	-4535
▁青木	-4536
▁食べる	-4537
▁軸	-4538
▁しょう	-4539
▁いただく	-4540
▁つなげ	-4541
▁露	-4542
▁メル	-4543
▁一覧	-4544
▁海岸	-4545
▁変える	-4546
▁ワーク	-4547
▁約束	-4548
▁ビデオ	-4549
▁紛	-4550
▁思い出	-4551
▁マーケ	-4552
プレ	-4553
ペン	-4554
▁拒否	-4555
▁キー	-4556
▁圧倒	-4557
▁争い	-4558
▁目立っ	-4559
▁崩れ	-4560
▁鳥取	-4561
はり	-4562
▁主に	-4563
▁シート	-4564
▁ボギー	-4565
▁履	-4566
▁ペース	-4567
▁推定	-4568
▁させ	-4569
▁決断	-4570
どり	-4571
▁置く	-4572
▁臨む	-4573
▁有識	-4574
ッピング	-4575
▁さらなる	-4576
▁攻め	-4577
▁ボク	-4578
▁親子	-4579
▁欲	-4580
▁大島	-4581
ねる	-4582
▁とどまっ	-4583
▁アップル	-4584
▁広く	-4585
▁報酬	-4586
OC	-4587
▁町長	-4588
▁どちら	-4589
▁楽しい	-4590
▁知人	-4591
▁ギリシャ	-4592
▁置き	-4593
▁資本	-4594
▁やはり	-4595
▁基づき	-4596
ショナル	-4597
▁山梨	-4598
▁二人	-4599
ネシア	-4600
明け	-4601
▁検索	-4602
▁グランプリ	-4603
▁基盤	-4604
▁トイ	-4605
▁旭	-4606
▁善	-4607
▁フォー	-4608
▁穴	-4609
▁誇る	-4610
テン	-4611
▁後藤	-4612
▁入学	-4613
▁買っ	-4614
▁罰	-4615
▁礼	-4616
▁奪っ	-4617
フォーマ	-4618
▁親し	-4619
▁近畿	-4620
▁コンク	-4621
▁上る	-4622
▁連載	-4623
▁選ぶ	-4624
▁旅客	-4625
▁買い物	-4626
▁疑惑	-4627
入れる	-4628
▁力強	-4629
▁図書	-4630
▁既存	-4631
▁風景	-4632
▁コンサート	-4633
▁トリ	-4634
▁後押し	-4635
▁寛	-4636
▁壊	-4637
EC	-4638
▁低迷	-4639
▁地点	-4640
▁歩い	-4641
▁貴重	-4642
▁賢	-4643
re	-4644
▁畑	-4645
▁ブレ	-4646
▁解釈	-4647
▁うか	-4648
▁入社	-4649
▁順位	-4650
▁サイド	-4651
ーキ	-4652
▁先月	-4653
▁トレーニング	-4654
▁一気	-4655
▁次ぐ	-4656
▁[	-4657
▁徐	-4658
▁阿部	-4659
▁桐	-4660
▁長年	-4661
▁文学	-4662
▁半年	-4663
▁ニーズ	-4664
▁商工	-4665
▁戦う	-4666
▁早い	-4667
▁みたい	-4668
▁明記	-4669
▁ぞ	-4670
▁会話	-4671
捨て	-4672
▁広場	-4673
▁市内	-4674
つき	-4675
▁講座	-4676
▁淡	-4677
▁軒	-4678
▁底	-4679
▁侵入	-4680
▁つくり	-4681
▁掘	-4682
▁史上	-4683
▁学ん	-4684
▁入居	-4685
▁芸能	-4686
▁ロッテ	-4687
▁通貨	-4688
▁いただける	-4689
▁変動	-4690
▁飼育	-4691
▁繰り広	-4692
▁終わり	-4693
▁海洋	-4694
ントリー	-4695
▁長女	-4696
▁弟	-4697
▁t	-4698
▁同意	-4699
▁サミット	-4700
▁変わる	-4701
▁手段	-4702
▁ブック	-4703
▁邦	-4704
ギュア	-4705
▁ラジオ	-4706
たん	-4707
▁同盟	-4708
▁厳しく	-4709
▁死刑	-4710
▁マレーシア	-4711
▁探し	-4712
▁アス	-4713
▁エル	-4714
▁助け	-4715
かさ	-4716
▁読者	-4717
▁かわい	-4718
▁フィギュア	-4719
▁マーケティング	-4720
▁ガラス	-4721
TT	-4722
▁スケ	-4723
▁演技	-4724
▁ミュージ	-4725
▁代わり	-4726
▁蒸	-4727
▁長谷	-4728
▁トルコ	-4729
くら	-4730
▁尖	-4731
▁予防	-4732
▁談話	-4733
▁主体	-4734
▁教科	-4735
▁構え	-4736
▁上映	-4737
▁セミ	-4738
▁インドネシア	-4739
▁帝	-4740
▁ST	-4741
▁無理	-4742
▁会計	-4743
▁羽生	-4744
▁命令	-4745
▁率い	-4746
▁収穫	-4747
▁見せる	-4748
バン	-4749
▁小野	-4750
▁対決	-4751
▁中継	-4752
▁前週	-4753
▁妨	-4754
▁アラ	-4755
IN	-4756
▁得意	-4757
▁博多	-4758
キシコ	-4759
▁参入	-4760
▁書記	-4761
▁高知	-4762
▁GP	-4763
▁整理	-4764
▁汗	-4765
▁木村	-4766
▁Z	-4767
▁やや	-4768
▁わかっ	-4769
▁ソロ	-4770
▁バレー	-4771
▁提言	-4772
▁タブレット	-4773
▁パフォーマ	-4774
▁しゃ	-4775
▁柏	-4776
ED	-4777
▁植物	-4778
たま	-4779
▁看板	-4780
九州	-4781
▁きれい	-4782
▁北九州	-4783
▁アパ	-4784
▁コンセ	-4785
▁下さい	-4786
んと	-4787
▁コス	-4788
▁キャラ	-4789
付ける	-4790
ソニック	-4791
ゴン	-4792
▁プロデ	-4793
▁リン	-4794
▁勧告	-4795
▁前向き	-4796
▁参拝	-4797
▁支える	-4798
▁先進	-4799
イア	-4800
▁分かる	-4801
▁民族	-4802
▁婚	-4803
▁輝い	-4804
▁腰	-4805
▁動向	-4806
▁FA	-4807
▁字	-4808
▁衣装	-4809
▁いち	-4810
EO	-4811
▁出店	-4812
▁翌日	-4813
▁あらゆる	-4814
▁菜	-4815
▁テク	-4816
▁パナソニック	-4817
ルク	-4818
直す	-4819
ごろ	-4820
▁ジャンプ	-4821
▁公認	-4822
▁試み	-4823
▁尖閣	-4824
▁納得	-4825
▁集まる	-4826
シン	-4827
▁先頭	-4828
▁妊	-4829
▁年末	-4830
ラリー	-4831
▁支出	-4832
▁ウェブ	-4833
▁おいしい	-4834
▁石原	-4835
▁治安	-4836
▁意義	-4837
▁かん	-4838
▁ジョン	-4839
▁電池	-4840
▁引き下げ	-4841
▁メキシコ	-4842
▁アウト	-4843
▁締結	-4844
▁摘	-4845
▁集まり	-4846
▁錦織	-4847
▁大津	-4848
▁アイス	-4849
▁毛	-4850
▁イング	-4851
▁ブロック	-4852
▁対処	-4853
引き	-4854
▁悩み	-4855
▁受け止め	-4856
▁四国	-4857
▁看護	-4858
▁リアル	-4859
▁抜け	-4860
▁点検	-4861
▁AI	-4862
▁神宮	-4863
▁小池	-4864
▁マグ	-4865
▁視野	-4866
▁上り	-4867
▁人形	-4868
▁視点	-4869
▁序	-4870
▁丁寧	-4871
▁栄養	-4872
▁腹	-4873
▁バーディー	-4874
越え	-4875
▁高値	-4876
▁葉	-4877
▁将棋	-4878
▁延期	-4879
▁ラー	-4880
▁会派	-4881
▁落ち着	-4882
▁大勢	-4883
▁海軍	-4884
▁優れ	-4885
取る	-4886
▁流行	-4887
▁レッド	-4888
▁猫	-4889
▁生物	-4890
▁抱える	-4891
▁件数	-4892
▁バンド	-4893
▁走っ	-4894
▁クレ	-4895
▁まさに	-4896
▁ヤク	-4897
▁TO	-4898
わし	-4899
▁週刊	-4900
▁隻	-4901
▁フラ	-4902
▁国務	-4903
▁受注	-4904
▁女児	-4905
▁b	-4906
▁ハード	-4907
ヒー	-4908
▁モバ	-4909
▁ロック	-4910
▁雲	-4911
▁計算	-4912
▁寄り	-4913
▁泊	-4914
▁支給	-4915
▁歴代	-4916
▁フラン	-4917
▁高裁	-4918
▁分間	-4919
▁パフォーマンス	-4920
▁是非	-4921
▁調理	-4922
▁徳島	-4923
▁漁業	-4924
▁拓	-4925
ピュー	-4926
▁受け取っ	-4927
▁冒頭	-4928
▁袋	-4929
▁イラスト	-4930
▁ナイ	-4931
▁家電	-4932
ュラー	-4933
▁込み	-4934
▁勝ち越し	-4935
▁貧	-4936
▁国境	-4937
▁プレイ	-4938
▁庁舎	-4939
▁孤	-4940
▁同級	-4941
▁感動	-4942
▁ダイヤ	-4943
▁いれ	-4944
▁溶	-4945
▁高まる	-4946
▁イオン	-4947
▁個別	-4948
がい	-4949
▁肝	-4950
▁墓	-4951
▁創生	-4952
▁感情	-4953
▁牧	-4954
▁金属	-4955
▁コメ	-4956
▁結ん	-4957
▁気付	-4958
▁衛星	-4959
▁署名	-4960
▁異例	-4961
▁固定	-4962
▁貸し	-4963
▁前期	-4964
ウント	-4965
▁クリスマス	-4966
▁同年	-4967
▁トーク	-4968
シップ	-4969
▁選び	-4970
▁完了	-4971
▁重大	-4972
▁磨	-4973
▁遠藤	-4974
▁きち	-4975
▁想像	-4976
▁チョコ	-4977
▁足り	-4978
▁値上げ	-4979
▁運航	-4980
▁奇	-4981
寄り	-4982
▁剛	-4983
▁名人	-4984
▁国債	-4985
▁◎	-4986
▁臨ん	-4987
▁順調	-4988
▁繊	-4989
ok	-4990
▁本田	-4991
ボラ	-4992
▁やめ	-4993
▁荷	-4994
▁刺激	-4995
▁込ん	-4996
作り	-4997
▁次期	-4998
▁鏡	-4999
▁コート	-5000
好き	-5001
▁制覇	-5002
▁堤	-5003
▁オフィス	-5004
▁尚	-5005
▁FC	-5006
▁人数	-5007
▁空き	-5008
▁働い	-5009
フォーム	-5010
▁パイ	-5011
▁巡り	-5012
▁できれ	-5013
▁炎	-5014
やし	-5015
▁左右	-5016
シェ	-5017
▁制服	-5018
▁庭	-5019
▁分かれ	-5020
▁守っ	-5021
▁訪日	-5022
▁取り上げ	-5023
▁モバイル	-5024
▁法制	-5025
▁同校	-5026
▁指標	-5027
▁NTT	-5028
▁蔵	-5029
▁再編	-5030
▁農林	-5031
▁取り戻	-5032
▁セレ	-5033
▁硬	-5034
▁回避	-5035
▁通知	-5036
▁そば	-5037
▁読ん	-5038
▁顧問	-5039
▁作ら	-5040
▁来季	-5041
▁おお	-5042
▁外野	-5043
▁モノ	-5044
▁変わり	-5045
ティスト	-5046
▁プリ	-5047
▁ウイ	-5048
▁推移	-5049
▁リスト	-5050
▁ポスト	-5051
▁競り	-5052
▁傘下	-5053
▁入札	-5054
▁気分	-5055
キース	-5056
▁一層	-5057
▁活発	-5058
▁可決	-5059
▁打っ	-5060
▁翔	-5061
▁ようやく	-5062
▁がち	-5063
▁再発	-5064
▁コーヒー	-5065
▁連結	-5066
▁定員	-5067
▁暮らす	-5068
▁ヤンキース	-5069
▁返還	-5070
▁ヘッド	-5071
ポーター	-5072
▁本体	-5073
▁気づ	-5074
▁書籍	-5075
▁略	-5076
▁国交	-5077
▁卓	-5078
▁定数	-5079
▁頑張り	-5080
ガル	-5081
▁係	-5082
▁糸	-5083
▁懐	-5084
▁証明	-5085
▁町内	-5086
▁努め	-5087
▁トイレ	-5088
ゼルス	-5089
切る	-5090
▁狭	-5091
▁撤去	-5092
リューション	-5093
▁学び	-5094
▁吹き	-5095
▁ブリ	-5096
▁深夜	-5097
▁成分	-5098
▁順次	-5099
▁解体	-5100
▁領土	-5101
▁速報	-5102
▁応え	-5103
ライン	-5104
▁円高	-5105
▁称	-5106
▁コンピュー	-5107
▁脅威	-5108
▁初期	-5109
▁実力	-5110
▁録	-5111
▁打率	-5112
▁こだわり	-5113
▁収録	-5114
▁章	-5115
▁陳	-5116
▁懸命	-5117
▁前田	-5118
▁許し	-5119
▁上野	-5120
▁収支	-5121
NS	-5122
▁財団	-5123
イナー	-5124
▁招待	-5125
▁サム	-5126
リーナ	-5127
▁警告	-5128
まい	-5129
▁売れ	-5130
▁膨ら	-5131
▁拍手	-5132
▁社内	-5133
▁靴	-5134
▁素晴らしい	-5135
▁泣	-5136
▁よし	-5137
▁打席	-5138
▁置か	-5139
▁決して	-5140
▁斎藤	-5141
▁メン	-5142
レード	-5143
▁上がる	-5144
▁ストア	-5145
▁被爆	-5146
▁周り	-5147
▁ビッグ	-5148
▁接触	-5149
▁配備	-5150
▁FI	-5151
▁しかも	-5152
▁DF	-5153
▁ズ	-5154
▁乗せ	-5155
▁オール	-5156
▁ペット	-5157
▁比率	-5158
▁ハリ	-5159
▁ヤクルト	-5160
▁引き分け	-5161
▁援	-5162
▁呼ん	-5163
▁概要	-5164
▁負っ	-5165
▁懇	-5166
▁躍	-5167
▁セミナー	-5168
▁開会	-5169
▁東南	-5170
▁妥	-5171
▁メモ	-5172
▁奨	-5173
▁もともと	-5174
▁カット	-5175
▁ブログ	-5176
▁グッズ	-5177
▁凍	-5178
▁疲れ	-5179
▁西部	-5180
▁冬季	-5181
▁ナンバー	-5182
▁脇	-5183
▁後援	-5184
▁タクシー	-5185
▁ちょう	-5186
▁引き継	-5187
▁滝	-5188
▁あき	-5189
▁刻	-5190
▁先端	-5191
▁暴行	-5192
▁アーティスト	-5193
▁抵	-5194
▁グリーン	-5195
▁野田	-5196
ッキ	-5197
じみ	-5198
▁遺伝	-5199
▁遊び	-5200
▁盛岡	-5201
▁バスケット	-5202
▁釈	-5203
▁河北	-5204
▁マッチ	-5205
▁モーター	-5206
▁藩	-5207
▁全米	-5208
▁生じ	-5209
▁リサ	-5210
▁いかに	-5211
▁ショック	-5212
▁示さ	-5213
▁考慮	-5214
▁愛媛	-5215
▁催	-5216
▁合宿	-5217
▁四球	-5218
▁同町	-5219
▁夫妻	-5220
▁すごい	-5221
▁直球	-5222
▁ゾ	-5223
▁屈	-5224
▁関わる	-5225
▁肢	-5226
▁大戦	-5227
▁着手	-5228
▁アイデ	-5229
▁ピア	-5230
▁抜き	-5231
▁増し	-5232
ーナメント	-5233
▁めど	-5234
スティ	-5235
▁手紙	-5236
▁欠かせ	-5237
▁まつり	-5238
▁ホンダ	-5239
▁怖	-5240
▁改修	-5241
▁日報	-5242
▁撃	-5243
▁正確	-5244
▁厚労	-5245
▁速度	-5246
▁みせ	-5247
▁コント	-5248
▁割り	-5249
▁討	-5250
▁天候	-5251
▁掃	-5252
野古	-5253
▁辺野古	-5254
▁流通	-5255
▁施策	-5256
▁徐々	-5257
▁ランド	-5258
▁今夏	-5259
▁帰っ	-5260
▁白い	-5261
▁クー	-5262
▁トーナメント	-5263
▁基金	-5264
▁載	-5265
▁表面	-5266
▁上下	-5267
▁SP	-5268
▁コンセプト	-5269
▁ソリューション	-5270
▁計上	-5271
応え	-5272
▁故障	-5273
▁模様	-5274
▁衝撃	-5275
▁しの	-5276
▁ソニー	-5277
▁いろんな	-5278
▁クリエ	-5279
▁了承	-5280
▁カラ	-5281
らっ	-5282
▁ありがとう	-5283
▁上空	-5284
▁US	-5285
▁セキュ	-5286
▁診療	-5287
ぱり	-5288
▁サイン	-5289
▁命じ	-5290
フレ	-5291
▁歓声	-5292
▁もし	-5293
▁当面	-5294
▁顕	-5295
▁のぞ	-5296
▁堺	-5297
▁タイミング	-5298
▁打ち上げ	-5299
▁標準	-5300
▁複雑	-5301
▁ロード	-5302
▁同点	-5303
▁迫っ	-5304
▁公募	-5305
▁モスク	-5306
▁三井	-5307
▁打ち出し	-5308
▁時計	-5309
▁ただし	-5310
▁エレ	-5311
▁入手	-5312
▁依存	-5313
▁キュー	-5314
▁功	-5315
▁つまり	-5316
▁進行	-5317
▁原作	-5318
▁採択	-5319
クラ	-5320
▁ペン	-5321
ロード	-5322
▁強まっ	-5323
ベーション	-5324
▁司令	-5325
▁ピーク	-5326
▁ストーリー	-5327
ピオン	-5328
▁支局	-5329
ro	-5330
ルム	-5331
▁申し込み	-5332
▁打点	-5333
▁迷惑	-5334
っこ	-5335
▁弾道	-5336
▁イノ	-5337
▁委託	-5338
▁おも	-5339
▁台数	-5340
▁豊田	-5341
▁驚い	-5342
▁陣営	-5343
▁路上	-5344
▁サウ	-5345
▁宝塚	-5346
▁アイデア	-5347
▁取り消	-5348
▁経過	-5349
▁池田	-5350
▁銘柄	-5351
▁両党	-5352
▁一連	-5353
▁送る	-5354
▁根拠	-5355
▁トンネル	-5356
ッキー	-5357
▁送検	-5358
▁解放	-5359
▁隣接	-5360
▁当たっ	-5361
▁ダウ	-5362
▁合併	-5363
▁書店	-5364
▁過程	-5365
▁公約	-5366
ぷり	-5367
▁融資	-5368
▁例年	-5369
▁HD	-5370
カン	-5371
▁権限	-5372
▁CO	-5373
▁去	-5374
▁電源	-5375
▁ヘク	-5376
▁財源	-5377
▁本拠	-5378
▁身近	-5379
▁付い	-5380
▁防御	-5381
▁招い	-5382
▁上げる	-5383
▁原爆	-5384
▁数十	-5385
▁好評	-5386
▁芳	-5387
▁チャンピオン	-5388
▁ヘクタール	-5389
▁ジャーナ	-5390
▁リゾ	-5391
▁カウン	-5392
▁うかが	-5393
▁思え	-5394
▁ストレス	-5395
込める	-5396
▁漂	-5397
▁レギ	-5398
▁目立つ	-5399
▁街頭	-5400
▁重い	-5401
▁ゲスト	-5402
▁心理	-5403
▁三塁	-5404
▁化粧	-5405
▁CEO	-5406
立っ	-5407
▁グラム	-5408
▁出会い	-5409
▁頻	-5410
▁争点	-5411
▁窓口	-5412
▁アト	-5413
▁拡充	-5414
▁進化	-5415
▁上っ	-5416
ッパ	-5417
▁キム	-5418
▁アンド	-5419
アップ	-5420
▁後ろ	-5421
▁エボラ	-5422
▁無人	-5423
フォル	-5424
▁屋根	-5425
▁シャツ	-5426
の子	-5427
▁通っ	-5428
▁習近	-5429
▁葬儀	-5430
▁快勝	-5431
▁クリーム	-5432
▁東証	-5433
▁モチ	-5434
▁虚	-5435
▁スタンド	-5436
ポン	-5437
さと	-5438
▁ブレー	-5439
▁一生	-5440
▁新報	-5441
▁和田	-5442
DP	-5443
▁きちんと	-5444
▁支店	-5445
▁味わい	-5446
▁促し	-5447
▁小さい	-5448
▁g	-5449
▁検出	-5450
▁ドラフト	-5451
▁黒田	-5452
▁グーグル	-5453
one	-5454
▁節目	-5455
▁指針	-5456
▁盛り上げ	-5457
▁干	-5458
▁生きる	-5459
▁違っ	-5460
▁ブラック	-5461
▁桃	-5462
ボル	-5463
▁おく	-5464
▁郵便	-5465
▁スカイ	-5466
▁逸	-5467
セン	-5468
▁アドレス	-5469
▁つなげる	-5470
▁収容	-5471
▁追悼	-5472
▁カレー	-5473
▁ボクシング	-5474
BS	-5475
▁チャレンジ	-5476
▁豚	-5477
▁マニ	-5478
▁名乗	-5479
▁職人	-5480
▁黒字	-5481
▁魔	-5482
▁SNS	-5483
▁豪華	-5484
▁太郎	-5485
▁名称	-5486
▁虐待	-5487
▁准	-5488
▁プリン	-5489
▁サポーター	-5490
▁選定	-5491
▁深め	-5492
▁カバー	-5493
▁改定	-5494
▁スタジオ	-5495
▁随	-5496
▁橋本	-5497
▁函	-5498
▁浦和	-5499
▁仕上げ	-5500
▁ハンド	-5501
▁青葉	-5502
▁便利	-5503
▁漁船	-5504
▁レギュラー	-5505
▁一斉	-5506
▁代行	-5507
▁スポット	-5508
▁かた	-5509
▁浪	-5510
ルズ	-5511
▁高野	-5512
▁つける	-5513
▁CD	-5514
▁フット	-5515
▁神経	-5516
▁島根	-5517
丈夫	-5518
▁今春	-5519
▁デザイナー	-5520
▁明け	-5521
▁要素	-5522
▁珍しい	-5523
▁移行	-5524
▁個性	-5525
▁はる	-5526
▁両日	-5527
▁抑制	-5528
▁税込	-5529
FA	-5530
IC	-5531
▁枝	-5532
▁装備	-5533
▁貫	-5534
▁体重	-5535
シック	-5536
▁揺れ	-5537
▁銀座	-5538
▁立ち上げ	-5539
▁河野	-5540
パクト	-5541
▁交際	-5542
▁東芝	-5543
まだ	-5544
▁消え	-5545
▁ゴロ	-5546
▁初め	-5547
▁特産	-5548
▁閉鎖	-5549
▁車内	-5550
▁域	-5551
▁マリ	-5552
▁首長	-5553
▁眼	-5554
▁幼稚	-5555
▁ANA	-5556
▁灯	-5557
▁各種	-5558
▁国道	-5559
▁大好き	-5560
▁プール	-5561
▁モニ	-5562
▁取り入れ	-5563
▁タン	-5564
▁バイク	-5565
▁軌	-5566
▁ディス	-5567
▁ぴ	-5568
▁奉	-5569
▁少子	-5570
▁セル	-5571
▁ご覧	-5572
▁つぶ	-5573
▁最適	-5574
打ち	-5575
▁バスケットボール	-5576
▁入団	-5577
▁イチロー	-5578
▁現れ	-5579
▁本店	-5580
▁信用	-5581
▁設ける	-5582
▁破り	-5583
▁住所	-5584
▁薬物	-5585
▁トライ	-5586
▁不可欠	-5587
▁眠	-5588
▁オス	-5589
▁まだまだ	-5590
▁たま	-5591
▁問う	-5592
▁武力	-5593
▁ゆっくり	-5594
▁免許	-5595
▁GDP	-5596
▁競馬	-5597
▁療	-5598
▁架	-5599
▁ライバル	-5600
並み	-5601
▁解析	-5602
▁マイクロ	-5603
▁苦労	-5604
▁急増	-5605
▁ロサン	-5606
▁ワイ	-5607
▁ロサンゼルス	-5608
▁すぎる	-5609
▁共演	-5610
▁大賞	-5611
▁平野	-5612
▁枠組み	-5613
▁破壊	-5614
▁定着	-5615
▁唐	-5616
▁余り	-5617
▁見据え	-5618
▁農協	-5619
▁痛み	-5620
▁疾	-5621
▁イングランド	-5622
▁住ん	-5623
▁侵害	-5624
▁制定	-5625
▁誓っ	-5626
▁並み	-5627
▁出血	-5628
▁ヤード	-5629
▁空爆	-5630
▁須	-5631
▁新興	-5632
▁無事	-5633
▁開け	-5634
▁塾	-5635
ハウ	-5636
om	-5637
▁藤井	-5638
▁やま	-5639
▁なくなっ	-5640
▁敦賀	-5641
▁LED	-5642
▁態度	-5643
▁野村	-5644
▁悪く	-5645
▁三浦	-5646
▁ピンク	-5647
▁普天	-5648
▁典	-5649
▁ドア	-5650
▁同僚	-5651
ノー	-5652
コモ	-5653
▁急速	-5654
▁威	-5655
▁太田	-5656
クル	-5657
▁AC	-5658
フォルニア	-5659
ケル	-5660
▁擁立	-5661
▁一郎	-5662
▁豆	-5663
ar	-5664
▁昇格	-5665
▁機体	-5666
▁争う	-5667
▁明言	-5668
リック	-5669
▁普天間	-5670
▁同行	-5671
▁ふるさと	-5672
▁早朝	-5673
▁義偉	-5674
▁キャリア	-5675
ミン	-5676
▁繰り広げ	-5677
▁筑	-5678
▁友達	-5679
▁結局	-5680
▁迫る	-5681
▁打数	-5682
▁音声	-5683
▁つづ	-5684
▁カリフォルニア	-5685
▁葛	-5686
▁●	-5687
そも	-5688
テラン	-5689
▁告示	-5690
▁黙	-5691
換え	-5692
▁慣れ	-5693
▁コンサル	-5694
サス	-5695
▁付ける	-5696
▁明日	-5697
▁淳	-5698
▁マンガ	-5699
▁そも	-5700
▁そもそも	-5701
▁ベテラン	-5702
▁粉	-5703
▁PK	-5704
ちゃん	-5705
▁序盤	-5706
▁贈ら	-5707
▁大谷	-5708
▁鋭	-5709
▁n	-5710
▁楽しく	-5711
▁村上	-5712
▁六十	-5713
▁函館	-5714
▁抑える	-5715
▁訪ね	-5716
プライ	-5717
▁ノウ	-5718
▁巡っ	-5719
▁山崎	-5720
▁れれ	-5721
▁小川	-5722
▁除染	-5723
▁髪	-5724
久保	-5725
▁撤回	-5726
▁移住	-5727
▁すす	-5728
▁浸透	-5729
▁気仙	-5730
▁高まり	-5731
セル	-5732
▁合流	-5733
ールズ	-5734
▁震度	-5735
▁漢	-5736
▁接近	-5737
▁反論	-5738
▁抜い	-5739
▁進学	-5740
▁判定	-5741
▁蓄	-5742
▁ドラッグ	-5743
▁上がり	-5744
▁わかり	-5745
▁わから	-5746
▁靖	-5747
ったり	-5748
▁東洋	-5749
▁歌舞	-5750
▁修理	-5751
▁那覇	-5752
▁ふさ	-5753
▁ハワイ	-5754
▁ドレス	-5755
▁延べ	-5756
▁決まる	-5757
▁美容	-5758
▁目撃	-5759
▁ちなみ	-5760
つける	-5761
▁ガー	-5762
▁食料	-5763
▁申し訳	-5764
▁引き締	-5765
▁喪	-5766
▁届い	-5767
▁モスクワ	-5768
チン	-5769
▁覚悟	-5770
▁鬼	-5771
▁アサ	-5772
▁山下	-5773
▁マク	-5774
▁飾っ	-5775
▁引っ張	-5776
▁激しく	-5777
がん	-5778
ロール	-5779
▁IB	-5780
▁逃し	-5781
▁瀬戸	-5782
▁包ま	-5783
▁解明	-5784
▁別れ	-5785
▁ダウンロード	-5786
▁基調	-5787
▁ノウハウ	-5788
▁亜	-5789
▁ファミ	-5790
▁仕方	-5791
▁半ば	-5792
▁川内	-5793
▁もらおう	-5794
▁ヘル	-5795
▁藤田	-5796
▁亮	-5797
▁二百	-5798
▁もん	-5799
▁Ph	-5800
▁上田	-5801
▁単位	-5802
ボン	-5803
▁ごみ	-5804
売り	-5805
▁理想	-5806
▁手伝	-5807
がれ	-5808
▁新作	-5809
▁身体	-5810
▁ジャーナリスト	-5811
▁毎週	-5812
▁無線	-5813
▁切り替え	-5814
▁プレミアム	-5815
▁あらた	-5816
ワット	-5817
▁図っ	-5818
▁正しい	-5819
▁進展	-5820
▁女王	-5821
▁廃炉	-5822
▁河川	-5823
▁崩壊	-5824
▁扱い	-5825
キン	-5826
チュ	-5827
▁念頭	-5828
▁レシ	-5829
▁前線	-5830
▁転落	-5831
▁中京	-5832
▁惜	-5833
▁放置	-5834
▁日産	-5835
上がる	-5836
チナ	-5837
チャー	-5838
INE	-5839
▁リゾート	-5840
▁市街	-5841
▁はっきり	-5842
▁優勢	-5843
▁聞こ	-5844
▁運ん	-5845
▁職業	-5846
▁フェイス	-5847
▁宣伝	-5848
▁見込ま	-5849
▁気仙沼	-5850
▁男児	-5851
▁次回	-5852
▁捉	-5853
▁着用	-5854
▁辛	-5855
▁排除	-5856
▁形式	-5857
▁妊娠	-5858
▁アルバイト	-5859
▁運び	-5860
▁次ぎ	-5861
▁はや	-5862
詰め	-5863
▁クオ	-5864
レクション	-5865
▁大関	-5866
▁弁当	-5867
▁印刷	-5868
▁北東	-5869
▁測定	-5870
▁かぶ	-5871
▁怒り	-5872
▁集計	-5873
▁下回っ	-5874
▁室内	-5875
▁出力	-5876
▁口座	-5877
▁集める	-5878
ンチン	-5879
▁実践	-5880
▁教師	-5881
le	-5882
▁鍵	-5883
▁描き	-5884
▁抵抗	-5885
▁かみ	-5886
▁救急	-5887
▁並び	-5888
▁紛争	-5889
▁扱う	-5890
▁鹿島	-5891
▁シティ	-5892
▁レス	-5893
▁確立	-5894
▁驚き	-5895
▁ブーム	-5896
▁ドロ	-5897
▁当地	-5898
▁財産	-5899
▁取り扱	-5900
▁数値	-5901
▁まちづくり	-5902
▁誇り	-5903
▁アリ	-5904
▁FIFA	-5905
▁成人	-5906
▁カタ	-5907
▁形成	-5908
クター	-5909
▁試算	-5910
▁及ぶ	-5911
▁同じく	-5912
思議	-5913
ンサー	-5914
▁オーナー	-5915
▁たと	-5916
▁育児	-5917
TO	-5918
▁EC	-5919
▁移植	-5920
▁食い	-5921
▁故郷	-5922
▁面白い	-5923
▁祖父	-5924
▁身元	-5925
▁オーバー	-5926
▁両県	-5927
▁所持	-5928
▁だり	-5929
▁駒	-5930
▁レコ	-5931
▁ランク	-5932
▁意図	-5933
▁ブース	-5934
▁鑑定	-5935
▁赤ちゃん	-5936
▁柴	-5937
▁受け付け	-5938
▁信号	-5939
▁越え	-5940
▁観察	-5941
▁数々	-5942
▁握手	-5943
▁累	-5944
▁撤退	-5945
プロ	-5946
▁校舎	-5947
▁妨害	-5948
▁浸水	-5949
▁襲撃	-5950
▁中野	-5951
▁追う	-5952
▁奏	-5953
▁温暖	-5954
▁捕手	-5955
▁ショット	-5956
▁塔	-5957
▁届け出	-5958
▁メガ	-5959
▁改良	-5960
▁経費	-5961
▁GK	-5962
▁イエ	-5963
eb	-5964
▁趣味	-5965
▁防犯	-5966
▁挑む	-5967
▁スコア	-5968
▁右腕	-5969
▁踊り	-5970
▁タンク	-5971
▁敗退	-5972
▁制御	-5973
▁現象	-5974
▁継承	-5975
▁幻	-5976
▁青年	-5977
美子	-5978
▁下位	-5979
▁ソ連	-5980
▁特集	-5981
▁歌舞伎	-5982
▁CA	-5983
▁残さ	-5984
▁社民	-5985
▁刺し	-5986
▁否認	-5987
▁排出	-5988
▁広げる	-5989
▁皇后	-5990
んどん	-5991
▁まったく	-5992
▁小沢	-5993
▁翻	-5994
▁あん	-5995
▁記し	-5996
▁毎月	-5997
▁ガソ	-5998
▁算	-5999
▁中断	-6000
▁Phone	-6001
▁アドバイス	-6002
▁コンテスト	-6003
▁大野	-6004
▁温度	-6005
▁示唆	-6006
▁タッチ	-6007
▁地図	-6008
▁不思議	-6009
▁バイオ	-6010
▁後継	-6011
▁手応え	-6012
▁ガソリン	-6013
▁ジャンボ	-6014
▁面会	-6015
▁なき	-6016
▁あらためて	-6017
▁国産	-6018
▁晩	-6019
▁ポスター	-6020
▁求人	-6021
▁摂	-6022
▁死ん	-6023
▁眺	-6024
▁照明	-6025
▁詳しく	-6026
▁ローマ	-6027
▁収め	-6028
▁難民	-6029
▁急ぐ	-6030
▁ノーベル	-6031
▁スライ	-6032
▁静か	-6033
▁アルゼ	-6034
▁自国	-6035
▁後退	-6036
▁重点	-6037
▁ベンチャー	-6038
▁わい	-6039
▁乗車	-6040
▁福田	-6041
▁もて	-6042
▁シニア	-6043
▁アルゼンチン	-6044
▁操縦	-6045
▁ささ	-6046
▁アパート	-6047
▁使え	-6048
▁給与	-6049
▁革新	-6050
休み	-6051
▁広い	-6052
▁前月	-6053
▁中川	-6054
▁一切	-6055
▁フェア	-6056
▁ルー	-6057
▁背中	-6058
▁格好	-6059
▁チュー	-6060
▁著書	-6061
▁難しく	-6062
▁未定	-6063
▁待機	-6064
よい	-6065
▁暑	-6066
▁LINE	-6067
▁クリア	-6068
ナン	-6069
▁柔道	-6070
▁充電	-6071
▁戦っ	-6072
▁チェーン	-6073
▁斉	-6074
▁七十	-6075
▁ノル	-6076
▁浮き	-6077
▁上限	-6078
▁往復	-6079
▁宗教	-6080
▁ジュニア	-6081
▁創造	-6082
▁OB	-6083
▁奪わ	-6084
▁破っ	-6085
SA	-6086
▁開通	-6087
▁我々	-6088
テク	-6089
▁快適	-6090
▁国政	-6091
サル	-6092
▁木造	-6093
▁独特	-6094
▁恒例	-6095
▁ママ	-6096
▁NA	-6097
▁特急	-6098
▁仕掛け	-6099
▁紫	-6100
▁グラウンド	-6101
▁鎌	-6102
▁運輸	-6103
▁誘導	-6104
▁立地	-6105
▁ユニット	-6106
▁証人	-6107
or	-6108
▁勝て	-6109
▁数多	-6110
▁発症	-6111
▁パレス	-6112
▁兼ね	-6113
▁鶏	-6114
▁来春	-6115
▁近隣	-6116
▁ピッチ	-6117
▁大丈夫	-6118
▁提訴	-6119
っち	-6120
▁観戦	-6121
▁選管	-6122
▁関税	-6123
▁仕様	-6124
▁ベルギー	-6125
ッコ	-6126
▁暫	-6127
▁棄	-6128
▁和解	-6129
▁革命	-6130
▁イル	-6131
▁小松	-6132
▁白鵬	-6133
▁まるで	-6134
▁近所	-6135
▁スーツ	-6136
▁シャープ	-6137
▁糖	-6138
▁当て	-6139
▁丹	-6140
▁ステーション	-6141
▁安い	-6142
▁基づい	-6143
▁原告	-6144
▁槿	-6145
▁専務	-6146
▁沙	-6147
▁売買	-6148
▁暫定	-6149
▁殴	-6150
▁機種	-6151
▁全長	-6152
▁模索	-6153
▁秘書	-6154
▁峰	-6155
トン	-6156
▁クライ	-6157
▁奪い	-6158
▁レイ	-6159
▁潤	-6160
▁いす	-6161
▁限界	-6162
▁ドライバー	-6163
▁体力	-6164
▁債務	-6165
▁今度	-6166
▁パーティー	-6167
▁四半	-6168
▁客室	-6169
▁勝つ	-6170
▁マスコ	-6171
▁帰還	-6172
▁救援	-6173
▁漏れ	-6174
チュア	-6175
▁建造	-6176
▁保全	-6177
▁高山	-6178
▁スペシャル	-6179
▁戦力	-6180
▁教訓	-6181
▁不要	-6182
▁開放	-6183
▁DV	-6184
▁パイロ	-6185
▁山中	-6186
▁水族	-6187
▁明るい	-6188
▁AS	-6189
▁彦	-6190
▁たっぷり	-6191
ジュール	-6192
▁不審	-6193
▁プラット	-6194
▁すら	-6195
ワード	-6196
▁岡崎	-6197
▁数多く	-6198
ます	-6199
▁綾	-6200
▁摘発	-6201
▁博士	-6202
▁告発	-6203
▁パイロット	-6204
TA	-6205
▁シングル	-6206
▁殿	-6207
▁認可	-6208
▁コンピューター	-6209
▁劣	-6210
▁護	-6211
▁貼	-6212
▁外れ	-6213
▁低く	-6214
▁ショート	-6215
▁皇太	-6216
▁とる	-6217
▁不良	-6218
▁キューバ	-6219
▁懲戒	-6220
▁入試	-6221
▁釣り	-6222
▁初代	-6223
おり	-6224
▁是正	-6225
▁刃	-6226
セス	-6227
▁碑	-6228
▁日立	-6229
▁サヨ	-6230
▁偏	-6231
▁直径	-6232
▁冷静	-6233
▁持続	-6234
▁暖	-6235
▁そろっ	-6236
▁隠し	-6237
▁クロス	-6238
▁ゆかり	-6239
▁厘	-6240
▁感想	-6241
▁回数	-6242
▁槿恵	-6243
▁取ら	-6244
▁調子	-6245
▁フライト	-6246
▁法的	-6247
▁どんどん	-6248
▁★	-6249
▁減らす	-6250
強い	-6251
▁文科	-6252
▁帰宅	-6253
▁玄関	-6254
▁県連	-6255
▁有料	-6256
▁追及	-6257
▁正常	-6258
▁ソーシャル	-6259
▁キロワット	-6260
▁mm	-6261
▁とう	-6262
▁店頭	-6263
▁肺	-6264
せつ	-6265
▁浮かべ	-6266
▁キャッチ	-6267
▁余裕	-6268
▁覇	-6269
▁味わ	-6270
▁沿い	-6271
▁古い	-6272
▁通販	-6273
▁とに	-6274
▁閲	-6275
▁センサー	-6276
▁コード	-6277
▁傷害	-6278
▁流れる	-6279
▁沸	-6280
イング	-6281
▁起業	-6282
ましい	-6283
▁だまし	-6284
▁奮	-6285
▁平日	-6286
▁起きる	-6287
▁渡し	-6288
▁線量	-6289
ーロ	-6290
ハラ	-6291
▁店内	-6292
▁ノート	-6293
▁とにかく	-6294
▁稽	-6295
▁ヒロ	-6296
▁南北	-6297
▁意外	-6298
ナラ	-6299
▁有志	-6300
▁稽古	-6301
▁リニュー	-6302
ロナ	-6303
▁要件	-6304
▁アカデ	-6305
▁卸	-6306
ゾン	-6307
▁くん	-6308
くま	-6309
▁西川	-6310
▁水素	-6311
ic	-6312
▁聴取	-6313
▁国籍	-6314
▁秩	-6315
▁かかり	-6316
▁税別	-6317
▁阻止	-6318
▁さいたま	-6319
▁東西	-6320
ッカ	-6321
▁与野	-6322
合わ	-6323
▁観点	-6324
▁リニューアル	-6325
▁停戦	-6326
▁おき	-6327
▁偉	-6328
▁移民	-6329
▁郊	-6330
▁長谷川	-6331
▁権力	-6332
▁関わっ	-6333
▁サムスン	-6334
▁肥	-6335
▁岸田	-6336
▁ツール	-6337
▁しば	-6338
▁異なり	-6339
切れ	-6340
▁見込ん	-6341
▁高松	-6342
▁横断	-6343
▁コラム	-6344
▁デー	-6345
▁郊外	-6346
▁先行き	-6347
▁挟	-6348
▁ドコモ	-6349
▁合っ	-6350
▁煮	-6351
▁気軽	-6352
▁率いる	-6353
▁動く	-6354
▁御嶽	-6355
▁予備	-6356
▁喫し	-6357
▁皇太子	-6358
送り	-6359
書き	-6360
▁サラ	-6361
▁与野党	-6362
▁PC	-6363
▁背負	-6364
▁過失	-6365
▁内定	-6366
▁フード	-6367
▁捨て	-6368
▁ファンド	-6369
▁業種	-6370
▁益	-6371
▁交差	-6372
▁閲覧	-6373
ッケージ	-6374
▁ウオ	-6375
▁強豪	-6376
ューサー	-6377
▁ディズ	-6378
▁見つかり	-6379
▁晴れ	-6380
▁他国	-6381
▁粘り	-6382
▁入力	-6383
▁実用	-6384
▁ディズニー	-6385
▁もっとも	-6386
▁聡	-6387
▁下り	-6388
▁パッケージ	-6389
▁数百	-6390
▁リハ	-6391
▁犯人	-6392
▁正午	-6393
クション	-6394
▁保証	-6395
▁無償	-6396
▁いったん	-6397
▁パレード	-6398
▁申し立て	-6399
▁具合	-6400
▁抱負	-6401
▁小泉	-6402
▁動い	-6403
▁大田	-6404
▁ロイヤ	-6405
▁歩く	-6406
▁押さ	-6407
▁医薬	-6408
▁据え	-6409
▁in	-6410
▁右翼	-6411
▁落語	-6412
▁特許	-6413
▁引き上げる	-6414
▁貨	-6415
▁はじ	-6416
▁退任	-6417
▁電機	-6418
▁一貫	-6419
エンス	-6420
▁買う	-6421
▁救出	-6422
▁IOC	-6423
ンニ	-6424
ac	-6425
▁後任	-6426
▁醸	-6427
▁慰霊	-6428
▁鮮明	-6429
▁見直す	-6430
▁日曜	-6431
▁クラシック	-6432
▁忍	-6433
▁並べ	-6434
▁習慣	-6435
▁石井	-6436
▁手掛ける	-6437
▁致死	-6438
▁プレス	-6439
▁☆	-6440
▁篠	-6441
▁養殖	-6442
▁あろう	-6443
▁スクール	-6444
ルダン	-6445
▁涼	-6446
▁せん	-6447
▁オブ	-6448
▁ペア	-6449
▁うる	-6450
▁大陸	-6451
▁レンジ	-6452
▁妹	-6453
▁植え	-6454
▁複合	-6455
▁大気	-6456
テイン	-6457
▁テクノ	-6458
▁石垣	-6459
▁ケーキ	-6460
▁中島	-6461
▁生息	-6462
▁都心	-6463
▁加わっ	-6464
受け	-6465
▁メダ	-6466
▁控訴	-6467
▁切る	-6468
▁大雨	-6469
▁容器	-6470
▁住友	-6471
▁公立	-6472
▁実家	-6473
▁記述	-6474
▁エイ	-6475
▁上司	-6476
ホーム	-6477
プター	-6478
▁プロデューサー	-6479
▁原料	-6480
▁課税	-6481
▁循	-6482
▁窃	-6483
まれる	-6484
▁かな	-6485
ルド	-6486
▁線路	-6487
▁経由	-6488
▁有無	-6489
▁ポジ	-6490
▁着実	-6491
▁ボート	-6492
▁飲料	-6493
▁FR	-6494
▁処罰	-6495
▁セーブ	-6496
EL	-6497
▁全部	-6498
▁アルバム	-6499
▁おかげ	-6500
▁真剣	-6501
▁多彩	-6502
▁交え	-6503
▁萩	-6504
グラ	-6505
▁果たす	-6506
▁徒歩	-6507
▁壮	-6508
▁国営	-6509
▁大正	-6510
▁よれ	-6511
▁本番	-6512
▁迫ら	-6513
▁衛生	-6514
▁取り消し	-6515
▁ミャン	-6516
▁ベネ	-6517
▁所長	-6518
▁火力	-6519
▁西宮	-6520
▁ミャンマー	-6521
▁体操	-6522
▁ダム	-6523
▁工藤	-6524
▁着陸	-6525
▁工芸	-6526
▁整え	-6527
▁乗り越え	-6528
▁藤原	-6529
▁題し	-6530
▁初回	-6531
▁相互	-6532
▁迅	-6533
▁遺跡	-6534
▁ファースト	-6535
▁創出	-6536
▁乗務	-6537
▁呼ぶ	-6538
▁海域	-6539
▁熟	-6540
▁助成	-6541
▁追求	-6542
▁南海	-6543
▁小田	-6544
▁同省	-6545
▁方面	-6546
▁趣旨	-6547
ュアル	-6548
▁未遂	-6549
▁誤っ	-6550
▁歩み	-6551
▁決まり	-6552
▁ラーメン	-6553
▁まとめる	-6554
▁付属	-6555
▁ひとり	-6556
▁作用	-6557
モニー	-6558
▁集落	-6559
▁わび	-6560
▁旅館	-6561
▁仁川	-6562
▁入賞	-6563
▁スリ	-6564
▁育っ	-6565
▁繊維	-6566
▁タイムズ	-6567
▁つなぐ	-6568
エット	-6569
▁終わる	-6570
▁週末	-6571
▁政務	-6572
▁常務	-6573
▁循環	-6574
▁かき	-6575
▁改憲	-6576
▁剣	-6577
▁受付	-6578
▁振り返り	-6579
▁久保	-6580
▁ゆう	-6581
▁見舞	-6582
▁ドー	-6583
▁中山	-6584
▁送ら	-6585
▁グリ	-6586
▁願っ	-6587
▁県外	-6588
▁望む	-6589
▁究	-6590
▁出火	-6591
▁尽くし	-6592
▁書く	-6593
▁松田	-6594
▁辞職	-6595
▁支払う	-6596
▁次官	-6597
▁窃盗	-6598
▁クリエイ	-6599
▁見極	-6600
キスタン	-6601
ER	-6602
▁めざ	-6603
▁出展	-6604
▁アカデミー	-6605
at	-6606
わしい	-6607
▁ハー	-6608
▁EV	-6609
▁八十	-6610
▁ソース	-6611
▁強力	-6612
▁エンター	-6613
デス	-6614
▁満塁	-6615
▁損失	-6616
▁難航	-6617
▁サヨナラ	-6618
▁憧	-6619
▁部会	-6620
▁産地	-6621
▁駆けつけ	-6622
寄せ	-6623
▁泳	-6624
▁強める	-6625
▁落ち着い	-6626
▁メリット	-6627
▁党内	-6628
▁削除	-6629
▁軌道	-6630
▁税制	-6631
▁あわせ	-6632
▁小倉	-6633
▁班	-6634
▁開拓	-6635
▁見込む	-6636
▁警報	-6637
▁浄	-6638
▁金子	-6639
▁湿	-6640
▁鉱	-6641
▁わたる	-6642
▁ヨルダン	-6643
▁会い	-6644
▁改造	-6645
▁前進	-6646
▁関電	-6647
▁迅速	-6648
▁悠	-6649
▁ひな	-6650
当たり	-6651
▁展望	-6652
ナルド	-6653
▁実証	-6654
▁とどまる	-6655
▁虚偽	-6656
いは	-6657
▁隔	-6658
▁太鼓	-6659
▁しばらく	-6660
▁むしろ	-6661
▁到達	-6662
▁CS	-6663
▁ファミリー	-6664
▁兄弟	-6665
▁発掘	-6666
▁連日	-6667
▁達する	-6668
▁臨床	-6669
▁党首	-6670
▁無視	-6671
▁テキ	-6672
▁リベ	-6673
▁学会	-6674
▁粒	-6675
▁坂本	-6676
▁岳	-6677
▁みず	-6678
▁宜	-6679
▁着工	-6680
▁鎮	-6681
遂げ	-6682
▁断念	-6683
▁出来事	-6684
▁工学	-6685
▁沿線	-6686
サイト	-6687
▁近代	-6688
▁致し	-6689
▁ぶつ	-6690
▁北米	-6691
▁軟	-6692
こし	-6693
▁答弁	-6694
▁重傷	-6695
テインメント	-6696
▁民家	-6697
▁折り	-6698
▁たる	-6699
▁近藤	-6700
▁依然	-6701
▁エジ	-6702
▁庫	-6703
▁悔し	-6704
▁掛	-6705
▁勘	-6706
▁墜	-6707
▁ベルリン	-6708
▁正面	-6709
▁かい	-6710
▁勝手	-6711
▁好機	-6712
▁釜石	-6713
▁開票	-6714
▁コレクション	-6715
▁至る	-6716
▁補正	-6717
ストン	-6718
▁麻生	-6719
▁マツ	-6720
▁採決	-6721
▁当たり前	-6722
▁翌年	-6723
笠原	-6724
▁他人	-6725
▁丘	-6726
▁コロン	-6727
▁推計	-6728
ホン	-6729
しみ	-6730
▁一日	-6731
▁歩き	-6732
▁磐	-6733
▁缶	-6734
▁耕	-6735
▁所在	-6736
▁墜落	-6737
▁エピ	-6738
ヴァ	-6739
▁ショッピング	-6740
▁セント	-6741
▁知名	-6742
▁安藤	-6743
▁由来	-6744
▁避ける	-6745
▁無罪	-6746
▁特典	-6747
▁インフル	-6748
▁生涯	-6749
▁年代	-6750
▁あふれ	-6751
▁予告	-6752
▁休み	-6753
▁出品	-6754
▁キャンパス	-6755
▁介入	-6756
▁シンプル	-6757
▁豪雨	-6758
▁金正	-6759
▁領域	-6760
▁飾り	-6761
▁立ち入り	-6762
▁荷物	-6763
▁三百	-6764
▁フォーラム	-6765
▁桂	-6766
▁八幡	-6767
▁半径	-6768
▁宇都	-6769
▁至っ	-6770
▁遺棄	-6771
▁道具	-6772
▁脂	-6773
▁→	-6774
▁均	-6775
▁牽	-6776
▁プラットフォーム	-6777
▁借金	-6778
▁花火	-6779
▁手掛け	-6780
▁飲ん	-6781
らさ	-6782
▁品種	-6783
▁同館	-6784
▁特区	-6785
▁あるいは	-6786
▁尊重	-6787
▁老朽	-6788
▁短期	-6789
▁モード	-6790
▁補償	-6791
▁言える	-6792
▁正規	-6793
▁居住	-6794
▁傍	-6795
▁減税	-6796
▁司会	-6797
▁さくら	-6798
▁作曲	-6799
▁実効	-6800
▁ゆる	-6801
▁先送り	-6802
▁之	-6803
▁Web	-6804
▁叫	-6805
▁広域	-6806
▁不振	-6807
▁言い渡し	-6808
▁短縮	-6809
▁黄色	-6810
▁ロケット	-6811
▁ダメ	-6812
▁夜間	-6813
▁取り付け	-6814
▁謙	-6815
▁心臓	-6816
▁エール	-6817
▁ギフト	-6818
▁溝	-6819
▁止まっ	-6820
リダ	-6821
▁謎	-6822
▁残す	-6823
▁恥	-6824
▁AT	-6825
▁身長	-6826
▁笑っ	-6827
▁人質	-6828
▁柿	-6829
ニチ	-6830
▁光景	-6831
▁容量	-6832
▁高官	-6833
▁入り口	-6834
▁大西	-6835
▁著者	-6836
ぎり	-6837
▁脚本	-6838
KA	-6839
▁インテ	-6840
▁徴	-6841
▁ルーム	-6842
▁あふれる	-6843
▁マド	-6844
ターン	-6845
▁d	-6846
▁やりとり	-6847
▁罰金	-6848
▁団地	-6849
▁巻き込ま	-6850
▁宇都宮	-6851
▁OS	-6852
▁あえ	-6853
▁マウンド	-6854
▁五百	-6855
抜け	-6856
▁柔軟	-6857
▁兵士	-6858
もう	-6859
▁伝わる	-6860
▁鈍	-6861
彫り	-6862
▁逃走	-6863
▁パレスチナ	-6864
▁手がけ	-6865
▁搭乗	-6866
▁出張	-6867
▁世話	-6868
▁言語	-6869
▁倫	-6870
▁特設	-6871
▁遼	-6872
▁堅持	-6873
ロジー	-6874
▁リズム	-6875
▁べく	-6876
▁鍛	-6877
▁理念	-6878
▁のぼ	-6879
▁はい	-6880
▁恋愛	-6881
アイ	-6882
▁本名	-6883
▁過剰	-6884
▁妖	-6885
▁合う	-6886
▁時速	-6887
どころ	-6888
▁中高	-6889
▁液晶	-6890
▁癒	-6891
▁ウォン	-6892
ディション	-6893
▁上院	-6894
▁打た	-6895
▁山頂	-6896
レイ	-6897
▁平年	-6898
▁禁じ	-6899
▁左翼	-6900
ter	-6901
▁エス	-6902
ージェ	-6903
▁小さく	-6904
▁囚	-6905
▁させる	-6906
▁見守っ	-6907
▁華やか	-6908
▁思想	-6909
▁連休	-6910
▁梨	-6911
▁アシ	-6912
▁入国	-6913
▁認証	-6914
▁砲	-6915
▁同大	-6916
▁村田	-6917
▁部長	-6918
▁バット	-6919
▁発達	-6920
ぶり	-6921
▁才	-6922
▁熱い	-6923
▁ムード	-6924
▁バッテ	-6925
▁踏ん	-6926
▁高浜	-6927
▁タワー	-6928
en	-6929
▁物流	-6930
▁討論	-6931
▁ラブ	-6932
▁ネイ	-6933
▁育てる	-6934
▁どころ	-6935
▁月額	-6936
▁勇気	-6937
ライト	-6938
▁理研	-6939
▁合わせる	-6940
▁俺	-6941
▁シカ	-6942
▁姫路	-6943
▁培	-6944
▁沼	-6945
▁騎	-6946
▁フロリダ	-6947
▁宮古	-6948
ゲット	-6949
バス	-6950
▁勧め	-6951
▁捉え	-6952
▁レシピ	-6953
▁気候	-6954
▁さっ	-6955
▁呼吸	-6956
▁法廷	-6957
ーンズ	-6958
早く	-6959
▁にじ	-6960
▁知的	-6961
▁斜	-6962
▁ボタン	-6963
▁ブレーキ	-6964
▁組ん	-6965
▁令	-6966
▁同区	-6967
▁もたらし	-6968
▁もつ	-6969
▁鼻	-6970
▁カブ	-6971
▁沿っ	-6972
▁給食	-6973
▁翁	-6974
▁利便	-6975
▁友好	-6976
▁グランド	-6977
▁離婚	-6978
▁絞り	-6979
▁なで	-6980
▁なさ	-6981
▁利上げ	-6982
なく	-6983
▁少数	-6984
▁追わ	-6985
▁わいせつ	-6986
▁パック	-6987
▁伝わっ	-6988
ゲン	-6989
▁出せ	-6990
▁高島	-6991
▁こども	-6992
▁名護	-6993
▁生まれる	-6994
▁減る	-6995
▁響い	-6996
▁断層	-6997
▁転じ	-6998
▁修復	-6999
ばす	-7000
▁地盤	-7001
▁耐震	-7002
▁強み	-7003
▁水位	-7004
▁ソックス	-7005
▁管内	-7006
ナミ	-7007
▁減らし	-7008
▁コロ	-7009
▁ちなん	-7010
▁モチーフ	-7011
▁吐	-7012
▁申し上げ	-7013
モンド	-7014
▁尋ね	-7015
▁動員	-7016
▁容易	-7017
▁審判	-7018
▁運ば	-7019
▁いわき	-7020
▁チョコレート	-7021
▁ツー	-7022
▁シア	-7023
▁あたっ	-7024
▁人道	-7025
▁南ア	-7026
▁ファイナル	-7027
▁笹	-7028
▁累計	-7029
▁監査	-7030
▁警官	-7031
▁張っ	-7032
リズム	-7033
▁共謀	-7034
▁中田	-7035
▁親族	-7036
▁左腕	-7037
▁リレー	-7038
▁崇	-7039
▁メダリスト	-7040
ぶさ	-7041
▁届か	-7042
フル	-7043
▁助言	-7044
▁上陸	-7045
▁走者	-7046
▁エジプト	-7047
▁塚	-7048
▁通う	-7049
つく	-7050
ークス	-7051
▁惑	-7052
▁申告	-7053
▁マッ	-7054
▁青山	-7055
▁ユニーク	-7056
▁あくま	-7057
▁ニコ	-7058
▁一帯	-7059
▁招き	-7060
ラシ	-7061
▁築い	-7062
▁物件	-7063
▁カウンター	-7064
▁地位	-7065
ビリ	-7066
▁正直	-7067
▁南西	-7068
▁リンク	-7069
▁下がっ	-7070
▁追っ	-7071
▁あくまで	-7072
▁物資	-7073
▁ヤフ	-7074
▁凝	-7075
▁他社	-7076
テナ	-7077
▁流さ	-7078
▁あし	-7079
ジーランド	-7080
▁参照	-7081
ラノ	-7082
▁北西	-7083
▁宮内	-7084
▁生地	-7085
▁GC	-7086
▁凍結	-7087
▁愛さ	-7088
▁声援	-7089
▁コンクリート	-7090
もの	-7091
▁会っ	-7092
▁投じ	-7093
▁最長	-7094
▁求刑	-7095
▁阪急	-7096
倒し	-7097
▁ニュージーランド	-7098
▁衰	-7099
▁com	-7100
▁スコット	-7101
▁気味	-7102
▁受講	-7103
ソード	-7104
▁もたらす	-7105
▁熱心	-7106
リンズ	-7107
▁倉庫	-7108
▁探査	-7109
▁稀	-7110
▁今秋	-7111
▁満了	-7112
▁ハーフ	-7113
▁HP	-7114
▁陰	-7115
▁ふん	-7116
▁同課	-7117
▁泥	-7118
▁おそ	-7119
▁ゴールデン	-7120
▁一塁	-7121
▁後輩	-7122
▁ストライ	-7123
▁割れ	-7124
とめ	-7125
▁ドローン	-7126
▁導体	-7127
▁ネタ	-7128
▁欲しい	-7129
マト	-7130
▁一昨	-7131
▁短い	-7132
▁大国	-7133
▁解禁	-7134
PS	-7135
▁煙	-7136
▁発想	-7137
ミネ	-7138
▁退け	-7139
▁リコール	-7140
▁鍋	-7141
▁公的	-7142
▁スウェー	-7143
▁エピソード	-7144
ファー	-7145
▁アジ	-7146
ぐる	-7147
▁田村	-7148
▁呉	-7149
▁手軽	-7150
▁スウェーデン	-7151
▁発注	-7152
▁受け入れる	-7153
▁インフルエン	-7154
▁スイーツ	-7155
▁デフレ	-7156
▁ジェット	-7157
▁渡っ	-7158
らめ	-7159
▁性格	-7160
▁頂点	-7161
▁すすめ	-7162
▁役立つ	-7163
勝ち	-7164
▁だい	-7165
り返し	-7166
▁大河	-7167
▁啓発	-7168
▁なれる	-7169
▁正月	-7170
▁残留	-7171
▁挙げる	-7172
替える	-7173
▁党派	-7174
▁シンポ	-7175
▁エキ	-7176
カス	-7177
▁だし	-7178
▁陶	-7179
▁菅原	-7180
▁最悪	-7181
だし	-7182
▁親しま	-7183
▁決済	-7184
▁DVD	-7185
▁全日	-7186
▁寂	-7187
▁両社	-7188
▁アクション	-7189
▁全身	-7190
▁集約	-7191
れき	-7192
▁メーン	-7193
▁天井	-7194
▁発着	-7195
▁蹴	-7196
▁直面	-7197
▁メイン	-7198
▁手作り	-7199
▁ピアノ	-7200
▁ユニホーム	-7201
▁セブン	-7202
▁演習	-7203
▁昨秋	-7204
▁製薬	-7205
▁リア	-7206
▁応用	-7207
ou	-7208
▁骨折	-7209
▁夕方	-7210
▁最速	-7211
▁GM	-7212
ah	-7213
▁ゴム	-7214
▁足元	-7215
▁精度	-7216
▁担っ	-7217
▁工作	-7218
▁飛ん	-7219
▁カネ	-7220
▁穏	-7221
▁両立	-7222
▁海水	-7223
▁競う	-7224
▁各党	-7225
▁八百	-7226
▁はね	-7227
▁新党	-7228
▁動機	-7229
▁大久保	-7230
ウッド	-7231
▁やっぱり	-7232
▁優しい	-7233
▁いける	-7234
▁ボウル	-7235
▁休日	-7236
ジウム	-7237
▁垂	-7238
▁下記	-7239
▁在宅	-7240
▁上演	-7241
▁健全	-7242
▁代打	-7243
ビン	-7244
▁事項	-7245
▁盛ん	-7246
▁老人	-7247
▁受給	-7248
▁北方	-7249
▁怪	-7250
▁練り	-7251
▁トロ	-7252
プス	-7253
▁愛称	-7254
▁親善	-7255
▁大きかっ	-7256
▁景色	-7257
▁公示	-7258
▁桑	-7259
▁蓮	-7260
▁下院	-7261
▁王座	-7262
▁住み	-7263
▁なじみ	-7264
▁ヴィ	-7265
▁聞こえ	-7266
▁税金	-7267
▁痛め	-7268
ミナル	-7269
▁強盗	-7270
▁諮	-7271
▁幅広く	-7272
▁浮かび	-7273
▁ターミナル	-7274
▁打つ	-7275
▁アマチュア	-7276
▁学年	-7277
焼き	-7278
▁もてなし	-7279
▁遠く	-7280
▁及ぼ	-7281
▁武田	-7282
▁掃除	-7283
▁握る	-7284
ほど	-7285
▁法務	-7286
▁棚	-7287
▁甘い	-7288
▁楽曲	-7289
つか	-7290
▁軽く	-7291
▁臨み	-7292
▁鮮やか	-7293
▁炭素	-7294
▁召	-7295
▁ヘリコ	-7296
▁分離	-7297
▁震源	-7298
ンマ	-7299
▁援助	-7300
▁志向	-7301
▁儀	-7302
▁にくく	-7303
▁菊池	-7304
▁食堂	-7305
エア	-7306
▁高等	-7307
▁懇談	-7308
et	-7309
▁水戸	-7310
ットル	-7311
▁補佐	-7312
▁絵本	-7313
▁融合	-7314
▁機動	-7315
▁高崎	-7316
▁わかる	-7317
▁燃え	-7318
▁ヘリコプター	-7319
▁忙	-7320
▁格安	-7321
▁シル	-7322
ネラル	-7323
▁灰	-7324
▁うつ	-7325
▁人手	-7326
ウィ	-7327
▁失わ	-7328
▁u	-7329
▁ぱ	-7330
▁フットボール	-7331
▁とどめ	-7332
▁振る舞	-7333
▁隊員	-7334
ダイ	-7335
▁割引	-7336
▁姉妹	-7337
▁クール	-7338
▁パク	-7339
▁賃上げ	-7340
▁猶	-7341
起こし	-7342
▁恵まれ	-7343
▁農産	-7344
ジェリア	-7345
▁焼け	-7346
▁保持	-7347
▁近鉄	-7348
▁テーブル	-7349
ルー	-7350
▁蒸気	-7351
▁思惑	-7352
▁翁長	-7353
▁インフルエンザ	-7354
ゼル	-7355
▁森林	-7356
抜き	-7357
▁貧困	-7358
行き	-7359
▁実戦	-7360
▁いまだ	-7361
▁則	-7362
▁家計	-7363
▁森田	-7364
▁託	-7365
▁うな	-7366
▁浅田	-7367
▁とらえ	-7368
▁琴	-7369
▁陥っ	-7370
▁つかん	-7371
▁沈没	-7372
▁外出	-7373
▁早大	-7374
▁品川	-7375
▁領海	-7376
▁高額	-7377
▁協同	-7378
▁柄	-7379
▁漁協	-7380
▁乗り出し	-7381
▁連動	-7382
▁預金	-7383
▁側面	-7384
▁名物	-7385
▁憧れ	-7386
▁TBS	-7387
▁店員	-7388
▁コントロール	-7389
しん	-7390
▁ロゴ	-7391
ブルク	-7392
▁一角	-7393
▁春日	-7394
▁女の子	-7395
ウェア	-7396
▁追い風	-7397
▁バルセ	-7398
▁たけ	-7399
▁回る	-7400
▁バルセロナ	-7401
▁無駄	-7402
▁先立ち	-7403
▁ピン	-7404
▁跳	-7405
▁両方	-7406
▁支社	-7407
▁こだわっ	-7408
▁閉じ	-7409
▁盛り込ま	-7410
▁省庁	-7411
▁古川	-7412
▁巡査	-7413
▁オペ	-7414
▁唱	-7415
▁獣	-7416
▁ゴールド	-7417
▁執筆	-7418
▁ナス	-7419
▁ラスト	-7420
▁総理	-7421
たら	-7422
▁覇者	-7423
▁耐え	-7424
▁疾患	-7425
▁来月	-7426
▁ビュー	-7427
▁駅前	-7428
▁興奮	-7429
▁スム	-7430
▁車線	-7431
▁反動	-7432
▁移し	-7433
▁減り	-7434
▁オート	-7435
▁芸人	-7436
OW	-7437
▁同一	-7438
▁換	-7439
▁たか	-7440
▁急い	-7441
▁戻り	-7442
AD	-7443
▁常識	-7444
▁町民	-7445
▁統括	-7446
▁新鮮	-7447
あい	-7448
▁試し	-7449
▁バッテリー	-7450
▁苦しい	-7451
▁コロンビア	-7452
▁伏	-7453
ョウ	-7454
▁総長	-7455
レーター	-7456
▁騒動	-7457
▁菌	-7458
▁交わし	-7459
▁名所	-7460
▁途上	-7461
▁やっと	-7462
▁招致	-7463
▁ヒロイン	-7464
▁歌う	-7465
▁ボトル	-7466
▁探る	-7467
▁拝	-7468
▁潮	-7469
▁見送っ	-7470
▁近郊	-7471
▁昨夏	-7472
▁取り締	-7473
▁階段	-7474
▁同氏	-7475
▁弥	-7476
▁返し	-7477
▁独占	-7478
▁もよう	-7479
▁文章	-7480
▁跡地	-7481
▁ウェブサイト	-7482
▁中堅	-7483
▁拳	-7484
▁力強く	-7485
▁乗る	-7486
▁グルメ	-7487
▁リットル	-7488
▁話し合い	-7489
振り	-7490
oo	-7491
▁待つ	-7492
BA	-7493
▁虫	-7494
▁いや	-7495
▁私立	-7496
▁課長	-7497
▁貨物	-7498
▁女流	-7499
▁バラエ	-7500
▁見合わせ	-7501
▁綱	-7502
▁開示	-7503
まさ	-7504
▁そろえ	-7505
▁メイ	-7506
▁稚	-7507
▁面接	-7508
▁盗ん	-7509
▁スタンプ	-7510
▁埋め立て	-7511
▁激化	-7512
もっ	-7513
PI	-7514
▁あお	-7515
ティック	-7516
▁好み	-7517
ジメント	-7518
▁落下	-7519
▁梅田	-7520
▁開館	-7521
▁ガン	-7522
スタイル	-7523
▁公安	-7524
▁家具	-7525
▁スケジュール	-7526
ノン	-7527
▁今週	-7528
▁相続	-7529
ベルト	-7530
▁族	-7531
▁いわゆる	-7532
▁辻	-7533
▁ワク	-7534
ナーズ	-7535
▁アウェー	-7536
▁高木	-7537
▁たば	-7538
▁小笠原	-7539
▁通話	-7540
▁バレーボール	-7541
▁ギャラリー	-7542
▁由紀	-7543
▁東海道	-7544
▁惑星	-7545
▁決着	-7546
▁近づく	-7547
▁cm	-7548
▁棒	-7549
▁抑止	-7550
▁明るく	-7551
▁かわいい	-7552
▁ヨーロ	-7553
▁マスター	-7554
▁トゥ	-7555
▁備える	-7556
▁孤立	-7557
▁任務	-7558
▁入所	-7559
▁電鉄	-7560
▁中核	-7561
▁猪	-7562
▁ボックス	-7563
▁にら	-7564
▁見事	-7565
▁白星	-7566
ite	-7567
▁ターゲット	-7568
▁釈放	-7569
▁巧	-7570
▁内田	-7571
▁採取	-7572
▁チーズ	-7573
▁夕刊	-7574
▁宜野	-7575
帰り	-7576
▁赤い	-7577
▁苦笑	-7578
▁ゾーン	-7579
▁睡	-7580
▁小中	-7581
▁残業	-7582
ナショナル	-7583
▁女川	-7584
▁返済	-7585
▁参戦	-7586
▁覚醒	-7587
▁コラボレーション	-7588
がき	-7589
▁立た	-7590
▁対局	-7591
▁ASE	-7592
▁品目	-7593
▁桁	-7594
▁刊	-7595
▁安く	-7596
▁猶予	-7597
▁歩行	-7598
▁富士通	-7599
▁シンポジウム	-7600
▁自立	-7601
▁酸化	-7602
▁狩	-7603
▁上原	-7604
▁帰り	-7605
▁主権	-7606
▁代替	-7607
▁レディ	-7608
▁土曜	-7609
▁放映	-7610
▁遮	-7611
▁飲酒	-7612
▁終戦	-7613
▁及ば	-7614
▁TEL	-7615
▁虎	-7616
▁サル	-7617
当て	-7618
▁相模	-7619
▁掲示	-7620
▁ダブルス	-7621
▁FRB	-7622
▁両氏	-7623
▁境内	-7624
レクター	-7625
▁繁殖	-7626
▁応じる	-7627
▁運ぶ	-7628
▁酒井	-7629
▁夏休み	-7630
▁貝	-7631
▁たばこ	-7632
▁刀	-7633
▁燃費	-7634
取ら	-7635
▁スパイ	-7636
▁名付け	-7637
▁ヨーロッパ	-7638
▁ハイテク	-7639
▁死因	-7640
▁座席	-7641
▁工程	-7642
フリカ	-7643
▁声優	-7644
▁苦手	-7645
かん	-7646
▁小山	-7647
▁ポルト	-7648
ボード	-7649
▁振っ	-7650
▁浮き彫り	-7651
▁渋滞	-7652
▁両者	-7653
▁けい	-7654
▁述べる	-7655
▁がれき	-7656
▁日系	-7657
▁星野	-7658
▁物理	-7659
▁消し	-7660
▁八戸	-7661
▁車体	-7662
▁空襲	-7663
▁繰り返す	-7664
▁掘り	-7665
▁中身	-7666
▁シャン	-7667
▁マスク	-7668
▁鑑賞	-7669
▁コピー	-7670
▁占拠	-7671
▁らしく	-7672
▁吉村	-7673
▁巨額	-7674
▁濃度	-7675
▁公正	-7676
▁マネジメント	-7677
▁紅白	-7678
▁根本	-7679
▁武蔵	-7680
▁受け継	-7681
▁突っ	-7682
▁ボーイング	-7683
の中	-7684
▁チャンネル	-7685
id	-7686
▁重く	-7687
▁参列	-7688
▁日清	-7689
そろ	-7690
▁アリーナ	-7691
▁南アフリカ	-7692
▁就航	-7693
▁抱い	-7694
▁ふさわしい	-7695
▁ローン	-7696
▁リサーチ	-7697
ベン	-7698
▁願う	-7699
▁定める	-7700
▁拡散	-7701
リーグ	-7702
▁コンクール	-7703
ばい	-7704
▁餌	-7705
▁弱い	-7706
ストロ	-7707
▁血液	-7708
▁石炭	-7709
▁ちょうど	-7710
▁マーリンズ	-7711
▁なあ	-7712
▁ポール	-7713
▁老舗	-7714
▁部員	-7715
▁通勤	-7716
▁シュー	-7717
▁ベッド	-7718
▁引い	-7719
▁統治	-7720
▁スンニ	-7721
▁ひろ	-7722
▁ぽ	-7723
▁加点	-7724
レンス	-7725
放し	-7726
▁オイル	-7727
▁スズ	-7728
▁おしゃ	-7729
エラ	-7730
▁世の中	-7731
ガニ	-7732
▁全域	-7733
▁夫人	-7734
ーバー	-7735
▁ケーブル	-7736
▁集合	-7737
▁テクノロジー	-7738
▁ワード	-7739
▁冷え	-7740
▁軽い	-7741
ナイ	-7742
▁ソング	-7743
▁刈	-7744
▁突入	-7745
ジット	-7746
▁パイプ	-7747
▁打球	-7748
▁両院	-7749
▁囲ま	-7750
▁睡眠	-7751
▁人類	-7752
▁恐怖	-7753
の里	-7754
ケイ	-7755
▁万全	-7756
▁伝説	-7757
▁屋外	-7758
▁抱き	-7759
▁学力	-7760
▁動かし	-7761
▁スイング	-7762
▁ファイル	-7763
▁クルマ	-7764
▁公民	-7765
▁すみ	-7766
▁喪主	-7767
▁入ら	-7768
▁スープ	-7769
▁手がける	-7770
▁ひっ	-7771
▁柔らか	-7772
▁也	-7773
ごと	-7774
▁当事	-7775
▁潜水	-7776
▁教職	-7777
リンク	-7778
▁ますます	-7779
▁挑発	-7780
▁桜井	-7781
▁見つめ	-7782
とし	-7783
▁本物	-7784
▁優位	-7785
▁正当	-7786
▁土俵	-7787
シスコ	-7788
▁祈り	-7789
▁適正	-7790
▁おしゃれ	-7791
▁帯び	-7792
▁公営	-7793
▁重量	-7794
▁落ち込ん	-7795
▁腐	-7796
▁オレンジ	-7797
▁代金	-7798
▁墨	-7799
▁紙面	-7800
▁エージェ	-7801
▁サプライ	-7802
▁表れ	-7803
▁ジム	-7804
▁不当	-7805
▁減速	-7806
▁払い	-7807
▁送信	-7808
▁リニア	-7809
▁磐田	-7810
ウンサー	-7811
がけ	-7812
▁必死	-7813
▁主役	-7814
▁大橋	-7815
▁過ごす	-7816
▁引き締め	-7817
▁構図	-7818
▁ストップ	-7819
▁晃	-7820
▁任命	-7821
▁行列	-7822
▁瑞	-7823
、4	-7824
▁3、4	-7825
▁風呂	-7826
▁滑り	-7827
▁携わっ	-7828
▁乾燥	-7829
▁国宝	-7830
▁麺	-7831
▁社団	-7832
▁絆	-7833
▁マウス	-7834
ッシャー	-7835
▁寄贈	-7836
am	-7837
▁カロ	-7838
▁ヒー	-7839
▁包括	-7840
そく	-7841
▁放棄	-7842
▁攻勢	-7843
▁甲府	-7844
▁祝日	-7845
▁有利	-7846
▁苦戦	-7847
▁アナウンサー	-7848
▁眺め	-7849
▁カップル	-7850
▁みそ	-7851
▁富岡	-7852
▁っぽ	-7853
▁動か	-7854
▁はやぶさ	-7855
▁ジャンル	-7856
▁TV	-7857
▁雑貨	-7858
▁こなし	-7859
▁棋士	-7860
▁中盤	-7861
▁大雪	-7862
▁旬	-7863
▁ランナー	-7864
▁激励	-7865
▁崩し	-7866
▁盆	-7867
▁雷	-7868
▁高騰	-7869
▁寄与	-7870
ッセル	-7871
▁よろ	-7872
▁迫力	-7873
▁JAL	-7874
▁ご飯	-7875
テッド	-7876
▁近づい	-7877
▁管区	-7878
▁畳	-7879
▁味わっ	-7880
ーキング	-7881
el	-7882
▁階級	-7883
▁セール	-7884
スティバル	-7885
シャン	-7886
▁古墳	-7887
▁モニター	-7888
▁話し合う	-7889
▁バージ	-7890
▁カジ	-7891
▁カイロ	-7892
▁モール	-7893
▁諮問	-7894
▁エク	-7895
▁記さ	-7896
▁テン	-7897
▁刑務	-7898
▁放ち	-7899
▁坂井	-7900
▁見逃	-7901
▁利回り	-7902
▁手渡し	-7903
▁スキル	-7904
▁ASEAN	-7905
▁合唱	-7906
▁一段	-7907
▁役場	-7908
▁損傷	-7909
▁賛同	-7910
▁惨	-7911
▁図り	-7912
▁操業	-7913
▁巣	-7914
▁合戦	-7915
▁たたき	-7916
▁撮っ	-7917
▁歌っ	-7918
▁追い込ま	-7919
▁一家	-7920
▁クルーズ	-7921
▁爆弾	-7922
▁せっ	-7923
▁還	-7924
▁自慢	-7925
▁高かっ	-7926
▁マネジャー	-7927
▁在籍	-7928
▁稀勢	-7929
▁ロング	-7930
▁稀勢の里	-7931
▁翻訳	-7932
HO	-7933
▁聴い	-7934
▁ポー	-7935
さっ	-7936
▁吸収	-7937
▁農地	-7938
▁聞き取り	-7939
▁仲介	-7940
▁配分	-7941
兵衛	-7942
▁宮里	-7943
▁小屋	-7944
▁エンジニア	-7945
▁捕獲	-7946
▁ハリウッド	-7947
▁トマト	-7948
▁実習	-7949
違い	-7950
▁小渕	-7951
▁出動	-7952
▁古代	-7953
▁著名	-7954
▁¥	-7955
▁サーバー	-7956
▁パキスタン	-7957
▁貯蔵	-7958
▁伴っ	-7959
▁定番	-7960
▁知恵	-7961
▁アスリート	-7962
▁モー	-7963
▁伊東	-7964
▁全額	-7965
ダム	-7966
ハイ	-7967
▁公平	-7968
▁不法	-7969
▁本土	-7970
▁竹内	-7971
▁模型	-7972
▁届く	-7973
▁村井	-7974
▁にぎわっ	-7975
▁マーケット	-7976
▁放つ	-7977
だん	-7978
▁積み重	-7979
▁石破	-7980
▁通学	-7981
▁半身	-7982
▁アラブ	-7983
テーション	-7984
▁くま	-7985
▁年少	-7986
▁添え	-7987
▁原点	-7988
▁滑走	-7989
▁遭っ	-7990
▁着物	-7991
▁インターナショナル	-7992
▁負わ	-7993
▁iPS	-7994
▁造り	-7995
▁駿	-7996
グル	-7997
▁増す	-7998
▁載せ	-7999
▁野生	-8000
▁王子	-8001
▁都合	-8002
▁人員	-8003
のり	-8004
やり	-8005
▁セキュリティ	-8006
ャーズ	-8007
▁就活	-8008
▁ナショナル	-8009
▁辞め	-8010
▁リハビリ	-8011
払い	-8012
▁起こす	-8013
▁石田	-8014
リード	-8015
▁朗	-8016
一人	-8017
▁まん	-8018
▁ポジション	-8019
▁作製	-8020
▁彫	-8021
▁歩道	-8022
サイ	-8023
▁従事	-8024
▁引き出し	-8025
ビング	-8026
▁ふく	-8027
▁クリミア	-8028
▁しろ	-8029
▁市川	-8030
▁役者	-8031
▁一人一人	-8032
▁台北	-8033
▁渡り	-8034
▁しゅ	-8035
▁市中	-8036
▁愛好	-8037
▁ミラノ	-8038
▁値上がり	-8039
▁物産	-8040
▁妙	-8041
ベート	-8042
▁機内	-8043
▁毒	-8044
▁WE	-8045
▁評判	-8046
▁輝く	-8047
▁養成	-8048
セフ	-8049
▁来店	-8050
▁祥	-8051
st	-8052
▁次男	-8053
▁襲わ	-8054
▁スポンサー	-8055
▁出雲	-8056
プレー	-8057
▁先物	-8058
▁創作	-8059
▁航行	-8060
▁乃	-8061
▁あえて	-8062
コク	-8063
▁斉藤	-8064
▁脱却	-8065
▁役立て	-8066
▁先駆	-8067
下がり	-8068
▁軽量	-8069
▁時刻	-8070
▁悔しい	-8071
▁h	-8072
▁画家	-8073
▁生じる	-8074
▁給付	-8075
▁ついに	-8076
▁レッ	-8077
▁単純	-8078
▁メド	-8079
▁起こっ	-8080
▁シンボル	-8081
▁セレモニー	-8082
▁楽器	-8083
▁前職	-8084
ソー	-8085
タイ	-8086
▁AL	-8087
▁平壌	-8088
▁志摩	-8089
▁松島	-8090
▁淡路	-8091
たし	-8092
カラ	-8093
▁いこう	-8094
▁芽	-8095
チック	-8096
▁ティー	-8097
しこ	-8098
▁ロケ	-8099
▁高田	-8100
▁倫理	-8101
▁デバイス	-8102
▁庄	-8103
▁名簿	-8104
ショップ	-8105
▁尼	-8106
▁除去	-8107
▁カーブ	-8108
▁授賞	-8109
oku	-8110
▁共感	-8111
▁ソン	-8112
▁経産	-8113
▁転倒	-8114
▁根強い	-8115
▁ハイブリ	-8116
▁ドリ	-8117
▁喫煙	-8118
▁越前	-8119
▁気付い	-8120
▁家康	-8121
▁ビジョン	-8122
▁間に	-8123
▁呼びかける	-8124
▁アカウント	-8125
▁きり	-8126
▁著作	-8127
付き	-8128
▁運休	-8129
▁立体	-8130
ータル	-8131
▁ライフスタイル	-8132
▁佑	-8133
▁除い	-8134
エー	-8135
▁合理	-8136
▁飯田	-8137
▁クマ	-8138
▁落札	-8139
▁加える	-8140
▁生かす	-8141
▁毎回	-8142
▁評論	-8143
▁ずれ	-8144
▁地帯	-8145
▁ステップ	-8146
▁ストリート	-8147
▁全日空	-8148
▁構内	-8149
▁喚	-8150
▁飛躍	-8151
ービー	-8152
▁海底	-8153
▁響き	-8154
▁グラス	-8155
▁流入	-8156
▁しも	-8157
▁刃物	-8158
▁ディー	-8159
▁マネー	-8160
▁フロント	-8161
▁デイ	-8162
▁平安	-8163
al	-8164
▁官僚	-8165
▁ログ	-8166
まつ	-8167
▁アルコール	-8168
せん	-8169
ゴル	-8170
▁先着	-8171
▁フェスティバル	-8172
▁動作	-8173
▁トレンド	-8174
▁ほん	-8175
▁コール	-8176
▁筋肉	-8177
▁飼い	-8178
▁九十	-8179
▁宜野湾	-8180
▁教職員	-8181
▁フォーム	-8182
▁協賛	-8183
▁ストレート	-8184
▁バンコク	-8185
▁バブル	-8186
▁後方	-8187
なす	-8188
▁内訳	-8189
▁税込み	-8190
▁垣	-8191
▁集客	-8192
▁笑み	-8193
▁ハイブリッド	-8194
▁マイク	-8195
トリ	-8196
▁つらい	-8197
▁ピース	-8198
▁存続	-8199
▁サントリー	-8200
▁上手	-8201
▁オーク	-8202
▁売り場	-8203
▁在日	-8204
▁軽傷	-8205
nd	-8206
▁たたえ	-8207
▁充てる	-8208
▁標的	-8209
▁プラザ	-8210
▁タイヤ	-8211
▁ヴァ	-8212
▁自覚	-8213
▁思い出し	-8214
▁コンパクト	-8215
フラン	-8216
▁込む	-8217
▁術	-8218
▁停電	-8219
ネスコ	-8220
▁不在	-8221
▁担い	-8222
▁撤廃	-8223
▁聯	-8224
▁直樹	-8225
▁昆	-8226
デー	-8227
▁絵画	-8228
▁怠	-8229
▁ベア	-8230
ジン	-8231
▁駆使	-8232
▁高岡	-8233
▁テープ	-8234
▁好投	-8235
日市	-8236
▁南米	-8237
▁ろう	-8238
▁同党	-8239
ナギ	-8240
▁ポリ	-8241
▁家事	-8242
▁舛	-8243
▁及ん	-8244
▁三陸	-8245
OM	-8246
▁誤解	-8247
バラ	-8248
▁題材	-8249
▁岩田	-8250
▁特例	-8251
▁任せ	-8252
▁映し	-8253
▁ユネスコ	-8254
ンコ	-8255
▁収納	-8256
心地	-8257
▁つま	-8258
▁双葉	-8259
▁規則	-8260
▁冨	-8261
▁中前	-8262
▁停車	-8263
▁同居	-8264
▁漬	-8265
切ら	-8266
▁みや	-8267
▁プロモ	-8268
▁起こる	-8269
▁抜く	-8270
▁銃撃	-8271
▁ホル	-8272
▁祝い	-8273
▁酒造	-8274
▁渡航	-8275
▁八木	-8276
▁安値	-8277
▁得票	-8278
▁本日	-8279
▁およそ	-8280
ラックス	-8281
▁続伸	-8282
▁吉野	-8283
▁県議	-8284
▁売る	-8285
▁目玉	-8286
ーマン	-8287
▁言論	-8288
▁ちゃんと	-8289
▁イノベーション	-8290
▁破綻	-8291
よいよ	-8292
▁いよいよ	-8293
▁英樹	-8294
三塁	-8295
▁飛び出し	-8296
▁行進	-8297
▁隙	-8298
▁比べる	-8299
▁クレジット	-8300
のぼ	-8301
▁納税	-8302
リアム	-8303
シス	-8304
▁ジャイア	-8305
▁ヒーロー	-8306
▁成り	-8307
すぐ	-8308
▁併せ	-8309
▁堅調	-8310
▁スロー	-8311
▁体感	-8312
▁伊豆	-8313
▁停滞	-8314
▁同局	-8315
▁陸軍	-8316
▁食感	-8317
▁撮り	-8318
ad	-8319
▁大塚	-8320
▁説得	-8321
▁たとえば	-8322
▁ろ	-8323
▁向かい	-8324
▁歯止め	-8325
▁大宮	-8326
▁栗原	-8327
▁贈る	-8328
▁驚く	-8329
▁祝福	-8330
▁南東	-8331
▁違憲	-8332
ダック	-8333
▁バレ	-8334
▁クオーター	-8335
▁オーストリア	-8336
▁任意	-8337
▁緩やか	-8338
▁力士	-8339
▁招く	-8340
▁解任	-8341
すが	-8342
▁サロン	-8343
▁違和	-8344
▁金曜	-8345
▁上級	-8346
▁駆け込み	-8347
▁能登	-8348
▁見極め	-8349
▁イニング	-8350
▁ビーチ	-8351
▁分裂	-8352
▁ポーズ	-8353
▁w	-8354
▁湧	-8355
▁ポルトガル	-8356
▁輝き	-8357
▁熊谷	-8358
▁強硬	-8359
▁美し	-8360
▁はるか	-8361
▁貞	-8362
▁横山	-8363
ナップ	-8364
▁予報	-8365
▁スクリーン	-8366
▁脅迫	-8367
▁織り	-8368
下げる	-8369
▁DNA	-8370
▁毅	-8371
▁全線	-8372
▁同法	-8373
▁買わ	-8374
▁座っ	-8375
▁タウン	-8376
ュン	-8377
▁霊	-8378
▁早め	-8379
▁水泳	-8380
▁堪	-8381
▁登校	-8382
▁放題	-8383
▁向い	-8384
▁盛り込む	-8385
▁白石	-8386
▁同性	-8387
▁演劇	-8388
▁岡本	-8389
▁触れる	-8390
▁盤	-8391
▁箱根	-8392
▁開店	-8393
▁米田	-8394
▁敗戦	-8395
▁雌	-8396
▁中華	-8397
▁確信	-8398
▁国体	-8399
▁西村	-8400
▁進ま	-8401
▁てん	-8402
▁園児	-8403
▁原田	-8404
▁スピーチ	-8405
▁site	-8406
▁就い	-8407
▁濃厚	-8408
▁諦	-8409
▁混ぜ	-8410
▁秋山	-8411
▁レンズ	-8412
▁手前	-8413
▁学長	-8414
▁国有	-8415
ッタ	-8416
▁空母	-8417
▁kah	-8418
、2	-8419
▁1、2	-8420
付い	-8421
▁ダン	-8422
▁前橋	-8423
▁kahoku	-8424
▁識	-8425
--	-8426
▁鋼	-8427
▁コマ	-8428
▁景観	-8429
▁ピンチ	-8430
▁移り	-8431
▁公益	-8432
▁同店	-8433
▁補強	-8434
止める	-8435
▁土産	-8436
▁こぼ	-8437
▁行か	-8438
▁ミュージカル	-8439
▁取り扱い	-8440
▁税収	-8441
▁両市	-8442
▁美味	-8443
▁上回り	-8444
▁手間	-8445
▁びっくり	-8446
▁黒い	-8447
▁終える	-8448
▁使命	-8449
▁郷土	-8450
▁帝国	-8451
▁前倒し	-8452
▁スムーズ	-8453
はや	-8454
▁拡張	-8455
▁疑わ	-8456
▁全然	-8457
▁店長	-8458
▁ポート	-8459
▁嶋	-8460
▁反撃	-8461
▁大い	-8462
▁フィン	-8463
▁ドライブ	-8464
▁片山	-8465
▁漢字	-8466
▁たど	-8467
暮らし	-8468
▁前面	-8469
じん	-8470
▁主任	-8471
▁復元	-8472
▁有罪	-8473
▁乱れ	-8474
チェスター	-8475
▁村山	-8476
▁性的	-8477
▁奪う	-8478
▁ガザ	-8479
▁買い取り	-8480
▁たん	-8481
▁たどり	-8482
なわ	-8483
▁実情	-8484
▁WEB	-8485
▁敵地	-8486
▁日大	-8487
▁樋	-8488
▁育英	-8489
▁同席	-8490
回し	-8491
▁パターン	-8492
▁無効	-8493
▁SU	-8494
▁恭	-8495
▁エクス	-8496
▁書き込み	-8497
▁募金	-8498
▁結束	-8499
▁出入り	-8500
▁うれしかっ	-8501
▁同紙	-8502
▁国王	-8503
ウロ	-8504
▁堂々	-8505
▁車種	-8506
▁≫	-8507
▁戦術	-8508
▁運賃	-8509
▁遅く	-8510
▁幼い	-8511
▁モンゴル	-8512
▁正日	-8513
ジョ	-8514
▁亡くし	-8515
▁ほっと	-8516
▁らし	-8517
▁米紙	-8518
▁落選	-8519
ヴィ	-8520
▁北上	-8521
AR	-8522
▁賛否	-8523
ジラ	-8524
▁秩序	-8525
▁視線	-8526
▁マップ	-8527
▁プロモーション	-8528
▁魅了	-8529
▁生み出し	-8530
▁組み立て	-8531
▁世間	-8532
▁飯塚	-8533
タリー	-8534
▁見守る	-8535
▁休暇	-8536
▁動かす	-8537
▁内戦	-8538
▁ひき	-8539
▁篤	-8540
▁催し	-8541
▁賃貸	-8542
▁アブ	-8543
▁競泳	-8544
▁マドリード	-8545
▁歌い	-8546
せい	-8547
▁在庫	-8548
▁舛添	-8549
▁装着	-8550
▁がっ	-8551
▁漁師	-8552
▁表し	-8553
▁会津	-8554
▁踏み切っ	-8555
▁外し	-8556
▁火口	-8557
▁小売り	-8558
▁最小	-8559
▁親方	-8560
▁ツリー	-8561
▁ヌ	-8562
▁台頭	-8563
▁広瀬	-8564
▁会期	-8565
▁混入	-8566
▁控える	-8567
フィック	-8568
▁数千	-8569
▁キング	-8570
渡さ	-8571
▁不信	-8572
▁告げ	-8573
▁開花	-8574
▁計測	-8575
メートル	-8576
▁年俸	-8577
▁In	-8578
▁冷凍	-8579
▁珠	-8580
▁売ら	-8581
▁駆け付け	-8582
▁マンチェスター	-8583
▁区長	-8584
どん	-8585
▁支障	-8586
ティン	-8587
▁WBC	-8588
▁先日	-8589
▁浜田	-8590
▁松坂	-8591
▁宮本	-8592
▁嘆	-8593
▁マツダ	-8594
▁乏	-8595
▁だら	-8596
▁建屋	-8597
▁行け	-8598
▁ボディー	-8599
▁形状	-8600
▁氏名	-8601
▁療養	-8602
▁県庁	-8603
▁プレーヤー	-8604
▁座長	-8605
▁棄却	-8606
▁深める	-8607
▁コンサルティング	-8608
▁道内	-8609
▁年々	-8610
▁北側	-8611
▁ドリンク	-8612
▁日朝	-8613
▁見舞わ	-8614
▁ユニバー	-8615
▁伊達	-8616
しめ	-8617
▁四百	-8618
▁目線	-8619
▁帽	-8620
▁宮沢	-8621
▁総連	-8622
▁属	-8623
▁売っ	-8624
▁確率	-8625
▁高台	-8626
▁列島	-8627
▁側近	-8628
▁成年	-8629
▁真実	-8630
▁ガーデン	-8631
▁上方	-8632
▁兆し	-8633
▁穏やか	-8634
▁コスプレ	-8635
▁バレン	-8636
▁はん	-8637
▁税抜	-8638
田谷	-8639
▁世田谷	-8640
オル	-8641
▁封じ	-8642
▁こん	-8643
▁ケリー	-8644
▁引く	-8645
▁積ん	-8646
▁二千	-8647
▁押し上げ	-8648
▁アマゾン	-8649
▁評議	-8650
▁暴風	-8651
▁南京	-8652
▁パト	-8653
▁手数	-8654
▁江東	-8655
▁ID	-8656
▁絶滅	-8657
▁コイン	-8658
▁年寄り	-8659
▁連行	-8660
▁ディレクター	-8661
▁空き家	-8662
▁洪	-8663
▁出迎	-8664
▁点灯	-8665
▁配合	-8666
▁SL	-8667
▁検定	-8668
▁表記	-8669
▁ソチ	-8670
▁プロフィ	-8671
▁バリ	-8672
▁皇室	-8673
▁小中学	-8674
▁差し止め	-8675
▁再選	-8676
▁該	-8677
▁洞	-8678
▁新年	-8679
▁ブラン	-8680
▁院長	-8681
▁狂	-8682
プション	-8683
▁ワークショップ	-8684
▁天気	-8685
▁シンク	-8686
▁ありがたい	-8687
▁魂	-8688
▁ぴったり	-8689
▁反日	-8690
▁うどん	-8691
▁月曜	-8692
▁ドキュ	-8693
▁≪	-8694
▁該当	-8695
▁受診	-8696
▁局面	-8697
▁工房	-8698
▁教材	-8699
▁祖母	-8700
▁競合	-8701
▁一瞬	-8702
▁冷蔵	-8703
▁伸び悩	-8704
▁一夜	-8705
▁味方	-8706
▁天神	-8707
▁斗	-8708
▁僧	-8709
▁卓球	-8710
▁漁港	-8711
遣い	-8712
▁中西	-8713
▁靖国	-8714
団連	-8715
▁経団連	-8716
▁水道	-8717
▁フィル	-8718
▁シド	-8719
▁伊賀	-8720
▁船長	-8721
▁巡視	-8722
▁有機	-8723
▁生存	-8724
▁藤本	-8725
▁苦しん	-8726
▁スコットランド	-8727
▁握っ	-8728
▁扉	-8729
▁徳川	-8730
▁戦国	-8731
▁ダル	-8732
▁大胆	-8733
▁文雄	-8734
▁ウル	-8735
▁ナビ	-8736
▁蓄積	-8737
▁持ち味	-8738
▁ランチ	-8739
▁囲碁	-8740
▁泣き	-8741
▁戦前	-8742
▁いくら	-8743
▁押収	-8744
▁パット	-8745
▁ばら	-8746
▁官民	-8747
▁通商	-8748
▁速やか	-8749
▁レンタル	-8750
▁駅伝	-8751
▁離党	-8752
▁レール	-8753
▁佐世	-8754
▁つなぎ	-8755
▁佐世保	-8756
▁プライベート	-8757
▁定義	-8758
入っ	-8759
▁困っ	-8760
▁塗り	-8761
▁和食	-8762
▁ダイヤモンド	-8763
じり	-8764
▁芝居	-8765
須賀	-8766
▁講義	-8767
▁抜本	-8768
▁扇	-8769
カイ	-8770
▁キャスト	-8771
▁目安	-8772
▁筆頭	-8773
▁ウィリアム	-8774
▁ガイドライン	-8775
▁妖怪	-8776
▁洗濯	-8777
▁ブルペン	-8778
▁民営	-8779
▁県警	-8780
ディネ	-8781
だい	-8782
▁アメリカン	-8783
▁ブリュ	-8784
▁汚職	-8785
▁職務	-8786
▁爽	-8787
▁事案	-8788
▁正義	-8789
▁風味	-8790
▁苗	-8791
▁市営	-8792
▁標高	-8793
▁怖い	-8794
▁教会	-8795
▁特化	-8796
▁炊	-8797
▁プレッシャー	-8798
▁ポケット	-8799
▁休止	-8800
▁だん	-8801
▁ひど	-8802
▁なでしこ	-8803
▁取り出し	-8804
▁ランニング	-8805
▁ヶ	-8806
▁安田	-8807
ばん	-8808
▁柴田	-8809
▁スズキ	-8810
次郎	-8811
▁大山	-8812
▁近江	-8813
▁刷	-8814
▁店主	-8815
▁寮	-8816
▁有数	-8817
ストラ	-8818
▁チャンピオンズ	-8819
ーナス	-8820
▁クリントン	-8821
▁ロス	-8822
▁ヒト	-8823
▁PP	-8824
▁量産	-8825
▁川口	-8826
▁楽しめ	-8827
▁ビック	-8828
▁フォト	-8829
▁セキュリティー	-8830
▁波及	-8831
▁針	-8832
▁シェフ	-8833
▁ハート	-8834
▁さらさ	-8835
▁清掃	-8836
▁鳩	-8837
▁とどまり	-8838
▁特長	-8839
▁なに	-8840
▁谷垣	-8841
▁大勝	-8842
▁彦根	-8843
il	-8844
▁エージェント	-8845
▁MV	-8846
▁秀吉	-8847
▁朋	-8848
ドラ	-8849
▁因	-8850
▁在り	-8851
コー	-8852
▁人件	-8853
DI	-8854
▁鎌倉	-8855
▁つれ	-8856
▁値下がり	-8857
PIX	-8858
▁危惧	-8859
▁回し	-8860
▁プロセス	-8861
▁キス	-8862
▁朝方	-8863
▁死傷	-8864
▁暴走	-8865
▁TOPIX	-8866
んぼ	-8867
▁中古	-8868
▁出会っ	-8869
▁日光	-8870
▁関わり	-8871
▁失業	-8872
▁勤め	-8873
▁がんば	-8874
▁発進	-8875
▁信託	-8876
▁初心	-8877
▁悩ん	-8878
▁旭川	-8879
▁梅雨	-8880
▁ボル	-8881
▁ゲート	-8882
▁水揚げ	-8883
▁クラフト	-8884
▁共闘	-8885
▁恋人	-8886
▁摂取	-8887
▁死体	-8888
▁チラシ	-8889
▁リーマン	-8890
▁福山	-8891
▁尼崎	-8892
▁考案	-8893
▁豪州	-8894
▁食べ物	-8895
wit	-8896
▁疎	-8897
▁大輔	-8898
▁弊	-8899
▁宴	-8900
▁憤	-8901
▁プリント	-8902
▁宛	-8903
▁鳥栖	-8904
▁切符	-8905
▁ベルト	-8906
▁性別	-8907
▁期日	-8908
▁案件	-8909
▁UR	-8910
▁キュ	-8911
▁挑ん	-8912
▁呼び掛ける	-8913
▁水俣	-8914
▁祈願	-8915
▁強行	-8916
▁褒	-8917
▁遠征	-8918
▁賄	-8919
▁庭園	-8920
▁規格	-8921
▁積み重ね	-8922
▁河村	-8923
ージュ	-8924
ミュ	-8925
▁QU	-8926
▁懸け	-8927
▁視覚	-8928
▁取り戻し	-8929
▁チリ	-8930
▁楽しかっ	-8931
▁芦	-8932
▁ヘア	-8933
▁脱出	-8934
▁偶	-8935
ロス	-8936
▁ペー	-8937
▁一言	-8938
▁皇居	-8939
▁届ける	-8940
▁反落	-8941
▁御所	-8942
ウォ	-8943
▁衆参	-8944
▁船舶	-8945
▁まさか	-8946
▁年始	-8947
AP	-8948
▁ウェイ	-8949
▁寄り添	-8950
▁疲労	-8951
▁CC	-8952
▁きっと	-8953
▁戸惑	-8954
▁つない	-8955
▁悪質	-8956
▁余儀	-8957
▁南三	-8958
▁南三陸	-8959
ッパー	-8960
▁ひょう	-8961
▁西側	-8962
▁サンケイ	-8963
▁倒壊	-8964
▁優子	-8965
▁ハル	-8966
▁バラエティー	-8967
▁完封	-8968
▁舌	-8969
▁すり	-8970
▁フィルム	-8971
▁中毒	-8972
▁ものづくり	-8973
▁言動	-8974
▁キッチ	-8975
▁生き残	-8976
▁一員	-8977
▁出国	-8978
▁賭	-8979
▁ウナギ	-8980
▁刺さ	-8981
▁用途	-8982
▁ハードル	-8983
▁マス	-8984
▁なさい	-8985
▁エントリー	-8986
▁主流	-8987
▁参り	-8988
ログ	-8989
▁全勝	-8990
ッキング	-8991
▁譲渡	-8992
▁土屋	-8993
▁堪能	-8994
▁家屋	-8995
▁キリスト	-8996
▁修了	-8997
▁マグロ	-8998
ICK	-8999
▁次元	-9000
▁PS	-9001
▁情熱	-9002
▁法王	-9003
▁佐野	-9004
▁取り締まり	-9005
▁せよう	-9006
▁シリ	-9007
▁下村	-9008
▁じっくり	-9009
▁生み出す	-9010
▁リング	-9011
▁いきなり	-9012
▁マルチ	-9013
▁ふた	-9014
▁裏付け	-9015
▁春季	-9016
▁生態	-9017
▁ポル	-9018
▁ヤマハ	-9019
▁大いに	-9020
▁講習	-9021
▁質疑	-9022
▁熱中	-9023
▁いん	-9024
▁才能	-9025
▁包丁	-9026
▁手口	-9027
▁改装	-9028
▁おいし	-9029
▁コーディネ	-9030
▁中期	-9031
▁導い	-9032
▁政調	-9033
▁解雇	-9034
▁マリン	-9035
▁緊迫	-9036
▁制球	-9037
▁機運	-9038
▁加わる	-9039
▁申し出	-9040
▁試食	-9041
▁奪還	-9042
▁奉納	-9043
▁乗り出す	-9044
▁聯合	-9045
▁除き	-9046
▁郡山	-9047
▁原稿	-9048
▁赴	-9049
▁没	-9050
▁抜群	-9051
▁多発	-9052
▁ジャズ	-9053
▁不調	-9054
▁寸	-9055
▁竹島	-9056
▁続々	-9057
▁もはや	-9058
▁プレート	-9059
▁仮想	-9060
▁婦人	-9061
▁レジ	-9062
▁取れる	-9063
▁シドニー	-9064
▁望ん	-9065
▁ベイ	-9066
▁録音	-9067
▁降っ	-9068
▁笠	-9069
▁努める	-9070
▁満ち	-9071
▁水面	-9072
▁施し	-9073
▁一括	-9074
▁答える	-9075
▁発動	-9076
▁胃	-9077
▁やれ	-9078
▁錯	-9079
▁築地	-9080
▁散歩	-9081
▁昼食	-9082
ヘン	-9083
▁こい	-9084
▁しょ	-9085
▁椅	-9086
▁レンジャーズ	-9087
▁小幅	-9088
▁覆わ	-9089
▁来週	-9090
▁欠席	-9091
▁下回る	-9092
▁キッチン	-9093
▁強風	-9094
▁立法	-9095
ラビア	-9096
▁ナスダック	-9097
▁タンパ	-9098
witter	-9099
▁技能	-9100
▁コム	-9101
▁過酷	-9102
▁宮城野	-9103
▁明かす	-9104
▁創立	-9105
▁コミック	-9106
▁転職	-9107
▁シャル	-9108
▁大社	-9109
▁対外	-9110
▁政令	-9111
▁わたし	-9112
▁探す	-9113
▁射殺	-9114
▁めざす	-9115
▁受け取る	-9116
▁混雑	-9117
▁労組	-9118
▁放火	-9119
▁師匠	-9120
▁なくなる	-9121
▁早急	-9122
▁誘っ	-9123
▁椅子	-9124
▁合い	-9125
センス	-9126
▁課程	-9127
トム	-9128
強く	-9129
▁山岳	-9130
▁ロビー	-9131
▁休憩	-9132
▁白山	-9133
▁教える	-9134
▁翼	-9135
▁参画	-9136
▁スライダー	-9137
▁のり	-9138
▁我慢	-9139
レッジ	-9140
▁体長	-9141
▁信長	-9142
▁手順	-9143
▁通る	-9144
▁渡部	-9145
▁余地	-9146
▁薩	-9147
▁釧	-9148
▁いら	-9149
▁コンビニエンス	-9150
▁じょう	-9151
▁テキサス	-9152
▁宅配	-9153
▁思える	-9154
▁零	-9155
、3	-9156
▁ふう	-9157
▁2、3	-9158
▁フィールド	-9159
▁歌劇	-9160
▁試作	-9161
▁就業	-9162
▁道筋	-9163
▁チャー	-9164
▁敬称	-9165
▁アプロ	-9166
▁欠場	-9167
▁早けれ	-9168
▁贈っ	-9169
▁高原	-9170
▁後期	-9171
▁頻繁	-9172
▁出口	-9173
▁豊洲	-9174
▁OK	-9175
▁絡み	-9176
▁セク	-9177
▁展覧	-9178
▁商事	-9179
▁遅い	-9180
▁アプローチ	-9181
かしく	-9182
▁京大	-9183
▁バッ	-9184
▁遊ん	-9185
▁藍	-9186
▁周知	-9187
▁三木	-9188
▁甘利	-9189
▁就労	-9190
▁美しく	-9191
▁従っ	-9192
▁住まい	-9193
わさ	-9194
▁向こう	-9195
▁審理	-9196
▁菅野	-9197
パール	-9198
▁倍率	-9199
▁傾け	-9200
▁心境	-9201
▁共催	-9202
▁諦め	-9203
稲田	-9204
モア	-9205
▁入山	-9206
▁実業	-9207
▁仕入れ	-9208
▁ブリュッセル	-9209
▁彰	-9210
▁エッセ	-9211
▁玲	-9212
▁和平	-9213
▁杏	-9214
▁協調	-9215
サリー	-9216
▁悲しみ	-9217
▁琉	-9218
▁悟	-9219
回っ	-9220
▁資材	-9221
▁矛	-9222
▁タオル	-9223
▁繰り返さ	-9224
リフ	-9225
ベット	-9226
▁づける	-9227
▁マスコミ	-9228
▁外観	-9229
▁アプリケーション	-9230
▁奇跡	-9231
▁斜面	-9232
▁新入	-9233
▁拾	-9234
▁据え置	-9235
▁又	-9236
▁QUICK	-9237
▁ドン	-9238
▁激戦	-9239
ザン	-9240
▁先週	-9241
▁分散	-9242
▁名目	-9243
▁シネ	-9244
▁大地	-9245
▁苦しみ	-9246
▁捕鯨	-9247
▁舎	-9248
▁克服	-9249
▁金銭	-9250
▁力強い	-9251
▁朱	-9252
▁劇団	-9253
▁政界	-9254
▁みよう	-9255
▁恐竜	-9256
▁ポロ	-9257
セラ	-9258
ークル	-9259
▁土壌	-9260
▁家宅	-9261
▁ジョージ	-9262
▁臭	-9263
▁鄭	-9264
▁常任	-9265
▁JT	-9266
▁代わっ	-9267
▁琵	-9268
▁琵琶	-9269
▁衣料	-9270
▁贈呈	-9271
▁前身	-9272
▁誤り	-9273
▁横ばい	-9274
ぶん	-9275
▁ベビー	-9276
▁住居	-9277
▁建て替え	-9278
アラ	-9279
江田	-9280
▁FAX	-9281
▁海江田	-9282
▁アキ	-9283
▁手伝い	-9284
▁四日市	-9285
之助	-9286
▁手当	-9287
イカ	-9288
▁へん	-9289
▁早稲田	-9290
▁圧勝	-9291
▁松江	-9292
▁BS	-9293
▁薄い	-9294
▁黒人	-9295
▁穂	-9296
▁高層	-9297
がて	-9298
▁回線	-9299
▁躍進	-9300
▁市政	-9301
▁プロデュース	-9302
▁弦	-9303
調べ	-9304
▁すば	-9305
▁シナリオ	-9306
▁両手	-9307
▁幸福	-9308
▁縫	-9309
▁藤沢	-9310
▁昇進	-9311
▁ケン	-9312
▁東山	-9313
▁けん引	-9314
▁井戸	-9315
▁一転	-9316
エネ	-9317
寄っ	-9318
▁気づい	-9319
▁詰まっ	-9320
▁細野	-9321
▁登壇	-9322
▁離島	-9323
▁飛ぶ	-9324
▁ポップ	-9325
▁大崎	-9326
▁ギター	-9327
▁急激	-9328
▁器具	-9329
▁特性	-9330
▁倍増	-9331
▁屋上	-9332
▁繁華	-9333
▁狭い	-9334
▁ボン	-9335
▁領有	-9336
▁平田	-9337
▁習氏	-9338
▁だまし取っ	-9339
▁重ねる	-9340
▁直線	-9341
▁あらか	-9342
▁妥当	-9343
▁分割	-9344
▁右足	-9345
▁ジュネ	-9346
▁おかしい	-9347
▁やがて	-9348
▁ターン	-9349
しょ	-9350
▁防護	-9351
▁皮膚	-9352
返り	-9353
▁内陸	-9354
▁百合	-9355
▁粒子	-9356
▁にじま	-9357
▁否決	-9358
▁刊行	-9359
▁妃	-9360
ろい	-9361
▁安否	-9362
▁県内外	-9363
▁ノン	-9364
▁発送	-9365
▁膝	-9366
▁とく	-9367
▁及ぼす	-9368
▁辰	-9369
▁尽力	-9370
▁コミュニティー	-9371
▁化石	-9372
高田	-9373
▁武藤	-9374
▁リラックス	-9375
▁対日	-9376
▁サンゴ	-9377
▁本音	-9378
▁学芸	-9379
勝っ	-9380
▁田辺	-9381
▁間近	-9382
▁館長	-9383
▁ライス	-9384
▁満たし	-9385
▁路面	-9386
▁くす	-9387
▁ベン	-9388
▁ミュージック	-9389
▁テント	-9390
▁侵略	-9391
▁フルーツ	-9392
▁多摩	-9393
▁やろう	-9394
▁あらかじめ	-9395
▁付加	-9396
てき	-9397
▁那須	-9398
▁AF	-9399
▁SM	-9400
▁直人	-9401
動き	-9402
▁バトル	-9403
▁社説	-9404
▁幾	-9405
▁省エネ	-9406
▁凶	-9407
▁無死	-9408
▁移っ	-9409
▁出迎え	-9410
▁ユース	-9411
▁休養	-9412
▁笑う	-9413
▁ちゃう	-9414
▁健二	-9415
▁巡回	-9416
▁契機	-9417
ルツ	-9418
▁木曽	-9419
▁エンターテインメント	-9420
▁勝敗	-9421
▁飲む	-9422
▁取り戻す	-9423
▁続落	-9424
▁応える	-9425
▁本書	-9426
▁理化	-9427
▁出現	-9428
▁加わり	-9429
▁りん	-9430
▁預け	-9431
タント	-9432
▁ひた	-9433
▁改選	-9434
▁メイク	-9435
▁合成	-9436
▁値段	-9437
▁延伸	-9438
▁逃れ	-9439
▁ジャケット	-9440
▁喚起	-9441
レム	-9442
▁都民	-9443
▁鳩山	-9444
▁スプリ	-9445
▁チーフ	-9446
▁にぎわい	-9447
▁勲	-9448
▁餅	-9449
▁桐蔭	-9450
▁腫	-9451
かしい	-9452
▁若年	-9453
▁徴収	-9454
▁ジェイズ	-9455
▁アレンジ	-9456
▁机	-9457
▁実務	-9458
▁アサド	-9459
▁吸い	-9460
▁ブレーク	-9461
チア	-9462
▁やさ	-9463
▁名乗る	-9464
エスト	-9465
▁保つ	-9466
ap	-9467
▁整える	-9468
▁取り除	-9469
▁電波	-9470
▁遠い	-9471
▁レコード	-9472
▁ジャイアンツ	-9473
▁魔法	-9474
▁デュ	-9475
▁通訳	-9476
▁ジュネーブ	-9477
▁披露目	-9478
投げ	-9479
▁献金	-9480
▁霧	-9481
▁本質	-9482
▁立命	-9483
▁黄金	-9484
ch	-9485
▁奄	-9486
▁こま	-9487
▁配当	-9488
▁汁	-9489
▁投げる	-9490
▁加賀	-9491
▁奄美	-9492
▁かさ	-9493
▁営む	-9494
▁レーダー	-9495
▁サウジア	-9496
落ち	-9497
▁多額	-9498
▁悲劇	-9499
▁本気	-9500
▁優遇	-9501
▁乗員	-9502
しくは	-9503
▁装飾	-9504
き出し	-9505
▁理化学	-9506
▁形態	-9507
▁かま	-9508
▁薩摩	-9509
▁釧路	-9510
▁頑張る	-9511
▁楽団	-9512
▁さすが	-9513
ook	-9514
▁積雪	-9515
▁ゼネラル	-9516
▁国税	-9517
▁筆者	-9518
イクル	-9519
ギリス	-9520
▁欄	-9521
▁克也	-9522
▁磨き	-9523
▁話し合っ	-9524
▁抹	-9525
▁インパクト	-9526
タイン	-9527
▁しゃべ	-9528
▁アテ	-9529
▁見い	-9530
▁少なかっ	-9531
▁空軍	-9532
▁強まり	-9533
めん	-9534
やす	-9535
▁告白	-9536
▁遺骨	-9537
プレス	-9538
▁日本橋	-9539
▁親露	-9540
▁青い	-9541
▁呈	-9542
▁休館	-9543
くっ	-9544
▁おっ	-9545
lu	-9546
▁体質	-9547
▁内外	-9548
▁島田	-9549
▁無形	-9550
▁厳格	-9551
▁彫刻	-9552
▁戻し	-9553
▁取り調べ	-9554
ファレンス	-9555
▁磯	-9556
▁定年	-9557
▁つる	-9558
▁レア	-9559
▁古く	-9560
▁うかがえる	-9561
▁エンタ	-9562
▁支払っ	-9563
▁盛り上がり	-9564
ばく	-9565
▁安佐	-9566
▁ブライ	-9567
▁ECB	-9568
▁蒲	-9569
▁出かけ	-9570
▁越し	-9571
▁ライター	-9572
▁先駆け	-9573
▁サブ	-9574
▁Twitter	-9575
▁カテ	-9576
▁欠陥	-9577
▁遠隔	-9578
▁細川	-9579
▁カンパ	-9580
▁カツ	-9581
▁集結	-9582
まとめ	-9583
▁支払わ	-9584
▁表す	-9585
▁取扱	-9586
▁ミキ	-9587
▁桐生	-9588
▁汚れ	-9589
リーブ	-9590
▁ダイオ	-9591
▁答申	-9592
▁温かい	-9593
▁戦時	-9594
▁数量	-9595
▁降る	-9596
▁法定	-9597
▁左前	-9598
▁名門	-9599
▁奮闘	-9600
▁曽	-9601
ヨン	-9602
リアン	-9603
▁月間	-9604
▁サークル	-9605
▁ロイヤルズ	-9606
▁リバ	-9607
▁東急	-9608
▁療法	-9609
▁知能	-9610
▁損壊	-9611
▁文庫	-9612
▁サウジアラビア	-9613
▁日航	-9614
ジョン	-9615
セット	-9616
▁さて	-9617
▁角度	-9618
▁握り	-9619
▁守ら	-9620
▁祭典	-9621
▁斬	-9622
▁三千	-9623
▁夕食	-9624
▁幼児	-9625
▁微妙	-9626
パウロ	-9627
▁ヒント	-9628
▁サンフラン	-9629
ay	-9630
▁IP	-9631
▁減額	-9632
▁上村	-9633
▁増強	-9634
▁咲き	-9635
▁受け取り	-9636
▁人種	-9637
▁厳重	-9638
▁授与	-9639
▁架空	-9640
▁部下	-9641
▁アドバイ	-9642
▁充て	-9643
▁警部	-9644
▁かし	-9645
▁本紙	-9646
▁強かっ	-9647
▁損益	-9648
▁適し	-9649
▁入れ替え	-9650
▁総括	-9651
▁丸山	-9652
▁受信	-9653
▁スイッチ	-9654
▁八重	-9655
▁スノー	-9656
▁ミラン	-9657
▁カト	-9658
▁国外	-9659
▁蚊	-9660
▁完璧	-9661
▁楽しま	-9662
▁スロ	-9663
▁媒	-9664
メンタリー	-9665
▁出生	-9666
▁送付	-9667
▁km	-9668
▁随時	-9669
▁学術	-9670
▁文言	-9671
▁神田	-9672
▁尽くす	-9673
▁サンフランシスコ	-9674
▁細かい	-9675
▁密着	-9676
▁キック	-9677
おい	-9678
▁幻想	-9679
▁失い	-9680
▁戦車	-9681
▁薬剤	-9682
▁みずほ	-9683
▁縄	-9684
▁イギリス	-9685
らせる	-9686
▁ごく	-9687
▁ドリーム	-9688
▁強烈	-9689
▁水分	-9690
レオ	-9691
▁理論	-9692
▁隠れ	-9693
▁飛ばし	-9694
▁降板	-9695
▁くじ	-9696
▁用地	-9697
▁平等	-9698
▁インテリア	-9699
▁シフト	-9700
▁好感	-9701
▁遺憾	-9702
▁エリ	-9703
▁薫	-9704
▁宇治	-9705
▁なくなり	-9706
▁通路	-9707
▁休業	-9708
▁外科	-9709
ニャ	-9710
コミ	-9711
SS	-9712
プレイ	-9713
▁ネパール	-9714
▁想い	-9715
ルン	-9716
▁ドラゴン	-9717
▁j	-9718
▁絶え	-9719
▁メカ	-9720
▁着目	-9721
▁試行	-9722
▁東大阪	-9723
▁あきらめ	-9724
▁侍	-9725
▁訳	-9726
▁後日	-9727
▁阿蘇	-9728
▁チップ	-9729
▁提唱	-9730
▁ポーランド	-9731
▁もみ	-9732
▁ナイジェリア	-9733
▁堤防	-9734
▁聖地	-9735
▁始動	-9736
DA	-9737
▁つり	-9738
▁算出	-9739
▁郵政	-9740
▁弟子	-9741
▁コンサルタント	-9742
▁土木	-9743
▁ふれ	-9744
▁推測	-9745
▁ワゴン	-9746
▁踏み切る	-9747
▁携わる	-9748
しか	-9749
▁つづっ	-9750
▁イー	-9751
▁赤坂	-9752
▁崎	-9753
▁今井	-9754
▁内側	-9755
▁溶け	-9756
二塁	-9757
▁直結	-9758
▁バージョン	-9759
▁カジノ	-9760
▁分類	-9761
▁担保	-9762
▁新築	-9763
▁ドキュメンタリー	-9764
▁水槽	-9765
▁経常	-9766
▁代々木	-9767
▁サンパウロ	-9768
戻し	-9769
▁あて	-9770
▁すき	-9771
▁着け	-9772
▁販路	-9773
▁鋭い	-9774
▁真摯	-9775
▁木材	-9776
▁脂肪	-9777
▁マイナー	-9778
▁発祥	-9779
▁培っ	-9780
▁添付	-9781
▁町田	-9782
ビッチ	-9783
▁ボーナス	-9784
▁f	-9785
▁奴	-9786
立た	-9787
▁配達	-9788
▁我が	-9789
▁武道	-9790
▁サンタ	-9791
▁整っ	-9792
▁マリナーズ	-9793
▁オーディション	-9794
▁カギ	-9795
▁寿命	-9796
▁膨らん	-9797
▁外食	-9798
▁菊地	-9799
▁つぶや	-9800
▁横須賀	-9801
▁背負っ	-9802
▁見守り	-9803
▁週明け	-9804
▁王国	-9805
▁究明	-9806
▁豊島	-9807
▁尻	-9808
▁潜在	-9809
▁レディース	-9810
▁部署	-9811
ぜん	-9812
▁四季	-9813
そか	-9814
▁機長	-9815
ss	-9816
▁インチ	-9817
▁おもしろ	-9818
▁NG	-9819
▁池袋	-9820
▁発光	-9821
▁引き継い	-9822
▁うた	-9823
▁履行	-9824
▁採算	-9825
ロイド	-9826
▁終始	-9827
▁浮かぶ	-9828
ッシング	-9829
▁ライセンス	-9830
▁連立	-9831
▁麻薬	-9832
▁慌	-9833
▁対面	-9834
▁カプ	-9835
▁成し	-9836
巻く	-9837
▁帰る	-9838
▁ユニバーサル	-9839
▁嘘	-9840
っぽ	-9841
▁熊野	-9842
らん	-9843
▁ゆえ	-9844
ージー	-9845
▁恩恵	-9846
▁走ら	-9847
わけ	-9848
▁かえ	-9849
起こす	-9850
本木	-9851
▁左足	-9852
▁シティー	-9853
▁嬉	-9854
差し	-9855
▁個々	-9856
▁皿	-9857
▁間違っ	-9858
▁もしくは	-9859
▁ミルク	-9860
▁さか	-9861
▁タグ	-9862
▁明大	-9863
▁下がる	-9864
▁慶応	-9865
▁職種	-9866
▁補給	-9867
▁偽造	-9868
▁名乗り	-9869
▁めで	-9870
▁ネク	-9871
▁空振り	-9872
▁早々	-9873
▁けん制	-9874
▁確かめ	-9875
▁KO	-9876
▁歴任	-9877
ナイテッド	-9878
▁バド	-9879
▁県政	-9880
▁間際	-9881
▁旨	-9882
▁訂	-9883
▁アレ	-9884
▁債権	-9885
▁いかが	-9886
▁一面	-9887
▁坪	-9888
▁ラス	-9889
フレット	-9890
▁次女	-9891
▁ソフトウェア	-9892
RI	-9893
▁漏らし	-9894
▁絡む	-9895
▁レッスン	-9896
▁遥	-9897
▁クア	-9898
▁カタール	-9899
▁下方	-9900
ニコ	-9901
▁地中	-9902
▁投下	-9903
▁歌詞	-9904
▁面倒	-9905
ネツ	-9906
▁カウント	-9907
ちに	-9908
▁訂正	-9909
▁ボストン	-9910
▁制約	-9911
▁大村	-9912
▁酔	-9913
▁打診	-9914
▁イケ	-9915
▁稲田	-9916
▁ユナイテッド	-9917
▁手配	-9918
▁ダイエット	-9919
ニスト	-9920
▁不全	-9921
▁失踪	-9922
▁欠い	-9923
▁失う	-9924
▁仮称	-9925
▁真央	-9926
▁年長	-9927
▁素直	-9928
▁液体	-9929
▁吉川	-9930
▁海峡	-9931
▁チェンジ	-9932
roid	-9933
▁NATO	-9934
▁牛乳	-9935
▁毀	-9936
ダヤ	-9937
ッポ	-9938
▁牛肉	-9939
▁祝う	-9940
▁講談	-9941
掛かり	-9942
▁マート	-9943
▁消火	-9944
▁心地	-9945
テナンス	-9946
▁磁	-9947
▁珍しく	-9948
▁エレクト	-9949
▁可愛	-9950
▁数え	-9951
▁都議	-9952
▁屋内	-9953
▁トラフ	-9954
▁適合	-9955
ッショ	-9956
▁よみ	-9957
▁土日	-9958
▁要する	-9959
がし	-9960
▁たった	-9961
▁見どころ	-9962
▁米韓	-9963
▁WHO	-9964
▁オープニング	-9965
▁箇	-9966
▁吹奏	-9967
▁エンド	-9968
▁通称	-9969
▁コミュニティ	-9970
▁じゅ	-9971
▁ドゥ	-9972
▁ラリー	-9973
▁マニュアル	-9974
▁例外	-9975
▁摩	-9976
カリ	-9977
▁殺し	-9978
▁真ん	-9979
▁フランク	-9980
▁接種	-9981
▁記入	-9982
▁締めく	-9983
▁木下	-9984
▁探っ	-9985
▁フィット	-9986
▁はがき	-9987
▁告別	-9988
▁接戦	-9989
▁難し	-9990
▁流す	-9991
▁脅し	-9992
ぼう	-9993
▁二階	-9994
▁朝食	-9995
▁盗塁	-9996
▁ミズ	-9997
ndroid	-9998
割り	-9999
▁不服	-10000
▁十字	-10001
▁悩む	-10002
▁監修	-10003
▁ジャー	-10004
たび	-10005
▁冒険	-10006
▁背後	-10007
▁通い	-10008
▁発令	-10009
▁攻守	-10010
レーン	-10011
▁カンファレンス	-10012
▁自営	-10013
▁受刑	-10014
▁米側	-10015
▁つくら	-10016
▁コウ	-10017
▁贈り	-10018
▁邦人	-10019
▁知り合い	-10020
▁ユダヤ	-10021
▁ナイン	-10022
▁籍	-10023
▁膨大	-10024
▁みれ	-10025
▁エキス	-10026
▁下げる	-10027
▁スカート	-10028
▁エコノミ	-10029
▁秋葉	-10030
▁半面	-10031
酒屋	-10032
▁速い	-10033
▁居酒屋	-10034
▁舟	-10035
▁功績	-10036
▁運命	-10037
がえ	-10038
▁上京	-10039
▁国語	-10040
▁最強	-10041
だち	-10042
▁出土	-10043
▁ポンド	-10044
▁落とす	-10045
▁レスリング	-10046
こち	-10047
▁エネ	-10048
▁数学	-10049
ビッシュ	-10050
▁絞っ	-10051
ピア	-10052
NG	-10053
▁良好	-10054
ニョ	-10055
▁ジオ	-10056
▁終わら	-10057
▁放出	-10058
▁騒ぎ	-10059
▁レク	-10060
▁明石	-10061
▁カブス	-10062
▁葵	-10063
わす	-10064
▁短く	-10065
▁船橋	-10066
▁ダルビッシュ	-10067
▁メンテナンス	-10068
▁ウィン	-10069
▁漆	-10070
▁相模原	-10071
▁シカゴ	-10072
▁琉球	-10073
▁バレエ	-10074
▁めい	-10075
▁Android	-10076
むね	-10077
積み	-10078
▁下関	-10079
▁ファー	-10080
▁マクド	-10081
▁命名	-10082
▁強まる	-10083
▁痕	-10084
▁一種	-10085
▁達也	-10086
▁換算	-10087
▁綿	-10088
▁住人	-10089
▁鍛え	-10090
▁BA	-10091
▁解剖	-10092
▁需給	-10093
▁やむ	-10094
▁年収	-10095
▁ナイフ	-10096
▁ミュージアム	-10097
▁移す	-10098
▁西田	-10099
▁プラスチック	-10100
▁甚	-10101
▁川島	-10102
ミントン	-10103
ion	-10104
▁掘削	-10105
▁間に合わ	-10106
▁嵐	-10107
▁海老	-10108
▁ハンドル	-10109
▁単なる	-10110
▁同会	-10111
▁分担	-10112
▁アレル	-10113
泳ぎ	-10114
▁地面	-10115
▁引き下げる	-10116
▁ES	-10117
▁手帳	-10118
▁歯科	-10119
ジック	-10120
▁アルミ	-10121
▁サイクル	-10122
▁ストレ	-10123
デター	-10124
▁取り込み	-10125
通り	-10126
▁松原	-10127
▁死ぬ	-10128
▁織田	-10129
▁ぐる	-10130
▁とれ	-10131
▁止める	-10132
▁吾	-10133
▁県道	-10134
▁真ん中	-10135
▁条項	-10136
▁注視	-10137
▁飼い主	-10138
▁生ん	-10139
▁同庁	-10140
▁引用	-10141
▁千歳	-10142
▁風評	-10143
▁市販	-10144
▁メルケル	-10145
▁KD	-10146
▁気合	-10147
▁久し	-10148
▁とどまら	-10149
▁IBM	-10150
▁ビザ	-10151
▁南相	-10152
▁受け付ける	-10153
▁アドバイザー	-10154
フィー	-10155
▁胴	-10156
▁憂	-10157
▁招集	-10158
▁うまい	-10159
▁フォル	-10160
▁大川	-10161
▁至ら	-10162
▁頼り	-10163
▁反する	-10164
▁揚げ	-10165
▁帽子	-10166
▁せよ	-10167
▁併設	-10168
▁喜ぶ	-10169
スル	-10170
▁上部	-10171
▁残高	-10172
▁水田	-10173
▁ビン	-10174
▁とりわけ	-10175
▁グレー	-10176
▁万博	-10177
▁青色	-10178
▁ウイグル	-10179
▁マスコット	-10180
AE	-10181
ギーレ	-10182
▁申し入れ	-10183
▁おおむね	-10184
ざん	-10185
▁読書	-10186
▁なきゃ	-10187
▁カザ	-10188
▁壊れ	-10189
▁次長	-10190
▁幕府	-10191
▁南相馬	-10192
らえ	-10193
ドン	-10194
ッポン	-10195
▁引っ張っ	-10196
▁フォーク	-10197
ドウ	-10198
▁平昌	-10199
▁接客	-10200
▁アギーレ	-10201
▁論議	-10202
▁マナー	-10203
▁プレゼン	-10204
ハン	-10205
▁IR	-10206
▁戦線	-10207
▁でしょ	-10208
▁降格	-10209
▁国技	-10210
▁超過	-10211
▁首席	-10212
乗り	-10213
▁百合子	-10214
▁エアコン	-10215
▁創刊	-10216
▁全焼	-10217
▁セラー	-10218
▁アフガニ	-10219
▁名取	-10220
▁トー	-10221
▁GO	-10222
▁調書	-10223
メート	-10224
▁マシン	-10225
▁競り勝っ	-10226
▁在来	-10227
▁サラダ	-10228
▁かく	-10229
▁戻す	-10230
▁ローソン	-10231
▁アフガニスタン	-10232
▁邪	-10233
▁正しく	-10234
▁新車	-10235
▁地理	-10236
▁救済	-10237
▁新潮	-10238
▁y	-10239
▁NI	-10240
▁自称	-10241
▁プロダ	-10242
▁奨学	-10243
▁専念	-10244
まつり	-10245
▁特捜	-10246
▁発効	-10247
▁雨量	-10248
▁ささげ	-10249
▁ガール	-10250
▁アシスト	-10251
▁抽出	-10252
▁見つから	-10253
▁アクセサリー	-10254
▁増田	-10255
▁大坂	-10256
▁殺到	-10257
▁よろしく	-10258
▁ドーピング	-10259
ざし	-10260
しま	-10261
▁─	-10262
▁新井	-10263
▁秋季	-10264
▁みどり	-10265
▁取りや	-10266
▁加害	-10267
▁送金	-10268
イルド	-10269
▁ホッケ	-10270
▁会う	-10271
▁スタイ	-10272
AC	-10273
▁すし	-10274
シェンコ	-10275
▁せき	-10276
▁エビ	-10277
▁思考	-10278
▁喜ば	-10279
▁舞鶴	-10280
▁伝達	-10281
▁領事	-10282
▁飾ら	-10283
▁北野	-10284
▁末期	-10285
▁粗	-10286
▁下げ幅	-10287
下ろし	-10288
▁亘	-10289
▁裸	-10290
▁駄	-10291
▁養護	-10292
▁KDDI	-10293
▁献花	-10294
▁MI	-10295
▁屋台	-10296
▁絶賛	-10297
▁ゴミ	-10298
▁バドミントン	-10299
▁納入	-10300
▁メトロ	-10301
▁和紙	-10302
▁青春	-10303
ガス	-10304
▁倉敷	-10305
▁天王	-10306
▁必至	-10307
▁竜巻	-10308
▁合わ	-10309
▁ロープ	-10310
▁曇	-10311
落とし	-10312
▁財布	-10313
▁落ち込み	-10314
ベース	-10315
▁皮切り	-10316
▁関脇	-10317
▁筒	-10318
▁響く	-10319
▁スタン	-10320
▁祇	-10321
バシー	-10322
▁トータル	-10323
▁厳選	-10324
▁投与	-10325
▁軍人	-10326
▁BBC	-10327
▁邸	-10328
▁隠さ	-10329
▁イレ	-10330
クソン	-10331
シシ	-10332
▁署員	-10333
▁ローズ	-10334
さえ	-10335
▁博文	-10336
▁議案	-10337
▁追跡	-10338
ぐるみ	-10339
▁プライバシー	-10340
▁反響	-10341
▁彩る	-10342
▁カスタ	-10343
▁組む	-10344
▁荘	-10345
▁挟ん	-10346
▁クリニック	-10347
▁名義	-10348
▁鶴竜	-10349
▁境界	-10350
▁強度	-10351
▁筑波	-10352
ub	-10353
▁包ん	-10354
▁法令	-10355
ネツク	-10356
▁臓	-10357
▁広め	-10358
▁だれ	-10359
ace	-10360
▁弘前	-10361
▁作者	-10362
▁頭部	-10363
▁年明け	-10364
▁対照	-10365
シーベルト	-10366
▁ヘルス	-10367
▁済ま	-10368
▁ミー	-10369
▁ケイ	-10370
▁検知	-10371
▁読売	-10372
▁入館	-10373
▁奨励	-10374
▁見出し	-10375
オク	-10376
▁急落	-10377
▁つかみ	-10378
▁リンゴ	-10379
▁目立ち	-10380
ロフ	-10381
▁元職	-10382
▁ハマス	-10383
▁六本木	-10384
▁リサイクル	-10385
▁サヨナラ勝ち	-10386
▁不備	-10387
▁外資	-10388
▁配送	-10389
▁覚せい	-10390
▁大衆	-10391
▁就く	-10392
▁拳銃	-10393
グアイ	-10394
pp	-10395
らぎ	-10396
▁喫茶	-10397
▁見頃	-10398
▁サプライズ	-10399
▁文京	-10400
▁祇園	-10401
ニオン	-10402
▁ナイト	-10403
▁小野寺	-10404
▁担任	-10405
▁繊細	-10406
▁ワクチン	-10407
▁止まら	-10408
▁刷新	-10409
▁文芸	-10410
▁本件	-10411
歩き	-10412
▁施工	-10413
▁野手	-10414
▁AD	-10415
▁水域	-10416
▁EX	-10417
▁区画	-10418
▁用語	-10419
▁愛する	-10420
▁クイ	-10421
▁闘争	-10422
▁慈	-10423
▁ナゴ	-10424
▁去年	-10425
▁日記	-10426
▁トレード	-10427
ンマーク	-10428
▁永井	-10429
▁パブリ	-10430
▁戒	-10431
▁閉幕	-10432
▁伊丹	-10433
▁尽き	-10434
▁ボディ	-10435
▁のぞか	-10436
▁デンマーク	-10437
▁にらみ	-10438
▁京セラ	-10439
▁同園	-10440
▁足立	-10441
▁クルド	-10442
▁議事	-10443
▁右手	-10444
▁新書	-10445
▁鈴鹿	-10446
ンスター	-10447
▁志望	-10448
▁丼	-10449
▁労使	-10450
▁立て直し	-10451
▁表紙	-10452
▁見れ	-10453
▁右肘	-10454
▁頂き	-10455
ウエア	-10456
たた	-10457
▁外側	-10458
▁クイズ	-10459
▁活かし	-10460
ェル	-10461
祭り	-10462
▁住職	-10463
▁常勤	-10464
▁三越	-10465
▁不祥	-10466
▁毀損	-10467
なう	-10468
らり	-10469
▁値下げ	-10470
リュ	-10471
リットル	-10472
ディック	-10473
▁外来	-10474
▁遅れる	-10475
▁ノルウェー	-10476
▁商社	-10477
▁天守	-10478
▁フロア	-10479
▁レアル	-10480
▁望ましい	-10481
マックス	-10482
▁募っ	-10483
▁量販	-10484
▁直近	-10485
バード	-10486
▁うれしく	-10487
▁坊	-10488
ガース	-10489
▁箇所	-10490
和田	-10491
to	-10492
▁不快	-10493
▁尊敬	-10494
▁打開	-10495
▁簡易	-10496
▁所蔵	-10497
▁IM	-10498
▁本作	-10499
▁ドネツク	-10500
▁安保理	-10501
▁右前	-10502
▁哀	-10503
▁上記	-10504
▁低め	-10505
▁帳	-10506
▁シリコン	-10507
▁沿道	-10508
▁ウォール	-10509
▁ああ	-10510
▁盗ま	-10511
▁陸前	-10512
▁ビット	-10513
▁ツイート	-10514
▁集積	-10515
▁クリエイター	-10516
▁すい	-10517
▁虐殺	-10518
▁高野連	-10519
▁紅葉	-10520
▁アクセル	-10521
▁都会	-10522
▁ココ	-10523
▁めぐみ	-10524
▁ソーラー	-10525
らせ	-10526
▁こぎ	-10527
▁受理	-10528
▁議決	-10529
▁付き合い	-10530
▁混合	-10531
▁近親	-10532
▁北斗	-10533
▁給料	-10534
▁西岡	-10535
▁CI	-10536
▁再会	-10537
▁辞退	-10538
▁低減	-10539
▁果物	-10540
▁折り返し	-10541
▁半期	-10542
▁長田	-10543
▁見送り	-10544
テイ	-10545
▁左派	-10546
▁アナリスト	-10547
▁ミッション	-10548
▁嫌い	-10549
▁遂げ	-10550
▁突き放し	-10551
▁ロール	-10552
▁中韓	-10553
▁健太	-10554
▁襲っ	-10555
▁長岡	-10556
▁初旬	-10557
▁観衆	-10558
▁趙	-10559
▁増額	-10560
▁紗	-10561
▁進歩	-10562
ドー	-10563
▁お前	-10564
▁援護	-10565
ティス	-10566
▁引っ越し	-10567
▁生後	-10568
▁樋口	-10569
▁皇族	-10570
▁寄せる	-10571
▁オプション	-10572
▁童	-10573
▁立てる	-10574
▁園内	-10575
▁GPS	-10576
増し	-10577
▁SA	-10578
▁モディ	-10579
▁瓶	-10580
▁駅舎	-10581
▁原理	-10582
▁タイガース	-10583
▁ホッケー	-10584
▁フィンランド	-10585
▁コツ	-10586
▁信仰	-10587
▁萌	-10588
▁天下	-10589
▁ヤフー	-10590
▁わか	-10591
▁苦笑い	-10592
▁恩返し	-10593
▁レモン	-10594
▁クーデター	-10595
▁退院	-10596
▁アレルギー	-10597
▁甘く	-10598
▁完投	-10599
▁関節	-10600
降り	-10601
▁厳し	-10602
▁糖尿	-10603
▁包み	-10604
▁相性	-10605
▁富裕	-10606
▁マッサ	-10607
▁向き合う	-10608
▁禎	-10609
▁長浜	-10610
▁仰	-10611
▁市道	-10612
▁河口	-10613
▁罰則	-10614
▁自家	-10615
ワール	-10616
▁イチゴ	-10617
▁気配	-10618
▁釈明	-10619
▁井山	-10620
▁飛来	-10621
▁配っ	-10622
OX	-10623
▁債券	-10624
▁相馬	-10625
▁並行	-10626
▁マクドナルド	-10627
▁客観	-10628
▁馬場	-10629
▁若林	-10630
▁サンド	-10631
▁セクハラ	-10632
▁心身	-10633
▁指し	-10634
▁見立て	-10635
▁港湾	-10636
▁アニメーション	-10637
▁おや	-10638
▁カメラマン	-10639
▁上告	-10640
▁パワ	-10641
▁縛	-10642
▁最中	-10643
ニカ	-10644
▁黒星	-10645
さま	-10646
▁日馬	-10647
▁松尾	-10648
▁リス	-10649
▁郵送	-10650
▁鵜	-10651
▁精密	-10652
▁貼り	-10653
プラ	-10654
▁免税	-10655
▁際し	-10656
▁データベース	-10657
▁自力	-10658
▁仕上がり	-10659
▁キロメートル	-10660
▁梶	-10661
▁犠飛	-10662
ュード	-10663
▁ちゃっ	-10664
▁ラッシュ	-10665
▁締め切り	-10666
留米	-10667
▁抱く	-10668
▁牽制	-10669
▁仕立て	-10670
▁ラインナップ	-10671
▁冷却	-10672
▁マガ	-10673
▁五千	-10674
▁小島	-10675
▁枝野	-10676
▁チューブ	-10677
▁供与	-10678
▁聴く	-10679
▁プリンター	-10680
▁庶	-10681
▁漁獲	-10682
▁六百	-10683
▁塗装	-10684
▁プロフィル	-10685
▁たつ	-10686
▁騒音	-10687
ンズ	-10688
▁すっかり	-10689
回る	-10690
フルト	-10691
▁大筋	-10692
▁SS	-10693
▁育ち	-10694
▁道交	-10695
▁貸し出し	-10696
▁揺る	-10697
▁榊	-10698
▁搬入	-10699
▁武将	-10700
▁シアター	-10701
▁日成	-10702
▁ゴー	-10703
▁開ける	-10704
クトパス	-10705
▁ゆく	-10706
▁耐久	-10707
カルタ	-10708
▁志願	-10709
▁羊	-10710
▁全般	-10711
▁横田	-10712
▁イルカ	-10713
▁たどり着	-10714
▁ライオン	-10715
▁強気	-10716
ニール	-10717
▁ユニセフ	-10718
▁夏季	-10719
▁真相	-10720
▁ミュン	-10721
▁全文	-10722
▁ロイヤル	-10723
▁中谷	-10724
▁落ちる	-10725
▁盛り上がっ	-10726
▁づらい	-10727
▁湘	-10728
ドリ	-10729
▁ハッ	-10730
▁グレ	-10731
▁かかわる	-10732
ごう	-10733
▁球界	-10734
▁澄	-10735
淀川	-10736
▁語ら	-10737
▁コーポ	-10738
ョー	-10739
▁崔	-10740
▁SE	-10741
▁ケネ	-10742
▁機材	-10743
ルトラ	-10744
▁ナゴヤ	-10745
▁しょうゆ	-10746
▁ねぎ	-10747
▁イカ	-10748
▁ショウ	-10749
▁飛び込ん	-10750
▁かず	-10751
▁弾み	-10752
▁一因	-10753
▁臓器	-10754
▁豊橋	-10755
▁排水	-10756
▁休場	-10757
▁空中	-10758
▁ミュンヘン	-10759
▁リポート	-10760
▁下部	-10761
▁機密	-10762
▁河内	-10763
々しい	-10764
▁チェル	-10765
▁小児	-10766
▁巻き返し	-10767
▁年賀	-10768
▁科目	-10769
▁古賀	-10770
▁味わえる	-10771
▁ハロー	-10772
▁内装	-10773
▁EP	-10774
▁いち早く	-10775
▁なくし	-10776
▁UF	-10777
▁カンパニー	-10778
▁イレブン	-10779
▁圧迫	-10780
▁宛て	-10781
▁シャッター	-10782
━━	-10783
▁利点	-10784
▁踏ん張	-10785
▁細かく	-10786
▁長谷部	-10787
▁ウルトラ	-10788
▁ぼう	-10789
▁塩釜	-10790
▁民俗	-10791
▁クーポン	-10792
▁見込める	-10793
▁右肩	-10794
▁真理	-10795
▁連戦	-10796
▁モンスター	-10797
▁出向	-10798
▁打て	-10799
▁払拭	-10800
▁満載	-10801
▁ボード	-10802
▁ヘクトパス	-10803
▁ヘクトパスカル	-10804
▁血圧	-10805
▁続投	-10806
▁ビー	-10807
▁URL	-10808
▁参道	-10809
▁快挙	-10810
▁シミュ	-10811
クネ	-10812
▁感慨	-10813
▁ホークス	-10814
▁取り巻く	-10815
▁洗い	-10816
▁切断	-10817
▁登用	-10818
▁野々	-10819
▁在学	-10820
がみ	-10821
▁現れる	-10822
▁立ち上がり	-10823
▁駆動	-10824
▁西洋	-10825
▁匿	-10826
▁なめ	-10827
▁浅野	-10828
▁のん	-10829
カオ	-10830
替わり	-10831
▁スポニチ	-10832
▁樹脂	-10833
▁結構	-10834
▁半減	-10835
▁古里	-10836
▁パンツ	-10837
▁焼い	-10838
▁くださっ	-10839
▁蒸し	-10840
▁LNG	-10841
▁海保	-10842
▁単に	-10843
▁やめる	-10844
▁闇	-10845
パート	-10846
▁パパ	-10847
▁愛し	-10848
▁セルビア	-10849
▁甘み	-10850
▁出勤	-10851
▁通用	-10852
▁盛り上げる	-10853
▁樹立	-10854
▁インスト	-10855
▁拭	-10856
▁いざ	-10857
▁カイ	-10858
▁変革	-10859
▁USJ	-10860
▁持参	-10861
▁完売	-10862
▁立派	-10863
▁ラム	-10864
▁控除	-10865
▁荒木	-10866
ラーリ	-10867
▁傷つけ	-10868
▁助手	-10869
▁遂	-10870
▁湘南	-10871
▁オペラ	-10872
▁社名	-10873
▁テラス	-10874
たて	-10875
▁営ま	-10876
▁野口	-10877
▁天野	-10878
▁金庫	-10879
▁ケネディ	-10880
体大	-10881
▁法相	-10882
▁スピーカー	-10883
▁接し	-10884
▁APEC	-10885
▁匿名	-10886
▁っぽい	-10887
▁陸前高田	-10888
▁ジャカルタ	-10889
▁奥山	-10890
▁座り	-10891
▁永田	-10892
▁仏教	-10893
▁ポケ	-10894
▁悲願	-10895
▁茂木	-10896
▁だめ	-10897
▁立川	-10898
▁自粛	-10899
▁もらえれ	-10900
▁造成	-10901
▁信任	-10902
▁増大	-10903
▁マイケル	-10904
▁ドルトム	-10905
▁ドルトムント	-10906
▁偶然	-10907
▁GI	-10908
▁総体	-10909
ニズム	-10910
▁サウジ	-10911
▁ストック	-10912
▁株高	-10913
▁花束	-10914
▁インテル	-10915
▁緊密	-10916
ma	-10917
▁唱え	-10918
▁フレーム	-10919
NN	-10920
fo	-10921
▁PKO	-10922
▁伸びる	-10923
ルトン	-10924
▁山陽	-10925
ir	-10926
▁吹い	-10927
▁新華	-10928
シウム	-10929
▁苦しむ	-10930
▁希少	-10931
▁電動	-10932
▁飾る	-10933
▁考えれ	-10934
▁手元	-10935
▁ゆったり	-10936
▁とん	-10937
▁バター	-10938
▁サラリー	-10939
▁持ち込ん	-10940
▁読み上げ	-10941
▁句	-10942
▁大船	-10943
▁経路	-10944
▁ストライク	-10945
さり	-10946
▁貯金	-10947
▁遊撃	-10948
▁即時	-10949
▁かっこ	-10950
▁募ら	-10951
▁果たして	-10952
▁偽装	-10953
▁卸売	-10954
▁開門	-10955
▁バレル	-10956
▁揚	-10957
▁別途	-10958
▁土石	-10959
▁キリン	-10960
▁ゆき	-10961
▁常連	-10962
▁マッサージ	-10963
▁扱っ	-10964
ディオ	-10965
▁若狭	-10966
▁連ね	-10967
▁カンボ	-10968
▁束	-10969
▁一丸	-10970
▁前方	-10971
▁観覧	-10972
RO	-10973
▁時折	-10974
ニックス	-10975
▁直し	-10976
▁一室	-10977
▁インス	-10978
▁クリエイティブ	-10979
▁艇	-10980
▁忙しい	-10981
▁持ち帰	-10982
▁巧み	-10983
▁通告	-10984
▁クライマックス	-10985
▁祝っ	-10986
▁蓮舫	-10987
▁宙	-10988
▁棋聖	-10989
▁脱線	-10990
▁農薬	-10991
▁コア	-10992
▁宇佐	-10993
▁江田	-10994
▁かす	-10995
▁屈指	-10996
▁特有	-10997
▁浮かん	-10998
▁シネマ	-10999
▁乗組	-11000
▁豚肉	-11001
▁こなす	-11002
▁まつわる	-11003
▁陵	-11004
▁まれ	-11005
▁セイ	-11006
▁系統	-11007
▁つくば	-11008
▁詰めかけ	-11009
▁霞	-11010
▁領収	-11011
▁シャー	-11012
▁鶴岡	-11013
▁再度	-11014
▁国対	-11015
▁カンボジア	-11016
▁ねん	-11017
▁処方	-11018
▁オーダー	-11019
▁書簡	-11020
▁称賛	-11021
▁優しく	-11022
▁ウィーン	-11023
▁過ぎる	-11024
▁愛情	-11025
▁信州	-11026
▁見逃し	-11027
▁まか	-11028
▁内蔵	-11029
▁次いで	-11030
▁引き渡し	-11031
▁ファンタ	-11032
盛り	-11033
▁伝承	-11034
▁南側	-11035
▁呈し	-11036
▁稚魚	-11037
▁フェラーリ	-11038
▁上乗	-11039
▁退団	-11040
▁遊ぶ	-11041
ンドル	-11042
▁見送る	-11043
▁知り合っ	-11044
▁花粉	-11045
▁起こり	-11046
▁キャスター	-11047
▁安価	-11048
▁漂う	-11049
▁円滑	-11050
▁興行	-11051
留め	-11052
▁酸素	-11053
▁久留米	-11054
▁哲学	-11055
▁温室	-11056
▁タリ	-11057
▁繁栄	-11058
▁出番	-11059
▁屈し	-11060
▁祈っ	-11061
▁駐在	-11062
▁選べる	-11063
▁診察	-11064
▁アウ	-11065
▁壊滅	-11066
揃え	-11067
▁従軍	-11068
▁美浜	-11069
▁重なる	-11070
▁占領	-11071
▁ハーブ	-11072
▁客席	-11073
▁造船	-11074
▁上乗せ	-11075
▁隣国	-11076
ミネーション	-11077
▁庶民	-11078
▁踏切	-11079
▁レポート	-11080
▁あげる	-11081
▁親しみ	-11082
ジャース	-11083
▁試乗	-11084
▁吹田	-11085
▁超す	-11086
▁頂い	-11087
▁うなず	-11088
▁負債	-11089
▁フレー	-11090
▁泣い	-11091
▁キッズ	-11092
▁おう	-11093
▁履歴	-11094
▁出来る	-11095
▁嫁	-11096
渡す	-11097
▁ホット	-11098
▁慎太郎	-11099
▁メロ	-11100
▁東松	-11101
▁凡	-11102
▁観音	-11103
▁働きかけ	-11104
▁合間	-11105
▁横領	-11106
▁ノルディック	-11107
▁天才	-11108
▁励まし	-11109
▁USB	-11110
▁チェコ	-11111
▁免れ	-11112
▁単価	-11113
▁前夜	-11114
▁ペーパー	-11115
▁かじ	-11116
▁冊子	-11117
▁秋篠	-11118
▁うそ	-11119
▁直撃	-11120
▁ワイヤ	-11121
▁下がり	-11122
▁腐敗	-11123
▁SKA	-11124
▁断定	-11125
▁系列	-11126
▁肺炎	-11127
▁スカウト	-11128
▁飽	-11129
▁誓い	-11130
▁重なっ	-11131
ゴー	-11132
▁防潮	-11133
▁SD	-11134
▁メルセ	-11135
レクト	-11136
▁ヒュー	-11137
▁地道	-11138
▁宮殿	-11139
▁ブドウ	-11140
▁妥結	-11141
▁順守	-11142
▁館内	-11143
▁高倉	-11144
リアル	-11145
▁隅	-11146
バーグ	-11147
▁メス	-11148
▁岩崎	-11149
▁指す	-11150
▁布団	-11151
▁クリー	-11152
▁メルセデス	-11153
▁ホイ	-11154
▁散策	-11155
▁イノシシ	-11156
▁申込	-11157
▁ガールズ	-11158
▁しみ	-11159
▁トランス	-11160
BI	-11161
の内	-11162
▁熱戦	-11163
ポリ	-11164
▁タマ	-11165
▁離陸	-11166
▁風力	-11167
▁接する	-11168
▁客数	-11169
▁マット	-11170
▁難しかっ	-11171
▁フォーン	-11172
▁新しく	-11173
▁長友	-11174
▁失策	-11175
▁おそれ	-11176
HA	-11177
▁サラリーマン	-11178
▁わざ	-11179
▁イト	-11180
▁冷たい	-11181
もも	-11182
▁渡る	-11183
えい	-11184
▁VR	-11185
▁局長	-11186
▁レジャー	-11187
▁キン	-11188
▁カク	-11189
▁台所	-11190
▁平井	-11191
▁キャプ	-11192
▁永遠	-11193
▁伸ばす	-11194
▁ガル	-11195
▁米中	-11196
▁秋篠宮	-11197
▁識別	-11198
▁ガード	-11199
▁まとまっ	-11200
▁総省	-11201
▁満たす	-11202
▁カキ	-11203
▁大麻	-11204
▁小麦	-11205
▁熱く	-11206
▁仲良	-11207
▁フォロー	-11208
▁常磐	-11209
▁感触	-11210
▁税務	-11211
って	-11212
▁きめ	-11213
▁公社	-11214
▁吉本	-11215
▁トキ	-11216
アス	-11217
▁田んぼ	-11218
モス	-11219
▁終結	-11220
▁瓦	-11221
▁内海	-11222
▁美濃	-11223
▁キープ	-11224
▁おもちゃ	-11225
▁ニッポン	-11226
ニチュード	-11227
▁パンフレット	-11228
▁勾	-11229
▁結集	-11230
▁バカ	-11231
▁分解	-11232
▁ウィーク	-11233
▁憎	-11234
▁浪江	-11235
デリー	-11236
ケン	-11237
▁破損	-11238
▁孔	-11239
▁ほほ	-11240
▁ヶ月	-11241
▁リクル	-11242
▁ジョーンズ	-11243
▁ユン	-11244
▁玩	-11245
▁量的	-11246
▁佐渡	-11247
井沢	-11248
エフ	-11249
▁体内	-11250
▁ポン	-11251
▁払っ	-11252
▁征	-11253
▁主題	-11254
▁スラ	-11255
▁風化	-11256
▁荒川	-11257
▁日時	-11258
▁コールド	-11259
▁軽井沢	-11260
▁倶	-11261
▁渦	-11262
▁間隔	-11263
▁駐屯	-11264
▁攻防	-11265
▁アイル	-11266
▁おいしく	-11267
▁kg	-11268
▁再審	-11269
▁フロー	-11270
▁なろう	-11271
▁聴き	-11272
▁せり	-11273
▁バナ	-11274
▁鴻	-11275
▁異動	-11276
▁川上	-11277
▁誘い	-11278
▁ふと	-11279
▁急務	-11280
▁連発	-11281
チョ	-11282
▁たたい	-11283
▁トリプル	-11284
▁矛盾	-11285
▁エリート	-11286
王子	-11287
▁宿舎	-11288
▁出せる	-11289
▁‐	-11290
▁寅	-11291
▁生前	-11292
▁関空	-11293
▁メーク	-11294
▁シール	-11295
▁灘	-11296
▁うれし	-11297
▁苦情	-11298
▁イルミネーション	-11299
▁立ち向	-11300
▁麦	-11301
▁濃い	-11302
▁改ざん	-11303
ラマ	-11304
▁編入	-11305
▁面談	-11306
▁奥行き	-11307
▁込める	-11308
植え	-11309
▁昨日	-11310
▁民意	-11311
▁消極	-11312
▁オル	-11313
▁LAN	-11314
ずら	-11315
▁孤独	-11316
▁対中	-11317
あげ	-11318
▁ストラ	-11319
▁早速	-11320
▁譲り	-11321
▁JOC	-11322
▁農村	-11323
▁難い	-11324
▁ダイオード	-11325
▁NBA	-11326
▁打ち出す	-11327
▁光栄	-11328
▁引き出す	-11329
▁あらわ	-11330
▁任さ	-11331
▁含ん	-11332
▁土台	-11333
▁日野	-11334
▁可否	-11335
▁後世	-11336
▁松岡	-11337
▁要領	-11338
▁Pad	-11339
▁仲井	-11340
▁寂しい	-11341
▁マグニチュード	-11342
▁ラボ	-11343
▁一目	-11344
▁駐日	-11345
▁ヒルズ	-11346
▁作動	-11347
▁村長	-11348
▁ヤフオク	-11349
▁オオ	-11350
▁推し	-11351
▁あしらっ	-11352
▁ウイーク	-11353
▁アロ	-11354
▁アーチ	-11355
▁碁	-11356
▁くみ	-11357
▁戦場	-11358
▁ごう	-11359
▁消滅	-11360
▁習得	-11361
▁かから	-11362
らっしゃ	-11363
▁カテゴ	-11364
長期	-11365
▁付く	-11366
▁玩具	-11367
▁タンパク	-11368
▁繰り広げる	-11369
▁アミ	-11370
▁蔵王	-11371
▁陳述	-11372
ノコ	-11373
▁押す	-11374
▁白紙	-11375
▁釣れ	-11376
▁偉大	-11377
▁見物	-11378
▁八王子	-11379
▁やり取り	-11380
▁進路	-11381
▁郁	-11382
▁嗣	-11383
▁途絶	-11384
▁高村	-11385
レラ	-11386
▁威力	-11387
▁統制	-11388
▁錯誤	-11389
▁鴨	-11390
▁特製	-11391
▁目黒	-11392
▁ジョンソン	-11393
▁鉢	-11394
▁小浜	-11395
▁GE	-11396
▁慢	-11397
▁日の	-11398
ボー	-11399
▁冗	-11400
少年	-11401
釣り	-11402
▁博之	-11403
▁氾	-11404
▁新卒	-11405
▁消化	-11406
▁葛西	-11407
▁獅	-11408
▁暁	-11409
▁困る	-11410
▁爆撃	-11411
▁遺構	-11412
▁しばし	-11413
▁原案	-11414
▁水野	-11415
▁総数	-11416
▁CG	-11417
▁故人	-11418
▁水着	-11419
はん	-11420
▁フェル	-11421
▁勧誘	-11422
▁母子	-11423
▁UFJ	-11424
ベーター	-11425
▁すっきり	-11426
▁澤	-11427
▁繋	-11428
▁中長期	-11429
▁踏み込ん	-11430
▁バンクーバー	-11431
ob	-11432
▁牧場	-11433
▁独裁	-11434
▁田口	-11435
メル	-11436
▁棄権	-11437
▁敗北	-11438
▁率直	-11439
▁暗殺	-11440
▁氾濫	-11441
▁どん	-11442
▁意志	-11443
▁購買	-11444
▁のど	-11445
▁トム	-11446
衛門	-11447
▁入浴	-11448
▁杉本	-11449
▁花見	-11450
▁頻度	-11451
▁勝てる	-11452
▁柳田	-11453
▁感激	-11454
▁緒	-11455
▁七百	-11456
▁ベー	-11457
▁マガジン	-11458
▁コク	-11459
▁たとえ	-11460
▁上げ幅	-11461
▁無く	-11462
▁すく	-11463
▁学科	-11464
▁落雷	-11465
▁振るわ	-11466
▁カロリー	-11467
▁慶大	-11468
▁ウルグアイ	-11469
▁本館	-11470
▁歩ん	-11471
▁られれ	-11472
▁青少年	-11473
▁あや	-11474
▁一線	-11475
ラクション	-11476
▁免疫	-11477
くる	-11478
▁大熊	-11479
▁花巻	-11480
▁莉	-11481
▁誠実	-11482
▁積み上げ	-11483
▁工大	-11484
▁いわば	-11485
▁ストロ	-11486
▁賀	-11487
▁かぶっ	-11488
▁写っ	-11489
▁格納	-11490
▁セクター	-11491
▁英雄	-11492
▁尿	-11493
▁募る	-11494
▁救う	-11495
▁査	-11496
▁制圧	-11497
▁レコー	-11498
出せ	-11499
▁妥協	-11500
ナンシャル	-11501
▁ドジャース	-11502
▁一新	-11503
▁即日	-11504
▁持ち出し	-11505
▁グア	-11506
▁伏見	-11507
▁書道	-11508
▁官兵衛	-11509
▁渓	-11510
▁両面	-11511
▁競い	-11512
▁おん	-11513
ちこち	-11514
▁僧侶	-11515
▁母校	-11516
▁突風	-11517
▁難病	-11518
▁サクラ	-11519
▁拠出	-11520
▁訪米	-11521
▁プログラ	-11522
▁カザフ	-11523
▁成し遂げ	-11524
ブズ	-11525
▁もも	-11526
▁活気	-11527
▁長引	-11528
▁冷戦	-11529
▁最短	-11530
▁提起	-11531
▁洗浄	-11532
▁草津	-11533
▁受け皿	-11534
すら	-11535
▁あちこち	-11536
▁ディスプレイ	-11537
▁漬け	-11538
▁録画	-11539
▁激減	-11540
▁農水	-11541
▁アテネ	-11542
▁見つける	-11543
チェンジ	-11544
▁リーダーシップ	-11545
▁眞	-11546
▁国々	-11547
▁CNN	-11548
▁ミドル	-11549
▁牽引	-11550
▁立ち会	-11551
▁ワイド	-11552
▁ルイス	-11553
▁紳	-11554
▁MS	-11555
▁月刊	-11556
▁ポロシェンコ	-11557
▁剥	-11558
▁国鉄	-11559
▁MVP	-11560
リル	-11561
▁要員	-11562
▁関学	-11563
▁キット	-11564
沿い	-11565
▁更に	-11566
▁薄く	-11567
▁一流	-11568
▁素早く	-11569
▁たびたび	-11570
▁告訴	-11571
▁派手	-11572
▁屋敷	-11573
▁退い	-11574
LE	-11575
▁パーソ	-11576
▁主宰	-11577
▁中高生	-11578
▁瑠	-11579
▁高温	-11580
ベリー	-11581
▁スタンダ	-11582
なら	-11583
▁直営	-11584
▁手伝っ	-11585
▁農場	-11586
▁book	-11587
▁コンテナ	-11588
▁媒体	-11589
▁ジュース	-11590
ヴェ	-11591
▁弊社	-11592
▁乗り込ん	-11593
ag	-11594
▁遭難	-11595
▁ぼく	-11596
▁海兵	-11597
▁王将	-11598
▁醸造	-11599
▁津軽	-11600
OS	-11601
▁造形	-11602
▁インフレ	-11603
▁テロリスト	-11604
▁概念	-11605
▁本町	-11606
▁結ば	-11607
▁薬局	-11608
▁日体大	-11609
▁経歴	-11610
▁三島	-11611
▁冥	-11612
▁田原	-11613
▁リクルート	-11614
グロ	-11615
▁ポケモン	-11616
▁ドメ	-11617
▁揺さ	-11618
▁クロー	-11619
▁送電	-11620
▁下ろし	-11621
▁楢	-11622
▁奴隷	-11623
▁食糧	-11624
▁多賀	-11625
▁日頃	-11626
▁規律	-11627
▁過労	-11628
▁多少	-11629
▁限っ	-11630
▁NGO	-11631
返す	-11632
▁変身	-11633
っとり	-11634
▁隔離	-11635
▁生まれ変	-11636
▁享	-11637
▁付与	-11638
▁川端	-11639
ずる	-11640
▁許す	-11641
▁胡	-11642
▁街道	-11643
▁薬品	-11644
▁運搬	-11645
▁最少	-11646
▁有明	-11647
▁触っ	-11648
▁秋葉原	-11649
▁アオ	-11650
▁家賃	-11651
▁幸い	-11652
▁水中	-11653
▁パスワード	-11654
▁八千	-11655
▁自爆	-11656
▁中立	-11657
▁カレン	-11658
▁心がけ	-11659
▁みち	-11660
▁悦	-11661
▁おと	-11662
▁合弁	-11663
▁田沢	-11664
▁納付	-11665
▁こぼれ	-11666
▁太もも	-11667
タミン	-11668
マル	-11669
▁竹田	-11670
▁調印	-11671
▁悲しい	-11672
▁下着	-11673
▁じん	-11674
▁バイト	-11675
▁いかなる	-11676
▁カール	-11677
▁スティー	-11678
▁ディーゼル	-11679
きょ	-11680
の素	-11681
▁味の素	-11682
のう	-11683
▁待遇	-11684
▁マイル	-11685
▁豊臣	-11686
▁チームメート	-11687
▁杉山	-11688
▁究極	-11689
▁総局	-11690
▁含み	-11691
ジュアル	-11692
▁顕著	-11693
▁東側	-11694
▁製鉄	-11695
▁ダメージ	-11696
▁トウ	-11697
▁底上げ	-11698
トラ	-11699
▁反し	-11700
▁亀山	-11701
▁重み	-11702
▁持て	-11703
▁負荷	-11704
▁久美子	-11705
去っ	-11706
▁まな	-11707
▁IMF	-11708
▁ガラ	-11709
▁満喫	-11710
▁NASA	-11711
▁アフガン	-11712
▁精力	-11713
▁進撃	-11714
▁過度	-11715
▁撃墜	-11716
▁有事	-11717
▁沈ん	-11718
▁作詞	-11719
▁公選	-11720
▁イヤー	-11721
イスキー	-11722
▁アタ	-11723
▁入園	-11724
▁四方	-11725
▁身柄	-11726
▁パンダ	-11727
▁戦没	-11728
▁継投	-11729
▁せっかく	-11730
▁ダニ	-11731
▁報復	-11732
▁サンプル	-11733
▁広大	-11734
▁みなみ	-11735
▁シルク	-11736
▁くら	-11737
▁バウンド	-11738
ばら	-11739
▁精査	-11740
ak	-11741
▁一見	-11742
▁勝山	-11743
オケ	-11744
▁美人	-11745
RE	-11746
▁れん	-11747
▁FOM	-11748
▁ジェイ	-11749
チス	-11750
▁大物	-11751
▁閉会	-11752
▁エディ	-11753
▁カラフル	-11754
キュー	-11755
FL	-11756
▁服装	-11757
▁譲歩	-11758
じっ	-11759
▁ビニール	-11760
▁オーケ	-11761
▁食卓	-11762
▁台東	-11763
▁モル	-11764
▁今村	-11765
▁荒井	-11766
ブラ	-11767
▁ばあ	-11768
▁原動	-11769
▁乏しい	-11770
XA	-11771
▁スーパ	-11772
▁こだわる	-11773
けん	-11774
▁閉店	-11775
アリング	-11776
▁LG	-11777
▁増設	-11778
▁決戦	-11779
れん	-11780
▁北川	-11781
▁カラオケ	-11782
▁染め	-11783
▁生誕	-11784
▁SUV	-11785
▁知らせ	-11786
▁ストーカー	-11787
▁改め	-11788
▁裾	-11789
▁小平	-11790
▁枯	-11791
▁間違え	-11792
▁洪水	-11793
▁歳出	-11794
▁鳴らし	-11795
▁民事	-11796
▁蘇	-11797
▁一変	-11798
▁皮肉	-11799
▁盗撮	-11800
▁v	-11801
▁JP	-11802
▁げん	-11803
▁配偶	-11804
▁マスターズ	-11805
ッソ	-11806
▁立方	-11807
▁JAXA	-11808
▁欠け	-11809
セント	-11810
▁ディスプレー	-11811
▁倒産	-11812
▁痛い	-11813
▁発砲	-11814
▁取り込む	-11815
▁書き込ん	-11816
▁ふっ	-11817
シエ	-11818
▁対談	-11819
▁極端	-11820
▁見本	-11821
▁赴任	-11822
▁駄目	-11823
▁男の子	-11824
▁インターチェンジ	-11825
▁野外	-11826
▁体系	-11827
▁シェル	-11828
▁過疎	-11829
▁柵	-11830
▁外貨	-11831
▁節電	-11832
ステル	-11833
ビック	-11834
押さえ	-11835
▁如	-11836
▁猿	-11837
デシュ	-11838
ol	-11839
▁強打	-11840
▁南極	-11841
▁押し出し	-11842
▁籠	-11843
▁修学	-11844
▁通じる	-11845
▁白書	-11846
▁目前	-11847
▁あま	-11848
▁圧縮	-11849
▁舞い	-11850
▁NEC	-11851
▁スス	-11852
▁登米	-11853
▁真夏	-11854
▁オム	-11855
ーマー	-11856
▁何者	-11857
▁おこ	-11858
▁後続	-11859
▁手足	-11860
▁血管	-11861
▁代わる	-11862
▁受け止める	-11863
▁幕末	-11864
バナ	-11865
▁後部	-11866
▁伺	-11867
▁有害	-11868
ハー	-11869
▁輪島	-11870
▁商売	-11871
▁ポンプ	-11872
▁ウイスキー	-11873
テージ	-11874
▁梗	-11875
▁まあ	-11876
▁山内	-11877
▁川越	-11878
▁満開	-11879
▁カザフスタン	-11880
▁噴出	-11881
▁風物	-11882
▁HI	-11883
▁テック	-11884
▁淡々	-11885
▁オリーブ	-11886
▁団結	-11887
▁騎手	-11888
▁ディスカ	-11889
▁大垣	-11890
▁ダービー	-11891
▁バレンタイン	-11892
▁壇	-11893
▁アバ	-11894
▁文明	-11895
▁爽やか	-11896
▁ベネッセ	-11897
▁カシ	-11898
▁学級	-11899
▁射撃	-11900
▁遮断	-11901
▁格付け	-11902
▁採点	-11903
▁旋	-11904
▁論理	-11905
ニウム	-11906
▁晶	-11907
▁ボス	-11908
▁OP	-11909
▁一律	-11910
▁松阪	-11911
▁伊勢丹	-11912
▁窮	-11913
▁払う	-11914
▁レーザー	-11915
▁持ち込み	-11916
▁牡	-11917
▁加納	-11918
▁移管	-11919
三郎	-11920
▁ねじ	-11921
▁熱気	-11922
▁関大	-11923
▁愚	-11924
▁節約	-11925
▁グラフ	-11926
▁出願	-11927
▁振動	-11928
▁エレベーター	-11929
▁丈	-11930
▁笑わ	-11931
▁ブロー	-11932
▁はら	-11933
▁望月	-11934
ウェイ	-11935
▁総統	-11936
▁梗塞	-11937
▁奔	-11938
▁励ん	-11939
▁info	-11940
is	-11941
▁噂	-11942
▁中南	-11943
▁エクスプレス	-11944
べく	-11945
▁なるべく	-11946
▁川村	-11947
▁狙える	-11948
▁固有	-11949
▁変換	-11950
▁膨らむ	-11951
▁とくに	-11952
▁SC	-11953
▁ニホン	-11954
ボルン	-11955
ぐり	-11956
▁オレ	-11957
▁作れ	-11958
▁動脈	-11959
▁王位	-11960
▁だらけ	-11961
▁ポルノ	-11962
▁マリア	-11963
アミ	-11964
▁全壊	-11965
▁強固	-11966
▁すてき	-11967
▁パッド	-11968
▁防空	-11969
リエーション	-11970
▁本業	-11971
▁除外	-11972
▁開校	-11973
▁きめ細	-11974
買い	-11975
▁ヒル	-11976
しり	-11977
ワン	-11978
▁リュ	-11979
▁豊岡	-11980
▁キャプテン	-11981
▁中枢	-11982
▁未知	-11983
▁一元	-11984
▁チャイ	-11985
▁敏感	-11986
▁健一	-11987
▁実物	-11988
▁風刺	-11989
▁またがる	-11990
▁ワーキング	-11991
▁ソフトボール	-11992
▁まき	-11993
▁ヤマト	-11994
▁FOMC	-11995
▁窒	-11996
▁露出	-11997
▁来館	-11998
▁東経	-11999
▁目覚	-12000
▁応答	-12001
▁ふり	-12002
▁加熱	-12003
▁映っ	-12004
▁結い	-12005
▁論戦	-12006
スタント	-12007
▁x	-12008
▁張る	-12009
▁釜山	-12010
▁浮かび上がっ	-12011
▁体罰	-12012
▁内藤	-12013
▁有村	-12014
▁広州	-12015
▁注力	-12016
離れ	-12017
▁スナ	-12018
▁受託	-12019
▁速く	-12020
▁陸連	-12021
▁サウンド	-12022
▁リフォーム	-12023
▁検事	-12024
まず	-12025
ッと	-12026
▁ねえ	-12027
▁山林	-12028
▁押さえ	-12029
▁秩父	-12030
▁尋ねる	-12031
▁ぶつけ	-12032
▁万里	-12033
▁発熱	-12034
▁谷口	-12035
▁有する	-12036
▁PT	-12037
▁人柄	-12038
▁増収	-12039
▁築き	-12040
シェル	-12041
▁ミリリットル	-12042
▁杜	-12043
▁保っ	-12044
▁昨今	-12045
▁作り上げ	-12046
▁発明	-12047
▁真司	-12048
レール	-12049
▁ウォッチ	-12050
▁作れる	-12051
▁そろえる	-12052
▁養鶏	-12053
▁刻ま	-12054
▁推奨	-12055
▁豪快	-12056
ァー	-12057
▁北緯	-12058
▁議題	-12059
▁ちゅう	-12060
ングラ	-12061
▁春闘	-12062
▁青空	-12063
▁ネック	-12064
▁交響	-12065
▁可視	-12066
▁鉄筋	-12067
▁眼鏡	-12068
▁寺院	-12069
▁松野	-12070
▁火星	-12071
▁ウラン	-12072
▁稔	-12073
▁婚姻	-12074
▁すばらしい	-12075
▁限度	-12076
▁瞳	-12077
▁重症	-12078
▁被ばく	-12079
▁あさ	-12080
▁農園	-12081
▁パトカー	-12082
ベス	-12083
▁ブッシュ	-12084
▁リベリア	-12085
▁陽子	-12086
▁インディア	-12087
▁免除	-12088
▁プロポ	-12089
▁旺	-12090
負け	-12091
▁大森	-12092
▁樹木	-12093
▁春秋	-12094
▁DI	-12095
ナント	-12096
▁泡	-12097
▁支所	-12098
▁知れ	-12099
▁担い手	-12100
▁佳彦	-12101
▁枚数	-12102
▁無断	-12103
ニクス	-12104
▁続出	-12105
▁輝か	-12106
▁発し	-12107
▁磨い	-12108
▁サク	-12109
▁インターン	-12110
▁輩	-12111
▁鳴り	-12112
▁チュニ	-12113
▁有望	-12114
▁木製	-12115
▁スキャン	-12116
▁隙間	-12117
▁国旗	-12118
▁地形	-12119
▁密漁	-12120
▁カウンセ	-12121
▁倒し	-12122
▁尾崎	-12123
▁歌声	-12124
▁口コミ	-12125
▁出そろ	-12126
▁割安	-12127
▁カクテル	-12128
▁NE	-12129
▁アストロ	-12130
▁活力	-12131
▁うかがわ	-12132
▁カニ	-12133
▁上質	-12134
▁理科	-12135
▁丸の内	-12136
▁■	-12137
▁監禁	-12138
▁アール	-12139
トロール	-12140
▁争わ	-12141
▁招か	-12142
▁直ちに	-12143
▁同作	-12144
▁府議	-12145
▁チキン	-12146
▁悔や	-12147
▁悲惨	-12148
▁照らし	-12149
▁つら	-12150
▁東レ	-12151
▁風土	-12152
った	-12153
▁公算	-12154
▁哲也	-12155
▁華麗	-12156
▁引き揚げ	-12157
▁入門	-12158
▁腎	-12159
ちり	-12160
▁望み	-12161
▁満点	-12162
▁半額	-12163
▁しつ	-12164
▁増殖	-12165
▁アトラクション	-12166
▁文楽	-12167
▁取りまとめ	-12168
▁串	-12169
▁たまっ	-12170
▁医大	-12171
▁異論	-12172
▁浅草	-12173
▁発酵	-12174
▁面し	-12175
▁ハンバー	-12176
▁天文	-12177
▁婚活	-12178
▁植民	-12179
もん	-12180
▁実演	-12181
▁焼却	-12182
▁還元	-12183
取れる	-12184
▁フレッシュ	-12185
▁におい	-12186
▁専攻	-12187
▁補修	-12188
▁鐘	-12189
ケア	-12190
▁切ら	-12191
▁鉄鋼	-12192
▁なくす	-12193
▁反射	-12194
▁概算	-12195
▁競売	-12196
▁暗い	-12197
▁責務	-12198
▁道のり	-12199
▁カタログ	-12200
ing	-12201
▁今治	-12202
▁最古	-12203
がかり	-12204
チンコ	-12205
▁取りやめ	-12206
楽部	-12207
▁絶た	-12208
HI	-12209
▁おなか	-12210
▁鳳	-12211
▁水曜	-12212
▁害	-12213
▁北村	-12214
▁雅子	-12215
▁ジー	-12216
▁黒部	-12217
▁以後	-12218
▁倶楽部	-12219
▁SF	-12220
▁沖合	-12221
▁はな	-12222
▁ひどい	-12223
▁乗り換え	-12224
▁Face	-12225
▁梁	-12226
▁宮下	-12227
▁納め	-12228
ろす	-12229
▁ダンサー	-12230
▁ワースト	-12231
▁カジュアル	-12232
ゲル	-12233
▁夢中	-12234
▁CL	-12235
かかっ	-12236
▁争っ	-12237
▁とおり	-12238
▁えん	-12239
▁今期	-12240
▁湯川	-12241
ンドウ	-12242
▁伸び率	-12243
▁ダイヤル	-12244
▁冗談	-12245
▁法学	-12246
▁いらっしゃ	-12247
▁どうぞ	-12248
▁アイルランド	-12249
▁ミュージシャン	-12250
▁r	-12251
歩い	-12252
▁断っ	-12253
▁au	-12254
こん	-12255
▁シロ	-12256
▁商戦	-12257
▁見積	-12258
▁急行	-12259
▁りゅう	-12260
▁酷	-12261
▁住吉	-12262
▁告知	-12263
▁社外	-12264
▁ふたり	-12265
▁重なり	-12266
▁デザート	-12267
▁贅	-12268
▁パル	-12269
▁知見	-12270
▁降雪	-12271
▁シミュレーション	-12272
▁NO	-12273
▁全中	-12274
▁届き	-12275
▁昆虫	-12276
▁片岡	-12277
▁大綱	-12278
▁パスポート	-12279
▁おそらく	-12280
▁山間	-12281
▁’	-12282
▁健闘	-12283
▁御殿	-12284
▁擁護	-12285
▁乙	-12286
▁断固	-12287
▁常時	-12288
▁晴子	-12289
▁しゅう	-12290
助け	-12291
▁PM	-12292
▁主戦	-12293
▁ビタミン	-12294
刈り	-12295
▁奪取	-12296
▁訴状	-12297
es	-12298
▁対馬	-12299
▁田舎	-12300
▁ブラウン	-12301
▁メカニズム	-12302
▁ジョー	-12303
▁移る	-12304
▁真田	-12305
ニン	-12306
▁加算	-12307
▁前川	-12308
▁名刺	-12309
▁スケール	-12310
▁将大	-12311
▁ネコ	-12312
▁管轄	-12313
▁道徳	-12314
▁爪	-12315
▁幼少	-12316
▁洋服	-12317
▁浄化	-12318
ぶし	-12319
▁済む	-12320
▁さわ	-12321
▁必須	-12322
▁母国	-12323
▁備蓄	-12324
▁明示	-12325
▁訪朝	-12326
▁小樽	-12327
▁豆腐	-12328
ケ谷	-12329
▁きん	-12330
▁励み	-12331
請け	-12332
▁攻略	-12333
▁持ち直し	-12334
▁シーア	-12335
▁尋問	-12336
▁白人	-12337
▁大介	-12338
▁栄誉	-12339
▁値動き	-12340
▁サバ	-12341
▁怠っ	-12342
▁割っ	-12343
▁新生	-12344
▁バトン	-12345
▁隼	-12346
▁海賊	-12347
▁たまたま	-12348
▁オーケストラ	-12349
▁デン	-12350
▁アルファ	-12351
▁◇	-12352
畜産	-12353
▁うん	-12354
▁わき	-12355
▁症候	-12356
▁思い切っ	-12357
RA	-12358
▁がら	-12359
▁スローガン	-12360
▁別府	-12361
▁撮る	-12362
しょう	-12363
▁JC	-12364
▁改札	-12365
▁マール	-12366
▁鷹	-12367
▁告げる	-12368
▁重体	-12369
▁手入れ	-12370
as	-12371
支え	-12372
▁移送	-12373
▁くれれ	-12374
▁国益	-12375
▁同志	-12376
▁時々	-12377
▁窯	-12378
▁しめ	-12379
▁連打	-12380
▁いと	-12381
▁カプセル	-12382
ブス	-12383
▁足首	-12384
▁風俗	-12385
▁均衡	-12386
▁あこ	-12387
▁順番	-12388
▁サーブ	-12389
WA	-12390
ホー	-12391
▁視界	-12392
▁ぶつかっ	-12393
▁夏場	-12394
▁弁論	-12395
▁リビング	-12396
▁下水	-12397
▁承知	-12398
▁サス	-12399
ow	-12400
▁榊原	-12401
▁載っ	-12402
アルプス	-12403
▁やけ	-12404
▁抹茶	-12405
▁You	-12406
▁わく	-12407
▁日比	-12408
川内	-12409
▁千秋	-12410
▁輩出	-12411
▁のぼる	-12412
ノキ	-12413
▁薩摩川内	-12414
▁大敗	-12415
▁片側	-12416
▁神話	-12417
ズミ	-12418
▁装っ	-12419
▁当該	-12420
▁パーツ	-12421
▁つながら	-12422
▁オファー	-12423
▁ソフトウエア	-12424
▁帆	-12425
▁新日	-12426
▁帰省	-12427
▁幕内	-12428
▁大船渡	-12429
▁鯖	-12430
▁あか	-12431
▁定住	-12432
▁獅子	-12433
▁東松島	-12434
▁オークション	-12435
▁がたい	-12436
ンジャー	-12437
▁松下	-12438
▁湾岸	-12439
▁絶望	-12440
ジボ	-12441
▁異議	-12442
▁延び	-12443
▁組員	-12444
▁娯	-12445
構え	-12446
▁将軍	-12447
▁ニコニコ	-12448
▁見送ら	-12449
▁種子	-12450
▁角田	-12451
▁荻	-12452
▁増益	-12453
合せ	-12454
▁鳥羽	-12455
ヌー	-12456
▁直下	-12457
▁はた	-12458
▁踊る	-12459
▁行ける	-12460
▁クレーン	-12461
▁的確	-12462
▁色彩	-12463
▁バナナ	-12464
▁エンタテインメント	-12465
▁ボコ	-12466
▁航路	-12467
▁コートジボ	-12468
▁娯楽	-12469
▁待た	-12470
▁パートナーシップ	-12471
▁ぷ	-12472
▁禎一	-12473
▁史跡	-12474
▁パトロール	-12475
▁志賀	-12476
諏訪	-12477
▁劣化	-12478
▁殺さ	-12479
▁覚える	-12480
▁衰え	-12481
▁サリン	-12482
▁出来高	-12483
▁ファクス	-12484
▁フェンス	-12485
▁コートジボワール	-12486
▁ムー	-12487
▁口頭	-12488
▁QB	-12489
▁挿	-12490
▁口調	-12491
▁常設	-12492
▁寒い	-12493
▁左手	-12494
▁西山	-12495
▁配る	-12496
▁廊	-12497
ズエラ	-12498
▁着る	-12499
▁商談	-12500
▁退場	-12501
▁艦船	-12502
▁果実	-12503
▁手助け	-12504
▁ミーティング	-12505
▁じゅう	-12506
▁頼み	-12507
ブック	-12508
▁ビジュアル	-12509
▁ぜい	-12510
▁ピク	-12511
▁感性	-12512
▁離れる	-12513
▁クロダイ	-12514
▁忍者	-12515
▁飛び交	-12516
▁陳謝	-12517
▁みせる	-12518
▁強要	-12519
▁素敵	-12520
▁造ら	-12521
▁めざし	-12522
▁引き受け	-12523
ンジュ	-12524
▁仕方ない	-12525
▁基幹	-12526
▁甲信	-12527
▁潔	-12528
▁開園	-12529
▁ウエア	-12530
▁メドレー	-12531
▁洲	-12532
▁タカ	-12533
▁四千	-12534
▁さかのぼ	-12535
▁固まっ	-12536
▁ラウ	-12537
▁リク	-12538
▁アストロズ	-12539
▁ベネズエラ	-12540
より	-12541
▁万能	-12542
▁競走	-12543
▁MD	-12544
▁圭佑	-12545
▁祈る	-12546
▁著しく	-12547
▁酵	-12548
すご	-12549
▁出頭	-12550
▁痛感	-12551
▁わら	-12552
▁長寿	-12553
▁ファーム	-12554
▁速球	-12555
▁信者	-12556
▁景況	-12557
▁植樹	-12558
▁五十嵐	-12559
▁ニューデリー	-12560
津川	-12561
▁前原	-12562
ッティ	-12563
▁短編	-12564
▁ダイレクト	-12565
▁日高	-12566
▁片付け	-12567
▁到来	-12568
▁築く	-12569
▁めでとう	-12570
▁打ち明け	-12571
▁メルボルン	-12572
▁区別	-12573
▁タス	-12574
▁起点	-12575
▁風邪	-12576
▁生き物	-12577
▁贅沢	-12578
▁みつ	-12579
▁模擬	-12580
▁味わう	-12581
▁アント	-12582
▁懐かし	-12583
▁クリーン	-12584
ail	-12585
▁絡ん	-12586
▁思い出す	-12587
▁いただけれ	-12588
▁砂糖	-12589
▁禁じる	-12590
▁イケメン	-12591
▁ジャーナル	-12592
▁剣道	-12593
▁管制	-12594
▁誘拐	-12595
▁殿堂	-12596
▁シンガー	-12597
▁弔	-12598
タケ	-12599
▁先取	-12600
▁見いだ	-12601
ただ	-12602
▁逃げる	-12603
▁大平	-12604
▁中南米	-12605
▁ヤング	-12606
▁存分	-12607
BM	-12608
▁もり	-12609
▁光る	-12610
▁ロン	-12611
▁寝台	-12612
▁幸男	-12613
▁のぼり	-12614
▁しばしば	-12615
ッサ	-12616
▁鈍化	-12617
▁林業	-12618
バート	-12619
ig	-12620
▁曇り	-12621
▁チャリティー	-12622
▁セラ	-12623
▁合法	-12624
▁後悔	-12625
▁本因	-12626
▁論争	-12627
▁護衛	-12628
▁チベット	-12629
▁モーニング	-12630
▁本因坊	-12631
▁墨田	-12632
▁険	-12633
▁コンペ	-12634
▁公職	-12635
▁ぜん	-12636
▁描写	-12637
▁パブリック	-12638
▁安佐南	-12639
▁宮司	-12640
▁点数	-12641
▁詠	-12642
ゼン	-12643
▁方策	-12644
じゅ	-12645
▁まね	-12646
▁急性	-12647
▁愛用	-12648
▁エコノミスト	-12649
▁弓	-12650
▁ハチ	-12651
▁ツイン	-12652
▁救命	-12653
▁花園	-12654
▁キャメ	-12655
▁ふれあい	-12656
▁バングラ	-12657
▁絞め	-12658
▁マニラ	-12659
▁焼酎	-12660
▁生む	-12661
▁集う	-12662
▁論点	-12663
▁テンポ	-12664
▁ドリブル	-12665
▁施さ	-12666
▁陥る	-12667
▁佐久	-12668
▁大沢	-12669
▁懐かしい	-12670
生き	-12671
▁クロア	-12672
▁全校	-12673
▁選対	-12674
▁神事	-12675
▁書面	-12676
▁もうけ	-12677
th	-12678
▁咲か	-12679
▁真っすぐ	-12680
▁鶏肉	-12681
▁向き合っ	-12682
▁カレンダー	-12683
▁ケニア	-12684
▁枕	-12685
▁BM	-12686
▁なんか	-12687
▁郎	-12688
▁崩落	-12689
▁UAE	-12690
ネーション	-12691
▁正解	-12692
▁ドクター	-12693
付か	-12694
▁大台	-12695
▁渡す	-12696
▁おかしく	-12697
▁権威	-12698
▁ICT	-12699
▁キャップ	-12700
▁硫	-12701
▁ウエディング	-12702
▁冨田	-12703
▁猛暑	-12704
▁通夜	-12705
にぎり	-12706
▁あんな	-12707
▁真珠	-12708
▁セダン	-12709
ばさ	-12710
▁マリー	-12711
▁新日鉄	-12712
▁叫び	-12713
▁失望	-12714
▁長編	-12715
▁高架	-12716
▁ATM	-12717
わざ	-12718
▁一挙	-12719
▁除雪	-12720
▁キャッシュ	-12721
▁親交	-12722
ノイ	-12723
かみ	-12724
▁咲く	-12725
▁日数	-12726
デント	-12727
▁仮面	-12728
▁イエメン	-12729
▁一関	-12730
▁迷い	-12731
▁紅茶	-12732
コビッチ	-12733
▁エアバス	-12734
▁△	-12735
▁引き継ぎ	-12736
▁引き継ぐ	-12737
EN	-12738
▁内角	-12739
▁転向	-12740
アント	-12741
▁オーガ	-12742
▁大井	-12743
▁掛け声	-12744
▁哉	-12745
▁箕	-12746
▁民放	-12747
▁FBI	-12748
▁フェス	-12749
▁ものすご	-12750
かえ	-12751
▁収賄	-12752
▁美香	-12753
▁シルバー	-12754
▁キャメロン	-12755
▁マジック	-12756
▁藤浪	-12757
▁アクア	-12758
▁畠	-12759
テレ	-12760
▁分断	-12761
▁文句	-12762
▁アユ	-12763
▁エステ	-12764
▁ゼミ	-12765
▁断じ	-12766
ドア	-12767
▁有田	-12768
▁りょう	-12769
▁不詳	-12770
▁併合	-12771
▁親戚	-12772
▁木曜	-12773
▁返す	-12774
▁ひも	-12775
▁デル	-12776
▁心情	-12777
▁マネージ	-12778
▁入会	-12779
▁沸か	-12780
ンプール	-12781
▁ギャップ	-12782
▁クアラル	-12783
▁含める	-12784
▁個体	-12785
▁免職	-12786
▁クアラルンプール	-12787
▁講じ	-12788
ローニ	-12789
▁欠航	-12790
▁構える	-12791
▁営利	-12792
▁慌て	-12793
▁校内	-12794
▁黄色い	-12795
代子	-12796
▁廊下	-12797
▁捜し	-12798
▁たけし	-12799
▁足利	-12800
キット	-12801
▁峯	-12802
こと	-12803
▁刻ん	-12804
▁折れ	-12805
▁開場	-12806
▁水上	-12807
▁スーダン	-12808
▁じい	-12809
▁チュ	-12810
▁派閥	-12811
▁信念	-12812
▁勝者	-12813
▁学べる	-12814
▁盲	-12815
▁クロアチア	-12816
▁ベク	-12817
▁叱	-12818
▁がる	-12819
▁ペル	-12820
▁短大	-12821
▁ミックス	-12822
▁家裁	-12823
▁満員	-12824
▁靱	-12825
▁大豆	-12826
▁袴	-12827
エリー	-12828
TI	-12829
▁三宅	-12830
▁そん	-12831
▁全容	-12832
▁弾圧	-12833
っぱ	-12834
▁強引	-12835
▁劇的	-12836
▁やる気	-12837
▁バイエル	-12838
▁身分	-12839
リューム	-12840
▁コスタ	-12841
▁摩擦	-12842
▁産卵	-12843
▁揺れる	-12844
▁送り出し	-12845
▁古典	-12846
▁存じ	-12847
▁楽観	-12848
▁逆風	-12849
▁ミラー	-12850
▁パウ	-12851
ビエ	-12852
▁街並み	-12853
▁羅	-12854
▁破棄	-12855
▁競っ	-12856
▁シューズ	-12857
▁驚か	-12858
▁デスク	-12859
▁警鐘	-12860
▁陽性	-12861
ずかしい	-12862
▁苫	-12863
▁博し	-12864
▁昼間	-12865
▁慢性	-12866
▁都庁	-12867
▁退役	-12868
▁雄志	-12869
▁マイアミ	-12870
▁付か	-12871
▁託し	-12872
▁年次	-12873
▁保留	-12874
▁行こう	-12875
▁熱狂	-12876
ビル	-12877
▁交番	-12878
▁環状	-12879
バツ	-12880
▁甚大	-12881
かせる	-12882
▁リビア	-12883
ノル	-12884
ワシ	-12885
▁手腕	-12886
▁県営	-12887
▁艦隊	-12888
チウム	-12889
▁ボリューム	-12890
▁傾斜	-12891
▁地権	-12892
▁ディナー	-12893
▁たて	-12894
▁同誌	-12895
▁アンテナ	-12896
▁モチベーション	-12897
▁独身	-12898
▁ピーチ	-12899
▁同組	-12900
BO	-12901
▁デリ	-12902
▁連帯	-12903
▁武士	-12904
ましく	-12905
▁おにぎり	-12906
▁フラワー	-12907
そり	-12908
▁修行	-12909
▁敬意	-12910
▁臭い	-12911
キャ	-12912
▁党員	-12913
▁分子	-12914
▁□	-12915
離し	-12916
▁妨げ	-12917
▁伐	-12918
▁頑丈	-12919
▁パチンコ	-12920
▁コカ	-12921
▁称さ	-12922
▁マイン	-12923
▁バングラデシュ	-12924
ロコ	-12925
▁大将	-12926
▁行き来	-12927
▁途絶え	-12928
▁就学	-12929
▁検診	-12930
ゾナ	-12931
見え	-12932
▁守護	-12933
▁殴っ	-12934
▁激突	-12935
▁CT	-12936
▁ホン	-12937
▁見かけ	-12938
▁遷	-12939
▁ギネス	-12940
▁フォード	-12941
▁寺田	-12942
▁ISS	-12943
そば	-12944
▁介し	-12945
▁ウオッチ	-12946
▁生まれ育	-12947
▁センス	-12948
▁ダイナミ	-12949
▁アンドロイド	-12950
▁沼津	-12951
▁特色	-12952
▁迫り	-12953
▁ローカル	-12954
▁一宮	-12955
▁外為	-12956
▁画期	-12957
▁袖	-12958
▁装い	-12959
▁セッション	-12960
▁舞踊	-12961
▁鉄骨	-12962
▁切り替える	-12963
▁ファンタジー	-12964
▁飯舘	-12965
▁テイ	-12966
▁同州	-12967
▁大槌	-12968
▁手首	-12969
▁禁煙	-12970
▁悪用	-12971
▁戸田	-12972
ひとり	-12973
ーラー	-12974
▁心掛け	-12975
▁コネ	-12976
▁俳句	-12977
▁セールス	-12978
▁崖	-12979
▁FT	-12980
▁陸自	-12981
▁デート	-12982
▁もったい	-12983
▁人的	-12984
▁密輸	-12985
▁導く	-12986
▁島民	-12987
▁琢	-12988
カメ	-12989
▁侵攻	-12990
▁勝ち上がっ	-12991
直さ	-12992
▁経理	-12993
▁しんし	-12994
ぶれ	-12995
▁指さ	-12996
▁無念	-12997
▁センバツ	-12998
▁笛	-12999
▁虹	-13000
▁オタ	-13001
▁独り	-13002
ザーズ	-13003
▁名作	-13004
▁破産	-13005
▁課金	-13006
▁WOW	-13007
▁喪失	-13008
▁セレクト	-13009
▁ボーカル	-13010
▁鼓	-13011
▁停職	-13012
▁無い	-13013
▁本場	-13014
▁絶妙	-13015
▁退陣	-13016
▁WOWOW	-13017
▁卑	-13018
▁パシ	-13019
▁蘭	-13020
▁去っ	-13021
▁ドット	-13022
▁うら	-13023
▁ラフ	-13024
▁軍隊	-13025
▁持ち主	-13026
▁バックアップ	-13027
▁時事	-13028
▁ライダー	-13029
▁龍谷	-13030
▁替え	-13031
▁連係	-13032
じょう	-13033
▁地場	-13034
▁埋まっ	-13035
▁見せつけ	-13036
▁引き起こす	-13037
▁捏	-13038
ネギ	-13039
▁排気	-13040
▁豊中	-13041
▁重複	-13042
▁メッシ	-13043
▁やさしい	-13044
▁シェール	-13045
▁外傷	-13046
▁横峯	-13047
▁遠ざ	-13048
▁迎撃	-13049
▁仏像	-13050
▁各県	-13051
▁米欧	-13052
▁頼る	-13053
▁リース	-13054
▁見つかる	-13055
▁掛川	-13056
▁ダイエー	-13057
ニヤ	-13058
▁飛鳥	-13059
▁ぎり	-13060
▁バチ	-13061
▁ピカ	-13062
▁森内	-13063
▁役目	-13064
▁かなわ	-13065
▁ビア	-13066
▁亀田	-13067
▁恒久	-13068
▁焦り	-13069
▁やれる	-13070
▁言い渡さ	-13071
▁追い上げ	-13072
▁中井	-13073
▁外角	-13074
▁負う	-13075
▁誇っ	-13076
▁きゅう	-13077
▁ペルー	-13078
▁下支え	-13079
▁日露	-13080
▁転売	-13081
▁気付き	-13082
▁ウィリアムズ	-13083
▁みえ	-13084
▁追突	-13085
▁ほの	-13086
▁l	-13087
▁訪中	-13088
バリー	-13089
▁付着	-13090
▁内山	-13091
ホール	-13092
▁絶好	-13093
▁ルーキー	-13094
▁スプリント	-13095
▁フランクフルト	-13096
▁くつ	-13097
▁起動	-13098
▁振る舞い	-13099
▁紡	-13100
▁処刑	-13101
▁婚約	-13102
▁オランド	-13103
ハラム	-13104
ウンス	-13105
▁マッチング	-13106
▁プログラミング	-13107
▁安易	-13108
▁偵	-13109
▁大名	-13110
▁緑色	-13111
▁退去	-13112
▁長島	-13113
AL	-13114
▁松浦	-13115
▁波紋	-13116
▁出塁	-13117
▁フェニックス	-13118
▁はし	-13119
▁ドレ	-13120
▁生え	-13121
▁あがっ	-13122
▁埋める	-13123
▁ベクレル	-13124
▁共存	-13125
▁誘わ	-13126
▁ドバイ	-13127
▁寒気	-13128
▁私的	-13129
▁HC	-13130
▁松戸	-13131
▁英紙	-13132
バリ	-13133
▁外す	-13134
▁捏造	-13135
▁河合	-13136
▁ラベル	-13137
▁胎	-13138
▁寄港	-13139
▁特攻	-13140
ギン	-13141
▁売れる	-13142
津男	-13143
▁偵察	-13144
▁誤認	-13145
▁転覆	-13146
まき	-13147
▁運送	-13148
チュー	-13149
▁ヘイト	-13150
▁メタ	-13151
▁映る	-13152
▁米子	-13153
▁飲ま	-13154
▁戸惑い	-13155
▁水谷	-13156
▁裕子	-13157
▁レート	-13158
▁空手	-13159
▁しゃべり	-13160
▁放水	-13161
▁福原	-13162
▁重工	-13163
▁収束	-13164
▁洗練	-13165
▁闘い	-13166
▁サイク	-13167
▁大竹	-13168
▁左京	-13169
▁房	-13170
▁請け	-13171
▁取り入れる	-13172
▁着服	-13173
▁芯	-13174
▁多大	-13175
▁調和	-13176
▁雪崩	-13177
▁キャピ	-13178
▁アボ	-13179
▁典子	-13180
▁月内	-13181
▁賞品	-13182
▁もく	-13183
▁コンディション	-13184
▁船体	-13185
▁太白	-13186
▁学者	-13187
▁セリフ	-13188
▁最上	-13189
▁黒沢	-13190
▁放流	-13191
▁顕彰	-13192
▁負ける	-13193
▁上越	-13194
▁専業	-13195
▁竹下	-13196
▁酒田	-13197
▁せりふ	-13198
▁出題	-13199
▁EPA	-13200
▁とらわれ	-13201
▁売れ行き	-13202
▁扮	-13203
▁発案	-13204
▁積乱	-13205
▁考古	-13206
▁AR	-13207
▁デコ	-13208
▁回す	-13209
▁困惑	-13210
メット	-13211
▁きら	-13212
▁ゆり	-13213
▁指原	-13214
▁読め	-13215
▁たかし	-13216
▁メモリー	-13217
▁押し寄せ	-13218
ングル	-13219
▁アリゾナ	-13220
▁ズボン	-13221
▁那津男	-13222
▁符	-13223
ビッド	-13224
▁勝率	-13225
ペット	-13226
▁JTB	-13227
▁メディ	-13228
▁朗読	-13229
▁純一	-13230
▁米沢	-13231
▁船内	-13232
▁ヒマ	-13233
▁断言	-13234
▁響か	-13235
▁本郷	-13236
▁アム	-13237
▁ごはん	-13238
▁モダン	-13239
▁大東	-13240
▁熱帯	-13241
▁諏訪	-13242
▁堆	-13243
▁傍ら	-13244
▁浴衣	-13245
▁苦痛	-13246
▁ブローカー	-13247
込もう	-13248
▁挙がっ	-13249
▁サイエンス	-13250
▁駐留	-13251
▁コーディネート	-13252
▁原口	-13253
▁長嶋	-13254
▁ACL	-13255
▁初夏	-13256
▁伸び悩ん	-13257
▁撲	-13258
▁No	-13259
▁動揺	-13260
▁重圧	-13261
▁ダッシュ	-13262
▁ラク	-13263
▁劉	-13264
▁バタ	-13265
▁最盛	-13266
ハウス	-13267
▁エド	-13268
▁肥満	-13269
ジング	-13270
キア	-13271
▁栗山	-13272
▁要一	-13273
ケード	-13274
▁当たら	-13275
▁タリバン	-13276
▁浮い	-13277
カード	-13278
▁ハッカー	-13279
▁肝臓	-13280
▁ボイ	-13281
▁史料	-13282
▁温かく	-13283
去り	-13284
開き	-13285
▁暑い	-13286
▁仲良く	-13287
▁傑	-13288
▁封鎖	-13289
▁クジラ	-13290
▁安堵	-13291
▁所管	-13292
▁見返り	-13293
▁水深	-13294
▁身代	-13295
▁フェリー	-13296
▁味噌	-13297
▁次郎	-13298
▁申込み	-13299
▁レイン	-13300
▁共生	-13301
▁地質	-13302
▁意地	-13303
▁賭博	-13304
▁全会	-13305
▁アサヒ	-13306
▁あこがれ	-13307
▁紘	-13308
▁CK	-13309
▁福知	-13310
▁燃やし	-13311
ライター	-13312
▁フェスタ	-13313
PG	-13314
ぐら	-13315
▁死後	-13316
▁片手	-13317
▁金賞	-13318
▁日差し	-13319
リラ	-13320
▁成熟	-13321
タス	-13322
▁追放	-13323
▁早川	-13324
▁Inc	-13325
▁福知山	-13326
シル	-13327
▁玄海	-13328
ew	-13329
▁あす	-13330
▁貫い	-13331
▁和子	-13332
▁更改	-13333
▁衰退	-13334
▁浴びる	-13335
リッシュ	-13336
▁保ち	-13337
▁崩さ	-13338
▁熟成	-13339
▁因果	-13340
▁悼	-13341
▁包囲	-13342
▁衣類	-13343
▁服部	-13344
▁エルサ	-13345
▁みこし	-13346
▁亭	-13347
▁詩人	-13348
ed	-13349
ぶる	-13350
▁不利	-13351
▁参謀	-13352
▁火曜	-13353
▁日テレ	-13354
ON	-13355
▁償	-13356
▁大飯	-13357
▁ハッピー	-13358
▁投打	-13359
▁期す	-13360
▁法要	-13361
▁かたち	-13362
▁エレクトロ	-13363
▁格闘	-13364
▁嘉浩	-13365
▁腸	-13366
▁西口	-13367
▁グアム	-13368
チー	-13369
▁柿谷	-13370
▁クッキー	-13371
ツジ	-13372
▁探知	-13373
ッケローニ	-13374
▁GT	-13375
▁指令	-13376
▁橿	-13377
▁和牛	-13378
▁関わら	-13379
▁下流	-13380
アンス	-13381
▁フェン	-13382
▁注い	-13383
▁聖火	-13384
▁覆う	-13385
▁紫外	-13386
▁海面	-13387
▁たどっ	-13388
シュー	-13389
▁シアトル	-13390
▁踏み出し	-13391
▁失速	-13392
▁畜産	-13393
▁騒が	-13394
▁別条	-13395
▁注ぐ	-13396
▁黒川	-13397
ベガス	-13398
▁ベンツ	-13399
▁ラスベガス	-13400
張り	-13401
プトン	-13402
▁凝らし	-13403
▁春夏	-13404
▁据え置い	-13405
ゲーム	-13406
▁語り継	-13407
▁コボ	-13408
▁妊婦	-13409
▁殺傷	-13410
▁バリア	-13411
▁チェルシー	-13412
デート	-13413
▁ザッケローニ	-13414
IT	-13415
▁向ける	-13416
▁楢葉	-13417
▁アナウンス	-13418
▁全豪	-13419
▁大作	-13420
▁円売り	-13421
▁会費	-13422
▁暗号	-13423
▁永久	-13424
▁聞け	-13425
▁上積み	-13426
▁漏洩	-13427
▁集い	-13428
▁コンパ	-13429
▁プロレス	-13430
▁住金	-13431
▁傍聴	-13432
▁凡退	-13433
▁取組	-13434
▁奔走	-13435
▁宅地	-13436
▁探偵	-13437
▁教養	-13438
▁ススメ	-13439
しむ	-13440
イダ	-13441
町村	-13442
▁三田	-13443
▁新曲	-13444
▁謙虚	-13445
▁天満	-13446
▁疑念	-13447
▁致傷	-13448
▁サーキット	-13449
▁手の	-13450
▁ナチス	-13451
▁止まり	-13452
▁篠田	-13453
▁VW	-13454
▁正男	-13455
▁了解	-13456
----	-13457
▁聞こえる	-13458
▁加計	-13459
▁撲滅	-13460
▁減益	-13461
▁同乗	-13462
▁死に	-13463
▁田植え	-13464
▁ノバ	-13465
▁競り勝ち	-13466
▁籾	-13467
▁GH	-13468
▁心肺	-13469
▁ボウ	-13470
▁ルイ	-13471
▁公衆	-13472
▁厚木	-13473
▁戦死	-13474
▁♪	-13475
▁掌	-13476
▁読ま	-13477
▁醸し	-13478
▁駆除	-13479
▁雪辱	-13480
▁飛散	-13481
出せる	-13482
▁ため息	-13483
▁クエスト	-13484
▁ラインアップ	-13485
リコ	-13486
▁単身	-13487
▁本文	-13488
▁肥料	-13489
▁愛子	-13490
▁アパレル	-13491
めき	-13492
▁ノース	-13493
▁著しい	-13494
▁ベースボール	-13495
りん	-13496
▁個室	-13497
▁足並み	-13498
▁注射	-13499
▁ユニクロ	-13500
▁FM	-13501
▁突きつけ	-13502
さら	-13503
▁肉体	-13504
▁フィナンシャル	-13505
▁群れ	-13506
▁つかむ	-13507
▁黙とう	-13508
▁のち	-13509
▁祖父母	-13510
ずり	-13511
▁コーラ	-13512
づけ	-13513
ひら	-13514
▁やん	-13515
▁相対	-13516
▁誘客	-13517
スラ	-13518
ube	-13519
▁斬新	-13520
▁里山	-13521
▁打ち明	-13522
くじ	-13523
▁三郎	-13524
▁出そろっ	-13525
▁宮川	-13526
▁染み	-13527
▁ルネ	-13528
▁抗日	-13529
▁トレーナー	-13530
▁紺	-13531
▁手話	-13532
▁よみがえ	-13533
▁打ち明ける	-13534
▁手厚	-13535
ot	-13536
▁イヌ	-13537
▁°	-13538
▁化成	-13539
▁墓地	-13540
▁薄れ	-13541
▁たどる	-13542
▁佐伯	-13543
▁味覚	-13544
▁教団	-13545
▁闘志	-13546
▁天王寺	-13547
▁建立	-13548
▁白井	-13549
▁靱帯	-13550
▁揃	-13551
▁頭取	-13552
▁果て	-13553
▁矢野	-13554
▁漏えい	-13555
▁アウトドア	-13556
▁PL	-13557
▁ニュ	-13558
▁食物	-13559
▁アグ	-13560
▁善治	-13561
▁追いつか	-13562
▁チャーター	-13563
▁医者	-13564
▁照れ	-13565
▁売り出し	-13566
▁アップデート	-13567
▁ムン	-13568
▁回帰	-13569
▁足跡	-13570
▁用いる	-13571
▁冷や	-13572
▁広まっ	-13573
メス	-13574
▁性質	-13575
▁短文	-13576
▁稼ぎ	-13577
▁伐採	-13578
▁来園	-13579
▁淀川	-13580
▁メッツ	-13581
▁日帰り	-13582
▁肯	-13583
▁日出	-13584
▁バイエルン	-13585
ガリー	-13586
▁ミステ	-13587
▁素晴らし	-13588
エス	-13589
▁起源	-13590
▁ひい	-13591
▁医科	-13592
▁下回り	-13593
▁カルチャー	-13594
▁防ぎ	-13595
ちょ	-13596
ボス	-13597
▁色々	-13598
ランカ	-13599
▁そっくり	-13600
▁ホルモン	-13601
モリ	-13602
▁カム	-13603
▁秘め	-13604
▁潘	-13605
▁白馬	-13606
▁ランプ	-13607
▁前例	-13608
▁キャンセル	-13609
▁久々	-13610
▁小谷	-13611
▁芥	-13612
▁発端	-13613
▁街中	-13614
▁金田	-13615
付く	-13616
▁行える	-13617
▁アクティブ	-13618
▁町村	-13619
▁美咲	-13620
▁草案	-13621
ずみ	-13622
▁処遇	-13623
▁やわ	-13624
▁儀式	-13625
▁原画	-13626
▁やけど	-13627
カンド	-13628
▁オウム	-13629
アラブル	-13630
ぶた	-13631
▁有し	-13632
▁グラブ	-13633
▁亘理	-13634
▁人身	-13635
▁強姦	-13636
▁クロマ	-13637
▁ン	-13638
▁スキン	-13639
▁AM	-13640
▁歓喜	-13641
▁近海	-13642
▁適応	-13643
ボウ	-13644
▁不倫	-13645
▁助ける	-13646
▁YouT	-13647
こり	-13648
▁パンチ	-13649
▁区割り	-13650
ースター	-13651
▁汽	-13652
▁ワタ	-13653
▁足場	-13654
▁簿	-13655
▁平泳ぎ	-13656
▁茅	-13657
▁肯定	-13658
シアム	-13659
▁コメディー	-13660
▁炭鉱	-13661
▁骨格	-13662
▁カズ	-13663
▁多忙	-13664
▁劇中	-13665
▁デング	-13666
▁手書き	-13667
▁町議	-13668
▁美女	-13669
▁持てる	-13670
▁一族	-13671
▁召集	-13672
▁日ごろ	-13673
▁ごま	-13674
▁壁画	-13675
▁けんか	-13676
▁ドメイン	-13677
▁アルジェリア	-13678
▁送迎	-13679
幼児	-13680
▁乳幼児	-13681
▁岬	-13682
▁ML	-13683
▁スチ	-13684
▁解像	-13685
わく	-13686
▁大迫	-13687
▁破る	-13688
▁なす	-13689
▁選任	-13690
▁完敗	-13691
▁ぎりぎり	-13692
コム	-13693
▁ジン	-13694
▁定額	-13695
▁サケ	-13696
▁岩国	-13697
▁FTA	-13698
▁頑張れ	-13699
▁リッター	-13700
▁恥ずかしい	-13701
▁金星	-13702
▁悪かっ	-13703
まと	-13704
▁内科	-13705
▁エスカ	-13706
▁諫	-13707
▁新田	-13708
▁チュニジア	-13709
▁七夕	-13710
▁高安	-13711
▁みえる	-13712
▁持ち株	-13713
▁近づき	-13714
▁懸案	-13715
▁躍動	-13716
▁魚介	-13717
▁セントラル	-13718
▁つぶやい	-13719
▁園長	-13720
▁キラ	-13721
▁憲司	-13722
▁洋平	-13723
▁立案	-13724
▁取り扱う	-13725
▁先手	-13726
▁見通せ	-13727
▁科す	-13728
▁デス	-13729
分ける	-13730
▁カテゴリー	-13731
▁絹	-13732
▁着い	-13733
▁返事	-13734
▁ジェーム	-13735
▁とろ	-13736
▁様相	-13737
▁果たせ	-13738
▁昨春	-13739
▁本堂	-13740
▁鯖江	-13741
▁請け負	-13742
▁受章	-13743
▁酸味	-13744
▁八百長	-13745
▁県境	-13746
そこ	-13747
▁甲斐	-13748
▁立件	-13749
▁萩野	-13750
▁高梨	-13751
▁釣れる	-13752
▁引き起こし	-13753
▁温め	-13754
▁飽き	-13755
▁ウエスト	-13756
▁チューリ	-13757
▁ユーモア	-13758
▁音色	-13759
タリング	-13760
▁かばん	-13761
たえ	-13762
▁唇	-13763
▁画質	-13764
▁薬事	-13765
▁製法	-13766
▁ペナル	-13767
▁調味	-13768
▁難波	-13769
▁博覧	-13770
▁持論	-13771
▁市町村	-13772
▁スプレー	-13773
▁GS	-13774
▁厚い	-13775
▁消息	-13776
▁メロン	-13777
zon	-13778
▁一行	-13779
▁団長	-13780
▁爆破	-13781
▁NS	-13782
ドキ	-13783
▁実写	-13784
▁パスタ	-13785
▁上がら	-13786
▁とりどり	-13787
▁オービック	-13788
▁イヤ	-13789
▁寿司	-13790
フェスト	-13791
▁京阪	-13792
▁感心	-13793
▁吟	-13794
▁一大	-13795
▁日用	-13796
▁土佐	-13797
▁根底	-13798
▁薦	-13799
▁掃討	-13800
▁補う	-13801
▁中継ぎ	-13802
▁不況	-13803
▁傾い	-13804
▁間接	-13805
▁ボルト	-13806
▁慰謝	-13807
▁産品	-13808
▁陶芸	-13809
▁山元	-13810
▁スリー	-13811
▁友だち	-13812
オー	-13813
▁細部	-13814
▁タイガー	-13815
ガイ	-13816
▁目当て	-13817
▁大韓	-13818
▁模し	-13819
▁SMAP	-13820
▁神楽	-13821
▁エリザ	-13822
▁ギャン	-13823
▁アダ	-13824
▁戸籍	-13825
▁七尾	-13826
▁紀伊	-13827
▁翔太	-13828
▁逃亡	-13829
▁元町	-13830
▁全農	-13831
▁軽快	-13832
▁野々村	-13833
▁きっちり	-13834
▁山手	-13835
▁配給	-13836
▁干し	-13837
▁野鳥	-13838
▁在任	-13839
▁粛	-13840
▁さき	-13841
▁瑞穂	-13842
▁豊川	-13843
▁リノ	-13844
▁正彦	-13845
▁メガネ	-13846
▁ラウンジ	-13847
▁オーディオ	-13848
ワク	-13849
▁今野	-13850
▁ミカン	-13851
▁セクシー	-13852
▁初球	-13853
▁学部	-13854
▁純粋	-13855
▁全仏	-13856
▁唐津	-13857
▁生理	-13858
えん	-13859
▁天理	-13860
▁屋久	-13861
▁溢	-13862
▁ハマ	-13863
▁若き	-13864
▁ホスト	-13865
▁恥ず	-13866
▁生鮮	-13867
▁同等	-13868
▁稼ぐ	-13869
▁仕留め	-13870
▁持ち込ま	-13871
▁フリ	-13872
▁安部	-13873
▁チョン	-13874
▁三河	-13875
▁働か	-13876
▁導き	-13877
据える	-13878
▁明かり	-13879
▁本州	-13880
▁近大	-13881
▁飛騨	-13882
▁跳ね	-13883
▁転機	-13884
▁さわやか	-13885
▁あべ	-13886
わう	-13887
▁ポテ	-13888
▁上流	-13889
▁亡くなる	-13890
▁上品	-13891
▁和夫	-13892
▁肝心	-13893
▁くるみ	-13894
人暮らし	-13895
▁引か	-13896
▁区切り	-13897
▁出陣	-13898
▁学問	-13899
▁配管	-13900
▁ネクタイ	-13901
▁キヤ	-13902
▁音響	-13903
▁ジョコ	-13904
▁スカー	-13905
▁税関	-13906
ウォル	-13907
▁曳	-13908
まま	-13909
▁岩隈	-13910
▁ぶつかり	-13911
▁若干	-13912
▁銀河	-13913
▁バリエーション	-13914
ギリ	-13915
▁直木	-13916
▁さく	-13917
▁中道	-13918
▁西野	-13919
▁集英	-13920
▁スライド	-13921
▁ウェア	-13922
▁腺	-13923
▁麗	-13924
▁監察	-13925
▁氷点	-13926
▁石橋	-13927
▁米朝	-13928
▁純一郎	-13929
▁アトラン	-13930
▁ジャック	-13931
むら	-13932
▁休ん	-13933
▁橿原	-13934
タウン	-13935
マーク	-13936
捨てる	-13937
▁気づき	-13938
▁蛍	-13939
▁三角	-13940
▁軍艦	-13941
▁取り壊	-13942
▁軒並み	-13943
ラド	-13944
▁各店	-13945
▁リボン	-13946
▁そろい	-13947
▁由紀子	-13948
▁蒼	-13949
▁しのぎ	-13950
▁ボイス	-13951
▁搾	-13952
▁営ん	-13953
▁空白	-13954
▁ノリ	-13955
▁冥福	-13956
▁歴訪	-13957
▁満州	-13958
▁聴衆	-13959
▁調布	-13960
おこし	-13961
いぐるみ	-13962
▁ギニア	-13963
▁懸かる	-13964
▁レオ	-13965
▁低調	-13966
▁定時	-13967
▁思い切り	-13968
ネン	-13969
▁公聴	-13970
▁炎症	-13971
面目	-13972
▁彩り	-13973
▁返っ	-13974
▁鳥谷	-13975
▁コスタリカ	-13976
▁舘	-13977
▁漫才	-13978
▁航海	-13979
▁急きょ	-13980
▁チャット	-13981
逃げ	-13982
▁注入	-13983
▁島内	-13984
▁通年	-13985
▁WBA	-13986
▁子宮	-13987
▁本島	-13988
▁見入っ	-13989
▁粘り強く	-13990
▁体格	-13991
▁挙式	-13992
▁転居	-13993
▁退社	-13994
▁エム	-13995
▁朋美	-13996
ダウン	-13997
AI	-13998
▁兼任	-13999
▁大差	-14000
さく	-14001
▁スミ	-14002
▁不動	-14003
▁鳴門	-14004
▁叫ん	-14005
▁待望	-14006
KI	-14007
▁映し出さ	-14008
▁ドキ	-14009
▁海自	-14010
ンスク	-14011
▁ひら	-14012
▁忠実	-14013
▁配属	-14014
▁ジュエリー	-14015
▁乃木	-14016
▁吸っ	-14017
▁敵対	-14018
▁ラッピング	-14019
▁念願	-14020
▁米原	-14021
▁松村	-14022
▁警護	-14023
▁危ない	-14024
▁セウォル	-14025
▁箸	-14026
ぶき	-14027
残し	-14028
▁供養	-14029
▁藩主	-14030
▁わざわざ	-14031
▁さな	-14032
▁篠原	-14033
▁鋭く	-14034
▁増産	-14035
▁向き合い	-14036
▁ゾウ	-14037
▁体温	-14038
▁軽視	-14039
▁返り	-14040
▁遭遇	-14041
▁膨らま	-14042
▁結晶	-14043
、6	-14044
▁全土	-14045
▁六甲	-14046
▁5、6	-14047
▁CP	-14048
▁勲章	-14049
▁地銀	-14050
▁籾井	-14051
▁チョウ	-14052
▁置き場	-14053
▁不妊	-14054
▁森友	-14055
▁いたずら	-14056
求め	-14057
▁地獄	-14058
▁小結	-14059
▁略式	-14060
▁袴田	-14061
▁裕太	-14062
▁奏者	-14063
▁キヤノン	-14064
ズル	-14065
▁自公	-14066
▁舞妓	-14067
ンジー	-14068
▁フェデ	-14069
▁明日香	-14070
▁明子	-14071
▁梨田	-14072
▁低かっ	-14073
▁LI	-14074
▁府中	-14075
▁シエラ	-14076
▁バックス	-14077
▁褒め	-14078
▁ゴジラ	-14079
▁一堂	-14080
▁別々	-14081
▁車載	-14082
▁曜	-14083
▁取り下げ	-14084
いち	-14085
▁明白	-14086
▁焼失	-14087
▁貫く	-14088
▁パラオ	-14089
▁武蔵野	-14090
▁引っ張り	-14091
▁ジェン	-14092
mazon	-14093
▁遂行	-14094
あえ	-14095
▁ルノー	-14096
▁食器	-14097
▁財閥	-14098
▁ハロ	-14099
▁今作	-14100
▁売春	-14101
▁守れ	-14102
▁踊っ	-14103
▁前売り	-14104
サイド	-14105
▁地層	-14106
▁進捗	-14107
▁こころ	-14108
▁国別	-14109
▁ALS	-14110
▁メンタル	-14111
▁パーセント	-14112
▁文春	-14113
▁切手	-14114
▁コーポレーション	-14115
▁院内	-14116
▁受精	-14117
▁見極める	-14118
▁FK	-14119
▁根幹	-14120
▁帯広	-14121
▁故意	-14122
▁目の	-14123
▁農作	-14124
▁ダイナミック	-14125
iv	-14126
▁大声	-14127
▁天国	-14128
▁ヘルメット	-14129
ぞう	-14130
▁白川	-14131
▁電通	-14132
▁真っ赤	-14133
▁ローテーション	-14134
un	-14135
▁宣誓	-14136
▁鉱山	-14137
▁密接	-14138
▁キャピタル	-14139
▁危う	-14140
▁語学	-14141
▁返上	-14142
▁稲葉	-14143
▁椎	-14144
▁日付	-14145
▁病原	-14146
▁頼ら	-14147
▁拙	-14148
▁ヘー	-14149
▁自作	-14150
▁酢	-14151
▁あいまい	-14152
▁択	-14153
▁碧	-14154
▁茜	-14155
▁坂口	-14156
▁望遠	-14157
▁蛇	-14158
▁工法	-14159
▁ラック	-14160
▁大町	-14161
▁小物	-14162
▁熱意	-14163
▁吹く	-14164
▁富田	-14165
▁曖	-14166
▁呼び込む	-14167
▁佳子	-14168
▁柏崎	-14169
▁立山	-14170
▁自在	-14171
▁ムービー	-14172
▁域内	-14173
▁スリランカ	-14174
▁UN	-14175
▁ドミ	-14176
▁ユニシス	-14177
▁元年	-14178
残さ	-14179
▁ビラ	-14180
▁渡さ	-14181
▁_	-14182
▁HS	-14183
▁曖昧	-14184
▁ハンセン	-14185
▁拓也	-14186
▁過熱	-14187
▁更なる	-14188
▁カス	-14189
▁兆候	-14190
▁募り	-14191
▁川勝	-14192
▁平屋	-14193
▁酒気	-14194
▁防水	-14195
▁レーン	-14196
▁ちり	-14197
▁太宰	-14198
▁フィルター	-14199
▁マキ	-14200
▁進入	-14201
▁バッジ	-14202
▁ワクワク	-14203
▁愛護	-14204
▁三原	-14205
▁兼務	-14206
▁所要	-14207
▁小倉北	-14208
▁スギ	-14209
▁滝沢	-14210
▁シャワー	-14211
▁同駅	-14212
▁下請け	-14213
▁湿度	-14214
▁現し	-14215
▁垂直	-14216
々しく	-14217
▁出世	-14218
▁カッコ	-14219
▁インターンシップ	-14220
▁マタ	-14221
▁調節	-14222
▁命じる	-14223
五郎	-14224
▁シャトル	-14225
▁デマ	-14226
▁取り外	-14227
▁引き合い	-14228
▁でん	-14229
▁手塚	-14230
▁藤枝	-14231
▁差し引	-14232
▁持ち運	-14233
▁▼	-14234
▁県勢	-14235
▁任天	-14236
▁天安	-14237
▁緑地	-14238
▁ほしかっ	-14239
▁手のひら	-14240
レスト	-14241
▁にぎわう	-14242
▁芥川	-14243
どき	-14244
▁技法	-14245
▁ブラシ	-14246
▁小田原	-14247
じて	-14248
▁おもしろい	-14249
▁生駒	-14250
▁駿河	-14251
▁ひっく	-14252
▁ピー	-14253
▁右膝	-14254
▁遊園	-14255
▁トーマ	-14256
▁ラップ	-14257
▁突っ込ん	-14258
▁左側	-14259
▁委ね	-14260
▁ヘルスケア	-14261
小牧	-14262
▁苫小牧	-14263
▁バーディ	-14264
▁グラフィック	-14265
▁辺り	-14266
▁駅員	-14267
▁争奪	-14268
▁無期	-14269
▁生かさ	-14270
▁荒れ	-14271
ーミング	-14272
▁穀	-14273
▁不能	-14274
▁併用	-14275
▁空輸	-14276
▁THA	-14277
▁ずらり	-14278
▁グランパス	-14279
▁生まれ育っ	-14280
▁壮大	-14281
▁生育	-14282
▁秋元	-14283
▁拍車	-14284
▁母体	-14285
▁細菌	-14286
▁縁起	-14287
▁腫瘍	-14288
▁THAAD	-14289
▁個展	-14290
▁室蘭	-14291
▁ウィンドウ	-14292
▁Amazon	-14293
フィン	-14294
▁ペンギン	-14295
▁ヒアリング	-14296
▁使途	-14297
▁帝京	-14298
こもり	-14299
▁うちわ	-14300
▁マクロ	-14301
さる	-14302
トゥ	-14303
▁アルペン	-14304
▁一筋	-14305
▁中原	-14306
▁見当	-14307
▁ひかり	-14308
寄る	-14309
▁台本	-14310
▁ひたすら	-14311
ミナ	-14312
干し	-14313
▁分配	-14314
スキー	-14315
▁ミリシーベルト	-14316
▁えび	-14317
▁みやぎ	-14318
▁捻	-14319
▁六千	-14320
▁建国	-14321
▁ビートル	-14322
▁伯	-14323
▁異変	-14324
ブール	-14325
▁流れ込ん	-14326
▁区分	-14327
▁こっち	-14328
▁巻き込ん	-14329
▁内村	-14330
▁決選	-14331
▁やわらか	-14332
▁山城	-14333
▁欠く	-14334
▁足ら	-14335
▁ピザ	-14336
▁後手	-14337
▁カントリー	-14338
▁悔い	-14339
▁火事	-14340
▁判事	-14341
▁システムズ	-14342
ハツ	-14343
▁久慈	-14344
▁五郎	-14345
▁談合	-14346
▁健太郎	-14347
▁ナン	-14348
▁じっと	-14349
▁醤	-14350
なみ	-14351
▁RE	-14352
▁併殺	-14353
▁出港	-14354
▁森山	-14355
チャン	-14356
▁多賀城	-14357
▁ステーキ	-14358
▁コシ	-14359
▁山車	-14360
▁炎上	-14361
▁返礼	-14362
ニュ	-14363
▁始発	-14364
▁極東	-14365
▁テナント	-14366
▁こもっ	-14367
▁おじ	-14368
▁前節	-14369
▁手掛かり	-14370
▁EE	-14371
▁両町	-14372
▁和泉	-14373
ーチャ	-14374
▁ダイバー	-14375
▁諭	-14376
▁鉛	-14377
▁イモ	-14378
▁愛着	-14379
▁覚書	-14380
▁杉並	-14381
▁隠岐	-14382
▁クローズ	-14383
▁タク	-14384
▁刈り	-14385
▁退位	-14386
▁飲み物	-14387
▁典型	-14388
▁舞う	-14389
▁バント	-14390
▁周波	-14391
▁放課	-14392
ress	-14393
▁中高年	-14394
▁シベ	-14395
▁ロマ	-14396
▁塩崎	-14397
▁接点	-14398
▁色鮮	-14399
▁部位	-14400
▁重軽	-14401
▁色鮮やか	-14402
エゴ	-14403
▁禁錮	-14404
▁時価	-14405
▁察	-14406
▁脆	-14407
▁マインツ	-14408
▁TM	-14409
▁嫌気	-14410
▁素案	-14411
▁双子	-14412
▁壊し	-14413
▁年率	-14414
▁自前	-14415
▁決め手	-14416
▁街づくり	-14417
▁続行	-14418
タム	-14419
▁修繕	-14420
▁幕張	-14421
▁王室	-14422
▁立憲	-14423
▁たまに	-14424
▁扶	-14425
やさ	-14426
▁Pl	-14427
▁コンピュータ	-14428
遊び	-14429
▁ナチュ	-14430
▁組み合わせる	-14431
▁PA	-14432
▁ひか	-14433
▁学童	-14434
▁カープ	-14435
▁アルプス	-14436
▁ダイハツ	-14437
▁祝賀	-14438
▁義塾	-14439
▁CIA	-14440
▁カート	-14441
▁そろそろ	-14442
▁持ち帰っ	-14443
▁滅	-14444
ぞろい	-14445
ディアン	-14446
▁DL	-14447
▁寝室	-14448
▁森本	-14449
▁セカンド	-14450
VE	-14451
▁プル	-14452
▁浪速	-14453
▁通院	-14454
▁目の当たり	-14455
▁橘	-14456
▁漱	-14457
▁大喜	-14458
▁市側	-14459
▁粟	-14460
▁脱税	-14461
▁返金	-14462
▁詰める	-14463
ーサル	-14464
▁まひ	-14465
ゃく	-14466
▁ばん	-14467
▁奥州	-14468
▁物事	-14469
▁叩	-14470
っこり	-14471
ッフェ	-14472
▁引っ張る	-14473
▁プレイヤー	-14474
▁アーム	-14475
▁焼け跡	-14476
▁漱石	-14477
▁面白く	-14478
▁カーター	-14479
▁ジョンウン	-14480
▁頼ま	-14481
▁署長	-14482
▁ルーマ	-14483
▁キリ	-14484
▁形跡	-14485
▁クリック	-14486
▁プレゼンテーション	-14487
▁ハナ	-14488
▁レコーダー	-14489
▁きょ	-14490
▁通す	-14491
▁付き添	-14492
▁切れる	-14493
▁禅	-14494
ホルム	-14495
▁ポテト	-14496
▁マニフェスト	-14497
▁向か	-14498
▁和彦	-14499
▁晩年	-14500
▁パシフィック	-14501
▁しい	-14502
▁やつ	-14503
▁俊一	-14504
▁メロディー	-14505
▁ルーマニア	-14506
▁スタンダード	-14507
▁宴会	-14508
▁狩り	-14509
▁ブラウ	-14510
▁育つ	-14511
▁頬	-14512
▁のせ	-14513
ンジン	-14514
▁作ろう	-14515
▁造る	-14516
▁友情	-14517
▁恵子	-14518
▁暮れ	-14519
▁紛失	-14520
▁絡め	-14521
▁演目	-14522
▁生田	-14523
▁苦悩	-14524
がす	-14525
▁解き	-14526
▁九百	-14527
▁頻発	-14528
▁生かせ	-14529
▁桃子	-14530
▁殺す	-14531
▁甲賀	-14532
▁邪魔	-14533
まわり	-14534
▁起こさ	-14535
▁バグ	-14536
▁えり	-14537
▁へい	-14538
▁優良	-14539
▁思い浮	-14540
▁立ち上がっ	-14541
▁栄え	-14542
▁訴追	-14543
▁ギア	-14544
▁小豆	-14545
▁吐き	-14546
▁試写	-14547
▁追いかけ	-14548
▁みなし	-14549
▁出廷	-14550
▁財界	-14551
▁JAF	-14552
▁ステン	-14553
▁mail	-14554
▁挨	-14555
ぞろ	-14556
▁一歩	-14557
▁龍馬	-14558
スティング	-14559
びり	-14560
▁多岐	-14561
▁レンタ	-14562
▁挫	-14563
たか	-14564
▁心筋	-14565
▁時給	-14566
歩く	-14567
▁津田	-14568
▁親友	-14569
▁ラマ	-14570
▁挨拶	-14571
▁本殿	-14572
▁論評	-14573
▁気づか	-14574
▁ダニエル	-14575
▁一刻	-14576
▁重軽傷	-14577
▁麓	-14578
▁ルーブル	-14579
牟田	-14580
▁スワ	-14581
▁中途	-14582
▁先人	-14583
▁光学	-14584
▁分科	-14585
▁問合せ	-14586
▁釣具	-14587
ッキリ	-14588
▁ストックホルム	-14589
▁BMW	-14590
▁大根	-14591
▁憤り	-14592
▁猛烈	-14593
▁リハーサル	-14594
バチ	-14595
▁良質	-14596
▁高潮	-14597
▁ガリ	-14598
▁点在	-14599
▁ディスク	-14600
レオネ	-14601
▁えい	-14602
▁期し	-14603
▁採り	-14604
▁異物	-14605
▁笹井	-14606
▁否め	-14607
ab	-14608
▁尹	-14609
ゆき	-14610
▁取り上げる	-14611
▁炒	-14612
▁蜂	-14613
▁退避	-14614
▁唱える	-14615
▁オフィシャル	-14616
▁大口	-14617
▁チン	-14618
▁巻い	-14619
▁本戦	-14620
▁負い	-14621
▁タマネギ	-14622
▁取り残さ	-14623
▁三沢	-14624
▁悲鳴	-14625
▁見知	-14626
▁シエラレオネ	-14627
比べ	-14628
焼け	-14629
▁日田	-14630
▁カトリック	-14631
▁不幸	-14632
のぼり	-14633
▁かわし	-14634
▁ギャンブル	-14635
▁叶	-14636
さみ	-14637
ニッシュ	-14638
▁礁	-14639
だれ	-14640
▁裏側	-14641
▁迷っ	-14642
ニカル	-14643
▁ハリー	-14644
▁味付け	-14645
▁ファスト	-14646
▁根強く	-14647
▁講じる	-14648
っぴ	-14649
▁地価	-14650
▁細い	-14651
▁光っ	-14652
▁召し	-14653
▁濃く	-14654
▁Net	-14655
▁地名	-14656
▁もんじゅ	-14657
サギ	-14658
▁和ら	-14659
▁夜空	-14660
▁本数	-14661
▁移り住	-14662
▁大小	-14663
▁通期	-14664
▁銀次	-14665
▁ヨガ	-14666
▁隠蔽	-14667
▁テスラ	-14668
▁洋一	-14669
▁海中	-14670
▁わくわく	-14671
▁肖	-14672
敷き	-14673
着陸	-14674
▁包装	-14675
▁同調	-14676
▁常駐	-14677
▁サプリ	-14678
▁異なっ	-14679
▁離着陸	-14680
▁侮	-14681
▁湊	-14682
▁分譲	-14683
▁刻み	-14684
▁貼っ	-14685
▁役立てる	-14686
まち	-14687
OKA	-14688
▁土居	-14689
▁不定	-14690
チョウ	-14691
▁奮起	-14692
▁水温	-14693
▁ヨーグ	-14694
▁痕跡	-14695
▁蓄電	-14696
▁立ち並	-14697
▁ラーニング	-14698
▁礎	-14699
▁セリエ	-14700
▁鷲	-14701
▁古巣	-14702
▁掌握	-14703
▁部数	-14704
▁一騎	-14705
▁平塚	-14706
▁河原	-14707
▁浦安	-14708
▁イエロー	-14709
▁却	-14710
▁若松	-14711
▁ぬいぐるみ	-14712
落と	-14713
▁生還	-14714
▁羽根	-14715
▁造っ	-14716
▁由紀夫	-14717
▁おっしゃ	-14718
ばり	-14719
▁Ch	-14720
▁くぎ	-14721
▁山地	-14722
▁戸数	-14723
▁搬出	-14724
▁ターボ	-14725
▁守山	-14726
▁戦士	-14727
▁戻ら	-14728
▁液化	-14729
▁譲位	-14730
▁高尾	-14731
▁フレンチ	-14732
▁沙汰	-14733
▁切り開	-14734
▁ファイナ	-14735
im	-14736
▁しー	-14737
▁精進	-14738
▁蜜	-14739
▁阿倍	-14740
さか	-14741
▁リモ	-14742
▁北極	-14743
▁厳正	-14744
▁ロマン	-14745
▁控えめ	-14746
▁立ち上げる	-14747
しき	-14748
▁特任	-14749
▁蹴り	-14750
▁車輪	-14751
▁マサ	-14752
▁測量	-14753
▁自負	-14754
▁持ちかけ	-14755
▁従い	-14756
▁興業	-14757
▁フロン	-14758
▁当てる	-14759
▁▲	-14760
▁まり	-14761
▁最期	-14762
▁水路	-14763
らう	-14764
gle	-14765
▁テコ	-14766
▁仲裁	-14767
▁裏付ける	-14768
▁垣間	-14769
▁正明	-14770
▁ドラム	-14771
▁求職	-14772
▁衣服	-14773
どう	-14774
▁ヴェ	-14775
▁客員	-14776
▁取り除く	-14777
▁ET	-14778
▁かる	-14779
▁ぶん	-14780
▁チア	-14781
▁公邸	-14782
▁土井	-14783
▁真面目	-14784
▁バチカン	-14785
▁切り出し	-14786
がめ	-14787
▁製糸	-14788
▁ホタル	-14789
▁抜ける	-14790
▁さながら	-14791
▁優雅	-14792
▁適当	-14793
▁たたえる	-14794
むつ	-14795
▁下山	-14796
▁分布	-14797
フィア	-14798
▁リベラル	-14799
▁殴ら	-14800
▁Goo	-14801
▁増進	-14802
▁実刑	-14803
▁服用	-14804
▁登っ	-14805
ニーズ	-14806
▁受け継い	-14807
▁ハラ	-14808
▁ガッツ	-14809
▁打ち合わせ	-14810
▁次戦	-14811
▁食欲	-14812
▁タケ	-14813
▁回路	-14814
▁減産	-14815
▁アース	-14816
▁メンズ	-14817
▁無数	-14818
▁セーフ	-14819
▁スナック	-14820
どっ	-14821
▁破裂	-14822
▁てい	-14823
▁予め	-14824
▁眠れ	-14825
▁別荘	-14826
▁干渉	-14827
▁直売	-14828
▁降雨	-14829
変わり	-14830
▁ヨーグルト	-14831
▁補選	-14832
▁本線	-14833
▁相乗	-14834
▁プリンス	-14835
▁語りかけ	-14836
▁クロマグロ	-14837
▁掘り起こし	-14838
▁イラストレーター	-14839
ケ崎	-14840
▁左中	-14841
▁醸成	-14842
▁悩まさ	-14843
▁スクエア	-14844
▁受け継が	-14845
▁リピ	-14846
▁プラント	-14847
メーション	-14848
▁スモ	-14849
▁氷見	-14850
▁頼ん	-14851
▁PTA	-14852
▁盛り上がる	-14853
▁部活	-14854
▁極め	-14855
ージス	-14856
継ぎ	-14857
▁乱用	-14858
▁英文	-14859
▁転嫁	-14860
ロット	-14861
コラ	-14862
▁未然	-14863
▁定評	-14864
▁盗難	-14865
ンダム	-14866
▁培養	-14867
▁愛犬	-14868
右衛門	-14869
▁ファウル	-14870
▁柔らかい	-14871
▁亡命	-14872
▁プロポーズ	-14873
▁コレ	-14874
▁有馬	-14875
▁頼っ	-14876
▁高槻	-14877
言葉	-14878
▁消毒	-14879
▁規範	-14880
ーレ	-14881
▁協業	-14882
▁大江	-14883
▁脆弱	-14884
ベルク	-14885
合える	-14886
▁あっさり	-14887
▁ヘン	-14888
▁宏幸	-14889
▁進退	-14890
▁出会う	-14891
TR	-14892
オス	-14893
▁杉田	-14894
ミネート	-14895
▁なぁ	-14896
▁却下	-14897
っしり	-14898
▁椿	-14899
▁カサ	-14900
▁整形	-14901
▁直す	-14902
▁賃料	-14903
▁中西部	-14904
▁気付か	-14905
▁だる	-14906
▁下痢	-14907
▁規約	-14908
▁イーグル	-14909
▁ふくら	-14910
▁デッキ	-14911
▁茶屋	-14912
▁大石	-14913
▁権益	-14914
▁送致	-14915
▁ウッド	-14916
▁入選	-14917
▁平行	-14918
▁発議	-14919
▁会え	-14920
▁客船	-14921
▁裾野	-14922
▁原宿	-14923
▁科し	-14924
▁阿倍野	-14925
二郎	-14926
▁ぬぐ	-14927
▁空い	-14928
▁固める	-14929
▁教え子	-14930
▁フラッシュ	-14931
届け	-14932
▁新鋭	-14933
▁要所	-14934
ッティング	-14935
▁少々	-14936
▁ファンディング	-14937
▁敬遠	-14938
▁瞬時	-14939
▁乃木坂	-14940
▁イージス	-14941
▁匠	-14942
ベニア	-14943
com	-14944
▁泳ぎ	-14945
▁乳がん	-14946
▁エッセー	-14947
▁一人ひとり	-14948
▁内堀	-14949
▁子孫	-14950
▁戦勝	-14951
▁伝わり	-14952
▁抜け出し	-14953
▁ネイチャー	-14954
▁猟	-14955
▁道場	-14956
▁オリオ	-14957
▁好奇	-14958
▁抱か	-14959
▁燃焼	-14960
▁ホッと	-14961
▁日の丸	-14962
▁恨	-14963
▁外壁	-14964
▁大丸	-14965
▁鎌田	-14966
聞かせ	-14967
▁仕上がっ	-14968
▁ストレッチ	-14969
▁弥生	-14970
▁朝倉	-14971
▁琢磨	-14972
▁ささやか	-14973
▁専属	-14974
▁膨張	-14975
▁催さ	-14976
あえず	-14977
ンダイ	-14978
▁免震	-14979
▁誓う	-14980
▁にぎやか	-14981
▁各市	-14982
▁じゅん	-14983
ブルドン	-14984
▁農政	-14985
▁局地	-14986
▁左膝	-14987
IS	-14988
▁人脈	-14989
▁吉岡	-14990
▁PV	-14991
ストア	-14992
▁贈り物	-14993
▁紋	-14994
▁水増し	-14995
▁モナ	-14996
▁手本	-14997
▁最善	-14998
▁篇	-14999
▁並木	-15000
▁労災	-15001
▁年初	-15002
▁インフォ	-15003
▁実在	-15004
▁特派	-15005
▁兼ね備	-15006
▁天安門	-15007
▁申し上げる	-15008
ne	-15009
▁室町	-15010
▁ハンター	-15011
▁取り押さえ	-15012
▁諒	-15013
▁下車	-15014
▁吐露	-15015
▁閉館	-15016
止まり	-15017
指し	-15018
▁泳ぐ	-15019
▁冬場	-15020
▁練馬	-15021
▁沈黙	-15022
ぶっ	-15023
巻き	-15024
▁名産	-15025
▁圧巻	-15026
▁奥田	-15027
▁ウィンブルドン	-15028
▁峠	-15029
▁アスレ	-15030
▁YouTube	-15031
▁ほほ笑	-15032
▁ウイン	-15033
▁人格	-15034
▁ことば	-15035
▁行き交	-15036
▁ハンガリー	-15037
▁密集	-15038
▁真澄	-15039
▁醤油	-15040
▁リチウム	-15041
▁食肉	-15042
▁オリオールズ	-15043
▁モーターズ	-15044
埋め	-15045
▁流動	-15046
▁藤岡	-15047
▁離職	-15048
▁コンタ	-15049
▁テキスト	-15050
▁こな	-15051
▁下京	-15052
▁中大	-15053
▁焼く	-15054
▁茨木	-15055
▁嬉しい	-15056
▁動け	-15057
▁追い詰め	-15058
▁条文	-15059
▁直筆	-15060
▁配り	-15061
▁ふんだん	-15062
▁濁	-15063
▁しのぶ	-15064
▁大祭	-15065
▁コンパニオン	-15066
▁庵	-15067
▁ざん	-15068
▁ウラ	-15069
▁電球	-15070
▁頂上	-15071
▁EEZ	-15072
▁グリコ	-15073
▁色合い	-15074
▁楠	-15075
ペラ	-15076
▁北島	-15077
▁漂っ	-15078
▁DC	-15079
▁会頭	-15080
▁解約	-15081
▁遊説	-15082
▁馬力	-15083
▁れい	-15084
▁スマイル	-15085
ばめ	-15086
▁はく	-15087
▁市原	-15088
▁長州	-15089
ADOKA	-15090
▁プライド	-15091
ベツ	-15092
▁宇野	-15093
▁雨天	-15094
▁宮古島	-15095
▁粉末	-15096
フォード	-15097
▁#	-15098
▁弾ま	-15099
▁恐ろ	-15100
▁服役	-15101
▁規正	-15102
▁がかり	-15103
▁やりがい	-15104
▁清武	-15105
▁致死傷	-15106
▁烏	-15107
▁往来	-15108
▁眞子	-15109
▁アイアン	-15110
▁敢	-15111
▁現存	-15112
▁重力	-15113
▁リフレ	-15114
▁ひつ	-15115
▁従わ	-15116
▁怒ら	-15117
▁薦め	-15118
▁城下	-15119
▁道警	-15120
▁砕	-15121
▁減収	-15122
▁柚	-15123
▁難色	-15124
▁保湿	-15125
▁要人	-15126
▁吸引	-15127
▁ヒート	-15128
▁顔ぶれ	-15129
▁プロフェ	-15130
▁ウォーター	-15131
▁空調	-15132
立てる	-15133
▁ウィル	-15134
▁ニセ	-15135
▁小高	-15136
▁ナチュラル	-15137
ばき	-15138
ノス	-15139
▁凶器	-15140
デラ	-15141
▁塩分	-15142
▁水力	-15143
▁砂浜	-15144
▁類似	-15145
apan	-15146
▁いったい	-15147
▁狙わ	-15148
受ける	-15149
▁ホルダー	-15150
クシ	-15151
▁もろ	-15152
▁偏見	-15153
▁優し	-15154
▁板橋	-15155
▁癒やし	-15156
▁GB	-15157
▁劣勢	-15158
▁接待	-15159
▁湿っ	-15160
寄せる	-15161
▁度合い	-15162
▁亀裂	-15163
▁浜岡	-15164
▁緩め	-15165
▁複製	-15166
▁モント	-15167
▁宇佐美	-15168
佐子	-15169
▁GA	-15170
▁弱く	-15171
▁新薬	-15172
▁祈念	-15173
▁立証	-15174
ンドー	-15175
▁ウー	-15176
▁レビュー	-15177
跳び	-15178
▁力説	-15179
▁沈め	-15180
▁駅長	-15181
▁トーマス	-15182
▁飛び込み	-15183
ギャ	-15184
▁年上	-15185
▁ピック	-15186
スマ	-15187
▁上川	-15188
▁覆っ	-15189
▁連想	-15190
之介	-15191
▁うたっ	-15192
▁ビートルズ	-15193
▁助教	-15194
▁名曲	-15195
▁有希	-15196
▁西成	-15197
▁閉じ込め	-15198
▁セガ	-15199
▁ループ	-15200
▁シベリア	-15201
▁Google	-15202
▁エレクトロニクス	-15203
▁駒大	-15204
▁つかめ	-15205
▁礼拝	-15206
▁給油	-15207
▁討議	-15208
▁ぽつ	-15209
▁苦境	-15210
▁しのい	-15211
▁ミズノ	-15212
▁ブー	-15213
▁座る	-15214
▁榎	-15215
▁惨敗	-15216
▁転身	-15217
▁にらん	-15218
▁思い浮か	-15219
▁ゴルファー	-15220
▁廃絶	-15221
▁弱点	-15222
ックル	-15223
レンデ	-15224
▁人選	-15225
▁奈緒	-15226
▁江戸川	-15227
▁カワ	-15228
▁指輪	-15229
▁業態	-15230
▁編み	-15231
▁清潔	-15232
▁総研	-15233
ーナツ	-15234
▁トレイン	-15235
▁オブジェ	-15236
ADOKAWA	-15237
▁KADOKAWA	-15238
▁オマ	-15239
▁直通	-15240
▁ゴメス	-15241
▁サマー	-15242
▁交わす	-15243
▁消える	-15244
▁キーボード	-15245
▁名張	-15246
▁法大	-15247
▁説い	-15248
▁背負う	-15249
▁具材	-15250
▁バッハ	-15251
▁暖かい	-15252
EM	-15253
オフ	-15254
▁マックス	-15255
▁エルサレム	-15256
▁おさ	-15257
▁すず	-15258
▁測位	-15259
▁赤崎	-15260
▁赤色	-15261
▁グロ	-15262
▁投じる	-15263
▁はせ	-15264
▁暴露	-15265
▁仕込み	-15266
▁捉える	-15267
▁ドラゴンズ	-15268
▁奏で	-15269
▁対米	-15270
▁スタンス	-15271
んじ	-15272
▁ふな	-15273
▁祖国	-15274
▁腰痛	-15275
▁レジェ	-15276
▁脊	-15277
▁ロウ	-15278
▁地熱	-15279
▁ペナルティー	-15280
▁冬型	-15281
▁夢見	-15282
▁不便	-15283
▁右側	-15284
▁夜景	-15285
▁阻害	-15286
▁同業	-15287
▁敷い	-15288
▁校庭	-15289
▁称し	-15290
▁走塁	-15291
▁重機	-15292
▁ぜいたく	-15293
▁加減	-15294
▁恵美子	-15295
▁ノミネート	-15296
働き	-15297
▁敷き	-15298
▁磨く	-15299
▁いちご	-15300
▁なぞ	-15301
▁尊厳	-15302
▁資生	-15303
抜ける	-15304
▁パワハラ	-15305
▁振り込め	-15306
▁満面	-15307
▁降水	-15308
OP	-15309
▁折る	-15310
▁筋力	-15311
▁乾杯	-15312
▁根室	-15313
▁算定	-15314
▁軍縮	-15315
▁うなずい	-15316
▁さっそく	-15317
▁匂	-15318
てい	-15319
▁灯籠	-15320
▁ベリー	-15321
▁クライアント	-15322
▁愉	-15323
▁乗船	-15324
▁削っ	-15325
▁増資	-15326
▁球児	-15327
▁組長	-15328
▁転用	-15329
▁まとっ	-15330
▁グラビア	-15331
▁ランドセル	-15332
っ子	-15333
よし	-15334
▁化合	-15335
▁名指し	-15336
▁忙しく	-15337
▁真っ白	-15338
▁ワイルド	-15339
▁ゆで	-15340
▁単語	-15341
▁再三	-15342
▁交錯	-15343
▁十勝	-15344
▁スカーフ	-15345
▁余震	-15346
▁武者	-15347
▁証書	-15348
▁かみしめ	-15349
▁カーテン	-15350
▁テクニック	-15351
▁中傷	-15352
▁おば	-15353
▁各紙	-15354
▁山笠	-15355
▁岩沼	-15356
▁新春	-15357
▁本山	-15358
▁本願	-15359
▁凄	-15360
▁ふじ	-15361
▁頂け	-15362
▁アレク	-15363
ッショナル	-15364
▁一色	-15365
▁勾留	-15366
▁ナノ	-15367
▁ばか	-15368
▁三村	-15369
▁写し	-15370
▁インク	-15371
▁勤労	-15372
▁暴言	-15373
▁つまみ	-15374
▁流用	-15375
▁減災	-15376
▁コーディネーター	-15377
づく	-15378
▁実況	-15379
▁毎朝	-15380
▁猛攻	-15381
▁米兵	-15382
フライ	-15383
▁カンヌ	-15384
ゲス	-15385
▁ml	-15386
▁だく	-15387
▁全治	-15388
▁日向	-15389
▁飼料	-15390
▁鳥居	-15391
▁十和田	-15392
▁芋	-15393
▁ヤジ	-15394
▁電柱	-15395
▁ピアニスト	-15396
▁くに	-15397
▁激し	-15398
▁犯し	-15399
▁TK	-15400
▁資質	-15401
▁ノック	-15402
▁カスタマ	-15403
▁スイート	-15404
▁たどり着い	-15405
ぼこ	-15406
思い	-15407
▁MC	-15408
▁ミツ	-15409
▁高価	-15410
▁勘違い	-15411
▁レバ	-15412
▁カヌー	-15413
▁サンマ	-15414
▁溺	-15415
▁肖像	-15416
▁製紙	-15417
▁見直さ	-15418
ザイ	-15419
▁家畜	-15420
▁金色	-15421
▁メイド	-15422
▁勤める	-15423
▁桟	-15424
▁遠慮	-15425
▁たろう	-15426
▁スイカ	-15427
▁ブレンド	-15428
▁ミステリー	-15429
▁閑	-15430
▁俊博	-15431
▁葛藤	-15432
▁浴びせ	-15433
テイメント	-15434
▁匹敵	-15435
▁山積	-15436
▁救っ	-15437
▁ぐるみ	-15438
▁及ぼし	-15439
▁イースト	-15440
▁立ち向かう	-15441
▁ひび	-15442
▁納豆	-15443
▁スノーボード	-15444
▁人命	-15445
▁盛況	-15446
▁ビッチ	-15447
▁コボスタ	-15448
▁拍子	-15449
▁ケルン	-15450
▁SO	-15451
▁サマ	-15452
▁池上	-15453
▁ダイニング	-15454
メイ	-15455
▁怒っ	-15456
▁生成	-15457
▁砲撃	-15458
▁七千	-15459
▁波乱	-15460
よく	-15461
▁協働	-15462
▁平常	-15463
▁賭け	-15464
なわち	-15465
ッポロ	-15466
▁NSC	-15467
▁かさ上げ	-15468
▁すなわち	-15469
▁ウォーズ	-15470
▁スパイス	-15471
▁奇妙	-15472
▁寂し	-15473
▁役職	-15474
▁叔	-15475
ナカ	-15476
▁委嘱	-15477
▁よしひ	-15478
置き	-15479
▁濃縮	-15480
▁たこ	-15481
▁なな	-15482
▁在留	-15483
▁定価	-15484
▁レザー	-15485
▁眉	-15486
▁民法	-15487
▁眠っ	-15488
▁働き掛け	-15489
▁鯨	-15490
▁気比	-15491
▁クルー	-15492
▁サッポロ	-15493
▁好む	-15494
▁ぴあ	-15495
▁余計	-15496
ノール	-15497
▁旺盛	-15498
▁とれる	-15499
▁取り囲	-15500
▁ぺ	-15501
▁深まっ	-15502
▁サウス	-15503
▁掛ける	-15504
▁利府	-15505
▁着替え	-15506
▁美味しい	-15507
▁追いつい	-15508
▁央	-15509
▁論じ	-15510
▁トラベル	-15511
▁ネタニヤ	-15512
▁々	-15513
▁観賞	-15514
▁諫早	-15515
▁踏ま	-15516
▁チェア	-15517
▁安楽	-15518
▁愛国	-15519
▁戦艦	-15520
▁聖子	-15521
ation	-15522
▁さっぱり	-15523
開け	-15524
▁雄大	-15525
っちゃ	-15526
▁元々	-15527
▁ネタニヤフ	-15528
みれ	-15529
▁乗降	-15530
▁必勝	-15531
▁芝生	-15532
▁踏む	-15533
▁増員	-15534
▁壁面	-15535
▁ひざ	-15536
▁自律	-15537
▁智子	-15538
▁深海	-15539
▁かえって	-15540
▁ウズ	-15541
▁八尾	-15542
▁細工	-15543
▁かねて	-15544
▁修業	-15545
▁投影	-15546
▁有人	-15547
▁要し	-15548
▁ソングライター	-15549
▁広東	-15550
▁萎	-15551
▁光一	-15552
▁同名	-15553
▁天童	-15554
▁遺影	-15555
▁可愛い	-15556
▁ブロード	-15557
▁処置	-15558
▁タッグ	-15559
▁東亜	-15560
▁狩野	-15561
▁連鎖	-15562
サンプトン	-15563
▁応急	-15564
▁返納	-15565
▁ブリス	-15566
▁だんだん	-15567
▁タコ	-15568
▁肩書	-15569
▁酔っ	-15570
▁冷やし	-15571
▁臼	-15572
カチ	-15573
▁カモ	-15574
▁三好	-15575
▁ディスカッション	-15576
踏み	-15577
キュラム	-15578
えもん	-15579
US	-15580
▁cc	-15581
▁武雄	-15582
▁裁量	-15583
▁分かち	-15584
▁プロフェッショナル	-15585
▁大義	-15586
▁東武	-15587
▁ゆめ	-15588
▁公言	-15589
▁勝た	-15590
▁サウサンプトン	-15591
▁宮原	-15592
▁持ち上げ	-15593
ES	-15594
▁凱	-15595
▁ケガ	-15596
▁引け	-15597
▁競輪	-15598
▁カスタマイズ	-15599
▁カリキュラム	-15600
磨き	-15601
▁刺殺	-15602
▁藤川	-15603
▁かぶり	-15604
▁売り出す	-15605
▁モジュール	-15606
▁様式	-15607
キュア	-15608
▁だくさん	-15609
▁炭酸	-15610
▁日没	-15611
▁惜しん	-15612
ゆみ	-15613
▁ナッツ	-15614
▁親しん	-15615
▁商務	-15616
▁新宮	-15617
▁景品	-15618
▁硬い	-15619
▁讃	-15620
の出	-15621
▁岡部	-15622
▁隆一	-15623
トリー	-15624
▁初日の出	-15625
▁テル	-15626
▁ベランダ	-15627
ばせ	-15628
▁水質	-15629
▁疎開	-15630
▁終身	-15631
▁苦言	-15632
▁近づけ	-15633
▁兼ね備え	-15634
ee	-15635
ねり	-15636
洗い	-15637
▁女神	-15638
▁従う	-15639
▁MLB	-15640
▁聞き手	-15641
▁ネガ	-15642
▁粘っ	-15643
▁レッズ	-15644
▁並べる	-15645
▁共働き	-15646
▁損なわ	-15647
OR	-15648
▁縄文	-15649
▁持ち帰り	-15650
すき	-15651
ーシ	-15652
▁綾瀬	-15653
▁製菓	-15654
▁ケータ	-15655
▁とりあえず	-15656
ur	-15657
▁めん	-15658
▁ヨン	-15659
▁加美	-15660
▁工期	-15661
▁谷川	-15662
▁隠す	-15663
▁ドキドキ	-15664
▁てこ	-15665
▁翔平	-15666
▁誠司	-15667
▁再婚	-15668
▁多角	-15669
▁糸井	-15670
▁鶴見	-15671
▁リストラ	-15672
▁ジェームズ	-15673
▁怖く	-15674
▁断ら	-15675
▁満席	-15676
▁こいのぼり	-15677
▁ドラえもん	-15678
▁白色	-15679
▁秀樹	-15680
▁起爆	-15681
▁上り線	-15682
▁咲い	-15683
▁異色	-15684
▁誤報	-15685
▁養子	-15686
▁シルエット	-15687
▁盗み	-15688
▁突い	-15689
▁団塊	-15690
▁昭恵	-15691
▁竜王	-15692
▁カツオ	-15693
▁ワークス	-15694
▁血糖	-15695
マリア	-15696
換える	-15697
▁落書き	-15698
▁暖房	-15699
▁落ち着き	-15700
▁好意	-15701
▁抜か	-15702
▁染色	-15703
▁横手	-15704
ーリ	-15705
▁危ぶ	-15706
▁延岡	-15707
▁最寄り	-15708
▁あけ	-15709
▁ピエ	-15710
▁桑原	-15711
▁見よう	-15712
▁MA	-15713
▁拘置	-15714
▁眠る	-15715
▁ミネラル	-15716
▁但	-15717
▁貴族	-15718
▁震え	-15719
栄え	-15720
▁ワト	-15721
▁学期	-15722
▁対峙	-15723
▁米倉	-15724
▁あべの	-15725
▁留置	-15726
▁竹中	-15727
▁補完	-15728
▁見ごろ	-15729
▁アワード	-15730
▁加齢	-15731
▁実装	-15732
art	-15733
▁入港	-15734
▁撃ち	-15735
▁評し	-15736
▁チェン	-15737
▁股	-15738
▁キティ	-15739
▁スパイク	-15740
▁FG	-15741
▁新庄	-15742
▁若く	-15743
▁当ては	-15744
▁専任	-15745
▁売り込む	-15746
▁伊方	-15747
▁泳い	-15748
マイ	-15749
▁松竹	-15750
▁中退	-15751
▁昆布	-15752
ーツク	-15753
▁じょ	-15754
▁頼も	-15755
▁目覚め	-15756
▁障がい	-15757
▁とらえる	-15758
▁ツーリズム	-15759
もれ	-15760
らわ	-15761
▁本多	-15762
▁付け加	-15763
▁あっせん	-15764
▁確かめる	-15765
▁千里	-15766
▁厚み	-15767
▁地蔵	-15768
▁豪志	-15769
▁軟式	-15770
▁そろう	-15771
▁忘れる	-15772
▁ストーン	-15773
▁譜	-15774
▁モニタリング	-15775
▁冷え込み	-15776
▁何十	-15777
▁やり直し	-15778
▁うみ	-15779
▁同窓	-15780
▁ドアン	-15781
▁朝ドラ	-15782
▁保釈	-15783
▁増減	-15784
▁壇上	-15785
▁大手町	-15786
▁キャベツ	-15787
▁打ち切り	-15788
▁売店	-15789
▁円買い	-15790
▁盛り込み	-15791
ーラ	-15792
▁リノベーション	-15793
▁ムハ	-15794
▁一手	-15795
▁薬師	-15796
▁秦	-15797
でも	-15798
▁タクシン	-15799
▁インストール	-15800
▁楼	-15801
▁涌	-15802
▁功労	-15803
▁とんでも	-15804
▁哲郎	-15805
▁封印	-15806
▁義援	-15807
さし	-15808
深い	-15809
▁一足	-15810
▁施錠	-15811
▁社債	-15812
▁総勢	-15813
▁ビーフ	-15814
▁仮名	-15815
▁普遍	-15816
▁亡くなり	-15817
▁機雷	-15818
▁キノコ	-15819
▁長身	-15820
▁レイズ	-15821
▁読める	-15822
▁見当たら	-15823
▁勢ぞろい	-15824
▁コンタクト	-15825
▁ビス	-15826
▁緊縮	-15827
▁きつい	-15828
ウリ	-15829
▁ちら	-15830
▁喜多	-15831
▁摂津	-15832
ct	-15833
▁三笠	-15834
▁合図	-15835
▁送料	-15836
バナンス	-15837
▁バーガー	-15838
▁元日	-15839
▁先導	-15840
▁凝縮	-15841
▁腎臓	-15842
▁軌跡	-15843
▁運河	-15844
みそか	-15845
▁生き残り	-15846
▁締めくくっ	-15847
▁飢	-15848
▁預かり	-15849
▁駆け引き	-15850
▁しな	-15851
▁なみ	-15852
▁ヴォ	-15853
YA	-15854
▁錠	-15855
▁方言	-15856
▁険しい	-15857
▁細か	-15858
um	-15859
▁定休	-15860
▁芦屋	-15861
ショウ	-15862
▁返り咲	-15863
▁割り込ん	-15864
▁ガバナンス	-15865
▁渡米	-15866
▁寄り添う	-15867
▁ミル	-15868
▁利害	-15869
▁茶色	-15870
▁ミナミ	-15871
▁酪	-15872
ケース	-15873
▁ほんの	-15874
▁リアス	-15875
タンブール	-15876
楽町	-15877
ナリー	-15878
▁JRA	-15879
▁変形	-15880
▁継い	-15881
▁雨水	-15882
▁内川	-15883
▁国学	-15884
▁覆い	-15885
▁防火	-15886
▁ラファ	-15887
▁たまら	-15888
ia	-15889
▁脱法	-15890
▁要旨	-15891
待ち	-15892
▁商用	-15893
▁松陰	-15894
テック	-15895
▁ハット	-15896
▁お目	-15897
▁けっ	-15898
▁総菜	-15899
▁OPEC	-15900
▁お目見え	-15901
▁亨	-15902
▁来訪	-15903
▁田畑	-15904
▁花子	-15905
▁ナビゲ	-15906
▁台場	-15907
▁のぞき	-15908
▁ジョージア	-15909
▁やき	-15910
▁開演	-15911
出そう	-15912
▁LT	-15913
▁z	-15914
▁まろ	-15915
▁久米	-15916
▁発車	-15917
▁衆議	-15918
▁ショコラ	-15919
びら	-15920
▁ひん	-15921
▁ハミ	-15922
▁木々	-15923
▁武井	-15924
▁長打	-15925
▁くり	-15926
▁所沢	-15927
▁減給	-15928
▁分ける	-15929
▁リターン	-15930
▁バイオリン	-15931
▁オーガニック	-15932
▁コミュニケーションズ	-15933
▁聴覚	-15934
▁レンタカー	-15935
▁気筒	-15936
▁サファ	-15937
▁はん濫	-15938
▁ゴーン	-15939
▁暮らせる	-15940
▁嘆く	-15941
▁ルーツ	-15942
▁AV	-15943
▁あわ	-15944
▁狭く	-15945
▁ウッズ	-15946
▁ネイル	-15947
▁教わっ	-15948
▁作物	-15949
▁宮田	-15950
▁転じる	-15951
▁完結	-15952
▁桑名	-15953
▁抗争	-15954
▁三味	-15955
▁上西	-15956
▁先祖	-15957
▁宮家	-15958
▁ゆとり	-15959
▁かご	-15960
▁団員	-15961
▁黙っ	-15962
▁浅い	-15963
▁貸出	-15964
▁コル	-15965
▁敗者	-15966
▁マクロン	-15967
▁囲む	-15968
▁水平	-15969
▁ひき逃げ	-15970
▁はか	-15971
▁表敬	-15972
▁グッド	-15973
▁田園	-15974
▁密度	-15975
▁物品	-15976
▁遺書	-15977
プリカ	-15978
▁鋳	-15979
どい	-15980
▁多用	-15981
▁出直し	-15982
▁エナ	-15983
▁供え	-15984
▁前作	-15985
▁塊	-15986
大成	-15987
▁原産	-15988
▁集大成	-15989
▁ウイング	-15990
▁筑後	-15991
▁隔たり	-15992
▁ロッカー	-15993
▁売り込み	-15994
▁宝物	-15995
▁ゅ	-15996
▁能楽	-15997
▁たたく	-15998
▁セルフ	-15999
▁譲り受け	-16000
▁バタフライ	-16001
▁てき	-16002
▁三鷹	-16003
CE	-16004
▁白く	-16005
▁触る	-16006
▁COP	-16007
▁擁する	-16008
▁取り込ん	-16009
▁単行	-16010
▁改訂	-16011
▁殿下	-16012
▁RPG	-16013
▁貧しい	-16014
▁しっとり	-16015
▁田川	-16016
びれ	-16017
▁大内	-16018
▁許せ	-16019
▁ょ	-16020
▁鬱	-16021
▁破片	-16022
▁肺がん	-16023
▁古田	-16024
▁牧野	-16025
▁吹き飛	-16026
▁上々	-16027
▁大黒	-16028
▁キャバ	-16029
▁深まる	-16030
▁飛び降り	-16031
もる	-16032
▁片道	-16033
▁萩原	-16034
▁おこし	-16035
▁信じる	-16036
▁フランシスコ	-16037
▁広野	-16038
▁萎縮	-16039
ばっ	-16040
▁増水	-16041
▁キャロ	-16042
入る	-16043
▁棋院	-16044
▁検問	-16045
▁落合	-16046
▁送球	-16047
▁幸運	-16048
▁捕虜	-16049
▁断続	-16050
▁本間	-16051
上がら	-16052
▁刑法	-16053
▁小原	-16054
▁横行	-16055
▁望ま	-16056
▁ろうそく	-16057
▁根絶	-16058
ぞろえ	-16059
▁レイア	-16060
▁品ぞろえ	-16061
シマ	-16062
▁労務	-16063
▁及川	-16064
▁理系	-16065
▁っこ	-16066
▁番付	-16067
▁金剛	-16068
▁俊之	-16069
▁直感	-16070
▁心地よい	-16071
ドゥ	-16072
▁ふみ	-16073
▁着地	-16074
▁近辺	-16075
▁イスタンブール	-16076
▁匂い	-16077
▁名詞	-16078
▁国分	-16079
▁沢田	-16080
▁砂漠	-16081
▁おやつ	-16082
▁働ける	-16083
▁匡	-16084
▁吉永	-16085
▁まわり	-16086
▁中尾	-16087
▁喜劇	-16088
▁っぽく	-16089
▁リッチ	-16090
▁自給	-16091
▁一路	-16092
▁正念	-16093
▁疎通	-16094
▁任せる	-16095
▁大牟田	-16096
植物	-16097
▁誠意	-16098
▁つぶやき	-16099
▁バラバラ	-16100
▁排他	-16101
▁もらわ	-16102
▁スターズ	-16103
▁畠山	-16104
▁身の	-16105
▁レトロ	-16106
▁スタートアップ	-16107
げん	-16108
▁真由	-16109
▁着々	-16110
▁速攻	-16111
▁歌唱	-16112
ンクス	-16113
▁AFP	-16114
▁もとより	-16115
▁乱暴	-16116
ウエー	-16117
▁サト	-16118
▁園芸	-16119
▁奏功	-16120
▁降下	-16121
ビリティ	-16122
▁言い切っ	-16123
▁おとな	-16124
▁行き詰	-16125
▁アトランタ	-16126
▁丹羽	-16127
▁開閉	-16128
プール	-16129
▁ウィンドウズ	-16130
▁合致	-16131
▁続編	-16132
ぐさ	-16133
▁硫黄	-16134
らしく	-16135
▁マカオ	-16136
▁こつ	-16137
▁五島	-16138
▁貸与	-16139
▁陥り	-16140
ナーレ	-16141
▁ネーム	-16142
▁明かさ	-16143
まね	-16144
▁大原	-16145
▁きわ	-16146
▁出走	-16147
▁発泡	-16148
▁かかわっ	-16149
▁執る	-16150
▁就き	-16151
▁山村	-16152
ンジェ	-16153
ンドラ	-16154
▁分かれる	-16155
▁くさ	-16156
▁二の	-16157
▁噴煙	-16158
▁左岸	-16159
▁東邦	-16160
▁動植物	-16161
▁ダーク	-16162
▁一人暮らし	-16163
にく	-16164
▁名鉄	-16165
▁学内	-16166
▁山谷	-16167
▁アイコン	-16168
▁郭	-16169
▁藤村	-16170
▁遭い	-16171
▁馬券	-16172
ョーザ	-16173
▁追い込み	-16174
▁壕	-16175
バサ	-16176
▁埋葬	-16177
▁墳	-16178
▁頓	-16179
▁健在	-16180
▁探り	-16181
▁守ろう	-16182
ゲリ	-16183
▁小西	-16184
▁湧き	-16185
▁踏襲	-16186
▁かたどっ	-16187
▁ネギ	-16188
▁周回	-16189
▁恵み	-16190
▁白鳥	-16191
▁襲名	-16192
▁戦える	-16193
ングラス	-16194
▁ICBM	-16195
▁同機	-16196
▁履い	-16197
▁厄	-16198
▁ふか	-16199
▁直行	-16200
▁蹴っ	-16201
▁アロマ	-16202
▁チャンピオンシップ	-16203
ガメ	-16204
仕事	-16205
▁イニ	-16206
▁法科	-16207
▁発する	-16208
▁ガンダム	-16209
▁大腸	-16210
▁高瀬	-16211
っちり	-16212
▁呼称	-16213
▁喜朗	-16214
▁断ち	-16215
━━━━	-16216
▁信金	-16217
▁打倒	-16218
▁タカラ	-16219
▁あつ	-16220
▁購読	-16221
▁問いかけ	-16222
▁ぞう	-16223
▁スプ	-16224
▁相沢	-16225
▁マネージャー	-16226
▁己	-16227
▁シイ	-16228
▁参事	-16229
▁等身	-16230
▁平幕	-16231
▁更生	-16232
▁新橋	-16233
▁ミスター	-16234
▁無縁	-16235
▁除幕	-16236
FF	-16237
▁TA	-16238
▁布陣	-16239
▁廃案	-16240
レーツ	-16241
▁ひまわり	-16242
ヨシ	-16243
▁励む	-16244
▁寝る	-16245
▁通達	-16246
▁なめらか	-16247
▁さし	-16248
▁右中	-16249
▁キエフ	-16250
▁満たさ	-16251
▁預かっ	-16252
▁創り	-16253
▁宝石	-16254
▁東彦	-16255
▁登り	-16256
▁福留	-16257
▁細め	-16258
▁知らさ	-16259
向け	-16260
▁困窮	-16261
▁美馬	-16262
▁闘病	-16263
▁Blu	-16264
▁ギョーザ	-16265
▁乗り込み	-16266
▁打ち込ん	-16267
▁閖	-16268
▁即座	-16269
▁終日	-16270
▁アイヌ	-16271
▁突き進	-16272
▁ガイドブック	-16273
▁反転	-16274
▁同友	-16275
▁湧い	-16276
▁先立つ	-16277
▁ギガ	-16278
▁殴り	-16279
▁葛飾	-16280
▁トッピング	-16281
▁舗	-16282
▁枚方	-16283
▁パウダー	-16284
流し	-16285
▁問屋	-16286
▁寄稿	-16287
▁岡村	-16288
▁旅券	-16289
▁のんびり	-16290
▁ワトソン	-16291
▁プロダクト	-16292
▁樽	-16293
里子	-16294
▁東口	-16295
▁楽譜	-16296
▁残虐	-16297
▁留め	-16298
▁閖上	-16299
▁標本	-16300
▁ビズ	-16301
▁大工	-16302
▁転勤	-16303
▁黒木	-16304
めり	-16305
▁堆積	-16306
▁巡業	-16307
▁開講	-16308
ーマル	-16309
▁ガチャ	-16310
▁決まら	-16311
▁販促	-16312
▁賞味	-16313
▁高卒	-16314
▁BOX	-16315
▁よそ	-16316
▁乗れ	-16317
▁岩盤	-16318
▁打撲	-16319
▁都立	-16320
▁永田町	-16321
▁年数	-16322
▁随所	-16323
ブレム	-16324
▁閉め	-16325
▁頂く	-16326
▁中銀	-16327
▁主砲	-16328
▁廃業	-16329
▁生体	-16330
▁翻弄	-16331
▁風船	-16332
▁ロドリ	-16333
▁ジャクソン	-16334
さぎ	-16335
▁園田	-16336
▁耕作	-16337
▁証し	-16338
▁バーベ	-16339
▁出掛け	-16340
▁他者	-16341
▁入江	-16342
▁籠池	-16343
▁トロント	-16344
▁Press	-16345
▁エリザベス	-16346
▁入念	-16347
▁大間	-16348
▁手袋	-16349
▁教頭	-16350
▁稼い	-16351
▁ドール	-16352
▁アクセント	-16353
▁浩二	-16354
り返す	-16355
▁パール	-16356
ent	-16357
▁各校	-16358
▁平沼	-16359
▁絶大	-16360
▁ひろし	-16361
▁柔らかく	-16362
合え	-16363
日月	-16364
▁加古	-16365
▁許容	-16366
▁高市	-16367
▁三日月	-16368
▁塗り替え	-16369
▁綴	-16370
▁浅尾	-16371
▁独創	-16372
▁賄賂	-16373
▁降し	-16374
▁欠ける	-16375
▁沸い	-16376
▁GHQ	-16377
▁ドラッグストア	-16378
▁効い	-16379
▁プロダクション	-16380
▁機嫌	-16381
▁酪農	-16382
わじ	-16383
▁DJ	-16384
▁中世	-16385
▁新垣	-16386
▁日刊	-16387
▁死球	-16388
▁メモリ	-16389
▁モスル	-16390
▁フラッグ	-16391
シカ	-16392
▁DS	-16393
▁果敢	-16394
▁枯れ	-16395
▁素朴	-16396
▁養父	-16397
▁レバー	-16398
▁追い込ん	-16399
MA	-16400
▁先勝	-16401
▁復調	-16402
▁闘う	-16403
▁NFL	-16404
▁伊原	-16405
▁遠の	-16406
▁費やし	-16407
▁万引	-16408
▁かしら	-16409
▁ケビン	-16410
▁種子島	-16411
▁チャージ	-16412
▁一端	-16413
▁地味	-16414
▁源泉	-16415
▁なるほど	-16416
▁ぶち	-16417
▁岩礁	-16418
▁脱北	-16419
▁里見	-16420
▁コック	-16421
▁フェデラー	-16422
とき	-16423
▁一朗	-16424
▁内需	-16425
▁創建	-16426
▁攻める	-16427
やき	-16428
ドロ	-16429
▁がく	-16430
▁山陰	-16431
▁見つめる	-16432
▁フィニッシュ	-16433
の間	-16434
▁健診	-16435
▁肘	-16436
ぶら	-16437
▁GW	-16438
▁おび	-16439
▁江口	-16440
▁軍用	-16441
▁阻ま	-16442
▁萬	-16443
▁半端	-16444
▁真意	-16445
▁キログラム	-16446
▁哀悼	-16447
▁場内	-16448
▁扱わ	-16449
▁杉浦	-16450
▁製鋼	-16451
▁いっそう	-16452
▁つくろう	-16453
▁妄	-16454
▁ペイ	-16455
▁陽気	-16456
▁嶺	-16457
▁いな	-16458
▁まく	-16459
▁中等	-16460
▁慎司	-16461
▁買え	-16462
▁踏み出す	-16463
▁白浜	-16464
チックス	-16465
▁バーベキュー	-16466
▁露呈	-16467
▁コーン	-16468
▁美里	-16469
▁話せ	-16470
▁隊長	-16471
▁算数	-16472
▁ごめん	-16473
▁下り線	-16474
▁尽くさ	-16475
▁和也	-16476
ヴァン	-16477
▁だまさ	-16478
ペス	-16479
▁中型	-16480
▁前述	-16481
▁融和	-16482
▁インテリ	-16483
▁幽	-16484
▁煎	-16485
若松	-16486
▁カビ	-16487
▁射程	-16488
▁浜名	-16489
ラーレン	-16490
▁うかがえ	-16491
▁会津若松	-16492
▁伝えよう	-16493
▁メッセンジャー	-16494
▁スニ	-16495
▁悪魔	-16496
▁ポジティブ	-16497
ケ浜	-16498
▁艦艇	-16499
▁誇示	-16500
▁高円	-16501
▁突き刺	-16502
▁殻	-16503
醍醐	-16504
▁借り入れ	-16505
▁ベニ	-16506
▁紀子	-16507
▁長良	-16508
▁ガーナ	-16509
▁仲井真	-16510
▁毎時	-16511
▁軽やか	-16512
▁WD	-16513
▁湯沢	-16514
ンマド	-16515
▁リュック	-16516
▁浮かび上がる	-16517
▁ろく	-16518
▁傑作	-16519
▁挑み	-16520
▁アボット	-16521
ツェ	-16522
▁キレ	-16523
▁代え	-16524
▁みなと	-16525
▁未払い	-16526
▁買える	-16527
▁鳴らす	-16528
▁やじ	-16529
▁賢治	-16530
▁スタイリッシュ	-16531
▁地表	-16532
▁更迭	-16533
▁音源	-16534
▁下敷き	-16535
▁to	-16536
▁松崎	-16537
▁網羅	-16538
▁ヒューマン	-16539
ババ	-16540
▁しら	-16541
▁乳児	-16542
▁夜中	-16543
▁抵触	-16544
▁秘訣	-16545
▁引き寄せ	-16546
▁追い付か	-16547
▁ずい	-16548
▁長引く	-16549
▁デパート	-16550
出る	-16551
▁素人	-16552
▁ポータル	-16553
▁バニ	-16554
▁市外	-16555
▁パナマ	-16556
▁日比谷	-16557
ネックス	-16558
▁フォルクス	-16559
▁おぼ	-16560
▁こく	-16561
▁ワイヤレス	-16562
▁腹部	-16563
▁覆す	-16564
▁クック	-16565
▁ブロン	-16566
▁持ち込む	-16567
▁料亭	-16568
▁眠り	-16569
▁ヴァン	-16570
▁患っ	-16571
▁拾っ	-16572
▁無言	-16573
▁口論	-16574
▁同伴	-16575
▁岡島	-16576
▁志村	-16577
▁襲い	-16578
▁都政	-16579
▁立ち寄っ	-16580
▁升	-16581
▁小牧	-16582
▁玲奈	-16583
▁訪ねる	-16584
▁始球	-16585
▁本年	-16586
▁こぎ着	-16587
▁止まる	-16588
▁アスレチックス	-16589
笑い	-16590
▁SG	-16591
▁ヒラ	-16592
▁中嶋	-16593
▁向井	-16594
ローラ	-16595
▁律	-16596
▁岩本	-16597
▁照射	-16598
▁有楽町	-16599
▁エンブレム	-16600
▁難易	-16601
▁大喜び	-16602
ペル	-16603
▁バイヤー	-16604
▁カーペット	-16605
ザス	-16606
▁疾走	-16607
▁フォロ	-16608
▁辞める	-16609
ire	-16610
▁AFC	-16611
▁クッション	-16612
▁忌	-16613
▁御前	-16614
▁助かっ	-16615
▁挽	-16616
コフ	-16617
▁岩瀬	-16618
▁特権	-16619
▁組ま	-16620
ガイモ	-16621
▁脅かす	-16622
▁らん	-16623
▁法政	-16624
▁詐取	-16625
オイ	-16626
▁消す	-16627
▁App	-16628
▁万歳	-16629
▁厚く	-16630
▁漂わ	-16631
▁切り札	-16632
▁しき	-16633
▁文献	-16634
切れる	-16635
▁みなさ	-16636
▁スリム	-16637
▁眺める	-16638
▁セシウム	-16639
▁全う	-16640
▁憂慮	-16641
▁膜	-16642
▁対露	-16643
▁小澤	-16644
▁素顔	-16645
▁不二	-16646
▁淡い	-16647
▁陶器	-16648
暮れ	-16649
▁囲い	-16650
▁支柱	-16651
▁簡素	-16652
▁骨太	-16653
▁ハノイ	-16654
▁北見	-16655
▁クラウン	-16656
▁噴石	-16657
▁歌謡	-16658
ワーゲン	-16659
▁早紀	-16660
▁WR	-16661
▁散布	-16662
▁銅像	-16663
▁非核	-16664
▁ハロウィ	-16665
▁ジャム	-16666
チオ	-16667
▁磁気	-16668
フォン	-16669
▁日出男	-16670
▁サンデー	-16671
パイ	-16672
▁和風	-16673
▁格段	-16674
▁自制	-16675
▁立たさ	-16676
▁康弘	-16677
▁心中	-16678
▁融通	-16679
▁恐ろしい	-16680
▁餃	-16681
▁内政	-16682
▁右派	-16683
▁撤収	-16684
▁コスメ	-16685
▁駆け抜け	-16686
▁にゃ	-16687
▁召喚	-16688
ホジ	-16689
▁ネス	-16690
▁字幕	-16691
▁撃た	-16692
▁窒息	-16693
▁質感	-16694
▁勝ち取っ	-16695
▁楊	-16696
▁一役	-16697
▁悩ま	-16698
▁フォース	-16699
▁大みそか	-16700
▁だまし取ら	-16701
▁〝	-16702
▁ソウ	-16703
▁奉仕	-16704
▁孔明	-16705
▁今冬	-16706
▁森永	-16707
▁臨海	-16708
▁賢一	-16709
GM	-16710
▁TP	-16711
▁落ち込む	-16712
▁城南	-16713
▁ニンニ	-16714
▁遅延	-16715
▁配ら	-16716
▁高圧	-16717
▁収める	-16718
▁愛らしい	-16719
▁ME	-16720
▁共用	-16721
▁硬化	-16722
▁初演	-16723
▁ずさん	-16724
アスロン	-16725
▁振り切っ	-16726
▁TD	-16727
▁くわ	-16728
ットー	-16729
▁嘆い	-16730
▁盾	-16731
▁ふ化	-16732
▁餃子	-16733
▁味わえ	-16734
▁言い訳	-16735
▁ピックアップ	-16736
▁フォルクスワーゲン	-16737
ケス	-16738
▁流域	-16739
▁測る	-16740
▁発起	-16741
▁網膜	-16742
▁開所	-16743
▁鳥獣	-16744
▁久保田	-16745
▁抗がん	-16746
▁預かる	-16747
▁バンタム	-16748
▁練り歩い	-16749
▁フォックス	-16750
づい	-16751
▁米英	-16752
▁チャイナ	-16753
▁デーリー	-16754
▁受け取れる	-16755
ho	-16756
▁足取り	-16757
▁ダー	-16758
▁先代	-16759
▁初頭	-16760
▁多種	-16761
▁ノベル	-16762
▁立ち直	-16763
▁癖	-16764
▁MO	-16765
▁威嚇	-16766
▁村民	-16767
▁標識	-16768
▁バイパス	-16769
▁パロ	-16770
▁中津	-16771
▁キレイ	-16772
▁ドッグ	-16773
▁埋もれ	-16774
▁北アルプス	-16775
▁糧	-16776
▁こけ	-16777
▁身内	-16778
▁適性	-16779
▁同種	-16780
▁彩子	-16781
▁断り	-16782
▁ずいぶん	-16783
▁さび	-16784
▁亡き	-16785
▁周遊	-16786
▁敦子	-16787
▁殺意	-16788
▁脱退	-16789
▁説く	-16790
▁持ち前	-16791
▁ロナルド	-16792
▁申し込む	-16793
▁八代	-16794
▁スルー	-16795
ノ門	-16796
▁つぼ	-16797
▁モロ	-16798
▁両校	-16799
▁同小	-16800
▁川西	-16801
▁虎ノ門	-16802
▁振り付け	-16803
▁パーソナル	-16804
▁共著	-16805
▁食用	-16806
の川	-16807
ノ島	-16808
▁RB	-16809
▁照会	-16810
本松	-16811
▁常陸	-16812
▁湯浅	-16813
▁田野	-16814
▁めちゃ	-16815
▁賜	-16816
▁岩泉	-16817
▁平川	-16818
▁核心	-16819
▁民兵	-16820
▁海運	-16821
▁ならび	-16822
▁膨らみ	-16823
▁よしひで	-16824
▁プラチナ	-16825
▁西尾	-16826
▁ヒノキ	-16827
▁承諾	-16828
▁重荷	-16829
▁右京	-16830
▁平山	-16831
▁生き生き	-16832
▁顔合わせ	-16833
ine	-16834
▁執念	-16835
▁じゃあ	-16836
▁つくれ	-16837
▁まじめ	-16838
▁損なう	-16839
▁人体	-16840
▁実名	-16841
▁極右	-16842
▁グレード	-16843
▁結びつけ	-16844
▁公然	-16845
▁茶葉	-16846
▁ステンレス	-16847
▁フォロワー	-16848
▁らく	-16849
▁何事	-16850
▁ドーハ	-16851
▁遊べる	-16852
▁際立っ	-16853
▁亀井	-16854
▁天草	-16855
▁新発	-16856
▁移さ	-16857
▁播	-16858
オリ	-16859
ブレ	-16860
▁音質	-16861
セナル	-16862
▁バンキング	-16863
▁ども	-16864
▁一千	-16865
▁アーセナル	-16866
▁称号	-16867
▁紳士	-16868
▁論説	-16869
▁語り部	-16870
▁ハンカチ	-16871
▁〟	-16872
遠い	-16873
▁助長	-16874
▁垂れ	-16875
▁安置	-16876
▁新疆	-16877
▁辞書	-16878
▁鹿屋	-16879
▁数える	-16880
▁到底	-16881
▁鎮魂	-16882
▁パイオ	-16883
取れ	-16884
▁器用	-16885
▁外見	-16886
▁くださる	-16887
▁ムハンマド	-16888
キラ	-16889
▁建つ	-16890
が一	-16891
▁前哨	-16892
▁突出	-16893
▁ソファ	-16894
▁万が一	-16895
▁大詰め	-16896
ジャパン	-16897
▁頑張ろう	-16898
▁さと	-16899
▁テヘ	-16900
▁医院	-16901
▁着任	-16902
▁振れ	-16903
▁追い付き	-16904
すり	-16905
▁天竜	-16906
頓堀	-16907
▁RC	-16908
▁おの	-16909
▁古屋	-16910
▁誤算	-16911
▁道頓堀	-16912
▁まっすぐ	-16913
▁ニンジン	-16914
アナ	-16915
▁下校	-16916
▁救い	-16917
▁民生	-16918
▁臨場	-16919
▁路地	-16920
▁WBO	-16921
▁推し進	-16922
▁飛ばす	-16923
▁きっぱり	-16924
▁不通	-16925
▁演歌	-16926
▁自責	-16927
▁若田	-16928
▁買春	-16929
▁テヘラン	-16930
▁ボーリング	-16931
▁都県	-16932
▁酒蔵	-16933
▁風情	-16934
▁刺し身	-16935
▁図ろう	-16936
▁郷田	-16937
ジュア	-16938
越える	-16939
▁偉業	-16940
▁四川	-16941
▁がんばっ	-16942
▁ブリスベン	-16943
▁少量	-16944
▁立会	-16945
▁金箔	-16946
▁ほころ	-16947
▁ウェル	-16948
▁マイクロシーベルト	-16949
obo	-16950
▁物体	-16951
ワリ	-16952
▁属性	-16953
▁見舞い	-16954
▁仕上げる	-16955
▁SH	-16956
ぐれ	-16957
▁残せ	-16958
▁田代	-16959
▁ブルガ	-16960
▁ドーナツ	-16961
▁直美	-16962
▁脚光	-16963
▁おかず	-16964
▁国歌	-16965
▁境港	-16966
▁歳入	-16967
▁若山	-16968
▁蔡	-16969
▁やく	-16970
▁後遺	-16971
▁挟ま	-16972
▁転送	-16973
▁グリー	-16974
▁膳	-16975
▁鳴き	-16976
▁地産	-16977
▁塚本	-16978
▁大洋	-16979
▁役柄	-16980
▁益城	-16981
▁認否	-16982
▁過ごせる	-16983
▁千佐子	-16984
パラ	-16985
▁or	-16986
▁こじ	-16987
▁塗っ	-16988
▁曲げ	-16989
▁タップ	-16990
▁横た	-16991
▁モンテ	-16992
▁手渡さ	-16993
▁押しつけ	-16994
▁小嶋	-16995
▁正答	-16996
▁訓示	-16997
▁イーブ	-16998
▁受動	-16999
▁対向	-17000
塗り	-17001
テーター	-17002
▁アシスタント	-17003
▁変遷	-17004
▁鉄板	-17005
▁ジャマ	-17006
▁改める	-17007
ビオ	-17008
渡り	-17009
▁走れ	-17010
ライズ	-17011
▁真っ先	-17012
▁佐竹	-17013
▁拝観	-17014
▁部局	-17015
▁リバウンド	-17016
崩し	-17017
▁下地	-17018
▁好転	-17019
▁雪印	-17020
▁霧島	-17021
▁黒色	-17022
▁かなっ	-17023
▁生かせる	-17024
▁フィリップ	-17025
▁主幹	-17026
▁東通	-17027
▁絶景	-17028
▁観劇	-17029
▁限る	-17030
▁風潮	-17031
▁シップ	-17032
▁タックル	-17033
▁メモリアル	-17034
▁凱旋	-17035
▁大泉	-17036
▁躍起	-17037
▁スリップ	-17038
▁ストローク	-17039
▁パイオニア	-17040
▁同賞	-17041
▁うまみ	-17042
▁だいぶ	-17043
▁ガレ	-17044
▁福袋	-17045
▁精細	-17046
▁鴨川	-17047
▁この世	-17048
▁スタメン	-17049
▁マンゴー	-17050
▁ものすごく	-17051
▁スティーブ	-17052
▁ロドリゲス	-17053
▁炳	-17054
▁矯	-17055
▁低温	-17056
▁正体	-17057
▁転出	-17058
きょう	-17059
▁花びら	-17060
▁ボクサー	-17061
ーカ	-17062
▁CF	-17063
▁千家	-17064
▁恩師	-17065
▁資する	-17066
▁パニック	-17067
▁株安	-17068
▁車掌	-17069
カロ	-17070
▁そり	-17071
▁全人	-17072
▁苦い	-17073
▁開港	-17074
▁ゼリー	-17075
グマ	-17076
▁メグ	-17077
▁早苗	-17078
▁科さ	-17079
▁飼っ	-17080
ファン	-17081
▁取り付ける	-17082
▁桓	-17083
▁抗告	-17084
▁旭日	-17085
アウト	-17086
▁工費	-17087
▁幕僚	-17088
▁東方	-17089
▁綾子	-17090
▁トルク	-17091
ニオ	-17092
▁半田	-17093
▁完走	-17094
▁あわら	-17095
▁ひととき	-17096
触り	-17097
▁南方	-17098
▁埋蔵	-17099
▁江崎	-17100
▁ふだん	-17101
▁クラン	-17102
▁ビジネスマン	-17103
▁張ら	-17104
ガンダ	-17105
リイカ	-17106
▁詰め掛け	-17107
if	-17108
▁PH	-17109
▁植木	-17110
▁留意	-17111
▁レジェンド	-17112
▁大卒	-17113
▁マニア	-17114
▁マクラーレン	-17115
▁客足	-17116
▁快速	-17117
▁絞ら	-17118
▁農相	-17119
▁気づく	-17120
▁インディ	-17121
▁ストレージ	-17122
▁ウオーキング	-17123
▁営農	-17124
▁ウエアラブル	-17125
▁宗像	-17126
▁新駅	-17127
▁海南	-17128
▁着せ	-17129
▁鉱物	-17130
▁ボーイズ	-17131
▁思い思い	-17132
ジュアリー	-17133
▁内覧	-17134
▁工科	-17135
▁惜敗	-17136
▁宋	-17137
▁慕	-17138
▁パティ	-17139
▁借りる	-17140
ik	-17141
▁菩	-17142
▁はめ	-17143
▁水害	-17144
▁なぎ	-17145
▁パズル	-17146
▁面持ち	-17147
▁コスモス	-17148
▁ウズベ	-17149
▁サメ	-17150
▁三脚	-17151
▁森下	-17152
▁トーン	-17153
▁ラグジュアリー	-17154
ブド	-17155
▁うっ	-17156
▁工具	-17157
▁採掘	-17158
▁正人	-17159
▁税額	-17160
▁金本	-17161
▁難題	-17162
▁哨	-17163
▁エー	-17164
▁沢村	-17165
▁滝川	-17166
▁ハラス	-17167
▁政宗	-17168
▁牛丼	-17169
▁ティラー	-17170
▁DA	-17171
▁おろ	-17172
▁新居	-17173
▁狩猟	-17174
▁陳情	-17175
ミック	-17176
▁はまっ	-17177
▁中略	-17178
▁各所	-17179
▁解答	-17180
▁窪	-17181
▁こめ	-17182
▁中越	-17183
▁多田	-17184
グラフ	-17185
▁ロバート	-17186
▁翌朝	-17187
▁思いやり	-17188
過ぎ	-17189
▁天地	-17190
▁急が	-17191
▁書房	-17192
▁果汁	-17193
▁死な	-17194
▁注ぎ	-17195
▁マリオ	-17196
▁脈	-17197
▁議場	-17198
▁フラット	-17199
av	-17200
▁批准	-17201
▁甘味	-17202
▁返却	-17203
▁京王	-17204
▁室長	-17205
▁締約	-17206
ートン	-17207
▁ヨット	-17208
▁アリババ	-17209
▁買い入れ	-17210
▁カウンセリング	-17211
▁アナログ	-17212
▁話しかけ	-17213
▁ホップ	-17214
▁モナコ	-17215
▁全人代	-17216
ホジッチ	-17217
▁胎児	-17218
▁トル	-17219
▁精子	-17220
▁頂ける	-17221
▁上向	-17222
▁識者	-17223
▁ハラスメント	-17224
▁同胞	-17225
▁指紋	-17226
▁フレーズ	-17227
▁繰り出し	-17228
▁安達	-17229
▁理屈	-17230
▁チャネル	-17231
▁志位	-17232
▁加古川	-17233
▁松永	-17234
▁誘う	-17235
▁壱	-17236
ind	-17237
▁pr	-17238
▁思い描	-17239
ギス	-17240
ーー	-17241
紀子	-17242
▁由利	-17243
▁メリー	-17244
▁委ねる	-17245
▁暖かく	-17246
▁アルカイ	-17247
▁差し引い	-17248
▁手がかり	-17249
▁タフ	-17250
▁北欧	-17251
クトリー	-17252
▁宿題	-17253
▁正論	-17254
▁キャンドル	-17255
近江	-17256
▁平沢	-17257
▁新種	-17258
▁直子	-17259
▁達増	-17260
▁ディア	-17261
▁ナダル	-17262
▁打てる	-17263
▁東近江	-17264
▁むら	-17265
▁床下	-17266
▁済州	-17267
▁苗木	-17268
▁雄一	-17269
▁CR	-17270
▁下す	-17271
▁康夫	-17272
▁酒類	-17273
▁テラ	-17274
▁ハタ	-17275
▁倉田	-17276
▁病棟	-17277
▁しわ	-17278
▁ハウ	-17279
▁かなえ	-17280
▁議連	-17281
▁選別	-17282
▁シイタケ	-17283
▁レイアウト	-17284
▁千種	-17285
▁弊害	-17286
▁論告	-17287
アニア	-17288
▁スラム	-17289
▁ショール	-17290
▁金魚	-17291
起こっ	-17292
▁アウディ	-17293
▁スペシャ	-17294
ノフ	-17295
▁洲本	-17296
▁バイオマス	-17297
▁三谷	-17298
▁完勝	-17299
▁松平	-17300
▁被曝	-17301
▁試練	-17302
▁ゲット	-17303
▁ふわ	-17304
▁本能	-17305
▁猪瀬	-17306
▁一口	-17307
▁予知	-17308
▁関根	-17309
▁もつれ	-17310
▁リトル	-17311
▁入れ替	-17312
▁滑らか	-17313
▁アイランド	-17314
▁トロフィー	-17315
プライアンス	-17316
TS	-17317
▁巌	-17318
みつ	-17319
▁ぐん	-17320
▁転入	-17321
▁須田	-17322
テール	-17323
▁あそこ	-17324
▁りんご	-17325
▁イーブン	-17326
▁卵子	-17327
▁産ん	-17328
▁箕面	-17329
▁あきら	-17330
▁襟	-17331
踊り	-17332
▁高揚	-17333
▁ニンニク	-17334
▁ゼネ	-17335
▁器物	-17336
▁小国	-17337
▁弱者	-17338
▁コロラド	-17339
▁ラブロフ	-17340
▁コト	-17341
▁垣間見	-17342
▁ライナー	-17343
▁堀江	-17344
▁怒鳴	-17345
▁柏木	-17346
▁温か	-17347
▁見いだし	-17348
▁PB	-17349
▁乱射	-17350
▁有形	-17351
▁心強い	-17352
▁遍	-17353
▁心待ち	-17354
▁ジャガイモ	-17355
▁桟橋	-17356
▁訪韓	-17357
ットン	-17358
▁こぎ着け	-17359
▁マインド	-17360
ちん	-17361
ぱく	-17362
▁ぶつかる	-17363
▁スル	-17364
▁矯正	-17365
▁帰れ	-17366
▁広める	-17367
セイ	-17368
▁縛ら	-17369
▁ストラップ	-17370
▁LP	-17371
▁さつ	-17372
▁下田	-17373
▁歩調	-17374
▁親指	-17375
▁見上げ	-17376
▁男優	-17377
▁驚異	-17378
ノトリ	-17379
去ら	-17380
▁他党	-17381
▁献上	-17382
プライズ	-17383
▁リベンジ	-17384
▁切りつけ	-17385
▁レーシング	-17386
▁胆	-17387
▁島崎	-17388
▁春節	-17389
▁検疫	-17390
▁雄平	-17391
▁New	-17392
スティン	-17393
▁ディフェ	-17394
▁エンゼルス	-17395
エム	-17396
持つ	-17397
食い	-17398
▁多能	-17399
▁漏らす	-17400
▁越える	-17401
曽根	-17402
▁勇太	-17403
▁かるた	-17404
▁プリンセス	-17405
▁徴用	-17406
▁沙羅	-17407
ファイ	-17408
▁ユーザ	-17409
▁傾ける	-17410
▁侮辱	-17411
▁収監	-17412
▁揺ら	-17413
▁補充	-17414
▁みらい	-17415
▁マザー	-17416
▁バラエティ	-17417
ut	-17418
▁鮎	-17419
▁視力	-17420
▁過ち	-17421
▁ニック	-17422
▁ニット	-17423
▁こだわら	-17424
▁付け加え	-17425
▁ゼン	-17426
▁下町	-17427
▁相棒	-17428
▁突如	-17429
▁ドナルド	-17430
▁ハルカス	-17431
▁コウノトリ	-17432
▁戯	-17433
▁絢	-17434
▁ええ	-17435
▁メタル	-17436
ネタ	-17437
▁哨戒	-17438
▁嘉田	-17439
▁植村	-17440
▁祐一	-17441
▁農学	-17442
▁鉾	-17443
▁話さ	-17444
▁構わ	-17445
▁遠野	-17446
かれ	-17447
▁オートバイ	-17448
▁ハンバーグ	-17449
▁オホ	-17450
▁タイル	-17451
▁足踏み	-17452
▁Play	-17453
▁凌	-17454
ひろ	-17455
▁夏ごろ	-17456
▁二郎	-17457
▁赤く	-17458
▁大河原	-17459
▁突き止め	-17460
交ぜ	-17461
▁遺品	-17462
▁彩ら	-17463
▁臆	-17464
▁頸	-17465
▁行え	-17466
▁見かける	-17467
▁盟	-17468
▁千尋	-17469
▁殴る	-17470
▁税理	-17471
▁デマンド	-17472
▁仕掛ける	-17473
▁便宜	-17474
▁新婦	-17475
▁櫛	-17476
▁茉	-17477
続け	-17478
▁やせ	-17479
▁中年	-17480
▁内務	-17481
▁土産物	-17482
▁リピーター	-17483
▁ロペス	-17484
▁ヘディング	-17485
▁霜	-17486
▁エプ	-17487
▁トク	-17488
▁隠せ	-17489
▁左越え	-17490
▁パーソナ	-17491
▁乗り越える	-17492
▁ッ	-17493
▁久子	-17494
▁大樹	-17495
▁負け越し	-17496
▁地酒	-17497
▁懐疑	-17498
▁くつろ	-17499
▁積もっ	-17500
▁介助	-17501
▁奥村	-17502
▁敷設	-17503
▁贈賄	-17504
▁切れ目	-17505
▁オホーツク	-17506
▁謹	-17507
わん	-17508
▁代謝	-17509
▁理学	-17510
▁疑義	-17511
▁試飲	-17512
▁にん	-17513
▁冷め	-17514
▁失格	-17515
▁手記	-17516
▁潮流	-17517
▁炒め	-17518
▁老後	-17519
▁返信	-17520
▁太宰府	-17521
▁ステッカー	-17522
▁かわいらしい	-17523
ps	-17524
▁人出	-17525
▁内臓	-17526
▁天使	-17527
▁彩っ	-17528
▁未熟	-17529
▁着く	-17530
▁茶会	-17531
▁できあ	-17532
リントン	-17533
▁NY	-17534
▁ヘイ	-17535
▁射水	-17536
ミルク	-17537
▁携わり	-17538
▁町並み	-17539
▁リフレッシュ	-17540
だっ	-17541
リナ	-17542
▁潜伏	-17543
▁アスタ	-17544
▁持ち運び	-17545
▁一望	-17546
▁体現	-17547
▁茂雄	-17548
▁門前	-17549
▁スピン	-17550
ナンデス	-17551
▁櫻	-17552
▁ヨシ	-17553
▁休む	-17554
▁動力	-17555
▁建材	-17556
▁柳川	-17557
▁刈羽	-17558
▁戻れ	-17559
▁落とさ	-17560
▁パワフル	-17561
▁作り出す	-17562
▁苑	-17563
▁ねつ	-17564
▁育休	-17565
▁騒然	-17566
▁溢れる	-17567
▁ブラッター	-17568
▁喜美	-17569
▁寛容	-17570
▁手当て	-17571
▁着ぐるみ	-17572
ケ原	-17573
▁小坂	-17574
▁年配	-17575
きわ	-17576
▁精通	-17577
▁バース	-17578
▁ずれ込む	-17579
▁真鍋	-17580
▁結党	-17581
▁まとも	-17582
カーイダ	-17583
▁バンダイ	-17584
▁行き交う	-17585
▁交じり	-17586
ハマ	-17587
▁いの	-17588
▁プルト	-17589
▁デンソー	-17590
FE	-17591
▁つぎ	-17592
▁山野	-17593
▁取り揃え	-17594
▁堅守	-17595
▁屈辱	-17596
▁添加	-17597
▁ちゃい	-17598
▁ウエスタン	-17599
▁洋子	-17600
▁糖質	-17601
▁堀内	-17602
▁寸前	-17603
▁縮め	-17604
▁電磁	-17605
▁ジャマイカ	-17606
▁プルトニウム	-17607
▁貴志	-17608
▁軽め	-17609
▁しみじみ	-17610
▁史実	-17611
▁敷か	-17612
▁滞納	-17613
▁野心	-17614
▁遅らせ	-17615
▁アルカイダ	-17616
TV	-17617
▁建てる	-17618
▁◆	-17619
▁グマ	-17620
▁予感	-17621
▁壮行	-17622
▁織物	-17623
▁過大	-17624
▁アリス	-17625
▁バスケ	-17626
▁レシー	-17627
▁ヘーゲル	-17628
▁絞り込み	-17629
▁サングラス	-17630
控え	-17631
▁柴崎	-17632
▁背負い	-17633
▁途切れ	-17634
▁立ち並ぶ	-17635
▁マッピング	-17636
▁アルカーイダ	-17637
▁あず	-17638
▁岩井	-17639
▁騎乗	-17640
重なる	-17641
▁ほしく	-17642
みず	-17643
▁セー	-17644
▁改築	-17645
▁託さ	-17646
▁酵素	-17647
▁カリスマ	-17648
YO	-17649
レア	-17650
▁いさ	-17651
▁レゴ	-17652
▁就寝	-17653
▁浄水	-17654
デレラ	-17655
▁バケ	-17656
▁プチ	-17657
▁目立た	-17658
▁見込め	-17659
▁丹波	-17660
▁前々	-17661
▁惨事	-17662
▁時効	-17663
▁洋上	-17664
▁都連	-17665
▁清涼	-17666
▁穀物	-17667
▁そっと	-17668
スリ	-17669
ポワ	-17670
▁おろし	-17671
▁ルペン	-17672
▁ハミルトン	-17673
▁痴	-17674
▁悲観	-17675
ジカル	-17676
ロコシ	-17677
▁たぶん	-17678
▁ニオイ	-17679
ECD	-17680
▁SR	-17681
▁親王	-17682
▁館山	-17683
▁競り合い	-17684
▁サイクリング	-17685
▁侑	-17686
▁広範	-17687
▁防い	-17688
▁OECD	-17689
▁名城	-17690
▁引き換え	-17691
奈子	-17692
▁醍醐	-17693
▁野原	-17694
▁いけれ	-17695
▁ハーバード	-17696
▁した	-17697
▁山道	-17698
▁独走	-17699
ICA	-17700
▁安佐北	-17701
▁捨てる	-17702
▁修二	-17703
▁舗装	-17704
ベンチ	-17705
▁うさぎ	-17706
▁ディープ	-17707
▁効力	-17708
▁勝久	-17709
▁炊き	-17710
▁英明	-17711
▁ADB	-17712
▁染まっ	-17713
▁上杉	-17714
▁北信	-17715
▁卑劣	-17716
▁技師	-17717
抜い	-17718
▁PG	-17719
▁対岸	-17720
▁巨匠	-17721
▁青島	-17722
▁詰まら	-17723
▁LD	-17724
▁土器	-17725
▁のぞみ	-17726
▁アダム	-17727
▁ミッキー	-17728
ズナ	-17729
▁ハブ	-17730
▁堀川	-17731
▁魔女	-17732
▁ザン	-17733
▁即位	-17734
▁収拾	-17735
▁のぼっ	-17736
▁フュー	-17737
▁大田原	-17738
▁買い付け	-17739
ワイライト	-17740
ブロ	-17741
▁公道	-17742
▁古都	-17743
▁高波	-17744
▁モニュ	-17745
▁淑	-17746
▁執り	-17747
▁緒方	-17748
▁隆寛	-17749
▁増えれ	-17750
▁大通り	-17751
▁出所	-17752
▁往生	-17753
▁浄土	-17754
▁ちそう	-17755
▁カンザス	-17756
ぷら	-17757
▁出れ	-17758
▁向く	-17759
▁富ん	-17760
▁急ぎ	-17761
▁栄冠	-17762
▁コンシェル	-17763
▁電線	-17764
▁出かける	-17765
でん	-17766
▁差額	-17767
▁韓流	-17768
ラート	-17769
▁リコー	-17770
▁トワイライト	-17771
▁未婚	-17772
▁どっち	-17773
▁尽きる	-17774
▁御殿場	-17775
が関	-17776
▁救難	-17777
▁沸騰	-17778
▁絵馬	-17779
▁苦難	-17780
▁遷宮	-17781
バック	-17782
▁ファル	-17783
▁霞が関	-17784
▁のび	-17785
▁食い止める	-17786
▁渕	-17787
▁信条	-17788
▁河崎	-17789
▁レクサス	-17790
▁びわ	-17791
▁ざわ	-17792
▁ひどく	-17793
▁骨子	-17794
下ろす	-17795
▁属する	-17796
▁ストーブ	-17797
▁ロジャー	-17798
府県	-17799
▁地政	-17800
▁軍団	-17801
▁小豆島	-17802
▁防げ	-17803
▁突っ込み	-17804
em	-17805
▁欣	-17806
はぎ	-17807
▁育む	-17808
ープル	-17809
▁はしご	-17810
▁買い上げ	-17811
ラミ	-17812
▁京子	-17813
▁商人	-17814
▁年下	-17815
▁沼田	-17816
▁浴室	-17817
▁溶接	-17818
リウム	-17819
▁クリスタル	-17820
▁ストライカー	-17821
▁モニュメント	-17822
こく	-17823
消し	-17824
▁和洋	-17825
▁小雨	-17826
▁ホース	-17827
▁アンディ	-17828
いき	-17829
▁トウモ	-17830
▁官庁	-17831
▁総力	-17832
▁覇権	-17833
▁トウモロコシ	-17834
▁僅	-17835
返さ	-17836
▁なじ	-17837
▁墓参	-17838
▁慎吾	-17839
▁銭湯	-17840
▁ヘルシー	-17841
斎橋	-17842
▁巡礼	-17843
▁のぞく	-17844
▁クイーン	-17845
▁乗り入れ	-17846
建て	-17847
▁ビート	-17848
▁プラカード	-17849
▁サプリメント	-17850
飾り	-17851
▁占い	-17852
▁名村	-17853
▁民謡	-17854
▁爽快	-17855
ラップ	-17856
▁勝ち進	-17857
▁アラビア	-17858
▁此	-17859
▁プロフィール	-17860
▁挫折	-17861
▁謝意	-17862
▁逸脱	-17863
▁重度	-17864
▁食育	-17865
▁親しい	-17866
▁シンデレラ	-17867
▁アッ	-17868
▁多治	-17869
▁肝炎	-17870
▁西鉄	-17871
▁難関	-17872
▁呪	-17873
▁喉	-17874
▁一服	-17875
▁歌人	-17876
▁ゲリラ	-17877
▁フレーバー	-17878
▁シャーロット	-17879
▁サザ	-17880
▁信一	-17881
バース	-17882
▁総当たり	-17883
▁くい	-17884
▁本丸	-17885
▁秩父宮	-17886
合わせる	-17887
▁いちばん	-17888
▁クリエーター	-17889
▁ミク	-17890
▁減量	-17891
▁西原	-17892
▁春日井	-17893
ごし	-17894
▁垣根	-17895
▁生協	-17896
▁芳賀	-17897
▁インスタ	-17898
▁カーボン	-17899
▁逢	-17900
▁ぐっ	-17901
▁公用	-17902
▁削り	-17903
▁湖西	-17904
▁無休	-17905
▁だいたい	-17906
▁小柄	-17907
▁給水	-17908
▁収まる	-17909
▁リクエスト	-17910
▁平泉	-17911
▁発給	-17912
▁多治見	-17913
▁曲がり	-17914
▁欠かさ	-17915
▁PD	-17916
▁万葉	-17917
▁参与	-17918
▁面識	-17919
▁追い付い	-17920
▁盧	-17921
▁半壊	-17922
▁均等	-17923
▁抑留	-17924
ザンヌ	-17925
▁みずみず	-17926
▁寄り添っ	-17927
▁はち	-17928
▁よさ	-17929
▁出前	-17930
▁辰巳	-17931
▁ナポリ	-17932
▁乗り物	-17933
▁円形	-17934
▁フォーカス	-17935
▁ぶっ	-17936
▁切実	-17937
▁家臣	-17938
▁父母	-17939
▁ねらい	-17940
▁エレガ	-17941
▁ジオラマ	-17942
▁スキャンダル	-17943
ハブ	-17944
バタ	-17945
▁幸子	-17946
▁断熱	-17947
▁OFF	-17948
▁たまり	-17949
▁アトリエ	-17950
▁むつ	-17951
▁交互	-17952
▁徹し	-17953
▁松葉	-17954
▁真っ向	-17955
▁ブルース	-17956
▁リーガー	-17957
▁立て続け	-17958
▁ネガティブ	-17959
▁拷	-17960
▁打破	-17961
▁拷問	-17962
▁村松	-17963
▁素早	-17964
▁パーソン	-17965
が丘	-17966
むき	-17967
▁刈谷	-17968
▁車庫	-17969
バサダー	-17970
▁織り交ぜ	-17971
▁乳製	-17972
ガルト	-17973
▁しまえ	-17974
▁勧める	-17975
▁仮装	-17976
▁破砕	-17977
▁軍国	-17978
あわせ	-17979
▁ノバク	-17980
ッショナー	-17981
▁きょうだい	-17982
▁コンシェルジュ	-17983
▁悪意	-17984
▁緑茶	-17985
▁練っ	-17986
▁仕切り	-17987
▁日焼け	-17988
だら	-17989
ノム	-17990
▁硬式	-17991
▁自陣	-17992
▁順延	-17993
▁引き金	-17994
▁ヒュース	-17995
戻す	-17996
▁暗闇	-17997
レーズ	-17998
▁リーチ	-17999
▁古谷	-18000
▁乗せる	-18001
▁メグミルク	-18002
▁杏奈	-18003
▁芽生	-18004
▁音波	-18005
▁エンタープライズ	-18006
▁モモ	-18007
▁入幕	-18008
▁ホイール	-18009
▁伝授	-18010
▁斜め	-18011
▁葉山	-18012
▁街宣	-18013
▁だるま	-18014
▁色紙	-18015
▁見習	-18016
▁願望	-18017
カミ	-18018
▁一杯	-18019
▁欠如	-18020
▁浩司	-18021
▁消耗	-18022
▁缶詰	-18023
▁跳び	-18024
▁ひときわ	-18025
▁ウズベキスタン	-18026
▁暇	-18027
▁絞る	-18028
▁裕之	-18029
▁はじめて	-18030
▁戦犯	-18031
▁断行	-18032
プー	-18033
▁すが	-18034
▁遺言	-18035
▁マグマ	-18036
▁アライ	-18037
▁リーフ	-18038
ーチャル	-18039
▁プロバイ	-18040
くみ	-18041
▁恵比	-18042
▁清治	-18043
▁短歌	-18044
ージャ	-18045
PAN	-18046
▁イブ	-18047
▁藤野	-18048
▁道県	-18049
▁重鎮	-18050
ぽつ	-18051
▁ヤギ	-18052
▁封筒	-18053
▁東映	-18054
▁見越し	-18055
PT	-18056
og	-18057
▁前頭	-18058
▁ひそか	-18059
▁ともかく	-18060
▁ポッター	-18061
▁貸し出す	-18062
▁メディカル	-18063
▁御堂	-18064
▁杉原	-18065
▁王滝	-18066
▁取り出す	-18067
▁キックオフ	-18068
▁歪	-18069
クタ	-18070
越さ	-18071
▁必需	-18072
▁ヒューストン	-18073
▁憎悪	-18074
▁星稜	-18075
▁無限	-18076
▁思い入れ	-18077
▁振る舞わ	-18078
▁おれ	-18079
▁喫緊	-18080
▁垂水	-18081
ージナル	-18082
▁生み出さ	-18083
▁粋	-18084
▁イグ	-18085
▁ソム	-18086
▁学館	-18087
▁日照	-18088
▁異様	-18089
▁だす	-18090
▁ハピ	-18091
▁丸岡	-18092
▁力投	-18093
▁南野	-18094
▁収蔵	-18095
▁紙幣	-18096
▁カリブ	-18097
▁シャラ	-18098
▁ピーター	-18099
ナビ	-18100
▁定食	-18101
▁理工	-18102
▁パルコ	-18103
▁乏しく	-18104
▁コミッショナー	-18105
▁かが	-18106
▁はり	-18107
▁営み	-18108
▁底堅	-18109
▁暴動	-18110
▁知子	-18111
▁遊び心	-18112
▁キラキラ	-18113
漬け	-18114
▁山東	-18115
▁適度	-18116
▁ハノー	-18117
▁アンバサダー	-18118
▁フェンシング	-18119
▁メリ	-18120
▁レガ	-18121
▁作文	-18122
▁順子	-18123
▁ボーイ	-18124
▁夏祭り	-18125
▁ウソ	-18126
▁他県	-18127
▁救護	-18128
▁田島	-18129
▁突く	-18130
▁逸品	-18131
▁はじき	-18132
▁ばらつき	-18133
▁言い切る	-18134
スピ	-18135
良部	-18136
▁中之	-18137
▁全店	-18138
▁島原	-18139
▁議院	-18140
▁賄う	-18141
▁しのぐ	-18142
ジョコビッチ	-18143
ハイオ	-18144
▁行き先	-18145
▁角川	-18146
▁ジュー	-18147
▁例え	-18148
▁削る	-18149
▁岸本	-18150
▁役人	-18151
▁推す	-18152
▁量刑	-18153
▁カ年	-18154
▁怪獣	-18155
▁ボランチ	-18156
▁蓋	-18157
▁ぶら	-18158
▁物販	-18159
ニティ	-18160
ットガルト	-18161
▁ルク	-18162
▁来夏	-18163
▁燃える	-18164
▁惹	-18165
▁か月	-18166
▁幸村	-18167
▁歩む	-18168
ビエル	-18169
▁コメン	-18170
▁エサ	-18171
▁栄光	-18172
▁疾病	-18173
ヒカリ	-18174
▁暴投	-18175
けない	-18176
▁うわさ	-18177
▁れんが	-18178
▁使い道	-18179
▁カーリング	-18180
▁OL	-18181
▁にっこり	-18182
▁オハイオ	-18183
▁カージナル	-18184
▁一掃	-18185
▁各界	-18186
▁奈々	-18187
▁火花	-18188
▁碁聖	-18189
まん	-18190
キス	-18191
▁ゲイ	-18192
▁書け	-18193
▁本命	-18194
▁歳月	-18195
▁貝塚	-18196
▁アブドラ	-18197
▁スクラン	-18198
▁てつ	-18199
▁壊さ	-18200
▁感知	-18201
▁死骸	-18202
▁没後	-18203
▁管弦	-18204
▁咲き誇	-18205
▁スタミナ	-18206
▁調停	-18207
▁大蔵	-18208
▁官公	-18209
▁整合	-18210
▁登る	-18211
▁プロペラ	-18212
▁コメンテーター	-18213
▁De	-18214
▁プラグ	-18215
▁カージナルス	-18216
▁新町	-18217
▁漁場	-18218
システム	-18219
▁封じ込め	-18220
▁公子	-18221
▁求心	-18222
▁脅かさ	-18223
MO	-18224
▁鉛筆	-18225
ハリ	-18226
百合	-18227
▁太一	-18228
▁銘打	-18229
▁カカオ	-18230
▁Kobo	-18231
▁エンジニアリング	-18232
恵子	-18233
▁竜也	-18234
▁ひとまず	-18235
▁カミ	-18236
▁ガイ	-18237
▁熱海	-18238
▁示せ	-18239
▁遠方	-18240
ティビ	-18241
▁まろやか	-18242
ザード	-18243
▁バーゼル	-18244
▁サーフィン	-18245
▁采	-18246
ーヴ	-18247
▁なつ	-18248
▁寄生	-18249
▁灯油	-18250
▁鼓舞	-18251
▁ビーム	-18252
▁漏れる	-18253
▁シャラポワ	-18254
▁シャンパン	-18255
▁BO	-18256
▁タバ	-18257
▁トス	-18258
▁伊吹	-18259
▁吉祥	-18260
▁おまえ	-18261
▁タービン	-18262
▁ウオーター	-18263
▁芹	-18264
▁まど	-18265
▁ワー	-18266
▁利子	-18267
▁指先	-18268
▁筑紫	-18269
▁自販	-18270
▁長らく	-18271
▁露天	-18272
▁ラッキー	-18273
▁ハンドリング	-18274
▁背泳ぎ	-18275
▁使節	-18276
▁入荷	-18277
▁対空	-18278
▁恨み	-18279
▁成瀬	-18280
▁須磨	-18281
▁マック	-18282
▁幕開け	-18283
▁歯磨き	-18284
まとめる	-18285
▁リタ	-18286
▁外遊	-18287
▁落胆	-18288
▁訴求	-18289
ギング	-18290
ざす	-18291
▁一躍	-18292
▁俊介	-18293
▁設問	-18294
▁赤外	-18295
▁部材	-18296
▁妄想	-18297
▁山川	-18298
▁真一	-18299
▁英輝	-18300
▁うたう	-18301
▁伊勢崎	-18302
▁呼び込み	-18303
香子	-18304
▁下手	-18305
▁大友	-18306
▁大曲	-18307
▁習い	-18308
デックス	-18309
▁やすかっ	-18310
▁ハンマー	-18311
ce	-18312
▁はみ	-18313
▁代弁	-18314
▁新刊	-18315
▁済ん	-18316
ンジャ	-18317
▁ジャス	-18318
▁ホノル	-18319
▁コロシアム	-18320
▁インテリジェ	-18321
▁昂	-18322
にち	-18323
の花	-18324
▁ぶれ	-18325
▁船員	-18326
▁降ろし	-18327
▁うかがう	-18328
▁レスター	-18329
▁丈夫	-18330
▁散乱	-18331
▁東名	-18332
▁物議	-18333
ターズ	-18334
▁ホノルル	-18335
ヤン	-18336
▁単一	-18337
アレス	-18338
ビスコ	-18339
▁空き地	-18340
▁ギリギリ	-18341
▁えと	-18342
ータン	-18343
▁あおり	-18344
▁叫ぶ	-18345
▁縫い	-18346
▁障壁	-18347
▁苦しめ	-18348
▁プレハブ	-18349
▁樺	-18350
▁会食	-18351
▁同村	-18352
▁平地	-18353
▁改竄	-18354
▁テイスト	-18355
じい	-18356
▁同展	-18357
▁執拗	-18358
▁小雲	-18359
▁メタン	-18360
▁馨	-18361
▁新緑	-18362
ッスル	-18363
▁フェリ	-18364
▁心構え	-18365
▁つなげよう	-18366
▁カウントダウン	-18367
▁爆笑	-18368
崩れ	-18369
▁同所	-18370
▁穴水	-18371
▁美穂	-18372
▁さかのぼる	-18373
▁ガニ	-18374
▁サツ	-18375
▁伸晃	-18376
▁伸び悩み	-18377
▁こっ	-18378
▁ほお	-18379
▁ムラ	-18380
▁全社	-18381
▁大成	-18382
▁ヨナ	-18383
▁弾き	-18384
▁情緒	-18385
▁細田	-18386
▁軸足	-18387
▁CAS	-18388
▁呼び出し	-18389
▁組み込ま	-18390
▁在外	-18391
▁玲子	-18392
▁真弘	-18393
▁課す	-18394
利き	-18395
▁弾頭	-18396
▁拒ん	-18397
ビアン	-18398
▁煩	-18399
ズマ	-18400
パル	-18401
▁手放	-18402
▁病床	-18403
▁しのん	-18404
▁めった	-18405
リオール	-18406
▁引き取り	-18407
▁先住	-18408
▁存立	-18409
▁庄内	-18410
▁政局	-18411
▁しんど	-18412
▁分社	-18413
▁又吉	-18414
▁植田	-18415
▁福士	-18416
▁里親	-18417
▁宝くじ	-18418
▁ナビスコ	-18419
▁乗り心地	-18420
▁FX	-18421
▁洋画	-18422
▁筆記	-18423
ジャン	-18424
▁ふもと	-18425
▁取り外し	-18426
▁生き残っ	-18427
デーション	-18428
▁Japan	-18429
▁フライパン	-18430
IP	-18431
そな	-18432
▁つや	-18433
▁丸亀	-18434
▁休校	-18435
▁再燃	-18436
▁出水	-18437
▁座敷	-18438
▁麻友	-18439
▁さり	-18440
▁にこ	-18441
▁予見	-18442
▁坂田	-18443
▁マーティン	-18444
CA	-18445
▁井口	-18446
▁破れ	-18447
▁選べ	-18448
▁鎖	-18449
▁分権	-18450
▁カルロス	-18451
▁度重なる	-18452
▁厨	-18453
▁かわ	-18454
▁フグ	-18455
▁優作	-18456
▁序列	-18457
▁清算	-18458
▁秒間	-18459
▁返答	-18460
▁グリップ	-18461
▁常滑	-18462
▁暗く	-18463
▁辞さ	-18464
▁青柳	-18465
▁順当	-18466
▁高畑	-18467
▁ウォー	-18468
ーティー	-18469
▁JAPAN	-18470
戻さ	-18471
▁はつ	-18472
▁共鳴	-18473
▁大館	-18474
▁好物	-18475
▁宮中	-18476
▁車窓	-18477
▁重厚	-18478
▁長短	-18479
▁中小	-18480
▁塩谷	-18481
▁正樹	-18482
▁登記	-18483
▁ねぶた	-18484
▁塁	-18485
▁ネオ	-18486
▁フー	-18487
▁帰属	-18488
▁皇位	-18489
▁かまぼこ	-18490
▁クオリティ	-18491
▁ハンバーガー	-18492
▁混戦	-18493
▁異名	-18494
▁ジーンズ	-18495
▁卒中	-18496
▁常態	-18497
▁遊具	-18498
▁たたず	-18499
▁怖かっ	-18500
ポー	-18501
▁対案	-18502
▁美智	-18503
▁押し下げ	-18504
▁シャンプー	-18505
▁パイプライン	-18506
hi	-18507
▁魁	-18508
▁でる	-18509
▁エフ	-18510
▁りそな	-18511
▁苦しく	-18512
▁取り消す	-18513
▁カボ	-18514
▁山々	-18515
▁名乗っ	-18516
▁食い止め	-18517
めい	-18518
▁ざい	-18519
▁巡行	-18520
▁体形	-18521
▁捻出	-18522
▁蹴る	-18523
▁振る舞っ	-18524
▁ホタ	-18525
▁忠誠	-18526
▁デフォ	-18527
▁危ぶま	-18528
▁Blue	-18529
▁サンダー	-18530
▁日替わり	-18531
▁アドベンチ	-18532
ぐっ	-18533
▁探検	-18534
▁桜島	-18535
▁掛かる	-18536
▁檜	-18537
グゼ	-18538
▁偏っ	-18539
▁大鵬	-18540
▁太地	-18541
▁むき出し	-18542
▁趣向	-18543
▁せめて	-18544
▁ホテルズ	-18545
▁買い求め	-18546
ram	-18547
▁ぬれ	-18548
▁入金	-18549
▁後者	-18550
▁新郎	-18551
▁沈む	-18552
▁インストラクター	-18553
▁マカ	-18554
▁晴天	-18555
▁そら	-18556
▁キル	-18557
▁油田	-18558
▁絵師	-18559
▁惜しま	-18560
通し	-18561
▁オア	-18562
▁命日	-18563
▁智美	-18564
▁決起	-18565
▁出合い	-18566
▁収まっ	-18567
ビジョン	-18568
▁京浜	-18569
▁出没	-18570
▁山麓	-18571
▁鮮度	-18572
▁北信越	-18573
▁じつ	-18574
▁主軸	-18575
▁各務	-18576
▁筒香	-18577
▁習っ	-18578
▁黙々	-18579
▁ODA	-18580
▁コナミ	-18581
▁カウンセラー	-18582
わか	-18583
▁往年	-18584
▁中曽根	-18585
▁一巡	-18586
▁一幕	-18587
▁周期	-18588
▁モリ	-18589
▁出入	-18590
▁講堂	-18591
▁農民	-18592
▁ヒール	-18593
▁稲荷	-18594
▁ペダル	-18595
▁キュート	-18596
▁犠打	-18597
▁高円宮	-18598
ice	-18599
▁ゴン	-18600
▁油断	-18601
▁課し	-18602
▁遊覧	-18603
▁ヤンゴン	-18604
▁引き離し	-18605
アリ	-18606
▁ゲン	-18607
▁民泊	-18608
▁振り回	-18609
▁走れる	-18610
▁申し込ん	-18611
トー	-18612
▁がり	-18613
▁原型	-18614
▁既成	-18615
▁極力	-18616
▁絶っ	-18617
▁試さ	-18618
▁伊藤忠	-18619
▁盛り土	-18620
▁こぼれ球	-18621
▁アンコール	-18622
滑り	-18623
▁火の	-18624
▁小久保	-18625
▁輔	-18626
▁失礼	-18627
▁しぐさ	-18628
▁マダイ	-18629
更津	-18630
▁懇親	-18631
▁本国	-18632
▁溶融	-18633
▁天ぷら	-18634
▁木更津	-18635
▁焼き肉	-18636
▁ミニゲーム	-18637
▁込	-18638
▁欠き	-18639
なじみ	-18640
▁MBS	-18641
▁しごと	-18642
▁バニラ	-18643
▁ワカメ	-18644
▁手放し	-18645
▁たかじん	-18646
▁ギャラク	-18647
▁牙	-18648
▁ろっ	-18649
▁再興	-18650
▁大連	-18651
▁尾張	-18652
▁フランチャ	-18653
▁ほめ	-18654
▁海浜	-18655
▁版画	-18656
▁したた	-18657
▁移り住ん	-18658
ニエ	-18659
▁九千	-18660
▁硬く	-18661
ケーキ	-18662
▁置き去り	-18663
▁ササ	-18664
▁一途	-18665
▁全英	-18666
▁友美	-18667
▁安曇	-18668
▁語気	-18669
▁論調	-18670
ッタリ	-18671
▁ブライダル	-18672
▁世耕	-18673
▁ジェフ	-18674
▁ブルーム	-18675
▁艶	-18676
▁国公	-18677
▁恐喝	-18678
▁釣果	-18679
▁比べれ	-18680
ort	-18681
▁ミネ	-18682
▁公介	-18683
▁化し	-18684
▁疲弊	-18685
▁連ねる	-18686
リアーズ	-18687
▁ノロ	-18688
▁とどめる	-18689
▁ぽつぽつ	-18690
▁張り上げ	-18691
▁おっしゃっ	-18692
はだ	-18693
▁レセ	-18694
▁不順	-18695
▁学研	-18696
▁居間	-18697
▁折衝	-18698
▁損保	-18699
▁海産	-18700
フレーズ	-18701
▁サックス	-18702
OL	-18703
▁稲垣	-18704
▁絵柄	-18705
ステン	-18706
▁塀	-18707
▁伊那	-18708
▁回顧	-18709
▁地消	-18710
▁鳴っ	-18711
▁すくい	-18712
▁カエル	-18713
▁アフター	-18714
テイリング	-18715
▁外さ	-18716
▁査定	-18717
▁精彩	-18718
▁解党	-18719
▁ヒツジ	-18720
UN	-18721
▁ザル	-18722
▁昭宏	-18723
▁競演	-18724
▁たすき	-18725
▁崩れる	-18726
▁度々	-18727
▁新婚	-18728
▁秀人	-18729
ペスト	-18730
▁きのう	-18731
▁バーチャル	-18732
OK	-18733
▁一心	-18734
▁暴れ	-18735
▁ブリヂ	-18736
ティション	-18737
▁ブリヂストン	-18738
▁流氷	-18739
▁電工	-18740
▁見届け	-18741
▁キャッチフレーズ	-18742
▁上皇	-18743
▁傍受	-18744
▁安住	-18745
▁聞かさ	-18746
▁疫	-18747
▁特命	-18748
▁マウント	-18749
▁モットー	-18750
▁スティック	-18751
▁熱唱	-18752
▁真偽	-18753
▁積ま	-18754
▁行楽	-18755
▁要衝	-18756
▁にじむ	-18757
▁ラファエル	-18758
▁インターフェ	-18759
四郎	-18760
▁やゆ	-18761
▁分泌	-18762
▁基文	-18763
▁石綿	-18764
▁空席	-18765
▁潰	-18766
▁パド	-18767
▁清原	-18768
▁玉川	-18769
▁藤崎	-18770
▁うらや	-18771
▁振り込み	-18772
ずっ	-18773
▁今宮	-18774
▁片田	-18775
▁デフォルト	-18776
▁唄	-18777
▁渉	-18778
▁紀明	-18779
▁須藤	-18780
ルーン	-18781
▁わが家	-18782
▁シーム	-18783
まけ	-18784
去る	-18785
▁名手	-18786
▁調教	-18787
▁ファシ	-18788
▁売り切れ	-18789
▁モントリオール	-18790
あっ	-18791
▁挿入	-18792
ビット	-18793
▁フィットネス	-18794
なが	-18795
▁深み	-18796
▁調剤	-18797
▁しきり	-18798
▁レンガ	-18799
▁サスペン	-18800
▁高止まり	-18801
▁三上	-18802
▁乙女	-18803
▁五典	-18804
▁傾き	-18805
▁抜擢	-18806
▁有価	-18807
▁欲望	-18808
▁石山	-18809
▁送還	-18810
▁びょう	-18811
▁エナジー	-18812
▁専大	-18813
▁弾力	-18814
ホーテ	-18815
▁譲っ	-18816
▁ゴル	-18817
▁再任	-18818
▁挟み	-18819
▁猪木	-18820
▁結審	-18821
▁ガーディアン	-18822
っぺ	-18823
▁球技	-18824
▁酔い	-18825
▁濱	-18826
越す	-18827
▁フン	-18828
▁ムーン	-18829
▁スニーカー	-18830
のこ	-18831
[...]
