▁t 100
he 100
▁a 100
in 100
er 100
▁the 100
on 100
re 100
▁s 100
ed 100
▁o 100
nd 100
▁w 100
at 100
or 100
en 100
is 100
it 100
ar 100
es 100
▁f 100
▁c 100
an 100
al 100
▁in 100
▁of 100
▁b 100
as 100
ing 100
▁p 100
▁and 100
ic 100
ro 100
▁m 100
ion 100
▁T 100
▁to 100
▁d 100
le 100
ou 100
▁h 100
▁S 100
▁A 100
il 100
▁1 100
▁C 100
▁re 100
ent 100
st 100
am 100
el 100
▁M 100
om 100
▁The 100
▁l 100
▁n 100
ac 100
▁was 100
▁e 100
▁B 100
▁on 100
▁th 100
▁2 100
ol 100
ad 100
▁I 100
ec 100
et 100
ur 100
ig 100
id 100
▁( 100
ly 100
iv 100
▁for 100
▁H 100
ir 100
us 100
ter 100
ot 100
▁P 100
▁is 100
▁g 100
im 100
▁as 100
ay 100
ow 100
ation 100
▁R 100
ut 100
▁D 100
ith 100
▁st 100
▁F 100
em 100
▁by 100
ers 100
▁W 100
▁N 100
▁with 100
th 100
▁20 100
un 100
▁L 100
her 100
▁be 100
▁19 100
ch 100
ce 100
▁" 100
▁G 100
um 100
ct 100
▁al 100
ver 100
ul 100
ra 100
▁at 100
▁J 100
rom 100
os 100
▁wh 100
▁an 100
▁E 100
and 100
▁it 100
▁con 100
ist 100
est 100
ag 100
▁O 100
▁v 100
▁that 100
od 100
av 100
▁from 100
ri 100
ain 100
ber 100
res 100
▁com 100
op 100
oc 100
igh 100
if 100
▁he 100
▁@ 100
ill 100
ies 100
▁In 100
▁pro 100
▁r 100
▁U 100
ate 100
ud 100
all 100
art 100
ard 100
▁are 100
ong 100
ore 100
ort 100
▁– 100
up 100
ich 100
▁or 100
▁de 100
▁se 100
ated 100
ew 100
▁K 100
ak 100
▁St 100
ear 100
ap 100
ip 100
ity 100
ab 100
ant 100
qu 100
ld 100
▁his 100
▁200 100
ive 100
▁pl 100
ere 100
▁ch 100
▁ex 100
ug 100
ub 100
ame 100
ast 100
ect 100
our 100
ge 100
ia 100
red 100
▁were 100
ack 100
se 100
ov 100
▁201 100
ord 100
▁k 100
▁sh 100
ine 100
▁sp 100
ess 100
ary 100
▁3 100
cl 100
ian 100
nt 100
und 100
▁which 100
ell 100
▁Ch 100
ical 100
ial 100
ost 100
ust 100
ment 100
00 100
ight 100
so 100
ther 100
▁V 100
uc 100
pp 100
▁le 100
ide 100
.@ 100
▁@.@ 100
ave 100
▁It 100
▁not 100
▁ro 100
orm 100
irst 100
▁has 100
ep 100
▁comp 100
og 100
te 100
ass 100
▁y 100
rit 100
ish 100
▁its 100
ue 100
ign 100
ions 100
wo 100
▁4 100
ran 100
▁also 100
mer 100
▁us 100
ure 100
▁first 100
ff 100
▁un 100
ous 100
own 100
ond 100
▁had 100
▁5 100
fter 100
ie 100
ember 100
ork 100
▁He 100
▁cl 100
▁whe 100
ry 100
ok 100
clud 100
hed 100
▁cont 100
ire 100
,@ 100
▁@,@ 100
▁ad 100
▁Al 100
▁have 100
ree 100
ater 100
▁18 100
▁Th 100
▁ar 100
age 100
▁per 100
▁ser 100
ome 100
▁Un 100
out 100
ric 100
▁includ 100
▁(1 100
low 100
ark 100
land 100
▁two 100
per 100
ally 100
▁been 100
▁res 100
ition 100
▁but 100
ased 100
▁int 100
ted 100
), 100
uct 100
▁Y 100
ound 100
▁one 100
uring 100
ount 100
). 100
▁rec 100
ach 100
iz 100
port 100
ime 100
pl 100
ugh 100
▁part 100
ace 100
▁te 100
▁their 100
cc 100
ates 100
▁app 100
ice 100
ile 100
▁play 100
▁sc 100
▁ab 100
ke 100
ib 100
ens 100
ations 100
act 100
ward 100
ited 100
are 100
ng 100
ence 100
amp 100
gh 100
ult 100
▁des 100
ph 100
▁her 100
tern 100
way 100
▁6 100
▁rele 100
we 100
ely 100
ory 100
ilm 100
ase 100
▁other 100
man 100
▁year 100
ance 100
▁dis 100
ress 100
▁co 100
▁On 100
one 100
ould 100
▁who 100
ite 100
▁after 100
old 100
lect 100
▁7 100
uch 100
▁j 100
fer 100
▁bec 100
vel 100
rop 100
ough 100
ix 100
pt 100
eat 100
ade 100
ational 100
▁199 100
form 100
ason 100
▁over 100
▁en 100
▁pre 100
ang 100
als 100
ind 100
ied 100
able 100
▁song 100
wn 100
▁this 100
orth 100
les 100
ild 100
orn 100
▁9 100
▁man 100
▁tr 100
urn 100
oy 100
▁ag 100
▁8 100
ents 100
▁up 100
▁we 100
▁comm 100
▁Mar 100
ors 100
▁num 100
▁film 100
ood 100
ey 100
▁into 100
ail 100
". 100
rough 100
▁im 100
end 100
▁can 100
▁Ar 100
▁ev 100
▁As 100
ts 100
ubl 100
▁prod 100
▁off 100
▁New 100
ings 100
outh 100
aw 100
▁/ 100
orld 100
▁bet 100
▁sec 100
iss 100
▁during 100
inal 100
▁out 100
meric 100
▁time 100
ick 100
ob 100
rib 100
▁all 100
ons 100
▁Le 100
ever 100
ved 100
oin 100
ollow 100
▁gro 100
ween 100
ans 100
▁(2 100
▁spec 100
hip 100
ool 100
oth 100
▁three 100
vi 100
ton 100
▁kn 100
ames 100
io 100
▁they 100
hn 100
gan 100
▁used 100
▁cons 100
▁Americ 100
▁season 100
▁loc 100
ve 100
▁she 100
ces 100
▁between 100
ft 100
▁most 100
▁col 100
bum 100
▁work 100
▁rem 100
aus 100
over 100
▁number 100
ron 100
▁United 100
▁sy 100
ins 100
▁only 100
under 100
▁high 100
▁more 100
ake 100
ral 100
ose 100
ath 100
▁ear 100
▁when 100
▁released 100
uary 100
▁game 100
▁act 100
ters 100
▁than 100
▁0 100
hes 100
ered 100
reat 100
▁bu 100
▁second 100
▁ra 100
", 100
ook 100
fore 100
ten 100
br 100
▁00 100
▁mus 100
▁ep 100
▁form 100
▁through 100
ren 100
▁four 100
ics 100
▁pr 100
att 100
ived 100
▁cent 100
▁follow 100
▁Com 100
▁record 100
ivers 100
▁new 100
▁team 100
ex 100
ished 100
▁Sp 100
▁tra 100
▁10 100
▁fl 100
ros 100
iel 100
ock 100
▁under 100
ode 100
ular 100
▁album 100
ener 100
▁ind 100
▁where 100
▁Re 100
▁Jo 100
▁sub 100
ific 100
ict 100
round 100
▁sing 100
ram 100
▁Sh 100
ision 100
▁ret 100
chool 100
▁reg 100
▁pe 100
▁ac 100
▁would 100
▁att 100
▁ass 100
▁This 100
▁198 100
ating 100
ll 100
▁such 100
▁An 100
▁epis 100
▁end 100
▁later 100
▁dec 100
▁(19 100
ince 100
▁acc 100
▁000 100
▁about 100
ute 100
str 100
▁publ 100
its 100
ept 100
ced 100
ober 100
▁ent 100
aj 100
▁qu 100
▁while 100
▁me 100
oun 100
▁feat 100
▁rel 100
ann 100
ures 100
uction 100
rans 100
ily 100
▁lar 100
son 100
ank 100
▁17 100
ek 100
▁years 100
▁mov 100
▁inter 100
▁sup 100
▁known 100
irect 100
▁12 100
ident 100
ual 100
ike 100
▁made 100
inn 100
ury 100
▁pos 100
▁again 100
▁rece 100
▁char 100
▁orig 100
▁before 100
▁mill 100
ah 100
▁am 100
▁writ 100
▁including 100
pr 100
hen 100
▁Sc 100
." 100
▁found 100
ari 100
▁sur 100
▁War 100
▁194 100
▁inc 100
1, 100
cess 100
oot 100
▁At 100
▁Col 100
▁add 100
▁States 100
▁him 100
▁pres 100
erm 100
▁perform 100
velop 100
▁Cl 100
▁them 100
▁sever 100
▁series 100
ines 100
▁some 100
▁day 100
olog 100
▁design 100
▁She 100
5, 100
tain 100
ane 100
ball 100
ale 100
ier 100
▁met 100
▁stud 100
▁def 100
ird 100
stem 100
ired 100
ley 100
▁set 100
ife 100
une 100
▁197 100
▁World 100
pen 100
▁Ind 100
▁Con 100
ven 100
ium 100
▁Eng 100
az 100
▁main 100
▁may 100
▁there 100
▁being 100
4, 100
▁str 100
▁well 100
▁Bl 100
▁episode 100
▁May 100
▁bl 100
▁dist 100
▁both 100
ement 100
▁American 100
ars 100
air 100
ield 100
▁cre 100
▁16 100
3, 100
▁John 100
ouse 100
tend 100
ik 100
▁so 100
amed 100
▁min 100
eptember 100
▁196 100
▁All 100
▁mon 100
oci 100
uit 100
▁show 100
iver 100
yp 100
owever 100
any 100
▁bro 100
▁million 100
▁dep 100
ities 100
▁September 100
ative 100
0, 100
ash 100
▁develop 100
aid 100
ugust 100
▁ship 100
other 100
▁Wh 100
▁call 100
▁long 100
▁US 100
ject 100
▁inv 100
▁several 100
▁Ju 100
▁August 100
▁direct 100
▁became 100
▁sign 100
▁back 100
▁Nov 100
▁produc 100
▁no 100
▁then 100
▁ph 100
▁music 100
▁trans 100
▁15 100
iam 100
▁ann 100
ross 100
▁lead 100
▁After 100
enn 100
ower 100
▁serv 100
▁rep 100
2, 100
▁air 100
ax 100
▁sm 100
▁state 100
▁km 100
▁Brit 100
ists 100
ctober 100
▁exp 100
ty 100
emb 100
▁ed 100
▁cap 100
ropical 100
ise 100
▁car 100
ause 100
ern 100
▁Aust 100
▁do 100
▁dif 100
der 100
▁Is 100
▁near 100
▁Pl 100
▁Z 100
imes 100
▁$ 100
til 100
▁October 100
▁comple 100
▁11 100
wards 100
ared 100
very 100
▁along 100
▁run 100
▁pol 100
6, 100
▁system 100
led 100
▁Ad 100
ually 100
▁vers 100
▁July 100
▁Br 100
ox 100
▁De 100
▁mod 100
▁November 100
▁June 100
ys 100
osed 100
▁species 100
▁many 100
▁193 100
▁pop 100
▁count 100
▁single 100
anc 100
erv 100
eed 100
▁open 100
eng 100
9, 100
ather 100
▁appear 100
▁Dec 100
▁art 100
▁North 100
▁prov 100
▁until 100
▁name 100
▁mat 100
though 100
▁following 100
ting 100
▁north 100
ina 100
ional 100
▁area 100
▁Jan 100
iversity 100
▁191 100
▁gener 100
▁York 100
ured 100
ange 100
ague 100
ized 100
▁195 100
▁fam 100
▁against 100
▁Ed 100
ople 100
▁occ 100
▁Pro 100
sh 100
8, 100
▁ob 100
▁received 100
▁charac 100
ised 100
idge 100
ajor 100
ially 100
overn 100
pril 100
▁est 100
▁— 100
▁For 100
erson 100
▁desc 100
▁track 100
my 100
▁offic 100
▁Can 100
7, 100
▁April 100
ilt 100
▁March 100
erman 100
▁oper 100
▁mil 100
▁Car 100
▁use 100
▁med 100
eg 100
▁remain 100
▁elect 100
▁Q 100
▁sim 100
▁named 100
▁13 100
ism 100
▁early 100
ection 100
oad 100
oard 100
▁vari 100
▁school 100
ants 100
ets 100
view 100
▁Fran 100
-1 100
▁December 100
vent 100
▁pass 100
ible 100
▁week 100
aking 100
ull 100
▁Ph 100
▁list 100
ideo 100
▁group 100
▁Mus 100
ove 100
▁go 100
elf 100
▁since 100
▁vi 100
▁contin 100
▁January 100
▁imp 100
▁same 100
▁National 100
▁played 100
▁Chr 100
▁resp 100
ically 100
▁Austral 100
▁won 100
▁each 100
▁inf 100
sp 100
▁six 100
▁gr 100
mp 100
▁small 100
ments 100
▁bel 100
▁dr 100
lev 100
ffect 100
▁King 100
▁called 100
▁Count 100
▁Fe 100
▁hist 100
ling 100
ean 100
▁14 100
▁war 100
▁partic 100
▁these 100
▁disc 100
ful 100
ues 100
aced 100
▁& 100
▁ext 100
▁South 100
▁prog 100
▁start 100
▁cur 100
▁Or 100
gest 100
▁any 100
▁around 100
▁five 100
yl 100
▁mar 100
uss 100
ored 100
ink 100
ural 100
▁describ 100
hest 100
▁fin 100
▁build 100
urch 100
ided 100
▁class 100
▁own 100
ording 100
▁Fl 100
ified 100
▁included 100
▁Be 100
ives 100
to 100
ued 100
eter 100
ford 100
▁storm 100
▁192 100
▁began 100
by 100
els 100
▁Ge 100
▁Eu 100
rent 100
▁suc 100
▁report 100
the 100
▁Pr 100
5. 100
▁em 100
▁people 100
0. 100
▁return 100
let 100
▁voc 100
ission 100
ital 100
2. 100
▁city 100
▁south 100
raph 100
▁differ 100
▁II 100
omin 100
ility 100
▁British 100
▁Se 100
aster 100
ution 100
ried 100
reen 100
bruary 100
ides 100
▁University 100
cent 100
▁land 100
oss 100
▁German 100
▁did 100
omet 100
1. 100
▁release 100
▁major 100
▁down 100
ined 100
▁red 100
ony 100
ales 100
ne 100
▁include 100
▁br 100
▁book 100
▁built 100
▁February 100
▁will 100
4. 100
▁' 100
ately 100
▁High 100
avy 100
ient 100
▁due 100
▁(200 100
▁Comm 100
▁event 100
▁prom 100
▁Will 100
3. 100
rand 100
▁poin 100
▁Har 100
▁video 100
▁world 100
▁Air 100
tal 100
6. 100
▁child 100
tle 100
▁They 100
rod 100
ively 100
The 100
▁eng 100
ner 100
▁addition 100
raft 100
side 100
ternational 100
▁tropical 100
▁third 100
▁contain 100
lish 100
ister 100
ampions 100
▁There 100
▁organ 100
iving 100
orp 100
ene 100
ung 100
▁public 100
▁County 100
▁highway 100
▁However 100
▁tit 100
9. 100
▁version 100
vious 100
ott 100
cy 100
ple 100
cept 100
▁crit 100
▁term 100
line 100
▁short 100
▁written 100
ret 100
▁head 100
ootball 100
▁original 100
▁Cent 100
▁line 100
▁City 100
ck 100
ger 100
▁family 100
▁large 100
▁common 100
ages 100
ble 100
ety 100
ats 100
uted 100
▁said 100
▁rest 100
▁Park 100
▁Mich 100
▁consid 100
▁Rec 100
▁home 100
▁deb 100
▁Cal 100
▁govern 100
uth 100
aving 100
▁100 100
apan 100
▁you 100
▁Bro 100
▁Europ 100
ilar 100
▁Mc 100
▁band 100
▁cr 100
▁water 100
▁fe 100
▁Christ 100
▁final 100
stit 100
▁place 100
uck 100
▁success 100
ature 100
▁Am 100
▁games 100
▁former 100
▁appro 100
▁character 100
med 100
▁West 100
ays 100
▁last 100
ival 100
7. 100
uff 100
ai 100
▁within 100
ior 100
tended 100
inc 100
▁support 100
▁Co 100
▁top 100
ert 100
▁route 100
get 100
▁based 100
▁located 100
▁century 100
▁chart 100
▁care 100
▁because 100
▁previous 100
▁Canad 100
▁Gu 100
▁His 100
ison 100
▁par 100
▁Japan 100
01 100
▁2008 100
ently 100
embers 100
▁League 100
▁typ 100
▁took 100
▁program 100
ont 100
row 100
ody 100
▁result 100
▁port 100
ring 100
▁- 100
▁compet 100
▁30 100
▁During 100
▁view 100
ones 100
▁mark 100
▁held 100
▁Par 100
▁total 100
ched 100
▁X 100
▁Ex 100
▁could 100
▁published 100
ae 100
▁Geor 100
▁State 100
augh 100
▁sl 100
▁origin 100
omen 100
▁announ 100
rew 100
▁25 100
▁Tr 100
▁described 100
ged 100
attle 100
ham 100
▁cond 100
aken 100
▁Bar 100
▁Man 100
▁av 100
▁And 100
▁det 100
estern 100
rest 100
work 100
itions 100
af 100
alf 100
▁death 100
ience 100
ract 100
ler 100
iod 100
▁though 100
ected 100
iven 100
ices 100
▁ref 100
ampionship 100
▁produced 100
▁wind 100
ology 100
▁You 100
▁cy 100
▁El 100
levision 100
▁tw 100
▁similar 100
resent 100
ograph 100
▁Her 100
▁po 100
au 100
ians 100
me 100
▁sold 100
▁local 100
▁present 100
▁repl 100
▁School 100
▁hel 100
▁members 100
▁west 100
ights 100
ech 100
▁station 100
▁different 100
ney 100
▁bas 100
▁incre 100
▁east 100
▁cover 100
▁No 100
ator 100
▁road 100
▁often 100
▁camp 100
ulation 100
▁month 100
▁requ 100
ondon 100
▁By 100
▁allow 100
▁gu 100
ious 100
▁bre 100
▁club 100
alk 100
urric 100
isc 100
rol 100
ning 100
oman 100
bs 100
oon 100
▁vocals 100
arm 100
▁prot 100
akes 100
ivision 100
▁low 100
ument 100
▁served 100
ression 100
▁William 100
▁Dav 100
▁mid 100
vers 100
▁caus 100
▁life 100
▁constr 100
▁late 100
▁tem 100
▁turn 100
cast 100
▁refer 100
▁old 100
▁conf 100
▁current 100
lege 100
▁dam 100
ille 100
▁performed 100
oll 100
▁beg 100
▁stand 100
▁London 100
▁iss 100
utes 100
inning 100
com 100
▁effect 100
▁those 100
▁190 100
▁production 100
ining 100
▁moved 100
▁post 100
▁hig 100
▁nort 100
▁English 100
▁Ste 100
▁join 100
▁fre 100
▁ft 100
▁vis 100
ries 100
▁(3 100
▁town 100
▁occur 100
▁sk 100
▁Sw 100
▁America 100
reet 100
ences 100
ington 100
ached 100
▁poss 100
que 100
▁Roy 100
ness 100
▁En 100
aul 100
ances 100
▁Best 100
▁like 100
▁rad 100
▁One 100
▁now 100
▁inst 100
▁equ 100
▁cour 100
▁days 100
board 100
▁best 100
esp 100
ases 100
min 100
▁[ 100
▁River 100
ext 100
▁Sy 100
uitar 100
▁Gr 100
▁national 100
ches 100
▁just 100
▁Te 100
▁period 100
▁service 100
▁England 100
irc 100
eth 100
▁21 100
▁announced 100
▁Ass 100
▁review 100
ped 100
▁conc 100
▁left 100
▁reported 100
outher 100
▁died 100
sc 100
▁fore 100
▁although 100
▁another 100
▁collect 100
▁Ang 100
atic 100
urricane 100
▁Char 100
dom 100
▁recorded 100
▁features 100
unct 100
day 100
▁still 100
aur 100
▁player 100
▁189 100
▁hum 100
outhern 100
▁among 100
rench 100
▁Med 100
▁power 100
aim 100
ards 100
lu 100
aun 100
▁person 100
lands 100
▁Acc 100
▁ele 100
ata 100
astern 100
▁side 100
itary 100
▁These 100
▁24 100
▁house 100
▁television 100
ords 100
▁times 100
ald 100
▁We 100
▁Road 100
▁Award 100
hern 100
ps 100
ves 100
▁Sup 100
▁Bill 100
▁much 100
-2 100
ula 100
▁When 100
▁very 100
▁level 100
▁government 100
▁sound 100
▁appe 100
ize 100
▁trad 100
▁career 100
▁represent 100
gy 100
ering 100
▁entire 100
▁building 100
par 100
▁Reg 100
▁mag 100
▁manag 100
▁few 100
▁born 100
osp 100
▁Gl 100
▁ste 100
ms 100
▁children 100
▁broad 100
ese 100
▁bus 100
▁considered 100
▁prof 100
▁songs 100
▁lit 100
tr 100
ots 100
ummer 100
con 100
▁Pol 100
▁Ab 100
ael 100
▁22 100
▁win 100
▁given 100
▁if 100
▁ant 100
▁adv 100
ray 100
▁init 100
▁award 100
▁men 100
▁Act 100
echn 100
▁pat 100
ories 100
uced 100
▁French 100
rict 100
▁mix 100
reg 100
▁estab 100
ucted 100
▁adap 100
▁commun 100
▁ten 100
▁leg 100
▁tri 100
▁guitar 100
▁ne 100
▁aver 100
▁engine 100
▁Af 100
▁eight 100
ery 100
itive 100
▁Stud 100
ef 100
ours 100
riend 100
▁Cam 100
▁Australia 100
▁dem 100
▁exper 100
ote 100
▁peak 100
yle 100
ges 100
hel 100
▁Cup 100
west 100
▁rank 100
▁miles 100
▁Rou 100
▁wat 100
▁make 100
▁(199 100
off 100
▁however 100
8. 100
ense 100
▁developed 100
.. 100
▁race 100
▁history 100
▁el 100
▁opp 100
▁gen 100
rick 100
read 100
▁Rep 100
▁football 100
▁role 100
iness 100
ole 100
▁using 100
▁conn 100
▁prop 100
gr 100
▁next 100
▁match 100
▁Min 100
▁father 100
▁sw 100
▁Ear 100
atter 100
▁expl 100
▁various 100
▁Sing 100
hem 100
ained 100
iforn 100
urther 100
▁Music 100
▁member 100
▁lim 100
▁hand 100
▁attack 100
▁non 100
▁squ 100
▁sol 100
▁prim 100
na 100
imately 100
urb 100
▁stre 100
aces 100
▁story 100
▁Sm 100
iet 100
reek 100
uce 100
iron 100
▁Royal 100
▁del 100
▁originally 100
▁age 100
▁invol 100
▁DV 100
play 100
▁Californ 100
gen 100
▁50 100
app 100
50 100
▁import 100
▁Although 100
ino 100
▁Play 100
▁nomin 100
▁Sim 100
▁led 100
▁site 100
▁stat 100
▁areas 100
▁company 100
▁plan 100
▁According 100
ief 100
▁International 100
▁23 100
ape 100
ids 100
▁2010 100
▁gun 100
▁cycl 100
gin 100
▁having 100
▁select 100
▁California 100
ront 100
▁half 100
▁surv 100
▁featured 100
▁beh 100
▁Comp 100
▁dra 100
umb 100
▁official 100
ample 100
ublic 100
▁become 100
▁sug 100
▁(201 100
ana 100
▁° 100
▁cop 100
▁kill 100
eder 100
▁less 100
▁vol 100
▁field 100
alt 100
▁gl 100
▁Mon 100
▁avail 100
▁anim 100
▁Awards 100
field 100
aly 100
iment 100
▁Route 100
ament 100
ush 100
▁Phil 100
▁comb 100
▁Championship 100
▁law 100
▁Sec 100
▁particip 100
▁Pres 100
▁DVD 100
▁(4 100
BC 100
craft 100
uk 100
▁Nor 100
sequ 100
▁struct 100
▁country 100
▁star 100
igned 100
rote 100
▁East 100
▁Jack 100
▁Per 100
▁command 100
▁special 100
yn 100
alth 100
▁came 100
aff 100
▁er 100
▁range 100
▁2012 100
▁formed 100
▁Bo 100
uthor 100
▁associ 100
▁Street 100
ength 100
▁chang 100
▁what 100
▁grow 100
ios 100
▁27 100
▁My 100
▁James 100
ploy 100
ico 100
▁feet 100
oms 100
ster 100
▁young 100
▁cer 100
▁40 100
▁Me 100
▁While 100
▁son 100
▁2011 100
etwork 100
▁order 100
ivid 100
ither 100
mit 100
▁David 100
bur 100
oph 100
▁project 100
▁188 100
▁even 100
ention 100
▁press 100
▁2007 100
▁Hall 100
▁dest 100
▁mm 100
odes 100
▁Kingdom 100
▁available 100
▁park 100
▁cor 100
▁Ne 100
ript 100
▁Ser 100
ountain 100
▁Year 100
▁seven 100
ara 100
▁crew 100
▁title 100
omb 100
▁appeared 100
▁created 100
of 100
▁z 100
▁events 100
▁development 100
bridge 100
co 100
▁2009 100
▁base 100
▁George 100
▁Vir 100
▁signific 100
▁popular 100
back 100
▁fact 100
ask 100
lant 100
year 100
▁every 100
▁across 100
▁suggest 100
▁average 100
▁throughout 100
▁players 100
ops 100
less 100
isted 100
int 100
▁Sch 100
lic 100
por 100
▁sit 100
▁lost 100
▁Hol 100
▁real 100
▁position 100
▁arch 100
▁light 100
now 100
▁strong 100
▁activ 100
▁hy 100
eum 100
▁making 100
idd 100
▁Ox 100
▁ground 100
ising 100
▁With 100
▁coast 100
▁my 100
▁hon 100
▁Indian 100
ounc 100
▁Thom 100
▁histor 100
▁28 100
▁live 100
▁mult 100
lymp 100
▁notes 100
▁val 100
▁wrote 100
ensive 100
ope 100
ecut 100
▁Rober 100
▁ident 100
▁Olymp 100
ization 100
▁Paul 100
▁Black 100
▁Afric 100
▁influ 100
St 100
▁Australian 100
▁Michael 100
▁Canada 100
▁seen 100
ett 100
irl 100
▁Navy 100
▁cross 100
ead 100
▁nov 100
▁indic 100
▁Red 100
▁great 100
▁introd 100
▁attem 100
▁without 100
▁fr 100
igan 100
▁House 100
▁San 100
wood 100
▁Wash 100
▁26 100
esc 100
adem 100
▁Gener 100
▁opened 100
▁Port 100
iner 100
heast 100
face 100
▁ships 100
ming 100
▁returned 100
▁circ 100
unk 100
▁186 100
▁particular 100
▁tour 100
▁Oxford 100
rem 100
▁Some 100
▁cast 100
ze 100
lex 100
ells 100
aign 100
angu 100
▁further 100
▁Army 100
▁Division 100
most 100
▁process 100
▁Rich 100
▁grad 100
▁claim 100
▁point 100
▁Song 100
▁UK 100
cer 100
▁Dr 100
▁Mor 100
ville 100
▁Hist 100
▁pred 100
▁continued 100
ama 100
▁Russ 100
ellow 100
▁went 100
▁Qu 100
▁performance 100
ffic 100
ago 100
▁2006 100
ably 100
▁profess 100
▁includes 100
ogn 100
▁take 100
ination 100
▁Washington 100
▁example 100
▁playing 100
▁round 100
▁military 100
▁Ac 100
▁never 100
▁cult 100
▁mi 100
▁pain 100
▁rock 100
ishing 100
rap 100
epend 100
▁somet 100
▁significant 100
▁fac 100
▁Part 100
▁aircraft 100
roy 100
▁reached 100
▁months 100
elling 100
▁Other 100
▁Em 100
▁black 100
fall 100
▁married 100
nder 100
track 100
▁taken 100
▁College 100
... 100
SB 100
ien 100
▁Hot 100
▁2013 100
▁ins 100
▁fif 100
▁sour 100
▁arm 100
arent 100
▁host 100
ned 100
▁Tour 100
▁vict 100
▁test 100
▁sent 100
▁wife 100
ores 100
▁noted 100
ipp 100
rior 100
▁population 100
ica 100
▁polit 100
ee 100
▁belie 100
▁Atlant 100
oice 100
ouncil 100
▁Associ 100
ological 100
▁hurricane 100
▁started 100
▁generally 100
lear 100
▁points 100
2) 100
▁NY 100
idence 100
lished 100
ration 100
▁length 100
▁women 100
▁individ 100
▁region 100
▁completed 100
▁Ag 100
▁European 100
arter 100
▁control 100
▁fourth 100
▁contains 100
key 100
▁bo 100
▁obs 100
▁sym 100
earch 100
go 100
▁Gold 100
▁designed 100
ateg 100
▁signed 100
▁ren 100
▁estim 100
▁highest 100
▁Pe 100
oor 100
▁caused 100
▁$1 100
▁Sk 100
▁France 100
▁general 100
bor 100
▁Dep 100
ailed 100
▁Great 100
▁pur 100
▁modern 100
redits 100
emor 100
here 100
▁remained 100
▁Gro 100
▁mph 100
▁Highway 100
▁way 100
▁least 100
ators 100
▁earl 100
▁hold 100
▁northern 100
▁percent 100
▁broadcast 100
iber 100
▁First 100
▁aud 100
▁full 100
ida 100
omm 100
▁body 100
▁La 100
self 100
▁Virgin 100
▁rail 100
▁promot 100
▁Bel 100
orpor 100
▁Mary 100
▁Two 100
ream 100
▁White 100
▁respect 100
▁interest 100
atin 100
▁Cour 100
▁2010, 100
▁Squ 100
▁key 100
▁Pac 100
▁Hen 100
▁does 100
▁minutes 100
▁southern 100
▁mot 100
▁need 100
ements 100
▁brother 100
▁187 100
▁prem 100
▁right 100
orts 100
▁Mal 100
ills 100
▁31 100
amb 100
▁Val 100
▁2014 100
ximately 100
▁tradition 100
hib 100
aged 100
▁rain 100
▁depression 100
writ 100
▁Mex 100
▁instr 100
▁composed 100
▁runs 100
rag 100
artment 100
ris 100
▁author 100
iting 100
▁directed 100
▁’ 100
▁Most 100
inct 100
▁techn 100
unction 100
ground 100
▁important 100
▁Europe 100
ality 100
▁cost 100
▁Up 100
yr 100
erous 100
▁phot 100
▁established 100
▁(18 100
▁Res 100
▁impro 100
▁opening 100
ius 100
NA 100
▁Art 100
ivil 100
▁laun 100
▁bar 100
▁mater 100
▁works 100
▁largest 100
▁cat 100
▁der 100
rain 100
ma 100
▁fav 100
▁construction 100
▁damage 100
pped 100
▁debut 100
▁daugh 100
▁General 100
▁div 100
▁adapted 100
▁followed 100
▁white 100
▁listed 100
unn 100
▁Its 100
azine 100
▁read 100
▁suff 100
ociety 100
▁Film 100
▁Mil 100
oo 100
▁2011, 100
▁appearance 100
head 100
▁names 100
ump 100
▁Dan 100
ects 100
▁becom 100
ecutive 100
val 100
▁tre 100
igital 100
arch 100
▁Que 100
abor 100
▁Bay 100
SBN 100
rian 100
used 100
5) 100
▁2012, 100
▁Mart 100
▁ter 100
▁Church 100
ification 100
lin 100
▁proper 100
▁President 100
▁additional 100
▁Lou 100
▁mean 100
▁Island 100
▁Cap 100
▁teams 100
elt 100
▁Mag 100
▁Angel 100
▁mass 100
ways 100
▁section 100
▁discover 100
▁Ber 100
▁Rock 100
▁friend 100
▁Billboard 100
▁good 100
▁pract 100
like 100
▁stated 100
▁added 100
▁separ 100
▁treat 100
▁29 100
▁Ant 100
ify 100
vert 100
▁meas 100
▁either 100
▁weeks 100
▁training 100
▁Mad 100
▁front 100
leet 100
▁vill 100
sen 100
▁producer 100
olution 100
▁Robert 100
30 100
ume 100
▁scored 100
▁usually 100
▁replaced 100
▁500 100
sk 100
▁campaign 100
uel 100
aves 100
▁temper 100
▁business 100
▁inj 100
▁ISBN 100
▁Pacific 100
iter 100
▁Pat 100
▁recogn 100
▁approximately 100
oint 100
▁clos 100
gether 100
▁together 100
eh 100
▁Mark 100
ibr 100
aval 100
ference 100
▁coll 100
▁wood 100
che 100
▁Club 100
▁goal 100
▁worked 100
▁successful 100
▁battle 100
▁placed 100
▁island 100
▁tro 100
▁compos 100
▁surface 100
4) 100
▁material 100
▁Cambridge 100
▁coach 100
▁Association 100
mon 100
▁free 100
▁critics 100
▁should 100
▁international 100
rey 100
▁fem 100
ander 100
▁3: 100
bert 100
▁how 100
leg 100
cher 100
born 100
▁contract 100
▁viewers 100
pted 100
atural 100
▁provided 100
▁Star 100
▁capt 100
▁Green 100
▁offer 100
▁Met 100
men 100
▁central 100
3) 100
itor 100
fic 100
time 100
▁Flor 100
▁2009, 100
▁attempt 100
▁network 100
for 100
▁characters 100
▁diss 100
acy 100
omp 100
▁gave 100
van 100
vin 100
▁Virginia 100
aper 100
aries 100
▁Game 100
▁away 100
▁2013, 100
▁others 100
60 100
▁human 100
kn 100
ude 100
conom 100
▁inform 100
▁fig 100
▁subsequ 100
enes 100
▁Jos 100
1) 100
iec 100
▁Grand 100
▁contrib 100
ule 100
▁overall 100
▁Chic 100
▁loss 100
▁above 100
▁novel 100
▁sequ 100
▁invest 100
uter 100
▁Pal 100
▁wid 100
▁langu 100
hy 100
▁di 100
▁Don 100
▁1, 100
roll 100
▁Tra 100
arily 100
▁Michigan 100
20 100
ams 100
▁India 100
ss 100
ography 100
▁Sl 100
▁fire 100
▁regular 100
▁winds 100
▁except 100
▁fall 100
▁Day 100
▁tracks 100
anted 100
ressed 100
merc 100
▁2008, 100
▁ce 100
▁aut 100
▁2015 100
▁batt 100
▁exist 100
▁Follow 100
aut 100
▁arr 100
▁Court 100
▁style 100
iction 100
▁Ham 100
▁speed 100
▁case 100
▁help 100
rab 100
▁phys 100
▁joined 100
▁(5 100
▁students 100
▁Thomas 100
▁groups 100
▁To 100
ocial 100
▁frequ 100
▁study 100
▁Mo 100
▁educ 100
▁positive 100
FA 100
ounds 100
▁upon 100
▁Scott 100
▁mother 100
▁Bur 100
▁once 100
▁church 100
▁recording 100
ades 100
▁bass 100
▁Chicago 100
▁Ke 100
▁ly 100
▁Following 100
▁Mac 100
▁Since 100
▁Inter 100
erve 100
▁cut 100
▁Christian 100
▁employ 100
xt 100
▁Tex 100
eck 100
mar 100
▁bur 100
eated 100
class 100
▁distrib 100
▁Japanese 100
▁night 100
ston 100
▁multip 100
iff 100
chie 100
▁mer 100
▁episodes 100
-4 100
78 100
▁(" 100
▁edition 100
▁Brown 100
▁office 100
▁relations 100
▁eventually 100
▁From 100
▁find 100
▁access 100
▁travel 100
▁Frank 100
ena 100
▁food 100
iers 100
ules 100
▁stri 100
▁western 100
icle 100
load 100
▁sea 100
▁eastern 100
lor 100
▁2005 100
▁Alex 100
▁close 100
aps 100
eal 100
▁Tom 100
ums 100
ought 100
▁Peter 100
wh 100
▁Cr 100
▁decl 100
▁foc 100
ourn 100
▁radio 100
▁hit 100
atory 100
▁SR 100
ranch 100
▁studio 100
▁ord 100
▁Rob 100
anding 100
▁Sam 100
▁deg 100
▁score 100
▁Studios 100
▁indust 100
6) 100
▁community 100
erved 100
istic 100
▁Company 100
imum 100
▁Town 100
▁assist 100
▁killed 100
▁fund 100
▁parts 100
estival 100
oul 100
etic 100
itch 100
▁lik 100
iding 100
▁films 100
▁cyclone 100
▁insp 100
▁Center 100
ks 100
▁ide 100
otes 100
▁2004 100
▁reach 100
▁forces 100
aker 100
down 100
ential 100
▁Florida 100
▁Republic 100
▁remov 100
▁estimated 100
uis 100
▁Wil 100
lying 100
▁(198 100
▁Lake 100
▁2014, 100
▁spent 100
▁designated 100
be 100
▁feature 100
▁App 100
▁dou 100
anish 100
▁heavy 100
oney 100
▁Bra 100
▁2015, 100
▁Texas 100
▁pot 100
▁2007, 100
▁China 100
asing 100
▁Battle 100
▁countries 100
▁Kn 100
▁destroy 100
wer 100
hester 100
▁+ 100
ened 100
▁enc 100
▁Rail 100
▁bi 100
iqu 100
▁(6 100
▁Union 100
thlet 100
▁maintain 100
ha 100
uz 100
▁i 100
itz 100
rought 100
▁finished 100
▁35 100
▁Henry 100
▁comment 100
▁let 100
known 100
▁Atlantic 100
▁product 100
▁debuted 100
ems 100
▁Dist 100
▁Games 100
▁meet 100
▁ill 100
ceed 100
▁behind 100
▁possible 100
") 100
▁60 100
ique 100
▁Serv 100
▁transfer 100
▁Roman 100
▁God 100
9) 100
▁himself 100
▁previously 100
▁Mill 100
▁priv 100
▁via 100
▁Force 100
han 100
rown 100
▁dev 100
ency 100
▁hous 100
▁peaked 100
▁commerc 100
▁Football 100
▁doc 100
▁Rad 100
▁ball 100
uf 100
clus 100
▁Vict 100
▁Germany 100
▁hours 100
▁Sen 100
▁Richard 100
▁liner 100
ows 100
▁reviews 100
-3 100
▁sil 100
▁daughter 100
▁Los 100
▁professional 100
▁2000 100
▁Charles 100
▁pra 100
▁Canadian 100
▁Trans 100
▁awarded 100
▁units 100
▁services 100
▁miss 100
▁lower 100
▁working 100
ulf 100
▁league 100
de 100
▁rather 100
▁must 100
▁saw 100
ability 100
▁center 100
▁minor 100
▁shown 100
▁Sun 100
▁sometimes 100
▁Mer 100
▁director 100
rated 100
▁gold 100
., 100
ij 100
▁president 100
CA 100
orse 100
▁rev 100
▁arran 100
lo 100
▁Law 100
imate 100
▁conv 100
medi 100
▁hom 100
▁below 100
70 100
▁Academ 100
▁affect 100
ado 100
▁type 100
▁econom 100
▁Central 100
▁get 100
▁Smith 100
▁proble 100
part 100
," 100
▁associated 100
arn 100
▁Council 100
▁extended 100
asy 100
onn 100
▁CD 100
▁nine 100
▁Love 100
▁hard 100
▁attended 100
▁Im 100
▁lo 100
aled 100
▁Ter 100
stitute 100
aying 100
▁termin 100
▁leading 100
▁Hill 100
▁commission 100
tt 100
▁cal 100
▁involved 100
▁plann 100
ving 100
▁past 100
▁Govern 100
▁Mexico 100
▁action 100
▁ke 100
itte 100
teen 100
cean 100
▁Old 100
rics 100
▁wall 100
▁bill 100
▁date 100
▁shows 100
acing 100
asion 100
▁nominated 100
▁Super 100
▁instead 100
7) 100
▁Jim 100
aint 100
▁critic 100
▁inters 100
▁flow 100
▁copies 100
▁states 100
▁structure 100
ship 100
▁spe 100
▁premi 100
▁account 100
cle 100
enty 100
ites 100
enth 100
▁far 100
▁ranked 100
▁respons 100
edy 100
▁lack 100
▁Records 100
▁related 100
▁flag 100
▁bridge 100
umn 100
▁Camp 100
▁Museum 100
restling 100
▁put 100
stant 100
▁summer 100
▁Ir 100
uated 100
▁little 100
▁earlier 100
▁pressure 100
odies 100
viron 100
▁altern 100
▁Team 100
▁aired 100
▁almost 100
▁location 100
▁Enter 100
▁kil 100
▁Fort 100
▁Jackson 100
▁thought 100
can 100
icles 100
▁Credits 100
▁soundtrack 100
irth 100
▁McC 100
umber 100
rd 100
▁2, 100
▁appears 100
ption 100
▁creat 100
oys 100
bers 100
▁che 100
▁elements 100
▁currently 100
enced 100
▁according 100
▁ever 100
▁size 100
▁Do 100
▁active 100
▁outside 100
40 100
adium 100
▁wide 100
▁change 100
▁Sea 100
▁Cross 100
ibility 100
▁larger 100
▁beginning 100
ospital 100
▁rat 100
▁2006, 100
abit 100
uture 100
▁streng 100
▁limited 100
▁kg 100
▁Ben 100
▁Just 100
▁Western 100
iano 100
▁able 100
asc 100
▁Out 100
▁train 100
▁research 100
AS 100
▁Earth 100
▁surround 100
▁stage 100
▁increased 100
80 100
▁2012. 100
tainment 100
reed 100
▁2003 100
▁bird 100
▁Second 100
▁market 100
▁parent 100
8) 100
burg 100
▁Desp 100
wide 100
▁forest 100
▁relationship 100
den 100
▁Sal 100
▁box 100
▁intens 100
era 100
isk 100
▁complex 100
ift 100
▁Histor 100
▁annual 100
▁magazine 100
▁cm 100
▁guns 100
▁selected 100
rie 100
▁Cont 100
▁reve 100
▁word 100
ibrary 100
▁(9 100
▁Big 100
minist 100
▁itself 100
iles 100
ficult 100
▁Africa 100
▁cou 100
elled 100
▁Go 100
▁achie 100
-0 100
▁viol 100
▁quarter 100
▁initially 100
ointed 100
▁respectively 100
▁32 100
▁Group 100
▁slow 100
ilities 100
▁assigned 100
▁Fox 100
ecially 100
berg 100
▁2010. 100
▁4: 100
oring 100
▁remains 100
rel 100
▁mixed 100
olk 100
▁arg 100
▁Over 100
▁meth 100
oid 100
oke 100
▁eff 100
▁prior 100
▁difficult 100
eph 100
▁Class 100
▁entered 100
▁meaning 100
▁introduced 100
ples 100
isher 100
▁writing 100
▁< 100
▁tourn 100
▁mostly 100
▁political 100
▁Carol 100
omer 100
▁dise 100
ension 100
▁determ 100
▁effects 100
especially 100
anks 100
▁Bow 100
aches 100
▁breed 100
▁higher 100
▁Academy 100
ona 100
order 100
▁earned 100
▁see 100
▁Wood 100
ani 100
▁lab 100
▁victory 100
het 100
▁abs 100
▁model 100
bury 100
▁tons 100
▁independ 100
▁Penn 100
10 100
ils 100
▁Bet 100
▁Sever 100
▁Victor 100
ended 100
▁commercial 100
ady 100
▁fifth 100
atively 100
▁object 100
▁(7 100
▁36 100
▁Miss 100
▁force 100
▁amount 100
▁primary 100
▁sem 100
porary 100
▁ended 100
▁believed 100
ederal 100
▁Under 100
▁social 100
▁towards 100
inese 100
▁allowed 100
▁45 100
▁complete 100
▁ox 100
ste 100
▁Tor 100
▁theat 100
▁referred 100
unt 100
uled 100
▁pen 100
▁Despite 100
▁fort 100
▁Society 100
▁Tw 100
▁reb 100
▁Kore 100
▁Del 100
▁Line 100
upt 100
iest 100
▁variety 100
ype 100
▁subject 100
▁evidence 100
bit 100
alled 100
ournal 100
▁board 100
▁Nort 100
ecess 100
▁look 100
▁norm 100
▁2011. 100
▁Angeles 100
▁Greek 100
airs 100
▁Many 100
▁roll 100
▁quick 100
formula 100
▁college 100
▁required 100
rat 100
▁decided 100
▁Arch 100
▁brought 100
▁information 100
▁particularly 100
inent 100
itect 100
ership 100
ounter 100
▁provide 100
▁distinct 100
oe 100
▁Je 100
itation 100
hold 100
house 100
▁webs 100
ili 100
itors 100
▁natural 100
arian 100
▁Louis 100
▁turned 100
▁running 100
ux 100
hood 100
▁Pet 100
▁nar 100
ita 100
▁Book 100
▁launched 100
▁touch 100
▁connect 100
▁collection 100
▁lyrics 100
ittee 100
▁occup 100
▁passeng 100
▁numerous 100
▁especially 100
▁aff 100
uments 100
▁Department 100
sy 100
▁49 100
inner 100
right 100
▁Scot 100
etball 100
▁cause 100
▁screen 100
vironment 100
urs 100
▁Des 100
▁Martin 100
▁prob 100
▁vocal 100
▁rights 100
▁185 100
▁text 100
▁dro 100
venue 100
▁Latin 100
▁becoming 100
▁80 100
▁Ann 100
▁anal 100
ending 100
▁lines 100
▁planet 100
rief 100
▁uses 100
▁3, 100
ider 100
▁max 100
▁vir 100
▁buildings 100
ingu 100
▁winning 100
emorial 100
bol 100
idents 100
▁fight 100
▁attend 100
▁regard 100
▁follows 100
▁Off 100
▁Cast 100
▁piec 100
ires 100
▁Prod 100
▁Album 100
▁numbers 100
▁village 100
▁document 100
TV 100
lebr 100
▁threat 100
▁schools 100
ye 100
olf 100
▁qual 100
atives 100
▁reason 100
▁trib 100
▁ran 100
▁Chart 100
▁court 100
▁private 100
well 100
▁pil 100
▁artist 100
▁Spanish 100
▁Georg 100
▁singer 100
▁TV 100
▁Bob 100
▁super 100
▁awards 100
▁Ev 100
▁esc 100
▁Dem 100
▁deep 100
▁plant 100
▁constructed 100
▁Both 100
▁inches 100
▁90 100
adron 100
▁means 100
▁relig 100
bre 100
▁4, 100
▁scene 100
aily 100
▁categ 100
▁sales 100
▁background 100
rac 100
▁Hel 100
▁2002 100
▁Fore 100
▁table 100
▁complet 100
oma 100
ayer 100
▁sex 100
▁goals 100
▁commonly 100
ains 100
▁und 100
▁rare 100
▁2009. 100
▁70 100
▁flood 100
▁space 100
band 100
▁anc 100
▁media 100
ware 100
▁individual 100
ears 100
▁BBC 100
▁neg 100
▁veh 100
▁1990 100
ada 100
incip 100
▁manager 100
bon 100
▁Sil 100
mpire 100
▁log 100
▁Matt 100
▁king 100
wing 100
▁Spec 100
▁Franc 100
▁Direct 100
▁specific 100
▁discovered 100
yard 100
▁300 100
▁Ital 100
▁drums 100
▁taking 100
▁standard 100
ror 100
▁34 100
iled 100
mark 100
▁carried 100
▁consists 100
▁transport 100
▁competition 100
-9 100
▁Mont 100
▁chap 100
eather 100
▁block 100
▁party 100
▁metres 100
imet 100
▁Britain 100
ulated 100
▁musical 100
oud 100
ises 100
▁Mel 100
▁too 100
▁Chris 100
▁sister 100
▁acqu 100
▁stars 100
▁Several 100
▁Kent 100
-8 100
ette 100
▁2008. 100
▁purch 100
▁Chinese 100
▁download 100
rial 100
▁Haw 100
bo 100
▁Add 100
▁featuring 100
): 100
MS 100
▁sch 100
▁whom 100
ply 100
ctor 100
isl 100
liam 100
▁iron 100
▁guest 100
▁issue 100
enc 100
rama 100
▁rap 100
▁deal 100
change 100
▁river 100
nel 100
▁Press 100
▁interview 100
▁health 100
▁retired 100
▁Ill 100
▁2001 100
▁Another 100
enant 100
onstr 100
▁2013. 100
▁But 100
▁Sat 100
▁issued 100
ria 100
▁whose 100
bed 100
▁33 100
ergy 100
▁brief 100
▁operated 100
liament 100
▁centre 100
▁method 100
▁founded 100
unic 100
shire 100
▁Service 100
▁Tim 100
▁Win 100
▁hot 100
▁certain 100
▁continu 100
uke 100
▁prevent 100
▁Wales 100
ya 100
sel 100
▁Ro 100
▁smaller 100
▁passed 100
▁District 100
fl 100
ken 100
▁2014. 100
▁course 100
▁square 100
▁multiple 100
annel 100
▁keep 100
▁participated 100
▁(8 100
▁Gi 100
bour 100
▁2007. 100
▁consist 100
▁Zeal 100
▁Young 100
▁enter 100
▁System 100
▁changed 100
▁appointed 100
▁Sol 100
▁Women 100
▁longer 100
▁produce 100
II 100
apore 100
▁grand 100
▁covered 100
ube 100
ties 100
▁Like 100
▁confir 100
▁stations 100
▁den 100
▁equip 100
▁forms 100
▁react 100
▁slight 100
▁twenty 100
▁Ol 100
uals 100
mitted 100
▁Party 100
▁Rev 100
reater 100
▁Sport 100
▁adult 100
▁cerem 100
▁championship 100
reme 100
▁proposed 100
imin 100
onse 100
orps 100
▁removed 100
▁conditions 100
ym 100
▁1980 100
▁move 100
▁III 100
▁Midd 100
▁theme 100
rid 100
atch 100
▁disp 100
▁shot 100
▁raised 100
▁rating 100
▁traditional 100
▁investig 100
oir 100
▁Mic 100
▁exc 100
▁ride 100
▁changes 100
▁architect 100
dle 100
▁(0 100
▁don 100
▁gra 100
▁Swed 100
▁nearly 100
▁status 100
use 100
edic 100
▁sched 100
▁female 100
-19 100
hing 100
ether 100
▁increase 100
▁majority 100
▁£ 100
▁Cor 100
▁Vol 100
echan 100
▁enough 100
▁marked 100
▁Tropical 100
▁Cong 100
▁Cons 100
▁Zealand 100
▁Olympics 100
▁Bu 100
▁Sur 100
alion 100
▁titled 100
▁focus 100
▁future 100
▁website 100
▁language 100
bl 100
ero 100
▁ge 100
ittle 100
▁Creek 100
▁cases 100
pass 100
istics 100
▁weaken 100
standing 100
▁Mountain 100
▁tournament 100
kins 100
▁Way 100
▁jud 100
▁sus 100
ersey 100
awn 100
ota 100
▁unit 100
▁Summer 100
▁sevent 100
ervation 100
▁That 100
▁poor 100
reland 100
-5 100
▁likely 100
▁records 100
▁1970 100
▁farm 100
▁genus 100
▁better 100
▁mention 100
▁movement 100
▁education 100
▁tax 100
iders 100
▁cann 100
▁link 100
▁Columb 100
▁closed 100
ras 100
oses 100
▁pers 100
▁accomp 100
▁Entertainment 100
▁Rh 100
▁Bus 100
▁latter 100
▁display 100
room 100
▁Sar 100
▁dom 100
▁Sound 100
▁75 100
▁Live 100
▁compared 100
▁Series 100
▁Os 100
based 100
▁come 100
▁Times 100
▁thick 100
▁portion 100
▁rainfall 100
agn 100
▁Jones 100
▁quest 100
▁living 100
▁kilomet 100
▁184 100
ockey 100
▁source 100
▁primarily 100
-6 100
oted 100
▁Dou 100
▁imm 100
▁exhib 100
▁elected 100
mas 100
agon 100
▁fans 100
▁foot 100
▁know 100
▁immedi 100
▁systems 100
hi 100
▁Dis 100
▁Inf 100
▁exam 100
BA 100
▁41 100
▁love 100
▁Tur 100
▁digital 100
gl 100
een 100
▁Valley 100
▁Airport 100
▁electric 100
▁Mass 100
▁Queen 100
▁scenes 100
▁division 100
ands 100
▁trains 100
ieut 100
▁Max 100
▁staff 100
▁upper 100
▁waters 100
▁Johnson 100
▁seconds 100
▁response 100
▁# 100
erry 100
antry 100
▁Wind 100
▁transl 100
▁Rem 100
▁dissip 100
▁mountain 100
ocr 100
▁Edward 100
▁Southern 100
cel 100
▁$2 100
▁civil 100
aded 100
▁Batt 100
▁disease 100
▁Cur 100
overs 100
▁(197 100
▁levels 100
▁occurred 100
dro 100
ked 100
▁liter 100
▁Festival 100
▁Time 100
▁celebr 100
za 100
onic 100
itude 100
▁issues 100
▁Ireland 100
▁initial 100
▁Hurricane 100
▁Top 100
▁writer 100
▁Gar 100
▁Pan 100
▁Mike 100
▁heav 100
▁create 100
▁adop 100
▁prec 100
▁represented 100
▁sat 100
▁applic 100
ously 100
▁thus 100
▁Major 100
ieutenant 100
▁subsequently 100
ishop 100
ufact 100
▁chem 100
▁books 100
▁How 100
▁Each 100
▁cell 100
▁feed 100
▁gross 100
▁county 100
▁intern 100
▁ver 100
level 100
▁begins 100
▁Long 100
▁defeat 100
▁defeated 100
▁officially 100
mond 100
▁Tri 100
rison 100
▁Order 100
▁blood 100
▁remaining 100
US 100
rast 100
▁Fred 100
▁desp 100
▁prote 100
▁Olympic 100
▁If 100
aped 100
olic 100
▁Pri 100
▁blue 100
▁terms 100
anes 100
▁Four 100
▁stop 100
ka 100
inem 100
▁Mur 100
▁Lord 100
▁BC 100
rying 100
▁thir 100
▁compan 100
▁tar 100
▁Russian 100
▁discuss 100
▁songwrit 100
▁northeast 100
▁share 100
▁bodies 100
▁ang 100
▁self 100
▁Three 100
▁degree 100
▁39 100
▁sen 100
aught 100
▁matches 100
▁provides 100
pe 100
▁scient 100
▁Singapore 100
▁55 100
▁Hy 100
ails 100
illa 100
▁Fin 100
▁metal 100
▁voice 100
▁environment 100
ii 100
▁Oh 100
▁sal 100
▁green 100
▁37 100
ready 100
▁district 100
uries 100
▁seasons 100
▁Bec 100
▁nuc 100
▁birth 100
▁Italian 100
▁5, 100
▁fruit 100
▁piano 100
▁sports 100
aring 100
▁1960 100
▁plays 100
▁Empire 100
▁failed 100
▁concern 100
▁2015. 100
▁Ma 100
ylvan 100
▁owned 100
▁symbol 100
▁appearances 100
state 100
▁Wall 100
▁break 100
unity 100
utions 100
▁honor 100
▁energy 100
stitution 100
▁versions 100
light 100
▁Bridge 100
▁nearby 100
▁election 100
▁Us 100
▁mach 100
▁yards 100
▁double 100
▁nature 100
▁maximum 100
road 100
▁10, 100
▁Pop 100
▁pit 100
▁clear 100
▁planned 100
▁treatment 100
phy 100
ault 100
▁Cro 100
▁Mix 100
▁mainly 100
▁unknown 100
▁worldwide 100
Ch 100
umed 100
▁Not 100
▁sum 100
▁moving 100
▁temperature 100
ares 100
utch 100
ysis 100
▁Den 100
▁More 100
▁army 100
▁data 100
▁2005, 100
▁athlet 100
▁helped 100
); 100
oper 100
▁Step 100
▁quickly 100
▁experience 100
▁give 100
▁favor 100
▁Williams 100
▁Tro 100
iences 100
▁typically 100
▁Orig 100
▁Songs 100
▁industry 100
rical 100
▁consider 100
▁* 100
▁acid 100
▁Night 100
▁takes 100
▁Scotland 100
▁Def 100
▁fit 100
▁sout 100
▁bomb 100
▁activity 100
▁WW 100
ections 100
▁baseball 100
udd 100
▁op 100
ogue 100
AA 100
ips 100
▁FI 100
▁backing 100
▁sources 100
▁practice 100
▁Sir 100
ighter 100
▁science 100
▁separate 100
eath 100
ully 100
istry 100
▁emer 100
▁girl 100
▁risk 100
▁neigh 100
▁remix 100
▁leaving 100
ican 100
▁14, 100
▁cred 100
osition 100
▁police 100
▁student 100
▁reference 100
▁Jon 100
▁1930 100
ging 100
▁fir 100
▁path 100
ala 100
ees 100
osing 100
▁fleet 100
▁habit 100
ylvania 100
▁already 100
▁traffic 100
▁Institute 100
▁42 100
▁Jeff 100
▁pick 100
▁Saint 100
▁transferred 100
gian 100
▁rate 100
▁revealed 100
urity 100
▁soon 100
▁makes 100
▁serve 100
▁Sov 100
ector 100
▁fung 100
▁Their 100
ella 100
▁dark 100
iation 100
▁bound 100
▁newsp 100
▁Univers 100
icy 100
▁Er 100
arden 100
▁color 100
▁starting 100
ims 100
osen 100
▁Lee 100
▁Form 100
▁Record 100
▁mission 100
▁suggested 100
ato 100
▁Joseph 100
▁mechan 100
▁nation 100
▁operations 100
▁schol 100
▁38 100
▁Ha 100
▁Che 100
▁Sub 100
▁Life 100
▁Radio 100
▁plants 100
▁Ap 100
▁Mov 100
▁cells 100
ola 100
▁Prem 100
▁conver 100
▁engineer 100
▁intended 100
itan 100
ampion 100
▁Ram 100
▁bask 100
▁dead 100
▁lived 100
▁room 100
▁weight 100
▁Addition 100
▁directly 100
▁Gra 100
▁ens 100
osaur 100
▁flight 100
▁function 100
▁supported 100
▁Wal 100
▁Oper 100
▁trees 100
ulations 100
▁claimed 100
▁183 100
▁rapid 100
▁Georgia 100
▁personal 100
▁15, 100
▁fish 100
▁Ocean 100
▁reflect 100
▁whether 100
▁terminus 100
▁So 100
cend 100
▁Final 100
▁albums 100
osis 100
ordin 100
▁Carl 100
▁territ 100
▁concert 100
▁43 100
anna 100
icted 100
▁done 100
▁Corps 100
▁ordered 100
▁observed 100
ban 100
pro 100
win 100
▁12, 100
▁purp 100
▁Cath 100
▁fast 100
▁susp 100
emporary 100
▁ult 100
▁2016 100
▁Elect 100
▁7, 100
▁cand 100
▁railway 100
▁problems 100
apt 100
▁Mod 100
▁Tod 100
▁Penns 100
▁yellow 100
▁contest 100
▁property 100
▁180 100
▁big 100
▁colon 100
▁Carolina 100
▁11, 100
▁saying 100
▁animals 100
ignment 100
▁require 100
▁8, 100
hers 100
hips 100
▁Ret 100
lines 100
antasy 100
▁African 100
yan 100
▁Mr 100
▁Hon 100
▁despite 100
▁probably 100
▁Pre 100
▁ending 100
▁obtain 100
▁praised 100
▁manufact 100
alle 100
▁pay 100
verse 100
▁Girl 100
▁Manc 100
▁divided 100
▁administ 100
▁Home 100
▁Colon 100
▁capac 100
▁recomm 100
ivity 100
▁Fame 100
▁felt 100
▁laid 100
▁woman 100
hat 100
see 100
▁Pen 100
riage 100
▁Because 100
▁magn 100
Americ 100
▁Arab 100
▁Show 100
▁cities 100
▁relatively 100
rect 100
▁nin 100
▁pow 100
▁plat 100
▁Light 100
▁words 100
kend 100
anded 100
▁Coast 100
▁battles 100
eld 100
pson 100
▁13, 100
▁saf 100
▁Middle 100
▁recent 100
▁results 100
▁presence 100
▁touchdown 100
▁Pennsylvania 100
ables 100
uation 100
▁Steve 100
0) 100
▁6, 100
▁181 100
▁lif 100
▁mur 100
▁seg 100
ulted 100
▁Care 100
▁Race 100
▁Avenue 100
▁middle 100
▁Congress 100
igade 100
▁Boat 100
▁singles 100
▁Northern 100
▁sn 100
ighth 100
undred 100
▁prison 100
▁offered 100
▁intersection 100
▁Found 100
▁leader 100
▁slightly 100
ronic 100
▁incorpor 100
ibly 100
▁Bre 100
▁instrument 100
▁Ell 100
aging 100
isions 100
▁Storm 100
▁Cy 100
▁walk 100
▁plans 100
▁Little 100
▁48 100
gely 100
▁18, 100
▁Ohio 100
▁Square 100
omy 100
▁47 100
▁400 100
▁inn 100
inson 100
▁Blue 100
▁Conn 100
▁synt 100
ession 100
vement 100
▁rough 100
▁Prince 100
uty 100
▁Stan 100
▁fail 100
▁Civil 100
▁going 100
▁designation 100
▁Italy 100
▁houses 100
▁attract 100
▁weather 100
▁inspired 100
▁Men 100
▁hour 100
▁shoot 100
▁widely 100
▁northwest 100
▁commissioned 100
▁dog 100
▁watch 100
resh 100
▁978 100
▁Boy 100
▁wanted 100
▁suffered 100
imens 100
rance 100
uting 100
▁male 100
▁dedic 100
▁heart 100
▁money 100
▁identified 100
▁du 100
▁20, 100
▁Asia 100
▁movie 100
▁occurs 100
▁recover 100
gs 100
▁46 100
amin 100
▁21, 100
▁Exp 100
▁medal 100
▁Singles 100
▁princip 100
then 100
▁1998 100
▁shark 100
▁museum 100
alo 100
itt 100
stein 100
▁2006. 100
▁reduced 100
▁studies 100
stone 100
▁draw 100
▁sixth 100
▁distance 100
▁25, 100
▁News 100
▁2004, 100
Station 100
met 100
▁confirmed 100
▁Of 100
▁types 100
▁Wrestling 100
iana 100
unior 100
▁beat 100
▁Later 100
raw 100
▁Eliz 100
▁Sant 100
▁bank 100
▁sett 100
▁Andrew 100
▁Before 100
▁Islands 100
azz 100
▁Dam 100
▁Tay 100
▁Soviet 100
▁direction 100
FL 100
aug 100
ental 100
eds 100
lam 100
sych 100
uate 100
▁gas 100
▁airport 100
▁approach 100
▁Recording 100
▁vo 100
▁bow 100
▁master 100
▁decision 100
▁continues 100
▁basketball 100
▁PlayStation 100
▁16, 100
▁Due 100
▁cust 100
▁diam 100
▁forced 100
▁largely 100
ba 100
▁Mir 100
▁Tre 100
arters 100
▁troops 100
▁concept 100
▁17, 100
▁Jes 100
▁tur 100
astic 100
▁older 100
iral 100
▁serving 100
▁establish 100
▁Manchester 100
-7 100
ih 100
adel 100
▁2016, 100
▁assistant 100
och 100
itiz 100
▁mic 100
abeth 100
itled 100
selves 100
▁impact 100
▁themselves 100
▁2: 100
▁bene 100
ective 100
▁Jersey 100
▁ability 100
▁parents 100
uro 100
long 100
▁Corn 100
▁Charl 100
▁earth 100
▁campus 100
▁ap 100
▁27, 100
▁Bat 100
▁Ten 100
▁Van 100
▁rang 100
▁dance 100
▁serves 100
▁operation 100
▁Head 100
▁anti 100
isation 100
▁resulted 100
ayed 100
estic 100
▁tree 100
▁sides 100
col 100
ekend 100
▁vess 100
▁wild 100
▁adapt 100
▁depart 100
▁Special 100
▁content 100
▁presented 100
▁dropped 100
▁pattern 100
▁Commission 100
▁university 100
▁organization 100
ini 100
rier 100
▁Gal 100
▁oil 100
▁Kenn 100
▁Post 100
▁horse 100
ias 100
▁Nin 100
▁flu 100
▁expected 100
▁keyboard 100
▁platform 100
▁Battalion 100
▁alongside 100
▁responsible 100
BS 100
ua 100
eway 100
▁whole 100
▁financ 100
war 100
▁lb 100
▁28, 100
▁Jud 100
inois 100
▁Upon 100
▁idea 100
▁always 100
▁figures 100
hew 100
ancy 100
▁mel 100
▁sust 100
▁Irish 100
▁today 100
▁Public 100
▁billion 100
▁Committee 100
▁Arm 100
omers 100
▁chor 100
▁Water 100
▁combined 100
onents 100
▁Engine 100
▁settle 100
ky 100
imal 100
▁stories 100
▁distingu 100
HL 100
ugg 100
isco 100
obile 100
▁Bost 100
▁corn 100
▁face 100
▁mush 100
▁Squadron 100
▁Conference 100
aved 100
range 100
▁9, 100
▁Blu 100
▁19, 100
▁Mot 100
▁job 100
▁1999 100
▁Wild 100
▁tend 100
lement 100
▁greater 100
▁independent 100
▁Lew 100
regon 100
▁spring 100
▁Illinois 100
usic 100
▁extend 100
▁element 100
▁Christmas 100
▁increasing 100
▁. 100
▁26, 100
▁Ray 100
▁bul 100
▁Nick 100
▁Stephen 100
▁= 100
▁(196 100
▁legal 100
▁Daniel 100
nam 100
acter 100
rolled 100
▁Digital 100
▁captain 100
▁portray 100
▁contained 100
illy 100
▁Good 100
▁online 100
▁theory 100
▁Library 100
▁influence 100
▁individuals 100
In 100
▁Jr 100
▁buried 100
▁highly 100
▁officer 100
▁179 100
▁Cat 100
▁asp 100
▁Main 100
▁sand 100
▁Heart 100
▁tower 100
▁candid 100
▁native 100
▁Railway 100
▁Jul 100
▁Work 100
▁Writ 100
▁fell 100
▁household 100
box 100
worth 100
▁Only 100
▁steel 100
▁trail 100
irit 100
▁soft 100
▁twice 100
ription 100
ny 100
bro 100
hol 100
nes 100
▁Jew 100
▁Gram 100
▁52 100
▁53 100
rael 100
▁22, 100
▁yet 100
▁label 100
▁kilometres 100
outs 100
illed 100
▁bring 100
▁federal 100
▁destroyed 100
onna 100
▁roy 100
▁arms 100
▁Liber 100
imb 100
aven 100
▁Chap 100
perial 100
▁trade 100
▁Oregon 100
▁Maryland 100
▁Victoria 100
▁24, 100
▁30, 100
▁Dev 100
▁Fer 100
▁Kr 100
acks 100
▁Mid 100
▁Rog 100
▁uns 100
▁Pict 100
▁stone 100
▁Golden 100
▁Sports 100
▁la 100
ping 100
▁wave 100
▁might 100
▁Secret 100
▁affected 100
▁51 100
ients 100
▁ends 100
▁pair 100
vention 100
▁defined 100
▁Columbia 100
▁Regiment 100
▁potential 100
da 100
zil 100
gend 100
resp 100
izing 100
onent 100
▁arrang 100
▁frequently 100
▁hill 100
atures 100
▁2003, 100
▁birds 100
▁border 100
▁journal 100
▁univers 100
▁officers 100
la 100
iger 100
chest 100
ource 100
urban 100
▁Field 100
▁Person 100
▁medical 100
gar 100
▁MD 100
pper 100
ryst 100
ening 100
▁audio 100
▁captured 100
▁54 100
▁Av 100
▁spl 100
orning 100
▁senior 100
▁programs 100
▁activities 100
ki 100
▁Rod 100
▁Sand 100
▁damaged 100
▁Minister 100
▁capacity 100
▁immediately 100
ta 100
edo 100
ario 100
▁Det 100
▁Mat 100
▁adj 100
▁lic 100
▁Spain 100
▁Premier 100
▁formation 100
▁premiered 100
▁Ver 100
ograp 100
▁Paris 100
▁hydro 100
uration 100
▁forward 100
▁passing 100
▁Pot 100
ilies 100
inger 100
▁batter 100
▁ratings 100
▁physical 100
▁resulting 100
zy 100
emy 100
▁Joe 100
lection 100
▁illust 100
▁Captain 100
▁notable 100
▁locations 100
▁classified 100
▁performances 100
ads 100
▁64 100
▁Sa 100
▁legisl 100
Th 100
oned 100
aming 100
water 100
▁1997 100
▁Taylor 100
▁Base 100
▁Mount 100
▁moder 100
▁Boston 100
▁growth 100
▁culture 100
▁companies 100
▁conducted 100
ests 100
itage 100
▁inte 100
▁prep 100
▁domin 100
century 100
▁History 100
▁competed 100
▁Elizabeth 100
▁Are 100
▁sport 100
▁search 100
▁Gre 100
▁ast 100
▁row 100
▁reaching 100
ura 100
▁Bowl 100
▁Fleet 100
▁Philipp 100
▁residents 100
uns 100
▁paper 100
▁Eastern 100
▁capital 100
▁weekend 100
▁consecutive 100
yph 100
umes 100
▁23, 100
▁Bor 100
▁Die 100
▁Bach 100
▁drug 100
iot 100
oura 100
athan 100
▁1920 100
ifying 100
oration 100
▁Office 100
▁injury 100
▁DE 100
▁Bul 100
▁Ros 100
▁Six 100
burgh 100
▁swim 100
▁animal 100
▁Government 100
▁maintained 100
90 100
yes 100
▁44 100
prod 100
▁Mah 100
▁syn 100
▁cert 100
▁pric 100
▁2016. 100
▁Clark 100
▁Stone 100
acement 100
▁winter 100
▁Parliament 100
▁engineering 100
iced 100
onia 100
▁Dar 100
▁hol 100
▁opt 100
▁Gall 100
▁pilot 100
▁meeting 100
▁strength 100
▁executive 100
▁mentioned 100
▁surrounding 100
▁distribution 100
fit 100
▁Hum 100
▁Lar 100
▁Norm 100
cepted 100
ocated 100
▁Brian 100
▁Chief 100
▁Historic 100
▁58 100
elve 100
eman 100
▁Ash 100
▁Str 100
thing 100
▁hall 100
▁Medal 100
▁Israel 100
▁Station 100
▁hundred 100
▁measure 100
▁condition 100
eral 100
izes 100
▁150 100
▁lay 100
▁pal 100
▁Key 100
▁plot 100
▁prin 100
▁Alexander 100
▁management 100
▁Po 100
with 100
▁mor 100
mouth 100
▁drop 100
▁floor 100
▁advert 100
▁regions 100
▁collabor 100
ager 100
istan 100
▁normal 100
uer 100
▁ring 100
▁meters 100
▁1996 100
▁Beat 100
▁critical 100
iny 100
usc 100
more 100
rich 100
▁Bad 100
▁Tem 100
▁ice 100
▁2000, 100
▁Brazil 100
▁necess 100
▁severe 100
mile 100
wich 100
ading 100
▁Minn 100
ricket 100
▁asked 100
▁concent 100
▁acquired 100
▁ceremony 100
▁Transport 100
▁religious 100
▁scheduled 100
aga 100
▁wear 100
mission 100
▁branch 100
gers 100
▁Far 100
▁Jer 100
▁ven 100
▁told 100
rovers 100
▁Holly 100
▁conclud 100
▁Scottish 100
▁attention 100
▁har 100
▁2005. 100
▁sites 100
▁artists 100
▁56 100
omot 100
▁Wat 100
ester 100
iance 100
psons 100
▁1950 100
▁exclus 100
▁derived 100
▁declared 100
▁prominent 100
▁selection 100
▁^ 100
riz 100
▁FA 100
▁Dun 100
▁sle 100
▁cold 100
▁drama 100
▁Ok 100
▁Bell 100
ansion 100
leased 100
▁behav 100
▁draft 100
▁foreign 100
▁occasion 100
▁promoted 100
▁Ul 100
▁Hard 100
▁royal 100
▁passes 100
▁synthes 100
)" 100
▁graph 100
▁academ 100
▁couple 100
▁managed 100
aka 100
vis 100
▁Ly 100
▁cas 100
olved 100
▁shortly 100
▁Simpsons 100
▁accident 100
▁Inc 100
▁calc 100
istered 100
▁mixing 100
▁spread 100
▁target 100
▁watched 100
▁Lieutenant 100
no 100
uls 100
▁65 100
▁giving 100
▁inside 100
▁roller 100
▁script 100
▁Catholic 100
lan 100
▁600 100
▁cam 100
anced 100
▁Arts 100
▁Techn 100
▁figure 100
▁restaur 100
▁collected 100
▁organized 100
▁− 100
▁Luc 100
▁Brad 100
▁Burn 100
▁weap 100
▁chall 100
quarters 100
▁hospital 100
▁Fre 100
gency 100
▁Video 100
ressive 100
oust 100
▁Ott 100
oured 100
▁Kong 100
adelph 100
▁daily 100
▁think 100
▁islands 100
▁scoring 100
▁Bas 100
▁Land 100
▁rules 100
▁squad 100
▁Norway 100
▁Spring 100
▁dissipated 100
thur 100
▁god 100
▁elev 100
▁vehicles 100
joy 100
▁Greg 100
▁lives 100
▁quality 100
19 100
ima 100
▁height 100
▁Fantasy 100
obal 100
▁Band 100
▁Sund 100
asters 100
season 100
▁chosen 100
▁showed 100
▁arrived 100
▁subsequent 100
iant 100
opes 100
▁fan 100
inary 100
▁feel 100
▁stra 100
▁Dutch 100
▁Power 100
▁Castle 100
▁oldest 100
▁winner 100
iversary 100
rm 100
book 100
▁Kel 100
ottom 100
▁pack 100
western 100
▁Indiana 100
▁dedicated 100
▁Lo 100
▁Leg 100
▁defin 100
▁value 100
▁× 100
ocal 100
▁29, 100
▁Anth 100
▁southwest 100
▁containing 100
rad 100
▁reports 100
▁poll 100
▁thous 100
ographic 100
▁defense 100
▁seventh 100
▁allowing 100
▁structures 100
awa 100
ender 100
▁Your 100
▁grew 100
▁Lewis 100
▁Colonel 100
ora 100
▁Bab 100
▁rhy 100
eller 100
iring 100
▁Publ 100
▁actor 100
▁comes 100
▁withd 100
▁letter 100
▁consisted 100
inch 100
iform 100
▁Tech 100
unicip 100
▁Board 100
▁ancient 100
▁demonstr 100
▁Philadelph 100
▁historical 100
put 100
onds 100
▁soldiers 100
lers 100
ownt 100
vest 100
▁inh 100
▁rot 100
▁Walk 100
▁dates 100
▁Network 100
▁audience 100
TC 100
ker 100
etts 100
▁Cop 100
▁1995 100
▁Korea 100
▁mount 100
▁secret 100
▁disturb 100
▁studied 100
▁controvers 100
ira 100
onus 100
▁Kar 100
▁hyp 100
▁upgr 100
▁funct 100
▁constit 100
▁accompan 100
▁Ep 100
king 100
akers 100
inity 100
▁fresh 100
▁paralle 100
anda 100
fess 100
▁End 100
▁cle 100
orses 100
▁citiz 100
▁charts 100
▁observ 100
▁marriage 100
amm 100
▁hun 100
▁thr 100
orter 100
▁People 100
▁routes 100
▁unique 100
▁Kh 100
weet 100
ronze 100
▁displ 100
▁Centre 100
▁famous 100
▁protected 100
▁secondary 100
.) 100
va 100
gent 100
wick 100
▁Fam 100
marine 100
▁castle 100
▁SS 100
▁Cub 100
ansas 100
isters 100
usband 100
▁Common 100
▁cancer 100
▁adopted 100
▁62 100
▁ir 100
olec 100
▁Run 100
istol 100
▁sets 100
▁reign 100
▁Doctor 100
▁economic 100
▁passengers 100
▁contemporary 100
"), 100
▁ur 100
▁Bah 100
▁fat 100
inners 100
▁chief 100
▁steam 100
▁Democr 100
▁becomes 100
▁ut 100
▁Sus 100
itter 100
▁Hind 100
▁tall 100
rative 100
▁Brook 100
▁sympt 100
aki 100
▁1. 100
▁AC 100
foot 100
▁(10 100
▁Oak 100
▁Bart 100
insula 100
▁Broad 100
▁Master 100
▁column 100
▁positions 100
▁southeast 100
▁Philadelphia 100
kes 100
▁eg 100
▁Tam 100
achus 100
▁Card 100
▁heat 100
▁here 100
▁kept 100
ilding 100
▁extra 100
▁Through 100
▁weakened 100
▁intensity 100
bar 100
rif 100
lock 100
▁182 100
▁1940 100
▁Wilson 100
▁completely 100
RA 100
apers 100
wegian 100
ultural 100
▁interp 100
▁receive 100
add 100
▁wa 100
fect 100
▁appl 100
▁2002, 100
▁Though 100
▁refers 100
▁57 100
▁Bank 100
▁Pers 100
▁vert 100
ilation 100
▁needed 100
▁accepted 100
▁influenced 100
▁alternative 100
eget 100
▁Ball 100
▁filmed 100
▁newspaper 100
▁Ken 100
▁Ven 100
▁Prov 100
▁growing 100
▁effective 100
▁85 100
▁et 100
▁unc 100
unnel 100
▁Prog 100
▁laws 100
ceeded 100
emeter 100
ulture 100
▁Dream 100
▁Marsh 100
▁compar 100
gn 100
set 100
▁Ca 100
▁Gulf 100
▁2001, 100
▁silver 100
▁renamed 100
▁interact 100
▁survived 100
▁equipment 100
Sp 100
▁Di 100
▁Duke 100
▁kind 100
▁spons 100
▁resemb 100
▁continue 100
▁Bal 100
usion 100
▁1992 100
▁Pass 100
▁basis 100
▁youth 100
▁Disney 100
▁coaster 100
▁Hospital 100
▁category 100
▁bud 100
▁load 100
▁Kevin 100
achusetts 100
▁landfall 100
▁connected 100
life 100
weight 100
▁Among 100
▁lists 100
ja 100
▁x 100
▁74 100
▁eas 100
▁fun 100
▁mig 100
▁Prin 100
▁medic 100
▁Albums 100
▁titles 100
▁twelve 100
▁Massachusetts 100
ais 100
ipe 100
rupt 100
▁HMS 100
▁poet 100
▁cruis 100
▁allows 100
▁storms 100
▁families 100
▁converted 100
▁facilities 100
▁suit 100
▁comic 100
▁pieces 100
American 100
▁analysis 100
▁contrast 100
▁Bern 100
▁spot 100
▁talk 100
▁Feder 100
owntown 100
▁causing 100
▁Infantry 100
▁scholars 100
gypt 100
▁Crit 100
▁boat 100
▁poem 100
▁spect 100
▁reserve 100
▁financial 100
rec 100
wall 100
▁vote 100
hedral 100
▁causes 100
▁volume 100
▁brothers 100
oes 100
owa 100
▁Cape 100
▁solo 100
▁effort 100
▁Stadium 100
rig 100
▁(16 100
▁Lab 100
▁era 100
aling 100
▁Iron 100
▁Guard 100
▁cannot 100
▁carbon 100
▁efforts 100
▁friends 100
▁athletes 100
▁purchased 100
▁Mu 100
▁(12 100
▁Rom 100
▁fellow 100
▁indicate 100
▁premiere 100
án 100
Don 100
▁got 100
▁agre 100
orship 100
▁decre 100
▁image 100
▁Albert 100
▁Player 100
▁humans 100
▁leaves 100
▁question 100
uan 100
▁59 100
rate 100
▁WWE 100
claim 100
ishes 100
▁Moon 100
▁fair 100
▁rule 100
▁fungus 100
▁possibly 100
atus 100
▁trial 100
▁Winter 100
▁climate 100
▁finally 100
▁Memorial 100
▁domestic 100
▁entirely 100
▁strengthen 100
12 100
erc 100
acher 100
amber 100
▁Drag 100
▁phil 100
racted 100
▁brown 100
istance 100
▁Nether 100
ifically 100
▁chemical 100
orporation 100
▁Championships 100
▁su 100
ucky 100
▁mem 100
yphoon 100
▁Egypt 100
▁deploy 100
▁opport 100
▁recognized 100
ev 100
▁mo 100
unes 100
▁card 100
▁compl 100
▁fully 100
▁suppl 100
▁Science 100
▁roughly 100
hens 100
▁paid 100
▁agreed 100
▁combat 100
▁deaths 100
▁cultural 100
ying 100
▁Fair 100
▁Sher 100
▁Homer 100
▁sequel 100
▁closely 100
▁corresp 100
▁Francisco 100
AT 100
edd 100
mosp 100
onto 100
▁eth 100
anning 100
▁counter 100
▁society 100
▁Director 100
ns 100
char 100
cles 100
▁dig 100
▁Dark 100
aining 100
ranean 100
▁Harry 100
▁walls 100
▁launch 100
▁conduct 100
▁products 100
▁Ur 100
cuss 100
ogen 100
▁Gil 100
▁NBA 100
▁Also 100
▁Down 100
▁onto 100
▁Child 100
▁Early 100
▁leave 100
▁motor 100
emetery 100
▁minute 100
▁Perform 100
▁request 100
oh 100
▁Syd 100
▁ess 100
▁Tenn 100
▁crow 100
▁disapp 100
sey 100
wise 100
▁vac 100
▁news 100
▁Point 100
▁council 100
▁Harrison 100
▁sequence 100
▁receiving 100
15 100
LC 100
oli 100
itis 100
▁Jay 100
▁pan 100
▁firm 100
▁lear 100
▁attrib 100
izations 100
▁promote 100
▁programming 100
ski 100
thm 100
tra 100
▁$3 100
▁pict 100
▁purs 100
▁roof 100
▁Short 100
▁places 100
▁husband 100
▁selling 100
▁Independ 100
▁flooding 100
ols 100
▁76 100
▁Dal 100
peror 100
▁Turn 100
▁entitled 100
▁recently 100
▁ultimately 100
isms 100
▁1994 100
▁Lady 100
orpedo 100
▁therefore 100
ibb 100
▁bad 100
ieval 100
▁Circ 100
▁Offic 100
▁Supreme 100
▁briefly 100
▁Vi 100
▁(15 100
▁Wel 100
▁Today 100
▁aband 100
▁roles 100
▁editor 100
▁offers 100
▁extensive 100
rence 100
▁hosted 100
▁younger 100
▁attempts 100
▁languages 100
▁distributed 100
Sh 100
ca 100
ocy 100
▁Jac 100
▁bat 100
▁Week 100
▁burn 100
▁cars 100
▁Knight 100
▁credits 100
▁Governor 100
75 100
▁95 100
▁mut 100
▁coal 100
▁meant 100
▁Channel 100
▁keyboards 100
It 100
▁Az 100
▁Mos 100
▁Fall 100
▁semi 100
▁Carey 100
ologist 100
▁arrest 100
▁belong 100
▁volcan 100
▁describes 100
isa 100
▁hor 100
▁our 100
▁Hong 100
▁tick 100
heastern 100
▁commented 100
▁amb 100
ellig 100
ulate 100
▁Niel 100
▁Tony 100
▁Russia 100
▁hockey 100
▁models 100
▁achieved 100
▁annually 100
tendo 100
▁Balt 100
▁Hung 100
▁cool 100
▁Moore 100
▁decor 100
wan 100
▁Ak 100
▁Ta 100
anga 100
miral 100
▁seat 100
▁sens 100
oustic 100
▁agent 100
▁holds 100
▁naval 100
▁roads 100
▁unable 100
▁composer 100
▁neighbor 100
▁sections 100
▁Foundation 100
▁Revolution 100
AC 100
▁Rand 100
▁unus 100
▁enjoy 100
▁wrest 100
▁perman 100
▁Imperial 100
▁actually 100
▁regional 100
urt 100
alty 100
olis 100
rett 100
▁MTV 100
▁boy 100
▁Barb 100
▁Coll 100
▁says 100
▁Wright 100
▁commit 100
▁gained 100
▁stadium 100
▁returning 100
mann 100
pool 100
▁800 100
▁Int 100
▁pet 100
▁sons 100
▁Silver 100
▁machine 100
▁Military 100
▁Nintendo 100
▁resident 100
▁symptoms 100
▁Hollywood 100
▁documentary 100
uzz 100
hess 100
▁Note 100
▁overl 100
▁coming 100
SP 100
ati 100
▁Kir 100
▁dyn 100
ordan 100
▁step 100
▁weak 100
▁contact 100
▁locomot 100
▁earliest 100
▁powerful 100
▁expansion 100
▁operating 100
sex 100
iated 100
▁Remix 100
▁setting 100
▁parallel 100
▁alignment 100
▁determined 100
ava 100
▁178 100
▁NFL 100
bound 100
inder 100
▁sail 100
▁Forest 100
▁operates 100
▁Norwegian 100
▁officials 100
▁Interstate 100
▁nomination 100
▁Netherlands 100
fort 100
▁dry 100
ledge 100
▁1991 100
▁Blues 100
▁Theat 100
▁accompanied 100
▁HD 100
▁FIFA 100
▁kick 100
▁shape 100
▁franch 100
▁suggests 100
▁properties 100
▁instruments 100
AF 100
▁Alf 100
▁Fire 100
▁Jean 100
▁Davis 100
▁knots 100
▁split 100
▁flying 100
▁street 100
▁viewed 100
▁serious 100
iterranean 100
▁defensive 100
▁association 100
▁Rol 100
▁alt 100
▁Test 100
▁store 100
▁Television 100
▁73 100
▁99 100
omic 100
star 100
▁Kep 100
▁Back 100
ivalent 100
▁Arthur 100
▁Senate 100
▁broken 100
▁charge 100
▁consum 100
2). 100
cop 100
aith 100
uses 100
▁Ryan 100
▁mess 100
stream 100
▁Intern 100
▁budget 100
▁survey 100
▁descend 100
▁contributed 100
bell 100
▁agg 100
▁pounds 100
▁Nielsen 100
▁Project 100
▁experiment 100
nce 100
▁5: 100
ocks 100
▁Dave 100
▁Wars 100
▁claims 100
▁Indones 100
▁Toronto 100
▁composition 100
cell 100
onym 100
▁Plan 100
▁glass 100
▁homes 100
▁molec 100
▁Source 100
▁colour 100
▁expressed 100
▁63 100
lane 100
ician 100
pping 100
▁Whit 100
▁newly 100
▁accept 100
▁memorial 100
▁Mediterranean 100
bu 100
ru 100
aph 100
▁72 100
▁ec 100
spec 100
▁Ast 100
▁Prot 100
▁doub 100
▁gives 100
▁personnel 100
▁temperatures 100
lete 100
▁Age 100
▁Bol 100
cussion 100
▁prepar 100
▁Bristol 100
▁fighting 100
car 100
issue 100
opher 100
▁harm 100
▁Media 100
▁drive 100
▁rural 100
▁Athlet 100
▁torpedo 100
▁providing 100
▁performing 100
▁(13 100
▁1993 100
▁Gill 100
▁fict 100
chestra 100
▁Sydney 100
▁horses 100
ensus 100
▁Viet 100
▁2004. 100
▁Prior 100
▁adults 100
▁atmosp 100
▁matter 100
▁narrow 100
▁simple 100
▁improved 100
eor 100
iro 100
miss 100
▁2003. 100
▁Justice 100
▁fiction 100
▁forests 100
▁protect 100
▁singing 100
▁indicates 100
zant 100
▁Iowa 100
▁snow 100
▁entrance 100
▁millimet 100
bec 100
ogy 100
▁61 100
▁177 100
▁Bond 100
▁Conf 100
icient 100
▁Beach 100
▁Naval 100
▁diagn 100
▁Kepler 100
▁retire 100
▁article 100
▁battery 100
▁communic 100
▁computer 100
▁passenger 100
▁developing 100
▁UE 100
▁Rel 100
▁pri 100
embly 100
▁Born 100
▁Gord 100
▁brand 100
▁riders 100
▁publication 100
ugby 100
▁orb 100
minute 100
▁mouth 100
▁favour 100
▁Between 100
har 100
Best 100
▁Abb 100
▁Pit 100
▁ben 100
idges 100
▁Hart 100
▁prey 100
▁Color 100
▁Domin 100
▁psych 100
▁Sweden 100
▁struck 100
anth 100
umin 100
▁gar 100
break 100
▁exact 100
▁bottom 100
▁greatest 100
▁moderate 100
▁66 100
▁EP 100
asty 100
▁Bey 100
▁Ron 100
▁seek 100
▁Hawai 100
▁bonus 100
▁dated 100
▁motion 100
▁engines 100
▁obtained 100
▁anniversary 100
▁Fr 100
▁Ont 100
▁Raj 100
▁sam 100
airman 100
▁broke 100
▁urban 100
▁Anderson 100
▁2. 100
▁120 100
▁Ross 100
▁Giants 100
▁murder 100
▁attacks 100
▁heavily 100
▁promotion 100
▁Ra 100
▁hop 100
▁1999, 100
▁items 100
cluding 100
▁Ut 100
friend 100
▁shell 100
▁veget 100
▁depend 100
▁combination 100
bra 100
▁PA 100
▁(17 100
▁Hou 100
▁NBC 100
▁eye 100
▁piece 100
▁elimin 100
▁format 100
▁stands 100
▁express 100
▁Research 100
▁incident 100
Le 100
ancing 100
▁Walter 100
▁library 100
▁problem 100
▁Production 100
▁adaptation 100
Al 100
ko 100
"). 100
▁Pak 100
achel 100
anger 100
▁Disc 100
▁Harv 100
▁lake 100
▁outer 100
ée 100
▁77 100
▁Vill 100
▁subt 100
illery 100
▁comedy 100
▁nuclear 100
▁stating 100
▁Ger 100
▁Who 100
▁joint 100
▁orbit 100
▁creation 100
▁mushroom 100
▁correspond 100
RI 100
▁Id 100
▁List 100
ushing 100
▁Simon 100
▁Advent 100
▁Indust 100
▁valley 100
▁Theatre 100
▁actions 100
▁compounds 100
Cl 100
2), 100
aya 100
▁fil 100
ectic 100
▁remn 100
ounded 100
ources 100
▁Brigade 100
▁circulation 100
FC 100
lict 100
▁31, 100
▁Les 100
▁hair 100
▁tail 100
▁wing 100
▁Space 100
▁write 100
agement 100
leveland 100
▁existed 100
▁rapidly 100
▁commander 100
▁existence 100
arp 100
agle 100
rell 100
▁Cra 100
after 100
inals 100
▁UEFA 100
▁Apple 100
▁Jordan 100
▁extension 100
▁arrangement 100
▁Kat 100
▁bor 100
▁About 100
▁partn 100
▁visit 100
igation 100
▁install 100
▁Lind 100
▁nick 100
▁torn 100
▁true 100
▁Maria 100
▁Byzant 100
▁stages 100
▁applied 100
lar 100
oyd 100
▁$5 100
olds 100
▁ham 100
▁zone 100
▁Grammy 100
▁estate 100
▁fields 100
▁morning 100
▁visited 100
▁Cleveland 100
kin 100
obe 100
aria 100
▁(11 100
▁Hay 100
osure 100
▁auth 100
▁dial 100
iments 100
▁dating 100
▁apparent 100
▁bra 100
▁doll 100
▁rear 100
▁vary 100
▁autom 100
▁carry 100
▁guard 100
▁painting 100
▁wrestling 100
SR 100
po 100
idi 100
uing 100
▁Nic 100
▁begin 100
▁entry 100
▁lands 100
▁policy 100
▁centuries 100
▁fictional 100
▁characteristics 100
oz 100
ece 100
ione 100
▁Bir 100
▁Hor 100
▁bey 100
hemat 100
senal 100
▁materials 100
▁Corporation 100
▁μ 100
▁09 100
also 100
▁Pow 100
▁Ontario 100
▁coastal 100
▁injured 100
▁workers 100
▁encounter 100
ags 100
olph 100
▁Sav 100
▁foss 100
▁scale 100
▁beyond 100
▁temple 100
▁correct 100
▁improve 100
▁attempted 100
▁conference 100
rik 100
▁AD 100
fish 100
▁arc 100
▁Alab 100
inking 100
▁1998, 100
▁alone 100
▁Korean 100
▁reduce 100
▁Command 100
▁failure 100
▁projects 100
▁indicated 100
▁percussion 100
▁scientific 100
▁introduction 100
We 100
iley 100
▁700 100
▁Sky 100
▁bal 100
▁lot 100
▁dens 100
▁want 100
▁ahead 100
▁merch 100
▁teach 100
▁extrem 100
ES 100
osa 100
unc 100
▁IV 100
agan 100
iate 100
night 100
▁emph 100
▁scul 100
jected 100
▁const 100
▁commemor 100
ooth 100
▁Alb 100
▁fix 100
▁pul 100
ilton 100
▁Story 100
▁absor 100
▁acres 100
▁thirty 100
▁writers 100
ji 100
ami 100
yer 100
host 100
ygen 100
▁Der 100
▁Sel 100
▁Jenn 100
▁supp 100
▁1997, 100
viation 100
▁defend 100
▁eighth 100
▁images 100
▁themes 100
▁Magazine 100
▁arranged 100
▁downtown 100
▁expanded 100
▁medieval 100
▁negative 100
▁something 100
mes 100
gate 100
▁Hug 100
▁rul 100
iques 100
▁subs 100
rieved 100
▁Grant 100
▁avoid 100
▁occas 100
▁phase 100
▁festival 100
▁graduated 100
ga 100
lyn 100
▁Educ 100
▁Open 100
▁Polish 100
▁Unlike 100
▁stable 100
▁Alabama 100
▁invasion 100
▁franchise 100
▁occasionally 100
You 100
idae 100
▁Lim 100
ennis 100
ented 100
▁Last 100
▁paint 100
▁calling 100
▁historic 100
▁Americans 100
▁installed 100
▁sustained 100
wa 100
oln 100
unte 100
▁Once 100
▁acts 100
▁lies 100
▁slowly 100
▁artwork 100
▁respond 100
▁segment 100
▁regarded 100
erts 100
▁NHL 100
▁sac 100
ucing 100
▁Adam 100
▁creating 100
▁Additionally 100
25 100
ela 100
burn 100
amine 100
▁Euro 100
ashion 100
inally 100
▁Develop 100
▁coordin 100
▁conflict 100
▁vertical 100
▁technology 100
▁significantly 100
aks 100
▁Mit 100
▁Row 100
iller 100
▁trunk 100
▁starts 100
▁Mexican 100
▁credited 100
▁distinguished 100
▁Jup 100
▁cab 100
▁map 100
▁Dean 100
▁edge 100
▁trav 100
olitan 100
▁Gordon 100
▁Anthony 100
▁Patrick 100
3). 100
onc 100
uda 100
uts 100
▁Hun 100
▁1900 100
▁note 100
▁Again 100
▁Jesus 100
▁grass 100
▁towns 100
▁Minnes 100
▁acting 100
▁visual 100
▁longest 100
ader 100
tered 100
▁Croat 100
▁tried 100
▁philos 100
▁classes 100
▁planets 100
▁typical 100
▁producers 100
▁06 100
cing 100
▁Nel 100
▁cho 100
▁Free 100
▁Here 100
▁Marc 100
▁task 100
▁posted 100
▁capture 100
▁champion 100
▁interchange 100
BI 100
ez 100
▁” 100
lah 100
keep 100
ifies 100
▁flat 100
▁myth 100
▁resc 100
▁depth 100
▁really 100
▁releases 100
▁songwriter 100
▁representing 100
lim 100
▁78 100
ador 100
▁Budd 100
▁2001. 100
▁Adams 100
▁Bruce 100
▁Organ 100
▁limit 100
▁caught 100
▁strugg 100
▁Arsenal 100
▁advanced 100
▁citizens 100
▁progress 100
▁portrayed 100
▁consisting 100
▁98 100
▁Att 100
▁sun 100
▁Alan 100
▁Earl 100
▁chose 100
▁sexual 100
▁deliver 100
▁facility 100
▁restaurant 100
rup 100
cont 100
icks 100
iful 100
rant 100
▁mom 100
▁van 100
place 100
uties 100
▁Eric 100
▁cloud 100
iration 100
▁Health 100
▁bacter 100
▁prefer 100
▁Minnesota 100
▁programme 100
heim 100
roke 100
essed 100
▁crowd 100
▁rival 100
▁simply 100
▁highways 100
▁territory 100
storm 100
▁diet 100
▁poly 100
▁safety 100
▁Jupiter 100
▁employed 100
▁transform 100
▁classification 100
igg 100
▁96 100
▁Ba 100
▁MS 100
▁Od 100
omew 100
▁rob 100
iling 100
▁stem 100
▁propos 100
▁Further 100
▁Houston 100
▁details 100
▁protein 100
▁Kentucky 100
▁photograph 100
▁settlement 100
▁specifically 100
gu 100
ali 100
ito 100
rum 100
▁Nap 100
▁pup 100
chers 100
rooms 100
▁Ford 100
▁Know 100
▁isol 100
itness 100
▁Books 100
▁clubs 100
▁wides 100
clusion 100
▁Freder 100
▁Review 100
▁actors 100
▁acoustic 100
▁movements 100
▁nominations 100
RT 100
-10 100
rob 100
zen 100
aked 100
▁Jam 100
▁bands 100
▁labor 100
▁corner 100
▁governor 100
▁protection 100
MI 100
oen 100
pha 100
hire 100
▁Gen 100
▁ski 100
▁Linc 100
▁soil 100
▁warm 100
bourne 100
shaped 100
▁sense 100
▁extrat 100
▁strike 100
▁Princess 100
▁approved 100
▁experien 100
▁straight 100
▁Community 100
▁concluded 100
▁connection 100
▁compilation 100
▁extratropical 100
lets 100
▁Hal 100
itzer 100
ivals 100
▁Ever 100
▁Mars 100
▁shop 100
active 100
ecticut 100
▁Admiral 100
▁Program 100
▁advance 100
▁compete 100
▁objects 100
▁turning 100
▁cyclones 100
▁existing 100
▁historian 100
▁Connecticut 100
lee 100
▁67 100
▁UN 100
agen 100
rees 100
rome 100
▁Joh 100
▁mis 100
▁shr 100
onder 100
▁cant 100
▁rebu 100
teenth 100
▁seats 100
▁Sunday 100
▁households 100
▁ple 100
▁tim 100
alymp 100
ardens 100
▁Honor 100
▁pitch 100
▁shared 100
▁Business 100
▁attacked 100
▁recommended 100
DS 100
MA 100
sec 100
▁ri 100
uous 100
▁Pur 100
▁emb 100
eline 100
ensis 100
uerto 100
▁Ariz 100
▁Conc 100
▁Sony 100
▁cycle 100
▁heard 100
▁bronze 100
▁casual 100
▁finish 100
▁supply 100
▁Country 100
▁Express 100
▁constant 100
▁modified 100
▁Secretary 100
▁exception 100
▁headquarters 100
aza 100
▁92 100
▁Da 100
▁Guy 100
▁eat 100
acent 100
▁Poland 100
▁chapter 100
▁municip 100
▁visible 100
▁crossing 100
osh 100
▁Aut 100
ideos 100
oting 100
▁Vers 100
▁parish 100
▁Swedish 100
▁letters 100
▁Baseball 100
▁industrial 100
▁Performance 100
rane 100
▁USA 100
aware 100
eries 100
▁basic 100
▁moves 100
▁quant 100
▁Puerto 100
▁eleven 100
▁Lincoln 100
▁Register 100
▁security 100
▁songwriting 100
aska 100
eler 100
▁Kim 100
▁dip 100
▁000. 100
▁exec 100
▁Asian 100
▁hands 100
▁Police 100
▁Arizona 100
▁Federal 100
▁channel 100
▁Paralymp 100
▁occupied 100
▁abandoned 100
▁Publishing 100
CO 100
iva 100
uster 100
▁Gate 100
▁Init 100
▁send 100
▁Stand 100
▁Trust 100
▁owner 100
▁rated 100
▁shall 100
▁Kansas 100
▁Norman 100
▁Warner 100
▁medals 100
▁precip 100
▁reprod 100
rete 100
▁(14 100
▁Aud 100
▁Ian 100
ushed 100
▁(195 100
▁canc 100
▁evac 100
▁rise 100
▁sculpt 100
▁DNA 100
▁Fem 100
▁Tal 100
▁aim 100
appen 100
▁tele 100
▁Liver 100
▁heads 100
▁peace 100
▁emphas 100
▁Profess 100
▁surviving 100
▁communities 100
▁populations 100
osl 100
ropri 100
which 100
▁Andy 100
▁Anim 100
▁Stew 100
▁skin 100
▁Miller 100
▁reform 100
▁freeway 100
▁habitat 100
▁Peninsula 100
▁finishing 100
▁retirement 100
hum 100
disc 100
iami 100
igen 100
reck 100
▁Naz 100
music 100
▁alle 100
▁belt 100
▁core 100
▁gall 100
lahoma 100
▁agric 100
▁astron 100
▁animated 100
▁Cz 100
chell 100
idden 100
stead 100
▁Seat 100
▁sole 100
▁spok 100
▁Roger 100
▁equal 100
essions 100
issance 100
▁covers 100
▁sought 100
▁Journal 100
▁repeated 100
▁Universal 100
▁Collection 100
rh 100
gal 100
▁79 100
apes 100
acted 100
▁(194 100
▁Xbox 100
antage 100
ourney 100
▁shear 100
▁votes 100
▁oxygen 100
▁purpose 100
▁showing 100
▁Colorado 100
▁Oklahoma 100
▁architecture 100
III 100
elle 100
▁upd 100
▁Rome 100
▁code 100
▁liqu 100
▁seem 100
▁hired 100
▁Argent 100
▁methods 100
▁vessels 100
▁junction 100
▁Philippines 100
OT 100
▁05 100
orst 100
oster 100
▁Third 100
▁Treat 100
▁Portug 100
"; 100
oral 100
▁Rick 100
▁Miami 100
▁ocean 100
▁junior 100
▁rhythm 100
▁speech 100
▁missing 100
▁challeng 100
▁exchange 100
▁agreement 100
▁literature 100
▁participate 100
HS 100
▁89 100
vens 100
▁175 100
pread 100
atinum 100
▁exped 100
▁rooms 100
▁solid 100
▁lowest 100
▁reasons 100
▁Recorded 100
▁situated 100
▁regularly 100
▁Democratic 100
▁completion 100
▁equivalent 100
irt 100
▁87 100
▁Es 100
aret 100
▁250 100
▁Let 100
▁say 100
▁1988 100
▁Scout 100
▁crime 100
▁races 100
▁solar 100
▁turns 100
▁Bishop 100
▁ancest 100
▁losing 100
▁weapons 100
▁Operation 100
▁implement 100
3), 100
isp 100
▁PC 100
▁McG 100
▁Now 100
encies 100
uccess 100
▁Daily 100
▁Prime 100
▁Malays 100
▁granted 100
▁grounds 100
▁uniform 100
▁unusual 100
▁academic 100
▁shooting 100
ifications 100
oto 100
▁97 100
▁pig 100
oming 100
prise 100
▁Cook 100
▁armor 100
▁ninth 100
▁suppor 100
▁trials 100
▁operate 100
rons 100
▁Edd 100
▁Sab 100
▁loop 100
▁Allen 100
▁Hills 100
▁brain 100
released 100
▁Matthew 100
▁flights 100
▁visitors 100
▁candidate 100
▁supporting 100
Ar 100
▁Su 100
▁160 100
▁Marg 100
avalry 100
▁Santa 100
▁Stock 100
▁hotel 100
▁fought 100
▁lasted 100
▁spirit 100
▁capable 100
▁cricket 100
▁authority 100
▁remainder 100
iac 100
acon 100
aver 100
fted 100
real 100
▁tom 100
▁Wing 100
▁hero 100
▁hits 100
▁shut 100
▁2002. 100
▁stret 100
▁patrol 100
▁fishing 100
▁diameter 100
▁disturbance 100
▁organizations 100
1). 100
ano 100
ega 100
ila 100
aine 100
gery 100
▁gal 100
▁Hamp 100
▁What 100
▁aged 100
▁tank 100
▁armed 100
related 100
▁headed 100
▁instit 100
▁factors 100
▁focused 100
▁tornado 100
▁renumber 100
▁Outstanding 100
otic 100
▁Nar 100
▁Rap 100
▁frag 100
▁Never 100
▁cited 100
▁exerc 100
▁Tennes 100
▁Township 100
▁environmental 100
equ 100
gon 100
ibl 100
▁Ho 100
▁Web 100
▁mode 100
▁shel 100
▁Along 100
▁nucle 100
▁Somers 100
▁preced 100
▁Windows 100
▁airline 100
▁functions 100
▁predecess 100
▁department 100
▁registered 100
ón 100
rix 100
▁$4 100
▁Ob 100
▁RNA 100
▁Five 100
▁Jane 100
▁synd 100
▁wins 100
▁Jason 100
▁Sarah 100
▁cinem 100
▁Studio 100
▁global 100
▁actress 100
▁leaders 100
▁Thompson 100
▁substant 100
▁necessary 100
▁′ 100
law 100
lew 100
▁68 100
anny 100
oles 100
▁Vis 100
▁von 100
▁Pear 100
▁Dougl 100
▁leads 100
▁worth 100
alities 100
tenance 100
uctions 100
▁Family 100
▁things 100
▁Mississ 100
▁Original 100
▁Personnel 100
▁Republican 100
uge 100
▁08 100
ello 100
idia 100
▁Ele 100
▁Ira 100
▁fly 100
otype 100
▁1987 100
▁Leon 100
▁enemy 100
▁voted 100
▁satell 100
▁Francis 100
▁vehicle 100
▁evolution 100
16 100
aste 100
heme 100
▁Arn 100
▁Est 100
▁USD 100
▁cart 100
▁rein 100
ibbean 100
▁Armen 100
▁Jewish 100
▁Marine 100
▁Queens 100
▁Season 100
▁equipped 100
▁normally 100
▁relative 100
▁certified 100
▁otherwise 100
▁producing 100
▁criticized 100
don 100
una 100
▁84 100
mill 100
▁Mas 100
aired 100
orney 100
▁nest 100
▁Kelly 100
▁Nelson 100
▁concur 100
▁novels 100
elligence 100
▁formerly 100
▁prepared 100
▁Tennessee 100
▁permanent 100
▁CE 100
grad 100
irds 100
▁ABC 100
▁Hit 100
▁Tok 100
chang 100
▁deck 100
▁opin 100
cement 100
▁chain 100
▁easily 100
▁proved 100
ographer 100
▁Administ 100
▁examples 100
▁Liverpool 100
▁regarding 100
▁widespread 100
rot 100
ophy 100
▁Bon 100
▁Low 100
▁tox 100
▁duty 100
nament 100
▁Islam 100
▁Dragon 100
▁advent 100
▁choice 100
▁Brother 100
▁decades 100
▁filming 100
▁duration 100
▁Retrieved 100
▁determine 100
▁principal 100
▁administration 100
▁Du 100
eton 100
uits 100
▁1984 100
father 100
▁recur 100
▁Thames 100
▁Warren 100
▁believe 100
▁underst 100
▁behavior 100
▁Champions 100
▁musicians 100
▁resistance 100
▁transition 100
rog 100
▁07 100
▁82 100
▁Bh 100
roit 100
▁elig 100
othing 100
▁cryst 100
▁stock 100
autiful 100
▁Garden 100
▁decade 100
▁toward 100
▁Nations 100
▁extremely 100
▁Transportation 100
My 100
PA 100
oga 100
▁83 100
▁Wy 100
ippi 100
rets 100
rows 100
▁aid 100
ribed 100
▁1989 100
▁eggs 100
▁folk 100
▁mile 100
▁vent 100
iminal 100
▁grows 100
▁Morgan 100
▁chorus 100
▁Players 100
▁charted 100
▁forming 100
▁connecting 100
▁quarterback 100
14 100
jo 100
5). 100
run 100
▁ha 100
▁vs 100
▁Tag 100
▁Well 100
▁mind 100
▁antib 100
▁bought 100
▁Edition 100
▁Roberts 100
▁leadership 100
▁opposition 100
18 100
iy 100
nic 100
▁86 100
ollo 100
enses 100
othes 100
▁Finn 100
▁Nich 100
▁Dance 100
agonist 100
▁address 100
▁Heritage 100
▁attached 100
▁monument 100
▁requires 100
erg 100
▁Ty 100
Star 100
roph 100
ucks 100
▁Get 100
▁Josh 100
▁ment 100
▁1996, 100
▁destr 100
resents 100
▁powers 100
▁wooden 100
▁restored 100
▁Caribbean 100
▁specimens 100
13 100
TA 100
wen 100
▁69 100
▁DC 100
▁Om 100
enge 100
▁Myc 100
▁nickn 100
▁bright 100
▁divers 100
▁duties 100
▁penalty 100
▁periods 100
ropolitan 100
▁reaction 100
▁offensive 100
▁reception 100
▁recognition 100
appy 100
game 100
inet 100
▁Aff 100
▁Dra 100
▁Rain 100
▁cook 100
▁impl 100
▁your 100
▁Czech 100
▁Death 100
▁crews 100
▁Howard 100
▁spores 100
▁encoura 100
▁Ministry 100
▁depending 100
▁photography 100
▁neighborhood 100
He 100
OS 100
term 100
anned 100
▁Prim 100
▁978-0 100
▁Harris 100
▁escape 100
▁Detroit 100
▁Seattle 100
▁convers 100
▁Cemetery 100
▁Mississippi 100
▁Kl 100
▁Nob 100
▁Tel 100
▁Tot 100
▁nit 100
▁Hann 100
▁Crown 100
▁check 100
▁Palace 100
▁fitted 100
▁extinct 100
▁minimum 100
▁partner 100
▁ranking 100
▁refused 100
▁Somerset 100
▁forecast 100
▁standing 100
▁Byzantine 100
▁references 100
▁1: 100
▁88 100
▁94 100
▁AT 100
odge 100
▁Bou 100
▁Dor 100
▁Fle 100
organ 100
▁Cole 100
▁funds 100
▁recip 100
▁Comple 100
▁degrees 100
▁offices 100
▁planning 100
▁represents 100
▁applications 100
▁Ot 100
dale 100
▁Han 100
▁(1): 100
▁clim 100
▁imag 100
illing 100
▁videos 100
▁northward 100
boat 100
list 100
▁Beg 100
▁Wol 100
▁Belg 100
▁Even 100
▁sale 100
ucture 100
▁Anton 100
▁calls 100
▁Modern 100
▁formal 100
▁integr 100
▁typhoon 100
▁regiment 100
▁alternate 100
▁committee 100
sea 100
▁MP 100
abil 100
yles 100
▁(20 100
▁Tar 100
found 100
▁1942 100
▁jump 100
▁spur 100
ternal 100
▁liber 100
uscript 100
▁Morris 100
▁driving 100
▁footage 100
▁painted 100
▁replace 100
▁Confeder 100
▁Robinson 100
▁Education 100
▁daughters 100
▁replacement 100
eing 100
izon 100
aceae 100
icial 100
leton 100
▁Lane 100
▁Diego 100
▁Guide 100
▁Prize 100
▁plane 100
▁holding 100
▁landing 100
▁Portland 100
▁entering 100
▁inducted 100
▁injuries 100
▁explained 100
No 100
ubb 100
mate 100
▁ban 100
▁tow 100
point 100
▁Type 100
▁arts 100
▁drum 100
▁mist 100
▁depos 100
▁Atlanta 100
▁testing 100
▁breeding 100
▁outbreak 100
▁discovery 100
▁succeeded 100
▁surrounded 100
mad 100
▁Ka 100
▁sq 100
ache 100
▁nav 100
▁fuel 100
▁gate 100
orders 100
▁Greece 100
▁depict 100
▁internal 100
▁differences 100
▁900 100
▁Dub 100
▁flo 100
ijing 100
▁drew 100
▁1999. 100
▁Front 100
▁Movie 100
▁compr 100
▁overs 100
olished 100
▁Alfred 100
▁Hockey 100
▁Champion 100
▁knowledge 100
▁controlled 100
pan 100
atur 100
rist 100
Tunes 100
opter 100
▁1986 100
▁Bros 100
▁Call 100
▁Late 100
▁loan 100
thlete 100
▁crash 100
▁faced 100
▁actual 100
▁argued 100
▁stream 100
▁Douglas 100
▁killing 100
struction 100
▁westward 100
▁appearing 100
▁gradually 100
pet 100
pop 100
▁Ll 100
▁lat 100
▁Banks 100
▁inaug 100
▁Author 100
▁Design 100
▁explos 100
entially 100
▁authors 100
▁opponents 100
▁attendance 100
▁Christopher 100
▁ML 100
adow 100
haps 100
roid 100
▁Son 100
arked 100
ommod 100
▁1964 100
▁Comb 100
▁ways 100
ennium 100
ivered 100
▁quite 100
▁Samuel 100
▁factor 100
▁arrival 100
▁invited 100
▁attributed 100
▁percentage 100
▁precipitation 100
▁representative 100
%. 100
aby 100
▁Lt 100
inus 100
▁ble 100
inton 100
orage 100
▁1944 100
▁Vari 100
▁eyes 100
▁chlor 100
▁effic 100
▁grossed 100
▁Children 100
▁Internet 100
▁Originally 100
▁techniques 100
▁experienced 100
▁investigation 100
Man 100
▁Tig 100
uther 100
wealth 100
▁2000. 100
▁advis 100
▁doing 100
▁shore 100
▁rarely 100
▁thunder 100
▁swimming 100
▁Additional 100
▁categories 100
athy 100
▁Lov 100
▁bed 100
▁pun 100
▁Bang 100
▁Boys 100
▁Hans 100
▁Steven 100
▁circum 100
ervative 100
issioned 100
▁Ottoman 100
▁armored 100
▁peaking 100
▁measured 100
▁upgraded 100
▁threatened 100
▁authorities 100
▁maintenance 100
ho 100
▁Lu 100
Tube 100
hous 100
▁Dur 100
▁wet 100
aints 100
going 100
nings 100
orous 100
▁pool 100
▁costs 100
vements 100
▁Trophy 100
▁superv 100
▁therap 100
▁Denmark 100
▁insects 100
uccessful 100
▁theaters 100
▁instrumental 100
11 100
ods 100
▁Bi 100
mers 100
▁Kal 100
antly 100
eenth 100
▁Dick 100
▁Oslo 100
▁wars 100
▁Actor 100
▁males 100
▁happen 100
▁iTunes 100
▁undert 100
▁females 100
▁lengths 100
▁opposed 100
▁preserved 100
Bl 100
CAA 100
ucc 100
offs 100
ouri 100
▁Cyr 100
atern 100
ureau 100
▁Trib 100
▁Turk 100
▁turb 100
rapped 100
▁Phill 100
▁catch 100
▁price 100
▁YouTube 100
▁mathemat 100
▁purposes 100
▁software 100
▁advantage 100
▁application 100
EC 100
yo 100
▁Spe 100
▁aer 100
eless 100
scape 100
▁Cart 100
▁Mach 100
▁gain 100
ecraft 100
▁deleg 100
▁somew 100
▁wheel 100
▁serial 100
▁taught 100
▁useful 100
▁Vietnam 100
▁identity 100
▁interior 100
▁involving 100
▁difference 100
eo 100
4). 100
zer 100
▁3. 100
orph 100
▁Hem 100
▁Ren 100
▁Sum 100
▁Sym 100
▁nob 100
▁tot 100
▁drawn 100
▁manga 100
▁surre 100
▁measures 100
▁retained 100
▁delivered 100
!" 100
Sc 100
▁Ts 100
▁176 100
▁Lam 100
▁Obs 100
▁Emmy 100
▁Horn 100
▁rose 100
ceived 100
▁Hotel 100
▁tells 100
▁views 100
rations 100
▁Parker 100
▁Picture 100
▁depicted 100
▁province 100
▁commentary 100
▁successfully 100
▁CO 100
▁Bry 100
▁Dog 100
▁Ker 100
▁hem 100
osite 100
▁sung 100
▁sunk 100
istant 100
▁Blood 100
▁Kings 100
▁Notes 100
▁tests 100
▁verse 100
ategory 100
utation 100
▁garden 100
▁liquid 100
▁Beijing 100
▁Similar 100
▁crossed 100
▁earthqu 100
▁classical 100
17 100
▁“ 100
1), 100
aren 100
uble 100
▁Hud 100
▁ago 100
▁nor 100
▁Lenn 100
▁Snow 100
▁coat 100
▁isot 100
▁meat 100
▁spin 100
▁virt 100
▁Jacob 100
▁Staff 100
▁boats 100
▁paved 100
▁trust 100
▁Within 100
▁archae 100
▁warning 100
▁cancelled 100
▁situation 100
▁Development 100
▁03 100
hand 100
▁Roc 100
▁rac 100
▁Pier 100
▁insc 100
▁neut 100
▁Human 100
▁inner 100
▁legend 100
▁Emperor 100
▁fashion 100
▁volunte 100
▁Delaware 100
▁religion 100
▁Louisiana 100
▁popularity 100
9). 100
▁Hu 100
▁iP 100
come 100
▁Imp 100
▁Rey 100
abled 100
etime 100
▁Anna 100
▁Cold 100
▁Stra 100
▁hull 100
▁tied 100
exp 100
▁Sn 100
olar 100
udes 100
▁hip 100
▁Benn 100
▁Rose 100
ricted 100
▁Grade 100
▁orders 100
▁Actress 100
▁herself 100
▁mounted 100
▁Jonathan 100
▁declined 100
▁exposure 100
▁importance 100
FI 100
sm 100
▁Gib 100
▁sed 100
▁Nash 100
▁Stat 100
▁Wolf 100
▁crop 100
▁goes 100
▁ones 100
▁forty 100
▁teeth 100
osaurus 100
▁Junior 100
▁Region 100
▁session 100
▁recovered 100
▁parliament 100
▁incorporated 100
CI 100
avia 100
ighed 100
▁Holy 100
▁none 100
▁Heavy 100
▁accur 100
▁liver 100
▁Apollo 100
▁scheme 100
▁Medical 100
▁innings 100
▁volumes 100
▁boundary 100
▁deployed 100
▁frequent 100
▁separated 100
not 100
hour 100
eties 100
imore 100
▁Anne 100
▁Hell 100
▁Iraq 100
▁sank 100
▁soci 100
▁1997. 100
▁Chron 100
▁Girls 100
▁Satur 100
▁analy 100
▁dress 100
▁settled 100
▁accommod 100
▁elections 100
▁Depression 100
▁Throughout 100
6). 100
All 100
iege 100
rine 100
▁170 100
▁Cer 100
▁Whe 100
▁fer 100
acros 100
▁Diam 100
▁surf 100
▁1994, 100
▁Years 100
▁benef 100
▁plate 100
▁belief 100
▁resear 100
▁Belgium 100
▁Stanley 100
▁ceremon 100
▁wounded 100
▁Pakistan 100
▁carrying 100
lig 100
from 100
iday 100
▁var 100
▁Real 100
▁1998. 100
▁judge 100
▁print 100
▁ruled 100
▁losses 100
angerous 100
▁designs 100
▁genetic 100
▁weighed 100
▁Allmusic 100
▁Building 100
▁compound 100
▁commanded 100
▁distinctive 100
boy 100
▁93 100
ogan 100
▁dub 100
▁try 100
▁Dead 100
stances 100
▁Boeing 100
▁trough 100
ologists 100
▁Stewart 100
▁aspects 100
▁consequ 100
▁surgery 100
▁Hamilton 100
▁accompany 100
7), 100
amps 100
▁Ern 100
▁Benj 100
▁stay 100
▁Brand 100
▁Draft 100
▁revol 100
▁Carter 100
▁Friend 100
▁amounts 100
▁submarine 100
▁thousands 100
▁Commonwealth 100
IV 100
7). 100
▁ax 100
avor 100
ifer 100
ucer 100
▁Lev 100
▁Nik 100
▁UTC 100
▁nom 100
▁1979 100
▁Cost 100
▁mamm 100
▁Laure 100
▁Track 100
▁abund 100
▁inhib 100
▁recre 100
▁users 100
▁retail 100
▁economy 100
▁kingdom 100
▁Mitchell 100
▁Federation 100
▁residential 100
▁AP 100
chen 100
oncé 100
▁NAS 100
▁kid 100
▁Ward 100
▁dram 100
▁spac 100
▁Welsh 100
▁giant 100
▁layer 100
inental 100
▁Cooper 100
▁Michel 100
▁Temple 100
▁smooth 100
▁routing 100
▁Category 100
▁employees 100
▁casualties 100
▁manuscript 100
-18 100
▁Li 100
▁od 100
icon 100
tery 100
▁Tan 100
▁Bath 100
▁Mort 100
▁caps 100
▁rend 100
▁ster 100
action 100
uitars 100
▁Jimmy 100
▁sleep 100
utional 100
▁Choice 100
▁Hawaii 100
▁honour 100
▁trying 100
▁parties 100
▁Airlines 100
▁watching 100
▁electronic 100
▁opportunity 100
▁02 100
soft 100
urer 100
▁Box 100
▁Serb 100
▁Stef 100
▁colle 100
▁erupt 100
▁fifty 100
▁negot 100
▁expect 100
▁memory 100
including 100
▁Athletic 100
▁temporary 100
▁characterized 100
cin 100
inf 100
rams 100
▁Hop 100
ateur 100
enter 100
▁1939 100
▁Rang 100
▁Sign 100
▁clin 100
▁fine 100
▁Horse 100
▁Wayne 100
▁hyper 100
borough 100
ception 100
▁Batman 100
▁ironcl 100
▁poison 100
▁weekly 100
▁circuit 100
▁cruiser 100
▁Campaign 100
▁Marshall 100
▁minister 100
▁expedition 100
ić 100
▁ru 100
aser 100
icts 100
omes 100
pine 100
▁Cla 100
▁Mun 100
▁Tai 100
▁hal 100
▁why 100
agues 100
▁Magn 100
▁Side 100
▁bulk 100
▁scrap 100
▁tunnel 100
▁wearing 100
▁adjacent 100
▁Mountains 100
▁trunkline 100
▁promotional 100
▁Constitution 100
▁strengthened 100
hr 100
aja 100
two 100
▁04 100
ashed 100
ilers 100
▁1983 100
▁Lisa 100
▁bran 100
▁teen 100
▁trip 100
▁util 100
▁1995, 100
▁rates 100
▁veter 100
▁Around 100
▁vessel 100
▁Beyoncé 100
▁listing 100
▁proceed 100
▁reading 100
▁travels 100
▁Missouri 100
▁Melbourne 100
dr 100
5), 100
▁Cow 100
▁Hur 100
▁Sig 100
▁Stu 100
▁cup 100
▁tal 100
▁unf 100
▁(193 100
▁alco 100
▁bear 100
▁pron 100
▁Micro 100
▁Tower 100
▁freed 100
▁girls 100
▁Simpson 100
▁accounts 100
▁Baltimore 100
▁battleships 100
▁thunderstorm 100
▁unsuccessful 100
hu 100
ls 100
uma 100
▁kW 100
▁18- 100
▁Mes 100
▁Ton 100
▁tie 100
▁vel 100
▁1941 100
▁Days 100
▁Hero 100
▁Maur 100
▁hybr 100
▁neck 100
apolis 100
▁tenth 100
▁counties 100
▁Frederick 100
▁childhood 100
▁component 100
▁py 100
▁McK 100
urches 100
▁Phoen 100
▁apart 100
▁pages 100
▁therm 100
▁yield 100
▁relief 100
▁Russell 100
▁appoint 100
▁falling 100
▁Benjamin 100
▁produces 100
▁paintings 100
▁atmosphere 100
rin 100
tic 100
▁CS 100
town 100
▁Nad 100
▁Yan 100
▁bot 100
icide 100
power 100
▁Rico 100
▁gray 100
▁Seven 100
▁Bureau 100
▁affili 100
▁sample 100
▁monarch 100
▁isolated 100
▁Represent 100
?" 100
WA 100
occ 100
uki 100
fare 100
fers 100
▁Ark 100
▁cod 100
▁lob 100
sters 100
▁Mean 100
▁mart 100
▁oxid 100
▁phen 100
▁Places 100
▁adding 100
▁linked 100
▁Madonna 100
▁Shortly 100
▁electron 100
▁$6 100
▁Non 100
▁Wag 100
▁Beck 100
▁Wells 100
▁clean 100
▁milit 100
▁Flight 100
▁joining 100
▁massive 100
▁Assembly 100
▁Franklin 100
▁Lawrence 100
▁covering 100
▁hydrogen 100
▁artillery 100
uil 100
▁Iv 100
aron 100
uces 100
▁Cas 100
▁Ult 100
▁Hand 100
▁save 100
writer 100
▁ideas 100
▁Walker 100
▁appeal 100
▁hunting 100
▁minimal 100
▁passage 100
▁purchase 100
▁rejected 100
▁remnants 100
▁assistance 100
▁interested 100
bel 100
oly 100
ori 100
▁Dw 100
▁OC 100
▁ju 100
hist 100
▁rom 100
icity 100
▁Cycl 100
▁logo 100
▁multi 100
ighters 100
▁Orange 100
▁device 100
▁Kennedy 100
▁monitor 100
▁supports 100
▁intensified 100
fly 100
ante 100
arks 100
flow 100
iper 100
▁aqu 100
▁Buff 100
▁Edin 100
ivated 100
▁1993, 100
▁Bobby 100
▁Marie 100
attered 100
▁strateg 100
▁theatre 100
▁describe 100
▁graduate 100
▁highlight 100
▁successor 100
▁destruction 100
ML 100
lie 100
▁Op 100
inea 100
▁Ent 100
▁Gab 100
▁Gri 100
▁Maj 100
▁Nev 100
▁ash 100
style 100
▁1985 100
▁Merc 100
lected 100
▁Freed 100
▁union 100
▁Forces 100
▁excess 100
▁racing 100
▁stayed 100
▁density 100
▁engaged 100
▁roadway 100
▁articles 100
▁opposite 100
▁proteins 100
▁frequency 100
▁standards 100
▁controversy 100
23 100
ioc 100
utt 100
-200 100
arsh 100
helm 100
▁Vin 100
force 100
▁1910 100
▁1982 100
▁Bask 100
▁Meth 100
▁epit 100
▁cargo 100
▁gradu 100
▁inher 100
▁Legend 100
▁nations 100
▁arrested 100
▁chairman 100
▁Commander 100
SA 100
izer 100
ture 100
▁Cab 100
▁Deb 100
▁USS 100
angle 100
ensed 100
occer 100
orial 100
▁1945 100
▁Area 100
▁Bush 100
▁Vice 100
▁mort 100
▁Tamil 100
▁virus 100
▁wings 100
▁Fisher 100
▁reserv 100
▁Indians 100
▁fifteen 100
▁treated 100
▁championships 100
body 100
▁ped 100
iable 100
▁1943 100
▁tack 100
▁vice 100
rowing 100
▁crown 100
▁hosts 100
▁paras 100
▁ratio 100
▁option 100
▁admitted 100
▁squadron 100
▁attracted 100
▁criticism 100
▁restoration 100
alog 100
▁Gun 100
attan 100
▁Farm 100
▁Glen 100
▁gene 100
estyle 100
icular 100
▁begun 100
▁roots 100
▁rower 100
ogether 100
▁bypass 100
▁chance 100
▁credit 100
▁assumed 100
▁charged 100
▁signing 100
▁Training 100
▁Edinburgh 100
▁exhibition 100
▁contributions 100
acre 100
▁Hip 100
▁bit 100
▁phr 100
▁tub 100
allas 100
north 100
while 100
▁Thor 100
▁soul 100
▁choir 100
▁rivers 100
▁Charlie 100
▁portions 100
▁predomin 100
▁thereafter 100
Un 100
acc 100
isf 100
ses 100
▁Si 100
acts 100
iece 100
▁Isa 100
▁Poll 100
▁copy 100
▁page 100
▁repr 100
▁shif 100
itable 100
▁Baker 100
▁Billy 100
▁Cinem 100
▁needs 100
verseas 100
▁copper 100
▁filled 100
▁charity 100
▁ranging 100
▁witness 100
▁publisher 100
▁technical 100
▁originated 100
▁description 100
▁responsibility 100
uj 100
▁AI 100
▁SH 100
olas 100
▁fal 100
▁pure 100
listed 100
▁Flags 100
certain 100
▁Guitar 100
▁Justin 100
▁Philip 100
▁decomm 100
▁complic 100
▁crosses 100
▁funeral 100
▁guitars 100
▁looking 100
formation 100
▁bringing 100
▁universe 100
▁Cathedral 100
▁convection 100
▁Construction 100
▁Ald 100
asure 100
venth 100
▁Ring 100
ingham 100
▁Every 100
▁Works 100
▁conqu 100
▁Marvel 100
▁medium 100
▁formally 100
▁emergency 100
▁generation 100
▁possibility 100
lik 100
rice 100
ulty 100
warf 100
▁Bed 100
▁Cle 100
▁Sin 100
▁TNA 100
▁mob 100
▁1973 100
▁lift 100
▁Graham 100
▁Johnny 100
▁output 100
▁fastest 100
▁founder 100
▁funding 100
▁Constant 100
▁politics 100
▁Management 100
▁Technology 100
▁foundation 100
▁collections 100
▁participants 100
li 100
AAF 100
▁71 100
▁Ple 100
antic 100
▁NCAA 100
▁Phys 100
▁Roll 100
▁Surv 100
ewhere 100
ultane 100
▁Drive 100
▁faith 100
▁rugby 100
▁Berlin 100
▁demand 100
▁Support 100
▁closing 100
▁Saturday 100
▁appropri 100
▁replacing 100
▁influences 100
▁inspiration 100
cor 100
def 100
▁Dyn 100
Music 100
▁Iran 100
▁Lost 100
▁ille 100
▁Trail 100
▁drugs 100
▁grade 100
▁seems 100
▁strip 100
onymous 100
▁debate 100
▁driver 100
▁enjoyed 100
▁opinion 100
▁samples 100
▁worship 100
▁definition 100
▁encountered 100
▁exclusively 100
tha 100
▁ve 100
aman 100
▁jur 100
ested 100
▁Ship 100
▁immig 100
▁Canter 100
▁Saturn 100
▁camera 100
▁courts 100
▁biggest 100
▁devices 100
▁proport 100
▁stopped 100
▁streets 100
▁instance 100
▁patterns 100
▁somewhat 100
▁partially 100
▁eliminated 100
▁Independent 100
cho 100
▁Ni 100
▁Cob 100
▁Lad 100
▁kit 100
▁unn 100
hetic 100
mates 100
reens 100
rings 100
▁1976 100
▁beam 100
▁didn 100
▁filed 100
▁renov 100
▁Allied 100
▁Spears 100
▁Treaty 100
▁airing 100
▁owners 100
▁decline 100
▁notably 100
▁teacher 100
▁victims 100
▁reconstr 100
▁terminal 100
▁theatrical 100
'. 100
vo 100
-13 100
mod 100
ilst 100
▁san 100
▁Half 100
▁Hend 100
▁Khan 100
▁Thus 100
▁impr 100
▁maps 100
▁1996. 100
▁venue 100
acrosse 100
plement 100
▁underw 100
▁values 100
▁feeding 100
▁parking 100
▁whereas 100
▁spending 100
▁generated 100
▁marketing 100
▁Administration 100
zo 100
bus 100
▁81 100
icit 100
▁cro 100
arius 100
esign 100
onnes 100
▁Amaz 100
▁Fish 100
▁Malt 100
▁grav 100
estone 100
▁waves 100
▁Flying 100
▁margin 100
▁mobile 100
▁rowing 100
▁stores 100
▁traded 100
inations 100
▁nothing 100
▁returns 100
▁trained 100
itzerland 100
▁connects 100
▁favorite 100
▁musician 100
▁villages 100
8). 100
tes 100
eron 100
rang 100
▁Kan 100
▁Lat 100
▁Mik 100
adesh 100
inter 100
▁Gary 100
▁Grey 100
▁Lead 100
▁sort 100
▁Quest 100
▁Small 100
▁learn 100
selling 100
▁Scient 100
▁sounds 100
▁Rolling 100
▁brigade 100
▁defence 100
▁storage 100
▁Campbell 100
▁assisted 100
▁restricted 100
axy 100
obi 100
ampa 100
▁horn 100
▁mand 100
uctive 100
▁Andre 100
▁Canal 100
▁deriv 100
▁fired 100
lington 100
▁Hudson 100
▁Murray 100
▁Social 100
▁Tigers 100
▁manner 100
ometimes 100
▁Clinton 100
▁Reserve 100
▁assists 100
▁carries 100
▁delayed 100
▁getting 100
▁possess 100
▁reaches 100
▁infantry 100
▁medicine 100
▁Indonesia 100
▁occasions 100
PC 100
▁Ah 100
▁Hugh 100
▁thin 100
earing 100
edding 100
ounced 100
urance 100
▁Fried 100
▁chapel 100
▁bridges 100
▁exposed 100
▁inhabit 100
▁journey 100
▁Services 100
▁constitu 100
ographical 100
▁competing 100
▁Canterbury 100
▁Millennium 100
9), 100
sts 100
ugu 100
▁Py 100
▁Ban 100
▁Tak 100
leans 100
▁Frid 100
▁Slov 100
▁legs 100
▁Territ 100
▁edited 100
▁string 100
▁Bernard 100
▁Phoenix 100
▁starred 100
▁Microsoft 100
▁identical 100
▁satellite 100
▁reportedly 100
▁translation 100
21 100
erk 100
ois 100
▁4. 100
▁Ku 100
▁Na 100
four 100
ompl 100
▁Mem 100
▁cul 100
▁dogs 100
▁hang 100
▁tell 100
▁Youth 100
▁flash 100
▁prohib 100
▁bacteria 100
▁Initially 100
▁discussed 100
▁historically 100
PS 100
mn 100
This 100
▁CBS 100
▁Got 100
▁Lyn 100
▁cyl 100
▁rub 100
ategy 100
layer 100
ocked 100
rator 100
▁1948 100
▁1981 100
▁OCLC 100
▁door 100
▁zero 100
▁Steel 100
▁Usher 100
▁fluor 100
▁pregn 100
claimed 100
species 100
▁fisher 100
▁finding 100
▁editions 100
▁platforms 100
▁recordings 100
▁subtropical 100
▁ca 100
elta 100
annon 100
rient 100
▁sell 100
▁Norse 100
▁genre 100
▁grant 100
▁mayor 100
▁spend 100
▁Critics 100
▁Orleans 100
▁convent 100
ationally 100
▁Basketball 100
▁01 100
▁Ga 100
edar 100
hill 100
▁110 100
▁Anc 100
▁Wii 100
ouver 100
▁Manh 100
▁Anglo 100
▁Upper 100
▁Indies 100
▁Nature 100
▁charges 100
▁perfect 100
▁picture 100
▁Sciences 100
▁sessions 100
▁thousand 100
▁approached 100
▁mechanical 100
▁sufficient 100
▁decommissioned 100
fe 100
sw 100
-20 100
imp 100
oyal 100
▁Neil 100
aments 100
▁Hindu 100
▁Weekly 100
▁extent 100
▁proced 100
▁Stevens 100
▁housing 100
▁detailed 100
▁patients 100
▁mastering 100
▁components 100
▁journalist 100
▁Engineering 100
▁Switzerland 100
CN 100
ür 100
imm 100
▁Jun 100
iency 100
bishop 100
icians 100
rently 100
▁1995. 100
▁Evans 100
▁escort 100
▁orange 100
▁rounds 100
ancouver 100
▁evening 100
▁focuses 100
▁reality 100
▁exclusive 100
▁simultane 100
▁Queensland 100
▁continuing 100
▁electrical 100
▁locomotives 100
4), 100
iat 100
rep 100
ricts 100
white 100
▁Buck 100
▁Lion 100
▁fest 100
coming 100
▁Labor 100
▁Place 100
▁Plant 100
▁brick 100
▁finds 100
▁moment 100
▁Natural 100
▁classic 100
▁dismiss 100
▁markets 100
▁Pictures 100
▁designer 100
▁learning 100
▁resources 100
▁recognised 100
opp 100
osm 100
▁wr 100
east 100
unny 100
▁Nav 100
▁nut 100
▁Utah 100
▁rich 100
▁1992, 100
▁Pitts 100
▁bases 100
▁divor 100
▁trend 100
▁Comedy 100
▁finale 100
▁marine 100
▁recept 100
▁locally 100
▁printed 100
▁rushing 100
▁trailer 100
▁gameplay 100
▁thirteen 100
▁Vancouver 100
▁Tournament 100
GN 100
aws 100
enh 100
ika 100
apse 100
emic 100
pton 100
▁Ale 100
▁Dod 100
▁Fel 100
▁Tob 100
ugosl 100
▁Beng 100
▁Nord 100
▁anth 100
eneral 100
▁Metro 100
▁basin 100
▁Taiwan 100
▁fossil 100
▁shield 100
▁Instead 100
▁consult 100
▁donated 100
▁evolved 100
▁survive 100
▁Malaysia 100
▁branches 100
▁concerts 100
▁missions 100
▁displayed 100
▁residence 100
BO 100
6), 100
agu 100
mat 100
sky 100
▁5% 100
oker 100
▁Chen 100
▁Gray 100
▁bone 100
▁lung 100
ampton 100
▁Lloyd 100
▁coinc 100
anguage 100
▁discip 100
▁Classic 100
▁benefit 100
▁attained 100
▁criminal 100
▁syndrome 100
▁molecules 100
▁qualified 100
▁recommend 100
▁Historical 100
▁institutions 100
▁observations 100
▁characteristic 100
ea 100
uv 100
yd 100
wat 100
▁5- 100
▁pp 100
irts 100
type 100
▁174 100
▁Ltd 100
▁Meg 100
▁Mand 100
▁Stre 100
▁Stri 100
▁wreck 100
▁missed 100
▁refere 100
▁Harvard 100
▁accompl 100
▁alleged 100
▁drafted 100
▁perhaps 100
▁professor 100
▁statement 100
▁earthquake 100
▁expression 100
▁involvement 100
8), 100
imen 100
odox 100
▁Adv 100
▁Bos 100
▁Rub 100
▁die 100
anton 100
ching 100
▁1971 100
▁Gard 100
▁Zone 100
▁ages 100
▁cong 100
▁Abbey 100
▁aware 100
▁stood 100
▁Alaska 100
▁enters 100
▁Alexand 100
▁erected 100
▁factory 100
▁gardens 100
▁questions 100
▁photographs 100
▁competitions 100
▁independence 100
', 100
22 100
CS 100
chi 100
▁da 100
amas 100
team 100
▁Sac 100
▁Lanc 100
▁Mack 100
▁Much 100
▁Soul 100
▁wore 100
roscop 100
▁Mario 100
▁raise 100
ologies 100
▁Chamber 100
▁alcohol 100
▁extends 100
▁extreme 100
▁sisters 100
northwest 100
urricanes 100
▁concerns 100
▁youngest 100
▁Manhattan 100
▁supporters 100
▁electricity 100
-11 100
door 100
▁(30 100
▁10. 100
▁130 100
▁Lex 100
▁Pil 100
eland 100
▁1974 100
▁gust 100
hammad 100
▁1990, 100
▁Stars 100
▁poems 100
▁polar 100
quarter 100
▁Native 100
▁Rhodes 100
▁Single 100
▁agency 100
▁assemb 100
▁detail 100
▁Montana 100
▁Twitter 100
▁teaching 100
▁predators 100
▁describing 100
▁membership 100
▁reputation 100
▁experiences 100
spe 100
▁91 100
▁Pa 100
ghan 100
neum 100
sole 100
▁Ral 100
▁See 100
▁ign 100
shore 100
▁Pink 100
▁Pros 100
▁sulf 100
apping 100
keeper 100
▁1941, 100
▁chess 100
▁falls 100
ificial 100
▁Spirit 100
▁Yugosl 100
▁poetry 100
▁powered 100
▁Margaret 100
▁churches 100
▁segments 100
▁champions 100
▁touchdowns 100
▁translated 100
▁predecessor 100
je 100
bal 100
xim 100
amic 100
ners 100
ques 100
▁Fly 100
anium 100
borne 100
illes 100
▁1890 100
▁Bass 100
▁Cand 100
▁Cuba 100
▁Dest 100
▁Hope 100
▁Kirk 100
▁grown 100
▁signs 100
▁Female 100
▁sharks 100
▁triple 100
▁wealth 100
▁window 100
▁Gallery 100
▁earning 100
▁message 100
▁variant 100
▁involves 100
▁literary 100
▁Authority 100
ds 100
lon 100
pir 100
▁5. 100
rena 100
such 100
▁bom 100
▁tex 100
three 100
▁mine 100
▁span 100
▁shots 100
achelor 100
▁doctor 100
▁income 100
outheast 100
▁athlete 100
▁carrier 100
▁pitched 100
▁Industry 100
▁compiled 100
▁fourteen 100
▁platinum 100
▁Hampshire 100
▁committed 100
▁demolished 100
▁presidential 100
Mar 100
▁DS 100
icip 100
▁Ice 100
leted 100
rency 100
reted 100
▁mini 100
▁1991, 100
▁Solar 100
▁Yanke 100
▁cards 100
▁renew 100
▁Chapel 100
▁Stuart 100
▁exists 100
▁extens 100
▁rebuilt 100
▁uncertain 100
▁afterwards 100
▁conservation 100
AR 100
▁Rud 100
▁mac 100
enger 100
erted 100
▁Pope 100
celand 100
▁Cyrus 100
▁Jerry 100
▁diver 100
▁guide 100
▁Muslim 100
▁statue 100
▁writes 100
▁Turkish 100
▁absence 100
▁Brothers 100
▁overseas 100
▁starring 100
▁strategy 100
▁operational 100
▁relationships 100
AN 100
One 100
▁6: 100
olid 100
orus 100
▁101 100
▁Cad 100
▁Thr 100
▁Halo 100
▁Mall 100
▁wick 100
▁banks 100
▁beats 100
▁morph 100
▁rains 100
▁Market 100
▁Quebec 100
▁Austria 100
▁Regional 100
▁heritage 100
▁scrapped 100
▁strongly 100
▁divisions 100
▁competitive 100
▁protagonist 100
▁considerable 100
cha 100
soon 100
▁Haz 100
▁Rat 100
▁cad 100
▁els 100
▁web 100
▁1972 100
▁boys 100
▁Store 100
▁fract 100
▁prime 100
aughter 100
endment 100
▁Dallas 100
▁tonnes 100
ellation 100
▁Beatles 100
▁Buffalo 100
▁Freedom 100
▁illness 100
▁organic 100
▁founding 100
▁elsewhere 100
▁infection 100
▁interpret 100
▁ownership 100
▁variations 100
▁partnership 100
▁territories 100
▁collaboration 100
95 100
Ne 100
▁"[ 100
▁CR 100
abet 100
osph 100
▁Set 100
▁lun 100
icate 100
▁Carn 100
▁emot 100
▁grey 100
▁jazz 100
master 100
▁Princ 100
▁excav 100
▁flows 100
▁sailed 100
▁Rangers 100
▁acceler 100
▁coverage 100
▁numbered 100
▁violence 100
▁suspended 100
▁millimeters 100
hus 100
isd 100
top 100
lett 100
orig 100
▁Las 100
hered 100
▁1969 100
▁1977 100
▁Laur 100
▁pole 100
▁Perry 100
▁Vocal 100
▁chrom 100
▁simpl 100
ulating 100
▁Friday 100
▁Mobile 100
▁Motion 100
▁Potter 100
▁export 100
▁styles 100
▁unlike 100
▁Edwards 100
▁coaches 100
▁dynasty 100
▁armament 100
▁hundreds 100
▁Princeton 100
▁displaced 100
▁processes 100
▁responded 100
▁storyline 100
▁convention 100
▁publications 100
▁entertainment 100
24 100
AL 100
asp 100
cut 100
uez 100
vet 100
▁pm 100
egas 100
▁vul 100
opran 100
▁1966 100
▁1968 100
▁Fact 100
▁Lang 100
▁Then 100
▁garn 100
inding 100
▁polic 100
theless 100
▁corpor 100
▁resign 100
▁stress 100
▁tissue 100
▁voices 100
▁Iceland 100
▁Princip 100
▁Village 100
▁colonial 100
▁departure 100
▁dominated 100
▁intention 100
▁spacecraft 100
▁substitute 100
▁grandfather 100
▁establishment 100
PD 100
five 100
seud 100
▁Dom 100
▁Juan 100
▁euro 100
▁lect 100
irates 100
strong 100
▁metab 100
▁Burton 100
▁behavi 100
▁amongst 100
▁advertis 100
▁mountains 100
▁practices 100
▁intelligence 100
▁administrative 100
cr 100
las 100
uto 100
▁2- 100
atab 100
fire 100
half 100
▁125 100
▁165 100
▁Amb 100
▁Eth 100
▁rum 100
ocity 100
ridge 100
▁Chel 100
▁cous 100
▁exit 100
▁rent 100
uilera 100
▁Barry 100
▁Tokyo 100
▁ridge 100
▁Harbor 100
▁skills 100
▁windows 100
▁Aguilera 100
▁dangerous 100
▁₹ 100
rav 100
ser 100
ardo 100
hard 100
▁Ran 100
▁rit 100
▁vit 100
where 100
▁1975 100
▁Bull 100
▁glac 100
Donald 100
▁Mayor 100
▁moist 100
▁parks 100
▁Greater 100
▁neither 100
▁Electric 100
▁Province 100
▁Railroad 100
▁breaking 100
▁restrict 100
▁warnings 100
onnaissance 100
▁attraction 100
▁qualifying 100
▁subspecies 100
▁consumption 100
ova 100
raf 100
▁3- 100
▁VI 100
oria 100
uper 100
▁173 100
▁Kap 100
▁Var 100
▁vic 100
owned 100
▁1936 100
▁Delta 100
▁Drama 100
mingham 100
uations 100
▁picked 100
▁Defence 100
▁Studies 100
▁achieve 100
▁flowers 100
▁friendly 100
▁elevation 100
▁businesses 100
▁conclusion 100
▁historians 100
▁accompanying 100
gow 100
ogs 100
rak 100
asts 100
riel 100
▁140 100
rastr 100
rogen 100
▁1919 100
▁Baby 100
▁Near 100
▁Nine 100
▁Than 100
▁pros 100
▁Polit 100
▁Spart 100
▁alleg 100
▁cable 100
▁curve 100
▁dream 100
▁ninet 100
▁rings 100
▁denied 100
atically 100
▁Foreign 100
▁fighter 100
▁proposal 100
▁railroad 100
▁supposed 100
▁volcanic 100
▁immediate 100
▁lieutenant 100
▁architectural 100
▁controversial 100
mi 100
ti 100
axon 100
orer 100
▁IGN 100
onium 100
▁Full 100
▁Glas 100
▁Mult 100
▁Pete 100
▁Terry 100
▁fewer 100
winning 100
▁Austin 100
▁Mycena 100
▁blocks 100
▁Croatia 100
▁Primary 100
▁helping 100
▁winners 100
▁traveled 100
▁Orchestra 100
▁Yorkshire 100
▁suffering 100
▁weakening 100
▁($ 100
cons 100
high 100
ulus 100
arest 100
brown 100
onsin 100
▁Berm 100
▁Face 100
▁pale 100
▁beach 100
▁chron 100
▁opera 100
igenous 100
instein 100
▁Former 100
▁Meteor 100
▁Palest 100
▁facing 100
▁radius 100
▁repair 100
▁theore 100
▁freedom 100
▁horizon 100
▁scholar 100
▁anything 100
▁chapters 100
▁specimen 100
▁orchestra 100
▁radiation 100
▁reduction 100
▁biological 100
▁documented 100
▁scientists 100
▁advertising 100
sl 100
Big 100
oda 100
pty 100
▁Ec 100
ando 100
idel 100
ruit 100
▁Nag 100
▁fur 100
▁net 100
▁sax 100
▁tag 100
▁tel 100
child 100
▁Cass 100
▁Fund 100
▁Nazi 100
▁conj 100
▁dipl 100
▁hope 100
▁rect 100
ecting 100
imeter 100
ooking 100
▁Lower 100
▁Total 100
▁oxide 100
▁Afghan 100
▁naming 100
▁Ancient 100
▁Wilhelm 100
▁Winners 100
▁accused 100
▁courses 100
▁graphics 100
▁reviewer 100
▁districts 100
▁favorable 100
▁watershed 100
▁difficulty 100
▁newspapers 100
▁renumbering 100
On 100
-17 100
bow 100
osy 100
dess 100
enic 100
idal 100
irty 100
urst 100
▁Kit 100
▁Sox 100
▁oak 100
▁unp 100
andal 100
ingle 100
▁mild 100
▁user 100
▁ferry 100
▁sight 100
▁spoke 100
▁worst 100
▁butter 100
▁ensure 100
▁ethnic 100
▁papers 100
▁tribes 100
▁amateur 100
▁indirect 100
▁Argentina 100
▁organisms 100
▁submitted 100
▁technique 100
▁battleship 100
▁comparison 100
▁occupation 100
DA 100
iko 100
urg 100
case 100
▁Loc 100
▁Unt 100
▁lie 100
▁Shel 100
▁Round 100
▁hills 100
▁meets 100
▁weigh 100
ossible 100
▁Nevada 100
▁Rivers 100
isconsin 100
strument 100
▁Finland 100
▁Thunder 100
▁assault 100
▁batting 100
▁theater 100
▁tickets 100
sequently 100
▁Aviation 100
▁changing 100
▁concrete 100
▁occurring 100
▁prisoners 100
rastructure 100
▁illustrated 100
▁underground 100
▁southeastern 100
ME 100
New 100
RNA 100
ugs 100
▁AA 100
▁DJ 100
▁Ry 100
▁Raw 100
▁buy 100
▁1965 100
▁Sean 100
▁seed 100
▁1989, 100
▁Woman 100
▁imped 100
▁Altern 100
▁Turner 100
▁ranges 100
▁ticket 100
▁Barbara 100
▁cantata 100
▁greatly 100
▁flagship 100
▁mainland 100
▁schedule 100
▁Broadcast 100
▁animation 100
▁sponsored 100
▁interviews 100
▁substantial 100
CD 100
SS 100
dy 100
aha 100
aux 100
who 100
umni 100
▁Fal 100
▁Gor 100
▁duo 100
rants 100
▁1914 100
▁1967 100
▁Talk 100
▁jury 100
▁plus 100
▁Cryst 100
▁clock 100
▁inhab 100
▁ports 100
▁tenor 100
▁intense 100
▁shorter 100
▁Official 100
▁remaster 100
▁supplies 100
▁mushrooms 100
▁boundaries 100
35 100
Be 100
▁Æ 100
asa 100
bie 100
sor 100
ctic 100
▁164 100
▁Div 100
▁Rab 100
▁VHS 100
udden 100
▁1938 100
▁Brig 100
itudes 100
ophone 100
▁Grove 100
▁Madag 100
▁Ralph 100
▁admin 100
▁climb 100
▁goods 100
▁resid 100
pective 100
redited 100
▁Johann 100
▁colony 100
▁runner 100
▁whilst 100
restrial 100
▁Cricket 100
▁Version 100
▁suicide 100
▁Muhammad 100
▁educated 100
▁Brazilian 100
▁Wisconsin 100
▁candidates 100
▁Confederate 100
▁announcement 100
▁increasingly 100
si 100
fam 100
net 100
rim 100
core 100
iens 100
ithm 100
▁(25 100
▁Ins 100
▁Inv 100
▁rib 100
▁tip 100
▁ump 100
▁Dart 100
▁Gran 100
▁Such 100
▁salt 100
omical 100
overed 100
▁Guild 100
▁Isaac 100
▁Krist 100
▁Parks 100
▁Ridge 100
▁deter 100
▁Danish 100
▁Hughes 100
▁behalf 100
▁secure 100
▁screens 100
▁resigned 100
▁decorated 100
▁measuring 100
▁travelled 100
85 100
adi 100
▁6. 100
▁FM 100
▁Ext 100
▁Mul 100
▁Wes 100
▁hat 100
ingly 100
▁Curt 100
▁Mans 100
▁Prom 100
▁twin 100
enesis 100
▁1992. 100
▁1994. 100
▁prize 100
changed 100
▁Donald 100
▁Nathan 100
▁Peters 100
▁ballad 100
▁exceed 100
▁inland 100
▁Antonio 100
▁Diamond 100
▁sustain 100
▁Alliance 100
▁Armenian 100
▁documents 100
▁increases 100
▁scattered 100
▁agricultural 100
▁communication 100
26 100
], 100
ema 100
iti 100
▁Il 100
What 100
asia 100
emed 100
icus 100
illo 100
lake 100
othy 100
oves 100
uese 100
▁Ped 100
▁mal 100
▁oct 100
▁vin 100
backs 100
▁1962 100
▁Bent 100
▁1942, 100
▁pairs 100
▁pneum 100
▁ranks 100
▁usual 100
▁armour 100
▁census 100
▁mental 100
▁learned 100
▁opponent 100
▁Adventure 100
▁magnitude 100
▁predicted 100
▁reactions 100
▁relocated 100
▁artificial 100
▁graduating 100
Re 100
hl 100
kh 100
nik 100
six 100
edia 100
mont 100
▁Fif 100
▁Has 100
ascar 100
overe 100
▁Fern 100
▁Less 100
▁1940, 100
▁Craig 100
▁Larry 100
▁Pearl 100
▁angle 100
▁carri 100
inosaur 100
▁Ground 100
▁Number 100
▁faster 100
▁guests 100
▁housed 100
▁partly 100
▁promin 100
▁Century 100
▁Senator 100
▁sitting 100
▁networks 100
▁remember 100
▁solution 100
▁Executive 100
▁campaigns 100
▁transportation 100
bi 100
ni 100
oa 100
ivan 100
ocol 100
▁12- 100
▁Sem 100
▁1917 100
▁Gene 100
▁prel 100
omatic 100
terior 100
ussian 100
▁(2010 100
▁Keith 100
▁Obama 100
▁acids 100
▁adopt 100
▁drink 100
▁marks 100
▁taste 100
legiate 100
▁Hearts 100
▁Napole 100
▁Oliver 100
▁closer 100
▁parody 100
▁rescue 100
▁roster 100
▁signal 100
▁Coaster 100
▁coaching 100
▁directors 100
▁millimetres 100
▁organisation 100
cat 100
pat 100
arth 100
inth 100
ista 100
mund 100
rage 100
text 100
▁(24 100
venge 100
▁1947 100
▁toll 100
artney 100
▁Griff 100
▁stick 100
▁tanks 100
▁thing 100
▁tours 100
landers 100
minster 100
▁Econom 100
▁Labour 100
▁aboard 100
▁matrix 100
▁melody 100
graduate 100
riptions 100
▁Affairs 100
▁Collins 100
▁Mission 100
▁Overall 100
▁closest 100
▁creator 100
▁diverse 100
▁emerged 100
▁persons 100
▁revenue 100
▁Austrian 100
▁garnered 100
▁habitats 100
▁hypothes 100
▁identify 100
▁withdraw 100
▁destroyer 100
▁neighbour 100
▁Birmingham 100
▁Pittsburgh 100
▁respective 100
An 100
MC 100
erb 100
oca 100
▁Lin 100
▁Pad 100
▁Seb 100
▁fro 100
asaki 100
eared 100
emble 100
otton 100
▁1000 100
▁1946 100
▁Prix 100
▁leaf 100
▁subd 100
incial 100
▁1945, 100
▁nerve 100
▁speak 100
▁assess 100
▁custom 100
▁desert 100
▁hybrid 100
▁limits 100
▁Officer 100
▁charter 100
▁dischar 100
▁discont 100
▁circular 100
▁enlisted 100
▁Professor 100
▁manufactured 100
Hop 100
ilty 100
ylan 100
▁Inn 100
▁mir 100
emies 100
ersed 100
itals 100
izers 100
tical 100
▁000, 100
▁1953 100
▁1955 100
▁Room 100
▁dust 100
ffield 100
vision 100
▁Clare 100
iveness 100
▁Action 100
▁Comics 100
▁Lennon 100
▁assass 100
▁cancel 100
▁gather 100
▁praise 100
▁viewing 100
▁Guardian 100
▁Newfound 100
▁honorary 100
▁phenomen 100
▁particles 100
▁dissipating 100
▁Conservation 100
▁Metropolitan 100
▁simultaneously 100
86 100
IN 100
SO 100
ST 100
▁7. 100
olly 100
otyp 100
▁Saf 100
▁Vel 100
▁ing 100
stage 100
uzzle 100
▁Cher 100
▁Luke 100
▁Nova 100
▁worn 100
former 100
rehens 100
▁1988, 100
▁Alice 100
▁Based 100
▁Swift 100
▁Swiss 100
▁Tampa 100
▁alter 100
▁crest 100
▁dense 100
▁(2008) 100
▁Volume 100
▁jurisd 100
▁merged 100
▁tempor 100
▁boilers 100
▁centers 100
▁strings 100
▁absorbed 100
▁chloride 100
▁diseases 100
▁merchant 100
▁opportun 100
▁attending 100
▁everything 100
▁concentration 100
mun 100
▁tu 100
ilis 100
rock 100
▁Abd 100
▁Dak 100
about 100
angel 100
fully 100
heric 100
▁1918 100
▁Karl 100
▁encl 100
escope 100
▁Arena 100
▁Leeds 100
▁Lucas 100
▁Where 100
▁fixed 100
▁siege 100
▁Agency 100
▁excell 100
▁repeat 100
▁spaces 100
▁Section 100
▁Stefani 100
▁faculty 100
▁prevented 100
▁governments 100
▁influential 100
▁Newfoundland 100
Te 100
acht 100
enti 100
ivia 100
usal 100
▁Heb 100
▁Mrs 100
▁Pul 100
▁etc 100
▁jet 100
final 100
odore 100
▁(189 100
▁1870 100
▁1915 100
▁1937 100
▁NASA 100
▁Trek 100
▁quad 100
▁sang 100
▁sees 100
athing 100
▁Alpha 100
▁Eight 100
▁Films 100
▁Malay 100
▁Speed 100
▁elder 100
▁panel 100
▁usage 100
angular 100
▁Method 100
▁Report 100
▁autumn 100
▁scores 100
▁weapon 100
▁Bermuda 100
▁Glasgow 100
▁predict 100
▁someone 100
▁tribute 100
▁external 100
▁completing 100
▁structural 100
▁requirements 100
-16 100
cal 100
rov 100
▁Fa 100
▁Wa 100
acle 100
avil 100
enna 100
etta 100
mith 100
oids 100
omys 100
▁105 100
scale 100
▁1978 100
▁Chad 100
▁Rush 100
▁tomb 100
▁unve 100
▁1987, 100
▁Ghost 100
▁Malta 100
▁Wings 100
▁accum 100
▁dwarf 100
writing 100
▁Having 100
▁Return 100
▁Senior 100
▁colors 100
▁desire 100
▁intent 100
▁Members 100
▁bombard 100
▁placing 100
▁argument 100
▁magnetic 100
▁shoulder 100
▁Madagascar 100
▁demographic 100
ht 100
sa 100
jan 100
amer 100
know 100
▁Joy 100
▁sor 100
speed 100
▁1956 100
▁Shah 100
▁doct 100
▁fron 100
▁moon 100
▁Symph 100
▁consc 100
▁sanct 100
▁tribe 100
▁Colomb 100
▁breast 100
▁invers 100
▁Borough 100
▁Written 100
▁chronic 100
▁depicts 100
▁heading 100
▁wedding 100
▁velocity 100
▁Sheffield 100
▁Victorian 100
▁inaugural 100
▁accessible 100
▁investment 100
▁preparation 100
▁experimental 100
Jo 100
do 100
DOT 100
▁LP 100
Love 100
abad 100
appa 100
ixon 100
ulum 100
▁360 100
▁Saw 100
▁Vik 100
anche 100
iliar 100
▁1958 100
▁Salt 100
▁danc 100
▁furn 100
▁thor 100
▁Geoff 100
▁Sweet 100
▁Vegas 100
▁toler 100
mediate 100
ruption 100
▁Murphy 100
▁Wolver 100
▁poorly 100
▁Israeli 100
▁deleted 100
▁retreat 100
▁Security 100
▁detected 100
▁dialogue 100
▁eastward 100
▁Meanwhile 100
▁supplement 100
▁Continental 100
▁Paralympics 100
-15 100
uin 100
▁2) 100
ipes 100
noon 100
▁(29 100
▁Eug 100
▁dim 100
▁mes 100
lived 100
▁Ches 100
▁Shak 100
▁jobs 100
▁wine 100
astery 100
castle 100
orious 100
rupted 100
▁1985, 100
▁Eddie 100
▁Magic 100
▁innov 100
▁radar 100
achment 100
compass 100
itative 100
ivation 100
ometric 100
▁topped 100
▁voiced 100
hetamine 100
ustrated 100
▁collaps 100
▁honours 100
▁controll 100
▁subjects 100
▁challenge 100
▁mechanism 100
▁preferred 100
▁celebrated 100
▁effectively 100
gor 100
uman 100
▁Bes 100
▁Sug 100
▁ion 100
meter 100
readn 100
▁Bald 100
▁Jama 100
▁Lock 100
▁Mess 100
▁easy 100
▁safe 100
▁1964, 100
▁Range 100
▁acute 100
▁Mother 100
▁filter 100
▁honors 100
▁mature 100
▁voting 100
atherine 100
▁Germans 100
▁Quarter 100
▁dollars 100
▁drawing 100
▁survival 100
▁McCartney 100
▁estimates 100
▁interests 100
▁apparently 100
▁statistics 100
MP 100
aco 100
ige 100
uly 100
▁NO 100
auty 100
otte 100
rina 100
▁10- 100
▁Aqu 100
▁cir 100
▁fee 100
▁pel 100
berry 100
chair 100
izard 100
phone 100
riors 100
rises 100
▁reef 100
▁rout 100
annels 100
▁Medic 100
▁Peace 100
▁explo 100
▁trump 100
▁Mixing 100
▁Shield 100
▁bishop 100
▁noting 100
▁silent 100
▁stroke 100
▁tennis 100
▁Vincent 100
▁explain 100
▁origins 100
▁walking 100
▁disorder 100
▁battalion 100
▁referring 100
▁traveling 100
▁profession 100
▁researchers 100
Con 100
gun 100
▁Hi 100
cour 100
gets 100
omal 100
rium 100
yler 100
▁202 100
▁Kon 100
▁err 100
ieber 100
trans 100
▁1957 100
▁Celt 100
▁Prop 100
▁masc 100
▁root 100
▁trig 100
ihanna 100
second 100
▁1939, 100
▁Alban 100
▁Danny 100
▁Exper 100
▁canal 100
▁links 100
regular 100
▁suburb 100
▁tested 100
▁extract 100
▁colonies 100
▁superior 100
▁cathedral 100
▁construct 100
▁requested 100
▁hurricanes 100
▁appointment 100
36 100
ED 100
uri 100
▁1% 100
▁9. 100
West 100
▁115 100
▁McL 100
istle 100
usted 100
▁golf 100
icated 100
stidia 100
▁Robin 100
▁femin 100
▁steep 100
▁steps 100
▁Future 100
▁Rights 100
▁choose 100
▁dubbed 100
▁stones 100
▁switch 100
▁varied 100
▁diamond 100
▁partial 100
▁claiming 100
▁licensed 100
▁nickname 100
▁recovery 100
▁encompass 100
▁expensive 100
▁attempting 100
▁locomotive 100
▁legislation 100
▁traditionally 100
▁internationally 100
CR 100
fix 100
iar 100
ieg 100
▁Ce 100
thel 100
umps 100
▁ESP 100
▁Hom 100
▁Lem 100
▁gone 100
azines 100
person 100
▁1943, 100
▁1991. 100
▁Burke 100
▁Devil 100
▁Prest 100
▁Tales 100
▁alien 100
▁recru 100
▁texts 100
▁verte 100
ounters 100
▁Dayton 100
▁Planet 100
▁spoken 100
▁Belgian 100
▁Persian 100
▁formats 100
▁mammals 100
▁reinfor 100
▁sixteen 100
▁Communic 100
▁relation 100
▁Northwest 100
▁comprises 100
▁Indonesian 100
▁appropriate 100
▁constellation 100
yt 100
oft 100
pin 100
beat 100
iler 100
okes 100
roat 100
▁$10 100
▁Lud 100
▁Pay 100
▁Tol 100
▁lem 100
arium 100
inned 100
▁Salv 100
▁Walt 100
▁eval 100
▁Chand 100
▁Judge 100
▁anime 100
▁gills 100
▁Online 100
▁breeds 100
▁decomp 100
▁edible 100
esignated 100
▁disaster 100
▁reducing 100
▁suitable 100
▁Beginning 100
▁sequences 100
▁encouraged 100
▁Springfield 100
▁Organization 100
▁arrangements 100
ju 100
haw 100
cott 100
esty 100
ilit 100
▁172 100
▁ATP 100
▁Tit 100
▁tap 100
using 100
▁1880 100
▁Bomb 100
▁Ener 100
▁Rena 100
▁dual 100
▁earn 100
▁pink 100
▁Falls 100
▁Grace 100
▁aimed 100
▁enfor 100
▁Living 100
▁Turkey 100
▁Wonder 100
▁config 100
▁orbits 100
▁tenure 100
▁nearest 100
▁unclear 100
▁meetings 100
▁offering 100
▁supplied 100
▁discontin 100
▁ceremonies 100
▁competitors 100
▁improvements 100
▁southwestern 100
▁participation 100
▁Representatives 100
Tr 100
Ind 100
UCN 100
▁CA 100
anne 100
arts 100
wald 100
▁Fil 100
▁Nat 100
▁Ric 100
▁Wor 100
▁cry 100
▁mit 100
▁tun 100
▁1952 100
▁Clay 100
▁Lith 100
▁clar 100
▁dies 100
▁gaug 100
▁mask 100
▁tone 100
alysis 100
▁Psych 100
▁sheep 100
▁wrong 100
General 100
▁(2004) 100
▁(2009) 100
▁(2012) 100
▁Artist 100
▁Father 100
▁Invest 100
▁Nation 100
▁atomic 100
▁cousin 100
▁eating 100
▁prices 100
▁Rihanna 100
▁cavalry 100
▁freight 100
▁therapy 100
▁tourist 100
▁abundant 100
▁controls 100
▁decrease 100
▁mentions 100
▁playable 100
▁visiting 100
▁sculpture 100
▁variation 100
▁continuous 100
▁functional 100
▁mainstream 100
▁corresponding 100
ER 100
If 100
agg 100
igs 100
▁FC 100
▁Mi 100
arus 100
folk 100
isis 100
pled 100
rose 100
xide 100
▁168 100
▁Ali 100
▁Cre 100
▁Kam 100
▁Neg 100
▁Pap 100
▁Sle 100
▁adm 100
agers 100
ringe 100
uctor 100
utter 100
▁Arms 100
▁Carp 100
▁Enix 100
▁Mong 100
▁reun 100
oprano 100
▁1914, 100
▁1990. 100
▁Globe 100
▁cream 100
▁telev 100
atabase 100
▁Dwight 100
▁Guinea 100
▁absent 100
▁agents 100
▁burial 100
▁palace 100
aturally 100
▁Fighter 100
▁surpass 100
▁Montreal 100
▁Together 100
▁displays 100
▁executed 100
▁freshman 100
▁studying 100
ologically 100
▁possession 100
▁publishing 100
▁suggesting 100
▁Universities 100
▁circumstances 100
HC 100
din 100
dra 100
▁Ay 100
▁Gh 100
▁Vo 100
avel 100
▁Jar 100
▁Pic 100
▁RAF 100
▁sky 100
▁tum 100
odium 100
oking 100
olars 100
▁Bend 100
▁Jess 100
▁Shin 100
▁gang 100
▁knew 100
akespe 100
enberg 100
ioneer 100
verted 100
▁1993. 100
▁Bears 100
▁Chall 100
▁Stein 100
▁Those 100
▁aster 100
▁spawn 100
▁Harper 100
▁accord 100
▁explan 100
▁remove 100
ublished 100
▁Yankees 100
▁console 100
▁pitcher 100
▁soldier 100
abilities 100
▁diagnosis 100
▁horizontal 100
.; 100
ía 100
▁Ax 100
lesh 100
▁Kid 100
▁Tow 100
▁bes 100
▁mos 100
arant 100
enson 100
ospel 100
▁1963 100
▁Shan 100
▁Soft 100
▁hear 100
stance 100
▁Local 100
▁bones 100
▁micro 100
▁ready 100
▁uncle 100
hemical 100
ullivan 100
▁Athens 100
▁Clarke 100
▁Travel 100
▁ceased 100
▁dimens 100
▁phrase 100
▁surviv 100
▁varies 100
▁Theater 100
▁anticip 100
▁exhibit 100
▁goddess 100
▁handled 100
▁ongoing 100
▁secured 100
▁turrets 100
akespeare 100
▁channels 100
▁clothing 100
▁theories 100
▁withdrew 100
▁concerned 100
▁essential 100
▁evacuated 100
▁promoting 100
▁signature 100
▁Convention 100
▁Portuguese 100
▁revolution 100
▁distinguish 100
▁scholarship 100
▁Independence 100
38 100
Am 100
ubs 100
▁Uk 100
ashi 100
held 100
olia 100
▁12. 100
▁Eld 100
▁Ted 100
▁Tun 100
▁rod 100
▁ske 100
oints 100
raine 100
world 100
▁Pars 100
▁nerv 100
achers 100
alling 100
encing 100
hanced 100
▁1918, 100
▁1945. 100
▁1972, 100
▁Cedar 100
▁Flore 100
▁Glass 100
▁Mixed 100
▁sweet 100
▁Yellow 100
▁gender 100
▁layers 100
▁sudden 100
▁Gilbert 100
▁balance 100
▁removal 100
▁tracked 100
▁AllMusic 100
▁Nicholas 100
▁approval 100
▁cruisers 100
▁fortress 100
▁extending 100
▁transmission 100
▁infrastructure 100
39 100
45 100
ré 100
uka 100
▁EU 100
▁ho 100
best 100
gans 100
olen 100
romb 100
▁350 100
▁Fat 100
▁Lag 100
ellar 100
uable 100
uters 100
▁1911 100
▁Emer 100
▁Mond 100
▁bapt 100
▁grid 100
amount 100
▁Colin 100
▁advoc 100
▁sings 100
adition 100
▁Observ 100
▁cattle 100
▁hamlet 100
▁skiing 100
▁Hungary 100
▁Islamic 100
▁Trinity 100
▁auction 100
▁colours 100
▁compens 100
▁fratern 100
▁neutral 100
▁posthum 100
▁subsidi 100
▁touring 100
▁Greatest 100
▁civilian 100
▁eligible 100
▁receives 100
▁wrestler 100
▁inhabitants 100
▁commercially 100
▁significance 100
▁predominantly 100
abe 100
bes 100
umi 100
▁8. 100
hall 100
page 100
▁Bot 100
▁Hat 100
▁Map 100
▁Sor 100
▁lin 100
▁lyr 100
agles 100
grade 100
▁100, 100
▁1949 100
▁Bird 100
▁Goth 100
▁Make 100
▁Rest 100
▁ants 100
usters 100
▁Tommy 100
▁juven 100
▁reson 100
▁tries 100
ishment 100
▁Leslie 100
▁Screen 100
▁cannon 100
▁hidden 100
▁unless 100
▁Chester 100
▁Masters 100
▁license 100
▁physics 100
▁sailing 100
▁Brooklyn 100
▁benefits 100
▁guitarist 100
▁relatives 100
▁philosophy 100
Ad 100
DT 100
IT 100
ín 100
cow 100
mel 100
▁$7 100
▁AS 100
owed 100
▁Leo 100
▁Our 100
▁Yam 100
endar 100
itime 100
▁1916 100
▁1935 100
▁Evil 100
▁José 100
▁Leaf 100
▁lose 100
▁1986, 100
▁Burns 100
▁Mason 100
▁Serge 100
▁initi 100
▁queen 100
▁relie 100
▁tools 100
autical 100
▁Albany 100
▁Ernest 100
▁Hitler 100
▁Rogers 100
▁Spider 100
▁fallen 100
▁landed 100
▁metric 100
▁Alberta 100
▁Cameron 100
▁Friends 100
▁Raymond 100
▁Various 100
▁descent 100
▁enemies 100
▁heavier 100
▁transit 100
▁updated 100
▁Columbus 100
▁publicly 100
▁teammate 100
▁recurring 100
▁underwent 100
▁Shakespeare 100
▁northwestern 100
▁participating 100
%, 100
Wh 100
-14 100
ben 100
iph 100
vex 100
▁Ko 100
oirs 100
▁(22 100
▁(23 100
▁bid 100
icken 100
▁(190 100
▁1954 100
▁Chin 100
▁Deep 100
▁Gott 100
▁Soon 100
▁jack 100
▁nurs 100
alions 100
banded 100
common 100
levard 100
profit 100
▁Hardy 100
▁photo 100
▁tubes 100
▁Herman 100
▁crisis 100
▁metall 100
▁Crystal 100
▁Defense 100
▁Limited 100
▁exactly 100
▁illegal 100
▁Portugal 100
▁Railways 100
▁creative 100
▁exercise 100
▁mythology 100
▁similarly 100
▁stationed 100
▁strongest 100
▁politician 100
▁opportunities 100
As 100
▁⁄ 100
gro 100
iga 100
sub 100
vol 100
▁Um 100
▁ol 100
Hung 100
norm 100
olin 100
ooks 100
▁Lib 100
▁Mak 100
anner 100
story 100
▁1912 100
▁Brun 100
▁Unit 100
▁pull 100
▁raid 100
▁tact 100
▁1944, 100
▁Dylan 100
▁Fight 100
▁Joint 100
▁Lodge 100
▁bears 100
▁false 100
▁toxic 100
▁(2005) 100
▁Arnold 100
▁Harold 100
▁Inside 100
▁aggreg 100
▁cataly 100
▁deemed 100
▁looked 100
▁Gregory 100
▁Stories 100
▁columns 100
▁offense 100
▁stretch 100
▁wrestlers 100
▁indicating 100
▁tournaments 100
Fe 100
LA 100
upp 100
uxe 100
zym 100
atra 100
atsu 100
nant 100
ouch 100
rien 100
zyme 100
▁49- 100
▁ERA 100
▁Gon 100
▁Rio 100
adier 100
isons 100
south 100
▁100. 100
▁Data 100
▁Jews 100
▁blow 100
▁frig 100
incinn 100
itched 100
▁(2010) 100
▁Branch 100
▁Fourth 100
▁tables 100
▁Chelsea 100
▁keeping 100
▁monsoon 100
▁protest 100
▁recruit 100
▁happened 100
▁pictures 100
▁maintains 100
▁employment 100
▁Environment 100
▁difficulties 100
▁universities 100
IA 100
lay 100
▁Pi 100
atas 100
dest 100
rene 100
▁Equ 100
▁Fur 100
▁Occ 100
▁Osc 100
▁dys 100
▁sap 100
acker 100
inian 100
ocene 100
olith 100
raham 100
▁1800 100
▁1961 100
▁Expl 100
▁Food 100
▁gran 100
called 100
▁1979, 100
▁Sonic 100
▁helic 100
▁kings 100
▁skull 100
▁valid 100
nerable 100
▁endors 100
▁sector 100
▁symmet 100
language 100
▁Newport 100
▁Richmond 100
▁arriving 100
▁continuo 100
▁prototype 100
▁spiritual 100
▁connections 100
▁improvement 100
ET 100
El 100
-21 100
Far 100
alls 100
dish 100
post 100
quir 100
utor 100
zing 100
▁155 100
▁Kil 100
▁Mig 100
▁Sak 100
▁bay 100
▁pap 100
aniel 100
ipped 100
onica 100
otten 100
ultan 100
▁ESPN 100
▁Hold 100
▁Jake 100
▁Past 100
▁Rams 100
▁Term 100
▁Verm 100
evelop 100
▁1939. 100
▁Bible 100
▁Eagle 100
▁Motor 100
▁mines 100
▁prosp 100
▁releg 100
written 100
▁(2006) 100
▁(2007) 100
▁Carlos 100
▁Dennis 100
▁Energy 100
▁Jeremy 100
▁Ronald 100
▁alumin 100
▁finals 100
▁stored 100
▁verses 100
▁Cincinn 100
▁Liberal 100
▁altered 100
▁dressed 100
▁Cornwall 100
▁Cultural 100
▁delivery 100
▁afternoon 100
▁inherited 100
▁narrative 100
▁vegetation 100
▁reconnaissance 100
TS 100
agh 100
tem 100
udi 100
arry 100
comm 100
ders 100
elli 100
onge 100
only 100
pres 100
▁109 100
▁Blo 100
▁MLB 100
▁Mab 100
▁Pun 100
eight 100
ettes 100
later 100
month 100
works 100
▁1933 100
▁Canc 100
▁Site 100
▁Todd 100
▁amph 100
▁aria 100
▁evil 100
▁knee 100
▁1941. 100
▁Adult 100
▁Coach 100
▁Patri 100
▁digit 100
▁seeds 100
▁spans 100
assador 100
itively 100
▁Bright 100
▁Member 100
▁driven 100
▁ingred 100
▁invent 100
▁layout 100
▁tribut 100
▁turret 100
▁worker 100
▁Leonard 100
▁hearing 100
▁terrain 100
▁Complete 100
▁collapse 100
▁dominant 100
▁elevated 100
▁isotopes 100
▁Boulevard 100
▁Technical 100
▁dismissed 100
▁magazines 100
▁signifies 100
▁synthesis 100
▁traditions 100
▁educational 100
▁demonstrated 100
▁northeastern 100
79 100
Se 100
VP 100
ibu 100
ido 100
was 100
yll 100
▁MC 100
▁Ze 100
away 100
inis 100
urop 100
week 100
▁Cov 100
▁Sri 100
▁VII 100
ephew 100
eston 100
▁Mend 100
▁bowl 100
▁else 100
▁mans 100
▁tube 100
ailand 100
▁Aaron 100
isphere 100
▁Harvey 100
▁circle 100
▁funded 100
▁genera 100
▁metals 100
▁negoti 100
▁rising 100
▁Manager 100
▁Norwich 100
▁beneath 100
▁calcium 100
▁context 100
▁dancing 100
▁Broadway 100
▁Monument 100
▁Ultimate 100
▁birthday 100
▁deposits 100
▁Supporting 100
IS 100
gie 100
hop 100
ayan 100
oked 100
oshi 100
otus 100
rait 100
stop 100
uded 100
▁112 100
▁18. 100
▁McM 100
▁Ref 100
▁Sha 100
▁ecl 100
▁rer 100
eness 100
sized 100
▁RAAF 100
▁Tree 100
▁anch 100
▁fear 100
▁styl 100
caster 100
▁Month 100
▁Reich 100
▁decay 100
▁lanes 100
▁Circle 100
▁Legisl 100
▁mining 100
▁propag 100
▁retain 100
▁speeds 100
▁transc 100
▁whales 100
▁Machine 100
▁compact 100
▁seeking 100
▁lifetime 100
▁Dartmouth 100
▁Cincinnati 100
▁proportion 100
▁Heavyweight 100
▁celebration 100
▁representation 100
65 100
irm 100
cycl 100
iman 100
made 100
uise 100
▁104 100
▁Esc 100
▁Lan 100
▁cub 100
▁gay 100
▁mud 100
▁rig 100
stery 100
▁(188 100
▁Eyes 100
▁Ivan 100
▁fram 100
ampire 100
handed 100
▁1919, 100
▁1940. 100
▁flank 100
▁rocks 100
▁(2011) 100
▁Moscow 100
▁banned 100
▁crimes 100
▁revers 100
▁totals 100
▁chamber 100
▁closure 100
▁derives 100
▁holiday 100
sometimes 100
▁drinking 100
▁midfield 100
▁depicting 100
▁kilometers 100
▁Contemporary 100
%) 100
zz 100
mal 100
oro 100
roe 100
▁Mk 100
blem 100
free 100
holm 100
▁Arc 100
▁Aub 100
▁Pel 100
▁Say 100
▁sel 100
ivate 100
ocket 100
▁Code 100
▁bell 100
▁gram 100
▁pine 100
▁stim 100
uccane 100
▁Ellis 100
▁Urban 100
▁canon 100
▁plain 100
▁saved 100
▁vinyl 100
▁wider 100
▁Celtic 100
▁Wagner 100
▁anyone 100
▁lawyer 100
▁movies 100
▁phosph 100
▁pupils 100
▁throne 100
▁Morning 100
▁beating 100
▁profile 100
▁Junction 100
▁altitude 100
▁believes 100
▁confused 100
▁retiring 100
▁Newcastle 100
▁permitted 100
CAP 100
asi 100
eta 100
igo 100
née 100
edge 100
horn 100
imer 100
oric 100
song 100
uras 100
▁102 100
▁106 100
▁15. 100
▁Kin 100
▁Sey 100
▁avo 100
gener 100
oyage 100
▁1959 100
▁Kurt 100
▁Mick 100
▁Wool 100
▁rand 100
length 100
monton 100
orient 100
▁Chile 100
▁Minor 100
▁Right 100
▁chest 100
▁eagle 100
▁fungi 100
▁moral 100
▁opens 100
▁param 100
iminary 100
rossing 100
▁analog 100
▁backed 100
▁elabor 100
▁handed 100
▁judges 100
▁poster 100
▁substr 100
▁violin 100
ominated 100
▁Cavalry 100
▁Typhoon 100
▁mineral 100
▁viruses 100
▁lacrosse 100
▁unveiled 100
▁vocalist 100
▁waterline 100
▁criticised 100
▁dimensions 100
▁screenplay 100
▁Afghanistan 100
▁settlements 100
but 100
fin 100
lus 100
rys 100
ymn 100
▁$8 100
girl 100
inae 100
▁Nak 100
▁haz 100
▁lap 100
antle 100
ierra 100
ulous 100
▁Berg 100
▁Lamb 100
▁Maya 100
▁Next 100
▁Pant 100
▁ampl 100
▁cruc 100
▁gift 100
▁summ 100
cester 100
lation 100
▁Event 100
▁Lions 100
▁Miles 100
▁Recre 100
▁acted 100
▁crops 100
ication 100
▁Arabic 100
▁Brooks 100
▁Desert 100
▁Foster 100
▁Heaven 100
▁Moving 100
▁acknow 100
▁muscle 100
▁riding 100
▁soccer 100
▁supern 100
▁Barrett 100
▁Buccane 100
▁Minogue 100
▁cutting 100
▁thermal 100
▁averaged 100
▁departed 100
▁Hungarian 100
▁behaviour 100
▁efficient 100
▁festivals 100
▁migration 100
▁provision 100
▁victories 100
▁Paralympic 100
▁contribute 100
▁intersects 100
▁laboratory 100
▁Information 100
▁contribution 100
28 100
Do 100
RO 100
di 100
eli 100
emen 100
▁Had 100
▁Pam 100
▁WWF 100
▁bin 100
▁pla 100
▁sin 100
▁swe 100
count 100
ioned 100
isode 100
▁Erik 100
▁Kath 100
▁Tong 100
▁boot 100
▁cock 100
▁milk 100
formed 100
▁978-1 100
▁Blake 100
▁Rugby 100
▁frame 100
▁helps 100
▁tempo 100
▁threw 100
▁waste 100
▁(2001) 100
▁Commun 100
▁Rachel 100
▁Sussex 100
▁fairly 100
▁satisf 100
▁towers 100
▁Individ 100
▁Liberty 100
▁chorale 100
▁shifted 100
rehensive 100
▁artistic 100
▁imprison 100
▁nitrogen 100
▁relating 100
▁Similarly 100
▁landscape 100
▁naturally 100
▁organised 100
▁Soundtrack 100
▁conversion 100
▁legislature 100
▁multiplayer 100
▁potentially 100
▁incorporates 100
▁representatives 100
Ex 100
WC 100
eu 100
lia 100
rez 100
oons 100
ride 100
▁(28 100
▁Any 100
▁Fab 100
▁Mut 100
▁RBI 100
▁cox 100
▁tor 100
asant 100
cliff 100
gence 100
icing 100
lease 100
pring 100
▁1928 100
▁Jazz 100
▁Linn 100
▁Mind 100
▁Suff 100
▁bore 100
▁coff 100
▁prev 100
agonal 100
▁Leban 100
▁Nancy 100
▁holes 100
▁sharp 100
▁synth 100
▁tight 100
entieth 100
▁Baltic 100
▁Effect 100
▁Saints 100
▁Twenty 100
▁Watson 100
▁aerial 100
▁binary 100
▁guilty 100
▁notice 100
▁tender 100
official 100
▁defended 100
▁enrolled 100
▁policies 100
▁variable 100
production 100
▁Armstrong 100
▁delegation 100
▁discussion 100
▁restaurants 100
▁presentation 100
NY 100
Let 100
hin 100
iki 100
rus 100
she 100
ulu 100
▁7: 100
feld 100
harm 100
odon 100
phal 100
▁Pok 100
▁spr 100
amics 100
green 100
▁Away 100
▁Link 100
▁Want 100
▁hosp 100
▁soph 100
arting 100
lights 100
rating 100
ulates 100
unnels 100
▁Until 100
▁phone 100
▁tooth 100
▁flower 100
▁patron 100
▁random 100
▁Cyclone 100
▁Weather 100
▁dispute 100
▁Attorney 100
▁Edmonton 100
▁Symphony 100
▁collapsed 100
▁customers 100
▁reflected 100
▁standings 100
▁permission 100
▁jurisdiction 100
▁undergraduate 100
▁archaeological 100
▁instrumentation 100
48 100
71 100
aku 100
lot 100
pow 100
sur 100
vae 100
John 100
colm 100
gary 100
iden 100
oved 100
sburg 100
▁1904 100
▁1913 100
▁1926 100
▁1927 100
▁Jose 100
▁Must 100
▁blog 100
▁bull 100
▁rice 100
aptist 100
unners 100
▁1987. 100
▁Trade 100
▁Voice 100
▁artif 100
▁ideal 100
▁motif 100
▁stops 100
▁width 100
ocation 100
▁Amazon 100
▁Astron 100
▁Bulgar 100
▁Denver 100
▁Double 100
▁Global 100
▁Luther 100
▁backup 100
▁convoy 100
▁exclud 100
▁seeing 100
▁strict 100
▁Federer 100
▁borough 100
▁justice 100
▁mixture 100
▁patient 100
▁Stanford 100
▁prompted 100
▁shipping 100
▁attacking 100
▁corporate 100
▁irregular 100
▁understand 100
▁continental 100
▁distinction 100
.). 100
anim 100
oven 100
▁Hav 100
▁Kri 100
etary 100
ubble 100
▁1860 100
▁1901 100
▁1905 100
▁cere 100
▁merc 100
▁navy 100
▁plas 100
▁salv 100
▁yard 100
ambers 100
stable 100
▁1974, 100
▁1984, 100
▁1989. 100
▁Johns 100
▁noble 100
▁sixty 100
▁spore 100
▁Holmes 100
▁aspect 100
▁kidney 100
▁Cardiff 100
▁Control 100
▁emperor 100
▁options 100
▁reverse 100
▁spotted 100
▁informed 100
▁presumed 100
▁register 100
▁writings 100
▁Assistant 100
▁apartment 100
▁chemistry 100
▁downloads 100
▁impedance 100
▁reviewers 100
▁approaching 100
32 100
76 100
Hg 100
VA 100
pa 100
Eng 100
For 100
cos 100
irs 100
▁PS 100
atty 100
irus 100
omon 100
▁Alt 100
▁Esp 100
▁les 100
▁por 100
astro 100
front 100
onnie 100
stock 100
ucker 100
▁1921 100
▁Cris 100
▁Doll 100
▁Gaga 100
▁Otto 100
▁Rice 100
▁bond 100
thodox 100
▁Metal 100
▁Titan 100
▁surge 100
▁(2013) 100
▁Butler 100
▁Ottawa 100
▁batted 100
▁lights 100
▁shares 100
▁Mercury 100
▁Springs 100
▁Writing 100
▁lawsuit 100
▁marking 100
ighthouse 100
▁Croatian 100
▁comments 100
▁presents 100
▁Engineers 100
▁defeating 100
▁footballer 100
▁nationally 100
▁counterpart 100
▁eligibility 100
▁institution 100
▁interaction 100
▁interpreted 100
▁mathematics 100
▁temporarily 100
▁Professional 100
▁compositions 100
▁intermediate 100
49 100
bb 100
és 100
eps 100
▁mg 100
-201 100
atar 100
eria 100
▁11. 100
▁128 100
▁Gay 100
▁Jag 100
▁Pas 100
▁Rah 100
▁fib 100
cruis 100
immer 100
press 100
ridor 100
▁1922 100
▁Beth 100
▁Luis 100
▁Shar 100
▁clip 100
▁flex 100
▁ramp 100
finals 100
ometer 100
▁Floyd 100
▁Spect 100
▁array 100
▁crust 100
▁gauge 100
ometown 100
▁Timber 100
▁apprec 100
▁beaten 100
▁cinema 100
▁citing 100
▁conven 100
▁extant 100
▁golden 100
▁treaty 100
▁Against 100
▁Malcolm 100
▁damages 100
▁athletic 100
▁cultures 100
▁ironclad 100
▁machines 100
▁settlers 100
▁speaking 100
obiography 100
strumental 100
▁peninsula 100
▁battalions 100
▁indigenous 100
▁resolution 100
FM 100
HA 100
200 100
cia 100
iaz 100
iem 100
▁1) 100
▁Ye 100
care 100
iser 100
▁(21 100
▁108 100
▁16. 100
▁Beh 100
▁asc 100
▁nam 100
▁ray 100
ilogy 100
owski 100
plete 100
▁Aman 100
▁Brid 100
▁Cany 100
▁Sans 100
▁scar 100
▁vast 100
aneous 100
ellect 100
ennial 100
icking 100
iggins 100
istent 100
likely 100
▁Liter 100
▁Marge 100
▁whale 100
viously 100
▁Annual 100
▁Dakota 100
▁Sebast 100
▁detect 100
▁fruits 100
▁Abraham 100
▁facilit 100
▁feeling 100
▁shallow 100
▁Napoleon 100
▁cemetery 100
▁dinosaur 100
▁garrison 100
▁nautical 100
▁Southeast 100
▁tornadoes 100
▁Adventures 100
▁Furthermore 100
▁productions 100
▁concentrated 100
▁similarities 100
▁manufacturing 100
3- 100
▁É 100
cap 100
iop 100
oka 100
bird 100
orpe 100
race 100
that 100
▁(26 100
▁10% 100
▁Eve 100
▁Put 100
encer 100
▁Aber 100
▁Hull 100
▁Ober 100
▁beds 100
▁hole 100
▁1960, 100
▁cliff 100
▁creek 100
▁eaten 100
▁Duncan 100
▁Hannah 100
▁shells 100
▁venues 100
▁bearing 100
▁outdoor 100
▁Standard 100
▁eruption 100
▁rankings 100
▁romantic 100
▁audiences 100
▁oxidation 100
▁Archbishop 100
▁aggressive 100
▁progressed 100
▁undertaken 100
▁Productions 100
▁Broadcasting 100
▁Christianity 100
▁administered 100
4- 100
RC 100
Old 100
akh 100
pur 100
▁0. 100
▁Tu 100
andy 100
arin 100
ifts 100
quin 100
▁19. 100
▁CEO 100
▁Num 100
▁wel 100
acked 100
stand 100
umble 100
▁Drum 100
▁Insp 100
▁Made 100
▁Winc 100
▁phyl 100
▁punk 100
▁tram 100
usalem 100
utnant 100
▁1950, 100
▁1980, 100
▁Price 100
▁Singh 100
▁apply 100
▁atoms 100
▁blind 100
▁coins 100
▁hoped 100
▁truck 100
▁uncon 100
olition 100
taining 100
▁Adrian 100
▁Bengal 100
▁Julian 100
▁contem 100
▁curved 100
▁medley 100
▁prefix 100
▁ruling 100
▁shaped 100
▁affairs 100
▁electro 100
▁surrend 100
▁withdra 100
▁attorney 100
▁dropping 100
▁Chronicle 100
▁Nashville 100
▁monastery 100
▁preceding 100
▁recipient 100
▁surrender 100
▁Buccaneers 100
▁horsepower 100
▁conjunction 100
▁maintaining 100
▁perspective 100
▁terrestrial 100
▁thunderstorms 100
bot 100
irk 100
▁2% 100
▁AU 100
▁Ib 100
ilia 100
isle 100
rews 100
tage 100
wind 100
▁Daw 100
▁Hob 100
▁mim 100
▁tet 100
heads 100
plant 100
pound 100
▁1931 100
▁Fitz 100
▁Idol 100
▁Need 100
▁Phot 100
▁bats 100
▁dock 100
▁stan 100
aching 100
chestr 100
tender 100
▁(2000 100
▁Tyler 100
▁Watch 100
▁amino 100
▁enzym 100
▁quiet 100
imetime 100
▁enthus 100
▁pulled 100
▁summit 100
▁Bahamas 100
▁Bennett 100
▁Hopkins 100
▁catalog 100
▁fossils 100
▁preserve 100
▁accommodate 100
▁agriculture 100
▁constitution 100
46 100
56 100
▁→ 100
cod 100
isb 100
▁NA 100
▁aw 100
anti 100
atem 100
awak 100
bris 100
vern 100
▁13. 100
▁163 100
▁BCE 100
▁Bud 100
▁Nan 100
▁Rus 100
▁abd 100
actic 100
aiden 100
iffer 100
▁Tuls 100
▁bold 100
▁cats 100
▁fame 100
▁syll 100
idency 100
onnell 100
▁Bryan 100
▁Chang 100
▁Costa 100
▁Drake 100
▁Fruit 100
▁Susan 100
▁ruler 100
▁sugar 100
▁Archae 100
▁Combat 100
▁Leices 100
▁Rovers 100
▁confer 100
▁diving 100
▁domain 100
▁meteor 100
▁Holland 100
▁Municip 100
▁honored 100
▁metabol 100
▁militia 100
▁Thailand 100
▁canceled 100
▁consolid 100
▁deterior 100
▁familiar 100
▁hometown 100
▁contested 100
▁diagnosed 100
▁screening 100
▁synthesizer 100
▁constituency 100
hm 100
ui 100
apy 100
cul 100
vik 100
▁7% 100
▁Ig 100
▁ow 100
ania 100
arta 100
issa 100
▁169 100
▁Cou 100
▁Pix 100
▁Rav 100
aters 100
first 100
keley 100
oving 100
▁Brew 100
▁Brod 100
▁Edge 100
▁Hood 100
▁Nept 100
▁gets 100
▁memb 100
▁seas 100
▁stom 100
▁ward 100
garian 100
wright 100
▁1966, 100
▁1970, 100
▁agree 100
▁camps 100
▁drain 100
▁fluid 100
▁infer 100
▁pseud 100
▁smoke 100
▁subsc 100
▁Hunter 100
▁Newton 100
▁clouds 100
▁debris 100
▁manage 100
▁phases 100
▁pursue 100
▁vision 100
▁doubles 100
▁epithet 100
▁lighter 100
▁revised 100
umberland 100
▁Egyptian 100
▁Sullivan 100
▁accurate 100
▁disabled 100
▁merchand 100
▁sentence 100
▁Therefore 100
▁diversity 100
▁intercept 100
▁saxophone 100
▁Philippine 100
▁approaches 100
▁Nevertheless 100
47 100
RS 100
Can 100
chy 100
izz 100
nia 100
▁6- 100
Brit 100
amma 100
ipse 100
orne 100
▁Hig 100
▁fab 100
acles 100
adian 100
▁1924 100
▁1951 100
▁Clif 100
▁Doug 100
▁Owen 100
▁bath 100
▁clay 100
▁owns 100
▁spar 100
▁1942. 100
▁1967, 100
▁1969, 100
▁Chuck 100
▁Perth 100
▁anthe 100
▁botan 100
▁error 100
▁foods 100
▁hence 100
▁taxon 100
▁Edmund 100
▁Strong 100
▁pushed 100
▁scales 100
grossing 100
▁clearly 100
▁formula 100
▁graphic 100
▁imagery 100
inguished 100
▁Arkansas 100
▁Superman 100
▁grossing 100
▁playoffs 100
▁recalled 100
▁Amendment 100
▁Jerusalem 100
▁Territory 100
▁associate 100
▁secretary 100
▁complement 100
▁fatalities 100
▁remastered 100
▁subsidiary 100
▁volunteers 100
▁experiments 100
▁legislative 100
▁necessarily 100
▁regulations 100
▁installation 100
29 100
Is 100
-40 100
And 100
raz 100
▁3% 100
▁fo 100
enza 100
▁(27 100
▁(40 100
▁Amy 100
▁Bri 100
▁Sax 100
▁enh 100
eding 100
inted 100
oxide 100
▁$100 100
▁1923 100
▁Holt 100
▁Peng 100
▁tent 100
▁tort 100
▁1984. 100
▁Appro 100
▁Lakes 100
▁Rhode 100
▁Villa 100
▁disag 100
▁humid 100
▁rider 100
▁sting 100
▁Canyon 100
▁Monroe 100
▁ascend 100
▁eldest 100
▁vector 100
▁Calgary 100
▁Chapman 100
▁Schools 100
▁readers 100
▁Universe 100
▁ensemble 100
▁rotation 100
▁striking 100
▁vicinity 100
▁Primetime 100
▁pneumonia 100
▁resembles 100
▁strategic 100
▁occasional 100
▁separately 100
▁personality 100
▁Conservative 100
▁understanding 100
▁€ 100
dam 100
▁Dj 100
lend 100
rift 100
▁Dig 100
▁cav 100
▁lip 100
Japan 100
entle 100
merce 100
ublin 100
▁1906 100
▁1934 100
▁Bark 100
▁Bron 100
▁Dawn 100
▁Folk 100
▁Pine 100
▁beer 100
▁flew 100
▁tune 100
family 100
issued 100
mother 100
▁1917, 100
▁1983, 100
▁abuse 100
▁happy 100
▁input 100
▁lakes 100
▁memor 100
amental 100
▁(2000) 100
▁Bergen 100
▁Survey 100
▁Chapter 100
▁Dynasty 100
▁Frances 100
▁Wallace 100
▁bombing 100
▁failing 100
▁hitting 100
▁mansion 100
▁varying 100
▁Highness 100
▁McDonald 100
▁clinical 100
▁offshore 100
▁shipyard 100
▁Dominican 100
▁connector 100
▁extensively 100
▁observation 100
▁manufacturer 100
GM 100
fr 100
ör 100
▁ˈ 100
ATO 100
aze 100
egs 100
▁XI 100
▁£1 100
Down 100
olve 100
ovic 100
▁166 100
▁Kur 100
▁Ply 100
▁Tab 100
▁Vic 100
▁emp 100
▁gap 100
▁que 100
lings 100
▁Case 100
▁Cool 100
▁Cort 100
▁Pack 100
▁Trin 100
▁alto 100
▁cash 100
▁hect 100
▁herb 100
aceous 100
achute 100
alties 100
brates 100
entine 100
erness 100
igious 100
ischer 100
▁Index 100
▁Model 100
▁blues 100
▁faces 100
▁spots 100
▁woods 100
angered 100
▁Sierra 100
▁burned 100
▁cooper 100
▁plates 100
▁prompt 100
▁proxim 100
▁remark 100
▁terror 100
ographed 100
original 100
▁acclaim 100
▁jumping 100
▁playoff 100
▁soprano 100
▁waiting 100
▁armoured 100
▁assembly 100
▁surfaces 100
▁unlikely 100
▁Charlotte 100
▁execution 100
▁municipal 100
▁proposals 100
▁calculated 100
▁consistent 100
▁highlighted 100
▁measurements 100
▁recreational 100
aro 100
gom 100
gus 100
imi 100
wig 100
onal 100
▁Abu 100
▁Nam 100
▁Sud 100
▁Yak 100
▁[19 100
brook 100
notes 100
otted 100
racks 100
rates 100
▁1903 100
▁1909 100
▁Baja 100
▁Bert 100
▁Body 100
▁Kate 100
▁Male 100
▁huge 100
▁sick 100
itting 100
ulsion 100
▁1971, 100
▁Delhi 100
▁chair 100
▁fault 100
▁fever 100
▁gates 100
▁scout 100
▁surpr 100
▁(2014) 100
▁Curtis 100
▁Fringe 100
▁alumni 100
▁culmin 100
▁expand 100
▁insuff 100
▁lifted 100
▁trails 100
▁Article 100
▁Writers 100
▁gallery 100
▁lasting 100
▁qualify 100
▁remnant 100
▁rivalry 100
▁Engineer 100
▁Florence 100
▁Johnston 100
▁assessed 100
▁charting 100
▁exterior 100
▁screened 100
▁commenced 100
▁disbanded 100
▁varieties 100
▁accounting 100
▁infections 100
GA 100
ét 100
▁♭ 100
Bob 100
iob 100
ogg 100
▁AM 100
ding 100
enos 100
stad 100
▁(50 100
▁117 100
▁240 100
▁Fro 100
▁Voc 100
▁egg 100
▁nan 100
aders 100
aston 100
lando 100
stown 100
▁Mann 100
▁symp 100
▁zinc 100
itated 100
▁1916, 100
▁1976, 100
▁1981, 100
▁Chase 100
▁chore 100
▁edges 100
▁maneu 100
▁noise 100
▁semif 100
▁Bronze 100
▁Flames 100
▁arcade 100
▁masses 100
▁nephew 100
▁rapper 100
▁Bahrain 100
▁Norfolk 100
▁Oakland 100
▁citizen 100
▁crashed 100
▁leagues 100
▁remixes 100
▁sinking 100
▁succeed 100
▁targets 100
▁unnamed 100
▁Berkeley 100
▁consumed 100
▁dramatic 100
▁eighteen 100
▁stronger 100
readnought 100
▁Carpenter 100
▁Henderson 100
▁excellent 100
▁limestone 100
▁practical 100
▁proximity 100
▁compliment 100
▁integrated 100
▁Revolutionary 100
Me 100
NS 100
]. 100
eca 100
enz 100
iah 100
oba 100
▁Eg 100
When 100
avan 100
ilda 100
inee 100
orey 100
psil 100
rays 100
vant 100
▁23. 100
▁25. 100
▁Bea 100
▁Cox 100
▁Kle 100
▁Sid 100
▁Tas 100
▁alk 100
▁vow 100
otion 100
overy 100
▁1929 100
▁Anat 100
▁Feat 100
▁coin 100
aunton 100
finger 100
▁1937, 100
▁1983. 100
▁Agric 100
▁Comic 100
▁Oscar 100
▁Plaza 100
▁prove 100
▁stead 100
iblings 100
▁(2003) 100
▁Guatem 100
▁Prison 100
▁Willie 100
▁enzyme 100
▁talent 100
chestral 100
▁Contest 100
▁Fleming 100
▁Musical 100
▁Without 100
▁crystal 100
▁depends 100
▁entries 100
▁violent 100
▁clusters 100
▁sporting 100
▁abilities 100
▁adventure 100
▁celebrate 100
▁defending 100
▁travelling 100
▁vulnerable 100
▁conventional 100
▁Meteorological 100
Pr 100
uy 100
én 100
ibn 100
nut 100
▁4% 100
▁IC 100
asis 100
itol 100
ribe 100
▁15- 100
▁Kot 100
▁Mom 100
▁Wed 100
▁cra 100
▁1907 100
▁1932 100
▁Exam 100
▁bare 100
▁pier 100
making 100
▁Apart 100
▁Derby 100
▁Faith 100
▁buses 100
▁coral 100
▁delay 100
▁doors 100
▁navig 100
▁truth 100
estrian 100
▁(1994) 100
▁Pierre 100
▁immune 100
▁intact 100
▁larvae 100
▁pilots 100
▁suffix 100
produced 100
sterious 100
▁Bradley 100
▁Kenneth 100
▁Maxwell 100
▁Orlando 100
▁Parsons 100
▁blocked 100
▁coached 100
▁denotes 100
▁fantasy 100
▁undergo 100
▁Flanders 100
▁landmark 100
▁rebounds 100
▁reviewed 100
▁shopping 100
▁Methodist 100
▁companion 100
▁considers 100
▁convicted 100
▁teammates 100
▁twentieth 100
▁progression 100
▁mathematical 100
▁qualification 100
41 100
ðr 100
aba 100
▁Kö 100
Live 100
affe 100
anka 100
iang 100
idad 100
▁30- 100
▁Chi 100
Brien 100
Files 100
eters 100
flies 100
ostic 100
▁Edda 100
▁Flow 100
▁Foot 100
▁Mile 100
▁Ruth 100
▁fare 100
▁wire 100
houser 100
▁1964. 100
▁Chess 100
▁Crime 100
▁Still 100
▁proof 100
▁shift 100
▁(2002) 100
▁Davies 100
▁Norton 100
▁Powell 100
▁Rodrig 100
▁Romney 100
▁Slovak 100
▁comics 100
▁devast 100
▁horror 100
▁insect 100
▁namely 100
▁rivals 100
producer 100
▁Herbert 100
▁enzymes 100
▁involve 100
▁lyrical 100
▁matters 100
▁monthly 100
▁organis 100
▁readily 100
▁resumed 100
▁Plymouth 100
▁fragment 100
▁Jefferson 100
▁releasing 100
▁impossible 100
▁navigation 100
▁atmospheric 100
▁considering 100
▁preliminary 100
▁conservative 100
La 100
err 100
zig 100
ère 100
▁8- 100
bach 100
hent 100
lies 100
opus 100
rank 100
umar 100
▁Hok 100
▁Ori 100
ashes 100
eling 100
heart 100
itory 100
onian 100
▁Dame 100
▁Gone 100
▁Hits 100
▁Hugo 100
▁Mine 100
▁Ride 100
▁Soph 100
▁Stop 100
▁Vick 100
▁[... 100
▁carb 100
▁inHg 100
▁oral 100
illard 100
▁1986. 100
▁Train 100
▁blend 100
▁coron 100
▁flesh 100
▁genes 100
▁honey 100
▁kilog 100
▁oblig 100
October 100
chester 100
country 100
▁Deputy 100
▁Torres 100
▁abroad 100
▁genres 100
▁organs 100
▁strand 100
▁trophy 100
expected 100
▁Circuit 100
▁cartoon 100
▁ceiling 100
▁editing 100
▁overlap 100
▁prepare 100
▁raising 100
▁substit 100
▁volcano 100
▁Bulgaria 100
▁calendar 100
▁enhanced 100
▁orchestr 100
▁petition 100
▁developer 100
▁impressed 100
▁inclusion 100
▁thickness 100
▁engagement 100
▁processing 100
▁provincial 100
▁disappeared 100
▁surrendered 100
▁Headquarters 100
▁northwestward 100
Qu 100
-30 100
RIA 100
oux 100
▁4- 100
▁XX 100
aire 100
auna 100
idan 100
itic 100
math 100
nort 100
onda 100
▁Sad 100
▁Was 100
▁bio 100
ellor 100
eping 100
gment 100
tland 100
▁(100 100
▁1902 100
▁Bour 100
▁Crew 100
▁Hein 100
▁Joel 100
▁Name 100
▁Pick 100
▁Poké 100
▁Scar 100
▁Wong 100
▁bars 100
▁cuts 100
▁demo 100
▁dish 100
▁fled 100
▁fold 100
▁mang 100
assium 100
screen 100
▁Exped 100
▁deals 100
▁flags 100
▁trunc 100
osystem 100
▁Browns 100
▁Dublin 100
▁Fellow 100
▁dishes 100
▁rebell 100
▁topics 100
▁Formula 100
▁Pradesh 100
▁comfort 100
▁confirm 100
▁guarant 100
▁Caroline 100
▁Einstein 100
▁Released 100
▁alliance 100
▁exhibits 100
▁lighting 100
▁woodland 100
▁Tradition 100
▁coastline 100
▁explosion 100
▁favourite 100
▁intellect 100
▁Laboratory 100
▁Illustrated 100
AM 100
OC 100
gi 100
ded 100
kil 100
pes 100
ulk 100
via 100
▁8% 100
▁oz 100
amba 100
artz 100
atum 100
main 100
▁(1) 100
▁17. 100
▁Cec 100
▁Cel 100
▁Cry 100
▁Ely 100
▁Net 100
▁Spy 100
▁pin 100
amped 100
ilocy 100
piece 100
▁Bran 100
▁Fant 100
▁Held 100
▁Hunt 100
▁Kill 100
▁Kiss 100
▁Lact 100
▁Ster 100
▁Winn 100
▁gear 100
▁happ 100
▁hook 100
▁prol 100
gomery 100
ishers 100
issues 100
▁Achie 100
▁Below 100
▁Bruns 100
▁Given 100
▁Henri 100
▁Thurs 100
▁Woods 100
▁absol 100
▁cameo 100
▁persu 100
▁reads 100
▁sheet 100
▁stair 100
▁throw 100
ivorous 100
jection 100
playing 100
through 100
▁Damage 100
▁Scouts 100
▁Serbia 100
▁Triple 100
▁advice 100
▁condem 100
▁engage 100
▁execut 100
▁extras 100
▁sovere 100
▁Baptist 100
▁Cartoon 100
▁Jamaica 100
▁Middles 100
▁heating 100
▁repairs 100
▁streams 100
▁symbols 100
▁wrought 100
▁agencies 100
▁centimet 100
▁fighters 100
▁humanity 100
▁minority 100
▁operator 100
▁biography 100
▁captivity 100
▁molecular 100
▁telescope 100
▁Montgomery 100
▁Richardson 100
▁graduation 100
▁underlying 100
▁Songwriting 100
▁inscription 100
▁transported 100
▁considerably 100
▁independently 100
!, 100
zi 100
ASP 100
Men 100
lad 100
olo 100
▁MW 100
▁Ps 100
etch 100
ikes 100
inqu 100
otta 100
rise 100
▁111 100
▁HIV 100
▁Hil 100
▁Kor 100
▁Sex 100
▁Toy 100
▁dio 100
▁sav 100
hurst 100
iners 100
urers 100
▁100- 100
▁Boll 100
▁Flag 100
▁IUCN 100
▁Isle 100
▁Pont 100
▁Sold 100
▁clan 100
▁loud 100
ailing 100
▁1930, 100
▁1946, 100
▁1968, 100
▁1982. 100
▁Maine 100
▁Niger 100
▁Nobel 100
▁Steam 100
▁Sword 100
▁Truth 100
▁dolph 100
▁talks 100
ativity 100
avilion 100
▁Marina 100
▁Newark 100
▁anthem 100
▁curves 100
▁cylind 100
▁handle 100
▁preval 100
▁visits 100
▁Besides 100
▁Capital 100
▁Knights 100
▁Knowles 100
▁Notable 100
▁Spaniel 100
▁Upanish 100
▁dancers 100
▁drivers 100
▁Medicine 100
▁Students 100
▁everyone 100
vironments 100
▁Leicester 100
▁decreased 100
▁objective 100
▁recruited 100
▁reporting 100
▁concerning 100
▁nineteenth 100
▁principles 100
▁situations 100
▁Westminster 100
▁examination 100
▁interesting 100
▁outstanding 100
▁Distinguished 100
At 100
pre 100
▁JG 100
▁ov 100
bank 100
feat 100
ichi 100
oded 100
stan 100
▁14. 100
▁153 100
▁24- 100
▁Jak 100
▁McD 100
▁Suz 100
▁cow 100
aline 100
▁1893 100
▁Hous 100
▁NATO 100
▁Raid 100
▁atop 100
▁fill 100
▁hind 100
▁sure 100
▁tape 100
▁weld 100
isting 100
ivided 100
ogical 100
tracks 100
▁1944. 100
▁Badge 100
▁Break 100
▁Cloud 100
▁Isles 100
▁flour 100
▁flown 100
▁minim 100
▁viral 100
rington 100
▁Campus 100
▁streak 100
▁Marines 100
▁Pokémon 100
▁reddish 100
▁studios 100
▁tourism 100
▁eleventh 100
▁reflects 100
▁smallest 100
▁acknowled 100
▁sentenced 100
▁Statistics 100
▁Wellington 100
▁Winchester 100
▁performers 100
▁pronounced 100
▁nationality 100
▁environments 100
▁constitutional 100
Mr 100
NT 100
had 100
nan 100
oko 100
pit 100
yre 100
▁6% 100
rels 100
▁113 100
▁152 100
▁Aer 100
▁Emp 100
▁Fac 100
▁Kay 100
▁Kom 100
▁Lun 100
▁fra 100
▁gly 100
cover 100
ework 100
mount 100
▁Ages 100
▁Barn 100
▁Cant 100
▁Kend 100
▁Loop 100
▁Shaw 100
▁baby 100
▁cuis 100
▁gods 100
▁keys 100
▁nose 100
▁rows 100
▁wasn 100
cyclop 100
tailed 100
▁1979. 100
▁1982, 100
▁Built 100
▁Giant 100
▁Kappa 100
▁Laura 100
▁Rocky 100
▁Verde 100
▁[...] 100
▁comed 100
▁manif 100
▁spell 100
ordered 100
▁Anders 100
▁Better 100
▁Census 100
▁Herald 100
▁Tracks 100
▁Waters 100
▁lesser 100
▁linear 100
▁solely 100
▁Genesis 100
▁Madison 100
▁Parkway 100
▁decides 100
▁devoted 100
▁singers 100
▁Scouting 100
▁focusing 100
▁siblings 100
▁triangle 100
▁variants 100
▁Artillery 100
▁initiated 100
▁insurance 100
▁physician 100
▁survivors 100
▁Thanhouser 100
▁commanding 100
▁renumbered 100
▁requirement 100
▁specialized 100
Int 100
kee 100
lla 100
opy 100
uli 100
var 100
▁"( 100
▁XV 100
mitt 100
pike 100
roft 100
▁118 100
▁131 100
▁Aur 100
▁Rac 100
▁Too 100
▁aux 100
▁reh 100
▁rif 100
adows 100
erver 100
osion 100
▁1908 100
▁Pred 100
▁View 100
▁drag 100
▁mood 100
▁offs 100
ainted 100
▁1910, 100
▁1962, 100
▁1965, 100
▁Ellen 100
▁Emily 100
▁cubic 100
▁lunar 100
▁overt 100
▁rocky 100
▁walks 100
▁wants 100
itarian 100
▁Tunnel 100
▁compat 100
▁digest 100
▁easier 100
▁lacked 100
▁remote 100
▁tackle 100
▁Effects 100
▁advised 100
▁borders 100
▁casting 100
▁deliber 100
▁signals 100
▁speaker 100
▁wickets 100
northeast 100
unciation 100
▁internet 100
▁tourists 100
▁Brunswick 100
▁Christina 100
▁engineers 100
▁exhibited 100
▁ironclads 100
▁perceived 100
▁repeatedly 100
▁discontinued 100
DI 100
SU 100
mo 100
Out 100
chw 100
sis 100
ups 100
ught 100
▁(33 100
▁167 100
▁Len 100
▁neu 100
built 100
fried 100
ipher 100
iston 100
lined 100
pling 100
seven 100
▁(185 100
▁Fast 100
▁Mull 100
▁Qual 100
▁Take 100
▁asks 100
▁perf 100
▁phon 100
enburg 100
otilla 100
▁1975, 100
▁Edwin 100
▁Gross 100
▁Mills 100
▁alive 100
▁camer 100
▁drove 100
▁enlar 100
▁lacks 100
▁lying 100
▁relay 100
▁tract 100
clusive 100
▁Munich 100
▁Reagan 100
▁Sultan 100
▁Visual 100
▁gravel 100
children 100
leutnant 100
munition 100
▁Tonight 100
▁shipped 100
▁telling 100
▁upgrade 100
▁Warriors 100
▁database 100
▁estimate 100
▁explicit 100
▁handling 100
▁imported 100
▁partners 100
▁Sebastian 100
▁decisions 100
▁economics 100
▁freestyle 100
▁suspected 100
▁withdrawn 100
▁Expedition 100
▁Recreation 100
▁specialist 100
▁battlecruis 100
▁Presidential 100
▁contributing 100
▁municipality 100
Up 100
än 100
-28 100
Day 100
gae 100
hot 100
▁MI 100
achi 100
aeus 100
agar 100
base 100
bing 100
bred 100
krit 100
swer 100
▁135 100
▁24. 100
▁750 100
▁Bav 100
▁Cha 100
▁Nig 100
agger 100
phant 100
ramid 100
▁Chan 100
▁Dock 100
▁Dram 100
▁Dund 100
▁Heat 100
▁Howe 100
▁Poly 100
▁Sche 100
▁cosm 100
▁lion 100
▁noun 100
ilight 100
opened 100
▁1914. 100
▁1915, 100
▁1920. 100
▁1971. 100
▁1972. 100
▁1988. 100
▁Chrys 100
▁Helen 100
▁Minne 100
▁Shawn 100
▁Using 100
▁bench 100
▁conif 100
▁gases 100
▁shock 100
lectric 100
ourable 100
▁Austro 100
▁Eagles 100
▁Racing 100
▁Shadow 100
▁convey 100
▁eighty 100
▁grants 100
▁listen 100
▁purple 100
▁stolen 100
▁timber 100
▁Advance 100
▁Britney 100
▁Sarawak 100
▁Victory 100
▁booklet 100
▁dealing 100
▁degener 100
▁equator 100
▁reissue 100
▁Bradford 100
▁Chairman 100
▁Orthodox 100
▁coasters 100
▁emphasis 100
▁managing 100
▁resemble 100
▁seasonal 100
▁thinking 100
▁Cardinals 100
▁beautiful 100
▁distances 100
▁electoral 100
▁Christians 100
▁Protection 100
▁succession 100
▁establishing 100
▁illustrations 100
DE 100
cur 100
his 100
hou 100
osc 100
rut 100
▁MT 100
▁ic 100
▁id 100
comp 100
ipel 100
join 100
orge 100
rhiz 100
▁21. 100
▁450 100
▁Ble 100
▁Cod 100
▁Jen 100
▁Lon 100
▁NWA 100
▁Und 100
▁Ved 100
▁jew 100
names 100
▁Coal 100
▁Crow 100
▁Mini 100
▁Pent 100
▁Schw 100
▁Swan 100
▁cass 100
▁cort 100
▁exha 100
▁rook 100
▁sits 100
▁tool 100
▁wake 100
elfare 100
iliary 100
omorph 100
otypes 100
yright 100
▁1973, 100
▁Basin 100
▁Essex 100
▁Janet 100
▁Phant 100
▁gusts 100
▁stern 100
▁(1998) 100
▁Bieber 100
▁Louise 100
▁photos 100
speaking 100
▁Spencer 100
▁forcing 100
▁gaining 100
▁precurs 100
▁spawned 100
▁talking 100
▁divorced 100
▁motorway 100
▁severely 100
▁Stockholm 100
▁comprised 100
▁interface 100
▁placement 100
▁seventeen 100
▁struggled 100
▁Electronic 100
▁Eurovision 100
▁antibodies 100
▁comprising 100
▁businessman 100
▁rectangular 100
▁Consequently 100
EP 100
Go 100
xi 100
-80 100
000 100
Bre 100
Dec 100
asm 100
nor 100
sim 100
tar 100
▁Fu 100
▁RP 100
anta 100
auer 100
enez 100
ović 100
▁127 100
▁159 100
▁Ara 100
▁Cut 100
▁Ess 100
▁SMS 100
▁Sic 100
▁Sut 100
Saxon 100
aurus 100
ifier 100
▁Gang 100
▁Joan 100
▁Kyle 100
▁dive 100
thouse 100
▁1911, 100
▁1961, 100
▁Buddh 100
▁Bulld 100
▁Rosen 100
▁corps 100
▁drown 100
▁grave 100
▁neuro 100
▁trout 100
▁(1999) 100
▁Newman 100
▁Porter 100
▁Venice 100
▁breaks 100
▁glands 100
▁permit 100
▁voters 100
▁Gardens 100
▁Harbour 100
▁Preston 100
▁flooded 100
quartered 100
▁criteria 100
▁Formation 100
▁aftermath 100
▁awareness 100
▁belonging 100
▁principle 100
▁ammunition 100
▁comparable 100
▁suspension 100
▁understood 100
▁Minneapolis 100
▁Underground 100
▁destination 100
▁implemented 100
▁configuration 100
EF 100
▁† 100
.), 100
dem 100
orf 100
urd 100
▁7- 100
bage 100
city 100
cler 100
eyer 100
oton 100
▁$20 100
▁126 100
▁161 100
▁30% 100
▁Doc 100
▁Gaz 100
▁Hes 100
▁Opp 100
▁ris 100
aiser 100
erals 100
itted 100
metre 100
osely 100
outed 100
▁Camb 100
▁Cann 100
▁Lich 100
▁Teen 100
▁cens 100
▁diff 100
▁iPad 100
▁ties 100
German 100
acular 100
dimens 100
kinson 100
▁Bangl 100
▁Birds 100
▁Edgar 100
▁Gates 100
▁Large 100
▁Leigh 100
▁Maple 100
▁craft 100
▁filmm 100
▁magic 100
amation 100
issions 100
▁Darwin 100
▁Scully 100
▁Tasman 100
▁allies 100
▁expert 100
formerly 100
▁Concern 100
▁Hammond 100
▁Transit 100
▁Vermont 100
▁outlets 100
▁veteran 100
▁Resident 100
▁aviation 100
▁boarding 100
▁colleges 100
▁teachers 100
▁Robertson 100
▁Secondary 100
▁artifacts 100
▁assembled 100
▁ecosystem 100
▁numbering 100
▁propeller 100
▁thirteenth 100
▁coordinates 100
▁descendants 100
▁posthumously 100
MD 100
-1. 100
aho 100
amy 100
hal 100
kar 100
nal 100
tee 100
▁0, 100
▁1⁄ 100
▁Ja 100
▁Ky 100
▁UP 100
▁′′ 100
atha 100
cies 100
isha 100
ishi 100
orum 100
pect 100
phan 100
▁Ivy 100
▁McN 100
▁Nas 100
▁Seg 100
▁gat 100
adder 100
eason 100
elfth 100
inces 100
inite 100
itely 100
iture 100
yself 100
▁"... 100
▁(130 100
▁Bear 100
▁Desc 100
▁Fras 100
▁Glee 100
▁Have 100
▁Rank 100
▁Slav 100
▁answ 100
▁lith 100
▁tens 100
entric 100
overty 100
phabet 100
▁1936, 100
▁1963, 100
▁1977, 100
▁Level 100
▁Money 100
▁badly 100
▁knock 100
▁ruins 100
▁snake 100
colored 100
▁Airbus 100
▁Barnes 100
▁Contin 100
▁Gothic 100
▁Horror 100
▁Panama 100
▁asking 100
▁convex 100
▁empire 100
▁remake 100
▁rowers 100
Japanese 100
ibraries 100
▁Finally 100
▁cleared 100
▁escaped 100
▁moments 100
▁reminis 100
▁warrant 100
▁entirety 100
▁Greenland 100
▁addressed 100
▁inhabited 100
▁provinces 100
▁shortened 100
▁hypothesis 100
▁merchandise 100
▁negotiations 100
▁interpretation 100
Pa 100
So 100
uh 100
aft 100
eve 100
▁IB 100
▁TH 100
agus 100
cock 100
elic 100
hone 100
ints 100
iors 100
iott 100
▁116 100
▁Ana 100
▁Liz 100
▁Nem 100
▁Oct 100
▁amp 100
▁bab 100
atche 100
athon 100
ipper 100
isure 100
▁1899 100
▁Yard 100
▁brig 100
▁cave 100
▁epic 100
▁item 100
▁pill 100
▁wait 100
ellers 100
ocracy 100
osevel 100
▁1980. 100
▁Adela 100
▁Daley 100
▁Fifth 100
▁Manor 100
▁Opera 100
▁Mariah 100
▁abnorm 100
▁arrive 100
▁herald 100
▁livery 100
▁mascot 100
▁reward 100
ordinate 100
▁Higgins 100
▁Popular 100
▁affects 100
▁conspir 100
▁orbital 100
▁tallest 100
ictionary 100
itational 100
▁Buddhist 100
▁generate 100
▁phylogen 100
▁switched 100
▁tracking 100
▁veterans 100
▁Bulgarian 100
▁Catherine 100
▁allocated 100
▁conceived 100
▁conscious 100
▁authorized 100
▁developers 100
▁orchestral 100
▁wheelchair 100
▁Achievement 100
▁progressive 100
▁collaborated 100
▁photographer 100
▁consideration 100
▁parliamentary 100
27 100
▁$9 100
▁AL 100
▁Aj 100
▁Ny 100
drop 100
fold 100
ials 100
iary 100
▁30. 100
▁49. 100
▁50% 100
▁Dol 100
▁Ned 100
▁Ord 100
▁Own 100
▁ell 100
▁sau 100
There 100
amore 100
uming 100
▁Cond 100
▁Solo 100
▁fees 100
▁marg 100
▁rays 100
▁sink 100
▁vacc 100
ectors 100
houses 100
itches 100
manuel 100
▁1954, 100
▁1955, 100
▁Antar 100
▁Dubai 100
▁Percy 100
▁Stage 100
▁Tiger 100
▁arena 100
▁marry 100
▁shops 100
▁widow 100
▁Martha 100
▁Powers 100
▁Wander 100
▁amphib 100
▁convin 100
▁courty 100
▁emblem 100
▁merely 100
▁mutual 100
▁priest 100
▁toured 100
▁tradem 100
▁unders 100
▁voyage 100
unctions 100
▁Finnish 100
▁Student 100
▁colored 100
▁pointed 100
▁restore 100
▁seating 100
egsmarine 100
roduction 100
▁Movement 100
▁Phillips 100
▁Sergeant 100
▁imperial 100
▁praising 100
▁spectrum 100
▁pregnancy 100
▁preparing 100
▁substrate 100
▁temperate 100
dimensional 100
▁Individual 100
2- 100
BL 100
De 100
Or 100
rah 100
zed 100
ango 100
asha 100
days 100
fast 100
hart 100
omed 100
phae 100
▁20. 100
▁Bod 100
▁Laf 100
▁Mol 100
▁Voy 100
▁ram 100
orded 100
ounge 100
quiry 100
▁1897 100
▁Cauc 100
▁Craw 100
▁Kind 100
▁Lear 100
▁Wend 100
▁axis 100
▁fulf 100
▁incl 100
▁whit 100
ficial 100
iology 100
ittees 100
ported 100
rifice 100
urally 100
▁1920, 100
▁1946. 100
▁1948, 100
▁1970. 100
▁Syria 100
▁algor 100
▁bread 100
▁dying 100
▁feeds 100
▁forth 100
▁manip 100
▁trick 100
▁zones 100
corrhiz 100
osevelt 100
▁Franco 100
▁Gibson 100
▁Marcus 100
▁Plains 100
▁labour 100
▁seemed 100
▁staged 100
▁transp 100
missions 100
regation 100
▁Collect 100
▁Current 100
▁Lithuan 100
▁beliefs 100
▁cooking 100
▁drummer 100
▁generic 100
▁leather 100
Hungarian 100
▁Bachelor 100
▁Brighton 100
▁actively 100
▁gathered 100
▁messages 100
▁moisture 100
▁pitching 100
▁proceeds 100
▁steadily 100
▁wildlife 100
▁anthology 100
▁confusion 100
▁destroying 100
▁moderately 100
▁phenomenon 100
▁decorations 100
▁demonstrate 100
▁insufficient 100
▁interactions 100
IC 100
Pro 100
iri 100
org 100
enne 100
usty 100
▁(32 100
▁146 100
▁Dud 100
▁Sag 100
▁Syl 100
▁Tib 100
▁UCI 100
▁hub 100
▁liv 100
licts 100
omous 100
oples 100
quest 100
shine 100
tempo 100
umped 100
▁Tolk 100
▁Wick 100
▁beta 100
▁boss 100
▁obsc 100
acking 100
reated 100
▁1968. 100
▁1985. 100
▁Blair 100
▁Logan 100
▁Score 100
▁Venus 100
▁brass 100
▁codes 100
▁logar 100
▁looks 100
▁postm 100
▁posts 100
▁sizes 100
▁taxes 100
▁tends 100
▁Scotia 100
▁Surrey 100
▁Vocals 100
building 100
▁harvest 100
▁scandal 100
▁stomach 100
▁threats 100
▁trading 100
▁trumpet 100
▁uranium 100
▁Adelaide 100
▁Antilles 100
▁Jennifer 100
▁Phillies 100
▁Scholars 100
▁carriers 100
▁currency 100
▁homeless 100
▁pregnant 100
▁printing 100
▁receiver 100
▁affecting 100
▁poisoning 100
▁stability 100
▁Eventually 100
▁Timberlake 100
▁mysterious 100
▁unexpected 100
▁permanently 100
▁transformed 100
▁Communications 100
▁identification 100
44 100
OR 100
aca 100
dal 100
lem 100
oni 100
oub 100
▁Sr 100
apor 100
erat 100
iche 100
imus 100
lims 100
oths 100
qual 100
▁20- 100
▁22. 100
▁220 100
▁Bak 100
▁Ful 100
▁MVP 100
▁Pin 100
▁Som 100
▁vig 100
andin 100
opard 100
▁(186 100
▁Cave 100
▁Ferr 100
▁Golf 100
▁Reed 100
▁Tall 100
▁Zero 100
▁fate 100
▁sear 100
▁wart 100
forest 100
▁1966. 100
▁Creat 100
▁Haven 100
▁Marqu 100
▁Saudi 100
▁Stark 100
▁Strat 100
▁Treas 100
▁cater 100
▁chord 100
▁march 100
classic 100
iratory 100
omplete 100
▁(2015) 100
▁Auburn 100
▁Joshua 100
▁bomber 100
▁floors 100
▁hyphae 100
▁orient 100
▁runway 100
aircraft 100
election 100
▁Daniels 100
▁Fiction 100
▁Gabriel 100
▁Marshal 100
▁Reading 100
▁distant 100
▁endemic 100
▁farming 100
▁package 100
▁remixed 100
▁rounded 100
▁Yugoslav 100
▁sediment 100
▁Currently 100
▁Roosevelt 100
▁depiction 100
▁pollution 100
▁requiring 100
▁surpassed 100
▁telephone 100
▁Associated 100
▁Operations 100
▁assignment 100
▁directions 100
▁elementary 100
▁positively 100
▁explanation 100
▁investigate 100
▁Kriegsmarine 100
oj 100
tz 100
ña 100
Col 100
ahl 100
alg 100
des 100
omo 100
pts 100
wyn 100
▁BM 100
▁Cu 100
iast 100
isan 100
itus 100
lain 100
mium 100
mons 100
nine 100
oser 100
sten 100
urse 100
▁... 100
▁156 100
▁16- 100
▁210 100
▁AFI 100
▁Dre 100
▁Lif 100
▁Raf 100
▁fed 100
▁iOS 100
▁myc 100
aping 100
boats 100
etter 100
lance 100
oning 100
oween 100
▁1885 100
▁1894 100
▁Flat 100
▁Gonz 100
▁Nebr 100
▁Sega 100
▁adds 100
▁carn 100
▁hung 100
▁penn 100
▁seiz 100
▁shed 100
closed 100
umping 100
▁Brend 100
▁Brisb 100
▁Guest 100
▁Riley 100
▁cabin 100
▁index 100
▁indie 100
▁nests 100
usement 100
▁Eugene 100
▁Madrid 100
▁answer 100
▁cheese 100
▁iPhone 100
▁Airways 100
▁Arabian 100
▁Monster 100
▁Runners 100
▁Solomon 100
▁martial 100
▁nucleus 100
▁optical 100
▁preview 100
▁warfare 100
▁wealthy 100
▁Bolliger 100
▁Trinidad 100
▁equation 100
▁fountain 100
▁infected 100
▁lineback 100
▁uncommon 100
▁Challenge 100
▁Mastering 100
▁activated 100
▁composers 100
▁hospitals 100
▁redevelop 100
▁affiliated 100
▁referenced 100
▁withdrawal 100
▁Constantine 100
▁citizenship 100
▁commemorate 100
▁ingredients 100
▁destinations 100
▁Á 100
-70 100
arr 100
ete 100
ikh 100
▁8: 100
▁9% 100
▁CH 100
Conn 100
boro 100
icia 100
isch 100
thal 100
▁ITV 100
▁Lep 100
▁jaw 100
ethel 100
inery 100
▁Bund 100
▁Evan 100
▁Mumb 100
▁True 100
▁debt 100
▁dece 100
▁file 100
▁mbar 100
▁polo 100
atever 100
ayette 100
orrect 100
tained 100
themed 100
unning 100
▁1951, 100
▁1958, 100
▁Block 100
▁Brock 100
▁Rever 100
▁Shiva 100
▁brake 100
▁comet 100
▁pharm 100
▁reass 100
ulatory 100
▁Albion 100
▁Almost 100
▁Galile 100
▁Ladies 100
▁Legion 100
▁Mirror 100
▁Shangh 100
▁Wednes 100
▁dining 100
▁plaque 100
▁plasma 100
▁versus 100
ancellor 100
▁Belarus 100
▁Elliott 100
▁Hunting 100
▁Located 100
▁Pirates 100
▁Systems 100
▁cluster 100
▁trilogy 100
▁trouble 100
ibilities 100
▁Nebraska 100
▁Randolph 100
▁Software 100
▁corridor 100
▁governed 100
▁surprise 100
▁Athletics 100
▁Blackburn 100
▁Lightning 100
▁computers 100
▁directing 100
▁disturbed 100
▁supporter 100
▁Yugoslavia 100
▁accordance 100
▁challenged 100
▁efficiency 100
▁encounters 100
▁physically 100
▁underwater 100
▁viewership 100
▁Observatory 100
▁achievement 100
▁complicated 100
▁fundamental 100
9- 100
ál 100
-12 100
▁1- 100
▁Dy 100
Just 100
odic 100
onso 100
opot 100
orms 100
tail 100
▁(35 100
▁114 100
▁20% 100
▁90% 100
▁Pos 100
▁Pra 100
▁Rhe 100
▁Rhy 100
Black 100
arded 100
chard 100
opath 100
rians 100
▁1896 100
▁1925 100
▁Avon 100
▁edit 100
▁hunt 100
▁rept 100
illion 100
▁1978. 100
▁Baron 100
▁Hutch 100
▁Mercy 100
▁Monte 100
▁caves 100
▁empty 100
▁moons 100
istical 100
▁Calvin 100
▁Easter 100
▁Forbes 100
▁Kaiser 100
▁Philos 100
▁Singer 100
▁carved 100
▁cooler 100
▁drives 100
▁quoted 100
▁radial 100
▁ranged 100
▁submar 100
▁unanim 100
▁victim 100
▁Culture 100
▁Taunton 100
▁costume 100
▁creates 100
▁desired 100
▁differs 100
▁equally 100
▁pursuit 100
▁renewed 100
▁Brisbane 100
▁employee 100
▁hardware 100
▁managers 100
▁remarked 100
▁removing 100
▁steering 100
▁struggle 100
▁suburban 100
▁targeted 100
▁thorough 100
▁warships 100
▁Guatemala 100
▁Testament 100
▁conflicts 100
▁improving 100
▁microscop 100
▁parenthes 100
▁planetary 100
▁specified 100
▁televised 100
▁Recordings 100
▁Wolverines 100
▁mechanisms 100
▁separation 100
▁instruction 100
▁resignation 100
▁restrictions 100
▁automatically 100
.' 100
7- 100
OH 100
fa 100
wy 100
ος 100
Rad 100
ele 100
hig 100
idy 100
mid 100
vre 100
▁ot 100
ados 100
card 100
erne 100
igue 100
ivic 100
quel 100
seat 100
▁158 100
▁Lys 100
▁Mam 100
Every 100
leigh 100
osity 100
urnal 100
▁Chop 100
▁Gael 100
▁Kerr 100
▁Shir 100
▁Tues 100
▁cogn 100
▁emig 100
▁scen 100
▁seal 100
ashire 100
ishops 100
oulder 100
ounsel 100
ustral 100
▁1938, 100
▁1953, 100
▁1973. 100
▁Basil 100
▁Being 100
▁Getty 100
▁Scots 100
▁Tracy 100
▁doubt 100
▁Allies 100
▁Cinema 100
▁Except 100
▁assets 100
▁assign 100
▁grades 100
▁salary 100
▁shapes 100
▁slopes 100
▁termed 100
ccentric 100
▁Animals 100
▁Brandon 100
▁Coaches 100
▁Muslims 100
▁Tolkien 100
▁gravity 100
▁kitchen 100
▁shelter 100
▁Colombia 100
▁Geoffrey 100
▁Shanghai 100
▁asteroid 100
▁conquest 100
▁drainage 100
▁explains 100
▁grandson 100
▁preceded 100
▁speakers 100
▁upcoming 100
millimeter 100
▁Mabillard 100
▁continent 100
▁elaborate 100
▁nicknamed 100
▁paperback 100
▁performer 100
▁Lancashire 100
▁challenges 100
▁charitable 100
▁prohibited 100
▁statements 100
▁treatments 100
▁reminiscent 100
▁metropolitan 100
▁redesignated 100
▁comprehensive 100
▁headquartered 100
▁strengthening 100
▁communications 100
43 100
BE 100
oi 100
ycl 100
▁"' 100
▁Og 100
.... 100
FIFA 100
alan 100
bery 100
hell 100
ieve 100
imon 100
just 100
oise 100
onny 100
rous 100
tons 100
▁129 100
▁141 100
▁650 100
▁ACC 100
▁Hey 100
▁Sau 100
▁Syn 100
▁coc 100
▁sou 100
North 100
apped 100
thood 100
▁000- 100
▁Erie 100
▁Glou 100
▁Hale 100
▁Shep 100
▁Sons 100
▁Uran 100
▁exem 100
▁feud 100
▁horm 100
▁slot 100
▁toss 100
▁yoga 100
effect 100
fields 100
market 100
rients 100
▁1943. 100
▁1949, 100
▁1962. 100
▁Audio 100
▁drops 100
▁saint 100
▁stems 100
British 100
welling 100
▁Canber 100
▁Monday 100
▁argues 100
▁danger 100
▁firing 100
▁resort 100
▁reveal 100
▁Griffin 100
▁Maurice 100
▁cabinet 100
▁dioxide 100
▁evident 100
▁explore 100
▁reveals 100
▁revival 100
▁sharing 100
▁suscept 100
▁Michelle 100
▁Theodore 100
▁belonged 100
▁cylinder 100
▁invented 100
▁protests 100
▁complexes 100
▁dissolved 100
▁exercises 100
▁postmiles 100
▁procedure 100
▁sensitive 100
▁sociology 100
▁unchanged 100
stitutional 100
▁colleagues 100
▁definitions 100
▁manuscripts 100
▁downloadable 100
▁geographical 100
▁reconstruction 100
96 100
▁_ 100
▁u 100
Car 100
acs 100
afe 100
umm 100
usk 100
▁Aw 100
▁Gy 100
▁RI 100
both 100
urus 100
▁132 100
▁Did 100
▁Gas 100
▁Ski 100
▁dop 100
▁une 100
World 100
idium 100
lette 100
ookie 100
osome 100
▁Berk 100
▁Gren 100
▁Isab 100
▁Kids 100
▁Swim 100
▁Tell 100
▁beef 100
▁cott 100
▁deer 100
▁dism 100
▁ions 100
▁push 100
ensing 100
psilon 100
▁1936. 100
▁1956, 100
▁Athen 100
▁Cecil 100
▁Ferry 100
▁Jesse 100
▁Merit 100
▁Randy 100
▁Venez 100
▁dozen 100
▁elite 100
▁ghost 100
▁modes 100
isition 100
legraph 100
▁Barcel 100
▁Beyond 100
▁Gerald 100
▁Miguel 100
▁Multip 100
▁Romans 100
▁Safety 100
▁Vienna 100
▁analys 100
▁Fischer 100
▁Private 100
▁Romania 100
▁burning 100
▁cuisine 100
▁runners 100
ographers 100
▁Numerous 100
▁Produced 100
▁centered 100
▁contents 100
▁marketed 100
▁mistaken 100
▁performs 100
▁boyfriend 100
▁offspring 100
▁scientist 100
▁Bangladesh 100
▁Generation 100
▁broadcasts 100
▁endangered 100
▁northbound 100
▁recitative 100
▁accomplished 100
▁achievements 100
▁associations 100
▁intervention 100
▁neighbouring 100
▁predecessors 100
AP 100
NO 100
uba 100
alis 100
arag 100
lamm 100
ogle 100
umer 100
▁Dup 100
▁FBI 100
▁Fav 100
▁Por 100
▁Sah 100
▁Tyr 100
▁Zoo 100
▁fle 100
esium 100
great 100
iddle 100
illus 100
nolds 100
ocese 100
ooter 100
rafts 100
▁Burg 100
▁Fear 100
▁Hipp 100
▁Lore 100
▁Shop 100
▁WASP 100
▁bott 100
▁odor 100
▁spir 100
▁verb 100
Christ 100
gotten 100
iduous 100
player 100
ricken 100
▁1921. 100
▁1975. 100
▁1978, 100
▁Bened 100
▁Jamie 100
▁Kenya 100
▁Lords 100
▁Minaj 100
▁Omaha 100
▁Trent 100
▁draws 100
▁genet 100
▁joins 100
▁patch 100
▁penet 100
▁raids 100
▁sandy 100
▁soils 100
▁stall 100
▁swing 100
iblical 100
▁Batter 100
▁Levine 100
▁Rapids 100
▁Sunder 100
▁dollar 100
▁nights 100
▁panels 100
▁ritual 100
etheless 100
▁Canucks 100
▁Forever 100
▁Serbian 100
▁academy 100
▁divorce 100
▁replica 100
▁skating 100
▁thereby 100
▁twelfth 100
▁Hawaiian 100
▁Twilight 100
▁antibiot 100
▁embarked 100
▁juvenile 100
▁priority 100
▁Democrats 100
▁Parachute 100
▁Paramount 100
▁Political 100
▁ancestors 100
▁automatic 100
▁averaging 100
▁disorders 100
▁preseason 100
▁proceeded 100
▁concurrent 100
▁corruption 100
▁friendship 100
▁girlfriend 100
▁monitoring 100
▁personally 100
▁remembered 100
▁technologies 100
▁autobiography 100
▁advertisements 100
.: 100
73 100
éd 100
-25 100
BSD 100
▁Ki 100
fman 100
isor 100
▁171 100
▁Bil 100
▁Iss 100
▁Kol 100
▁Oil 100
▁Tin 100
armed 100
dered 100
▁Cran 100
▁Hawk 100
▁Left 100
▁Peak 100
▁Rare 100
▁bike 100
▁bind 100
▁gale 100
▁hipp 100
▁pace 100
League 100
aunted 100
modern 100
▁(1978 100
▁1935, 100
▁1937. 100
▁1957, 100
▁1981. 100
▁Payne 100
▁Plate 100
▁Veter 100
▁pilgr 100
▁skill 100
▁soror 100
Russian 100
ificate 100
▁Angels 100
▁Arabia 100
▁Fergus 100
▁Mumbai 100
▁Strait 100
▁antiqu 100
▁cotton 100
▁deputy 100
▁fabric 100
▁jersey 100
▁mosque 100
▁summar 100
▁Baldwin 100
▁Tribune 100
▁biology 100
▁bombers 100
▁farmers 100
▁lacking 100
▁tissues 100
▁Canberra 100
▁Hereford 100
▁Thursday 100
▁concepts 100
▁predator 100
▁sometime 100
▁valuable 100
▁Lactarius 100
▁discharge 100
▁emotional 100
▁explosive 100
▁literally 100
▁overnight 100
▁seriously 100
▁substance 100
▁virtually 100
▁fraternity 100
▁lighthouse 100
▁spectators 100
▁prominently 100
▁respiratory 100
81 100
Co 100
FS 100
▁| 100
▁Å 100
Nov 100
cht 100
fra 100
ieu 100
ión 100
jar 100
rip 100
▁Va 100
Life 100
alia 100
amus 100
aran 100
boys 100
essa 100
haul 100
idas 100
iker 100
inas 100
requ 100
▁(51 100
▁103 100
▁107 100
▁162 100
▁Ari 100
▁HBO 100
▁Kaz 100
▁Rot 100
▁aft 100
court 100
entin 100
ocrat 100
oline 100
ovsky 100
▁Fork 100
▁Hort 100
▁Look 100
▁Marl 100
▁Yale 100
▁dict 100
▁glob 100
▁tale 100
loaded 100
ogenic 100
▁1915. 100
▁Advis 100
▁Annie 100
▁Dover 100
▁Milan 100
▁rises 100
▁vault 100
▁Æthel 100
olithic 100
ounding 100
▁(1995) 100
▁Estate 100
▁Manuel 100
▁beauty 100
▁infant 100
▁infect 100
▁leaked 100
▁regist 100
▁Armenia 100
▁Capitol 100
▁Factory 100
▁Jeffrey 100
▁Present 100
▁painter 100
▁routine 100
▁temples 100
▁bachelor 100
▁commands 100
▁interred 100
▁reporter 100
▁resolved 100
▁Animation 100
▁Barcelona 100
▁Friedrich 100
▁copyright 100
▁influenza 100
▁lifestyle 100
▁reservoir 100
▁contracted 100
▁quantities 100
▁regulation 100
▁essentially 100
▁foundations 100
▁collectively 100
▁consistently 100
▁fortifications 100
pm 100
vy 100
él 100
acco 100
adal 100
hang 100
mits 100
oufl 100
▁Cos 100
▁Eis 100
▁Fun 100
▁Log 100
▁Maz 100
▁Sed 100
▁Typ 100
dated 100
throp 100
▁(192 100
▁Huff 100
▁Luft 100
▁Pend 100
▁Troy 100
▁barb 100
▁bicy 100
▁cord 100
▁inch 100
▁rats 100
▁surn 100
arsity 100
flight 100
urrect 100
▁1913. 100
▁Birth 100
▁Botan 100
▁Clear 100
▁Devon 100
▁Names 100
▁Shore 100
▁Squad 100
▁Words 100
▁alpha 100
▁blast 100
▁crypt 100
▁ellip 100
▁fairy 100
avorite 100
bearing 100
enhagen 100
umbered 100
▁Broken 100
▁Capcom 100
▁Hebrew 100
▁Others 100
▁Selena 100
▁Telugu 100
▁galaxy 100
▁helium 100
▁indoor 100
▁latest 100
▁refurb 100
▁suffer 100
▁unlock 100
▁Conserv 100
▁Jessica 100
▁Lebanon 100
▁Neptune 100
▁Scandin 100
▁aquatic 100
▁granite 100
▁nervous 100
▁putting 100
▁venture 100
Americans 100
corrhizal 100
▁Computer 100
▁Examples 100
▁Sanskrit 100
▁Senators 100
▁floating 100
▁heaviest 100
▁mobility 100
▁timeslot 100
▁Detective 100
▁Palestine 100
▁Wednesday 100
▁auxiliary 100
▁digitally 100
▁eccentric 100
▁fragments 100
▁monuments 100
▁parasites 100
▁recognize 100
▁Constantin 100
▁Sunderland 100
▁critically 100
▁extinction 100
▁incomplete 100
▁industries 100
▁speculated 100
▁submarines 100
▁adaptations 100
▁realignment 100
▁implementation 100
66 100
BT 100
NC 100
WF 100
eb 100
bey 100
eur 100
oan 100
ław 100
▁Mü 100
▁ze 100
alus 100
elia 100
leen 100
mass 100
▁26. 100
▁27. 100
▁Duc 100
▁Miz 100
books 100
estab 100
▁Page 100
▁Stam 100
▁Tang 100
▁Wade 100
▁Wald 100
▁Wilm 100
▁dors 100
▁duet 100
▁wool 100
▁1911. 100
▁Glenn 100
▁Heath 100
▁Hindi 100
▁Maced 100
▁Parad 100
▁abbre 100
▁clips 100
▁fatal 100
▁immun 100
▁integ 100
▁lover 100
▁overd 100
▁shirt 100
▁trips 100
▁upset 100
▁(1997) 100
▁Butter 100
▁Conway 100
▁Corner 100
▁Vander 100
▁Worlds 100
▁affair 100
▁prosec 100
▁slaves 100
structed 100
▁Amanita 100
▁Grammar 100
▁belongs 100
▁custody 100
▁inflamm 100
▁missile 100
▁plastic 100
▁poverty 100
▁rolling 100
▁secular 100
southwest 100
▁Critical 100
▁Millwall 100
▁ancestor 100
▁farmland 100
▁feelings 100
▁relevant 100
▁rerouted 100
▁suddenly 100
songwriter 100
▁Halloween 100
▁Principal 100
▁athletics 100
▁batteries 100
▁descended 100
▁eruptions 100
▁potassium 100
▁societies 100
▁Petersburg 100
▁provisions 100
▁Renaissance 100
▁consequence 100
▁departments 100
▁exploration 100
▁mountainous 100
▁Indianapolis 100
▁broadcasting 100
▁investigated 100
SC 100
mm 100
▁‘ 100
abi 100
agi 100
▁EC 100
▁IX 100
Sing 100
alom 100
amen 100
esta 100
omat 100
opal 100
than 100
▁139 100
▁149 100
▁80% 100
▁Kem 100
▁Lyr 100
▁Pod 100
▁Pon 100
▁thy 100
assis 100
aukee 100
cence 100
hydro 100
tains 100
ussia 100
▁(2): 100
▁1898 100
▁Carr 100
▁Edit 100
▁Gust 100
▁bout 100
▁fasc 100
▁gill 100
arians 100
boards 100
itects 100
▁1912, 100
▁1919. 100
▁1922, 100
▁1938. 100
▁1947, 100
▁1969. 100
▁Filip 100
▁Flood 100
▁Ricky 100
▁auton 100
▁bombs 100
▁dimin 100
▁humor 100
▁loose 100
▁patri 100
▁sword 100
▁undef 100
release 100
▁Andrea 100
▁Anglic 100
▁Impact 100
▁dinner 100
▁lineup 100
▁presum 100
▁spider 100
idelines 100
omething 100
tershire 100
▁Heights 100
▁noticed 100
▁passion 100
▁peoples 100
▁radical 100
▁sending 100
▁sponsor 100
▁Georgian 100
▁Starting 100
▁crystals 100
▁prosecut 100
▁turbines 100
▁Architect 100
▁Beautiful 100
▁Classical 100
▁acclaimed 100
▁analogous 100
▁creatures 100
▁deciduous 100
▁encourage 100
▁incorrect 100
▁nutrients 100
▁Industrial 100
▁conducting 100
▁goalkeeper 100
▁impression 100
▁preventing 100
▁questioned 100
▁terminated 100
▁coordinator 100
▁journalists 100
▁territorial 100
▁accidentally 100
▁celebrations 100
▁reconstructed 100
": 100
33 100
WV 100
ør 100
-64 100
vor 100
▁Ru 100
▁hp 100
▁ta 100
▁ty 100
..." 100
adic 100
emia 100
ilus 100
oque 100
show 100
ulin 100
urbs 100
▁(80 100
▁(95 100
▁10: 100
▁121 100
▁Hod 100
▁Kes 100
▁Kos 100
▁Lie 100
▁Rex 100
▁lib 100
avian 100
iking 100
olves 100
▁Beta 100
▁Conv 100
▁Emma 100
▁Hanc 100
▁Herm 100
▁Joey 100
▁Mail 100
▁Pand 100
▁Rama 100
▁Trip 100
▁dorm 100
▁flee 100
▁keel 100
▁radi 100
direct 100
employ 100
racuse 100
▁1948. 100
▁1959, 100
▁André 100
▁Eston 100
▁Known 100
▁Pixar 100
▁Plain 100
▁arbit 100
▁aspir 100
▁burns 100
▁drunk 100
▁lobby 100
▁marsh 100
▁repet 100
▁stipe 100
▁Animal 100
▁Bolton 100
▁Celebr 100
▁Cities 100
▁Gaelic 100
▁Lesser 100
▁Milton 100
▁Priest 100
▁adjust 100
▁arches 100
▁armies 100
▁chains 100
▁decide 100
▁metaph 100
▁slower 100
▁Concert 100
▁Destiny 100
▁Hamburg 100
▁Physics 100
▁referee 100
▁rescued 100
▁seventy 100
▁vitamin 100
▁welfare 100
▁Aircraft 100
▁Landmark 100
▁Syracuse 100
▁anywhere 100
▁examined 100
▁organism 100
▁throwing 100
▁contracts 100
▁donations 100
▁eliminate 100
▁publicity 100
▁sandstone 100
▁solutions 100
▁truncated 100
▁universal 100
▁adventures 100
▁vegetables 100
▁attractions 100
▁speculation 100
▁Intelligence 100
▁developments 100
▁substantially 100
OL 100
To 100
UP 100
uo 100
May 100
bin 100
pic 100
▁BA 100
▁HM 100
▁Nu 100
-100 100
uchi 100
▁(75 100
▁370 100
▁Eye 100
▁Gem 100
▁Kra 100
▁Yuc 100
ledon 100
▁(187 100
▁1850 100
▁1895 100
▁Adri 100
▁Anti 100
▁Cham 100
▁Cruz 100
▁Doub 100
▁Hast 100
▁Mega 100
▁Pall 100
▁Self 100
▁bred 100
▁brow 100
▁chef 100
▁gamb 100
▁heir 100
▁icon 100
▁serp 100
▁tong 100
French 100
eption 100
ipping 100
rament 100
retion 100
stones 100
umbers 100
▁1963. 100
▁1967. 100
▁Berry 100
▁Ganes 100
▁Hayes 100
▁Karen 100
▁Mater 100
▁Notre 100
▁Tulsa 100
▁defic 100
▁farms 100
▁lasts 100
▁slave 100
itimate 100
ophical 100
▁Olivia 100
▁Presby 100
▁Slayer 100
▁farmer 100
▁fertil 100
▁fundra 100
▁gaming 100
▁prints 100
▁profit 100
▁regime 100
▁rejoin 100
▁rushed 100
▁sleeve 100
▁stabil 100
▁themed 100
otherapy 100
▁Concord 100
▁Georget 100
▁categor 100
▁clothes 100
▁grouped 100
▁isotope 100
▁jointly 100
▁Hamasaki 100
▁Morrison 100
▁accessed 100
▁costumes 100
▁develops 100
▁prisoner 100
▁reissued 100
▁websites 100
▁Communist 100
▁Southwest 100
▁courtyard 100
▁dependent 100
▁expanding 100
▁unusually 100
▁Enterprise 100
▁derivative 100
▁availability 100
▁concentrations 100
Ed 100
Cap 100
avo 100
fts 100
gas 100
▁Wu 100
▁hi 100
Good 100
anas 100
anus 100
eper 100
iane 100
lore 100
lyde 100
omas 100
ucts 100
▁(31 100
▁119 100
▁138 100
▁145 100
▁28. 100
▁747 100
▁Ace 100
▁Jet 100
▁Kaw 100
▁tea 100
▁zoo 100
aller 100
ropic 100
▁200, 100
▁AIDS 100
▁Aven 100
▁Bast 100
▁Brah 100
▁Duch 100
▁Glac 100
▁Grad 100
▁Polo 100
▁cran 100
▁embr 100
▁gymn 100
▁pret 100
resses 100
umbent 100
waukee 100
▁1912. 100
▁1949. 100
▁1956. 100
▁Linda 100
▁Piano 100
▁annex 100
▁basal 100
▁clerk 100
▁hopes 100
▁liked 100
▁swept 100
▁Ferdin 100
▁Marcel 100
▁Palmer 100
▁Things 100
▁ashore 100
▁boxing 100
▁deluxe 100
▁errors 100
▁Manning 100
▁Phantom 100
▁Tuesday 100
▁circles 100
▁convert 100
▁enabled 100
▁imaging 100
▁integer 100
▁melting 100
▁muscles 100
▁premier 100
▁publish 100
▁revived 100
imination 100
▁Bulldogs 100
▁Facebook 100
▁Wildlife 100
▁airlines 100
▁monarchy 100
▁Churchill 100
▁Lyrically 100
▁achieving 100
▁breathing 100
▁collision 100
▁portrayal 100
▁consultant 100
▁destroyers 100
▁morphology 100
▁occurrence 100
▁protective 100
▁Southampton 100
▁concurrency 100
▁compensation 100
▁reproductive 100
Get 100
She 100
eda 100
leb 100
new 100
obs 100
psy 100
san 100
sol 100
▁CP 100
aris 100
ibal 100
left 100
mare 100
note 100
umph 100
▁(39 100
▁123 100
▁Bog 100
▁Fen 100
▁Kas 100
▁Lav 100
▁Luz 100
▁Nep 100
▁RCA 100
archy 100
chief 100
ecker 100
iasis 100
odied 100
orman 100
ovich 100
▁Bard 100
▁Boot 100
▁Caes 100
▁Drew 100
▁Holl 100
▁Miri 100
▁Sibu 100
▁Wals 100
▁mall 100
▁touc 100
inated 100
veston 100
▁1931. 100
▁1954. 100
▁1960. 100
▁Aside 100
▁Bolet 100
▁Crazy 100
▁Tibet 100
▁Wyatt 100
▁discs 100
▁forts 100
▁optim 100
▁shaft 100
▁trace 100
▁vital 100
develop 100
ocolate 100
raction 100
▁Behind 100
▁Dudley 100
▁Points 100
▁tribal 100
December 100
November 100
ependent 100
▁Malvern 100
▁Protest 100
▁frigate 100
▁regener 100
▁wartime 100
▁Honorary 100
▁bleeding 100
▁judicial 100
▁millions 100
▁opposing 100
▁repaired 100
▁spanning 100
▁transmit 100
▁Galveston 100
▁penalties 100
▁regiments 100
▁squadrons 100
▁violation 100
▁witnesses 100
▁Copenhagen 100
▁Hemisphere 100
▁capability 100
▁competitor 100
▁initiative 100
▁frequencies 100
▁medications 100
▁parentheses 100
▁theoretical 100
▁transmitted 100
▁continuation 100
▁evolutionary 100
▁reproduction 100
IP 100
RL 100
rí 100
-23 100
TWC 100
oso 100
▁9: 100
▁Eh 100
▁UC 100
▁ey 100
arma 100
eded 100
ondo 100
oyle 100
pler 100
rass 100
▁270 100
▁Ips 100
▁Lah 100
agher 100
birds 100
erves 100
ethyl 100
fight 100
grand 100
imbab 100
omore 100
▁(110 100
▁1892 100
▁Gand 100
▁Gilm 100
▁Henn 100
▁Hess 100
▁Java 100
▁Lomb 100
▁Lucy 100
▁Lynd 100
▁Math 100
▁Mets 100
▁Plat 100
▁Rise 100
▁acet 100
▁lava 100
▁menu 100
headed 100
▁Chick 100
▁Idaho 100
▁Micha 100
▁Nadal 100
▁Traff 100
▁depot 100
▁lingu 100
▁naked 100
▁postp 100
ropolis 100
ylinder 100
▁Bailey 100
▁Savage 100
▁Soccer 100
▁beings 100
▁carcin 100
▁marble 100
▁ninety 100
▁prayer 100
▁sacred 100
▁sodium 100
▁strain 100
▁throat 100
ordinary 100
▁Banksia 100
▁Cornell 100
▁Katrina 100
▁counted 100
▁filters 100
▁monster 100
▁museums 100
▁statute 100
▁Archives 100
▁Atlantis 100
▁attested 100
▁creature 100
▁defenses 100
▁feathers 100
▁maturity 100
▁realized 100
▁reliable 100
▁theatres 100
▁ultimate 100
▁Milwaukee 100
▁chemicals 100
▁governing 100
▁junctions 100
▁practiced 100
▁responses 100
▁Scientific 100
▁ambassador 100
▁ceremonial 100
▁dedication 100
▁procedures 100
▁Australians 100
▁Interactive 100
▁complications 100
jm 100
-43 100
Sim 100
aji 100
bul 100
deg 100
how 100
lip 100
ogo 100
urk 100
▁AV 100
▁LG 100
July 100
achy 100
auts 100
borg 100
esis 100
imid 100
irie 100
keys 100
pend 100
quet 100
send 100
uins 100
walk 100
zens 100
▁(45 100
▁144 100
▁1⁄2 100
▁Dip 100
▁Lor 100
▁Nab 100
▁Smy 100
▁ber 100
▁cit 100
▁pub 100
assic 100
hound 100
ineas 100
plane 100
yards 100
▁Corp 100
▁Crus 100
▁Dale 100
▁Foss 100
▁Kiel 100
▁Phel 100
▁Sust 100
▁Twin 100
▁Wake 100
▁ears 100
▁forb 100
▁monk 100
▁neur 100
▁panc 100
▁trio 100
▁wish 100
cliffe 100
commit 100
izards 100
ochond 100
▁Bever 100
▁Bruno 100
▁Huron 100
▁Lanka 100
▁Starr 100
▁engra 100
▁meter 100
▁onset 100
▁selen 100
▁tuber 100
English 100
illiant 100
imbabwe 100
ipelago 100
iseries 100
istence 100
opathic 100
osphere 100
ouncill 100
watched 100
▁(1993) 100
▁Dreams 100
▁Gospel 100
▁Powder 100
▁Riders 100
▁Winner 100
▁coffee 100
▁parade 100
▁spinal 100
▁stanza 100
▁Charity 100
▁Element 100
▁Suffolk 100
▁Ukraine 100
▁angular 100
▁centres 100
▁dispers 100
▁harbour 100
▁liberal 100
▁loosely 100
▁reorgan 100
▁willing 100
istically 100
▁disputed 100
▁particle 100
▁skeleton 100
▁stricken 100
▁survives 100
▁upstream 100
▁accidents 100
▁mechanics 100
▁projected 100
▁relegated 100
▁renovated 100
▁assessment 100
▁committees 100
▁positioned 100
▁regardless 100
▁similarity 100
▁strikeouts 100
▁anticipated 100
▁radioactive 100
▁subordinate 100
▁commentators 100
▁Approximately 100
DP 100
HD 100
ei 100
▁π 100
Ang 100
Who 100
eto 100
len 100
mus 100
vas 100
zac 100
▁OS 100
▁rh 100
abul 100
ahan 100
aton 100
elin 100
hole 100
▁134 100
▁154 100
▁29. 100
▁EMI 100
▁Lob 100
▁Ork 100
▁Rif 100
▁fox 100
▁fus 100
▁lig 100
▁nas 100
isive 100
itate 100
opsis 100
▁(120 100
▁ARIA 100
▁Bold 100
▁Brom 100
▁Guam 100
▁Hyde 100
▁Knox 100
▁Pitt 100
▁hymn 100
▁kiss 100
▁pall 100
▁soap 100
herent 100
ifiers 100
▁1961. 100
▁Bella 100
▁Blanc 100
▁Glory 100
▁Julia 100
▁Tunis 100
▁grain 100
▁showc 100
agnetic 100
asterly 100
gestion 100
letcher 100
mercial 100
▁(1991) 100
▁Barack 100
▁Jackie 100
▁Monica 100
▁Panzer 100
▁clergy 100
▁enroll 100
▁killer 100
▁median 100
▁muzzle 100
▁wheels 100
tropical 100
▁Editing 100
▁Hancock 100
▁Outside 100
▁Shannon 100
▁Species 100
▁authent 100
▁frontal 100
▁nesting 100
▁omitted 100
▁prolong 100
▁reduces 100
▁reforms 100
▁rehabil 100
▁starter 100
▁vampire 100
▁Charlton 100
▁Peterson 100
▁activist 100
▁damaging 100
▁excluded 100
▁rendered 100
▁Direction 100
▁Middleton 100
▁Upanishad 100
▁Wanderers 100
▁libraries 100
▁populated 100
▁precursor 100
▁searching 100
▁trademark 100
▁commitment 100
▁complaints 100
▁deployment 100
▁diplomatic 100
▁instructor 100
▁midfielder 100
▁psychology 100
▁sculptures 100
▁Anniversary 100
▁centimetres 100
▁preservation 100
▁Environmental 100
▁Constantinople 100
▁investigations 100
-35 100
-50 100
ait 100
apa 100
aru 100
fax 100
iji 100
loo 100
reb 100
▁(' 100
▁AR 100
▁Ow 100
▁PW 100
▁SE 100
Part 100
addy 100
amph 100
axis 100
ifax 100
inks 100
▁(36 100
▁Arj 100
▁Cay 100
▁Dry 100
▁Kip 100
▁Tao 100
▁Won 100
▁aph 100
▁raw 100
▁rid 100
▁sad 100
chant 100
group 100
heres 100
imony 100
irmed 100
third 100
▁Bres 100
▁Come 100
▁Echo 100
▁Kann 100
▁Kuch 100
▁Rhys 100
▁Spot 100
▁VIII 100
▁Wimb 100
▁beet 100
alogue 100
lantic 100
rained 100
struct 100
▁Diana 100
▁Julie 100
▁Krish 100
▁Lines 100
▁Luftw 100
▁Mahar 100
▁Pedro 100
▁Table 100
▁Theme 100
▁argue 100
▁doesn 100
▁fiber 100
▁figur 100
▁inver 100
▁scope 100
▁tasks 100
▁(1996) 100
▁Angela 100
▁Fuller 100
▁Ludwig 100
▁Phelps 100
▁Sponge 100
▁divine 100
▁kicked 100
▁rocket 100
▁Commons 100
▁Dodgers 100
▁Sheriff 100
▁airplay 100
▁binding 100
▁invaded 100
▁promise 100
▁relates 100
▁spelled 100
▁striker 100
▁tunnels 100
▁violins 100
▁watches 100
▁Fernando 100
▁Linnaeus 100
▁Venezuel 100
▁absolute 100
▁currents 100
▁doctrine 100
▁enlarged 100
▁reserved 100
▁sciences 100
▁uniforms 100
▁admission 100
▁banknotes 100
▁celebrity 100
▁convinced 100
▁discovers 100
▁listening 100
▁logarithm 100
▁realigned 100
▁antagonist 100
▁impressive 100
▁expectations 100
▁intellectual 100
▁northeastward 100
▁organisations 100
GS 100
▁> 100
eks 100
nai 100
say 100
uru 100
zan 100
▁Bj 100
▁Ti 100
June 100
King 100
anto 100
chel 100
iard 100
last 100
nery 100
ongo 100
osex 100
ripp 100
rove 100
whel 100
▁(65 100
▁(76 100
▁12: 100
▁Lak 100
▁Lec 100
▁Lis 100
▁hex 100
▁maj 100
▁mol 100
▁pip 100
▁tob 100
ASCAP 100
Greek 100
March 100
atoes 100
eches 100
intin 100
iolet 100
rague 100
since 100
▁Dere 100
▁Kane 100
▁Mang 100
▁Pain 100
▁Pens 100
▁Tick 100
▁Yank 100
▁anat 100
▁buff 100
▁palm 100
church 100
ortion 100
tenham 100
▁1900, 100
▁1917. 100
▁1977. 100
▁Armed 100
▁Arrow 100
▁Beast 100
▁Elder 100
▁Kenny 100
▁Klaus 100
▁Ports 100
▁Smack 100
▁fraud 100
▁gifts 100
▁owing 100
▁prest 100
cements 100
ictions 100
rescent 100
▁Fraser 100
▁Henrik 100
▁Willis 100
▁brings 100
▁genome 100
▁inning 100
▁powder 100
▁umpire 100
▁worksh 100
iability 100
lication 100
▁(2008). 100
▁Maximum 100
▁Nicarag 100
▁Sherman 100
▁cameras 100
▁colonel 100
▁comprom 100
▁erosion 100
▁lithium 100
▁loading 100
▁nominee 100
▁onwards 100
▁surveys 100
▁trigger 100
committee 100
▁Tasmania 100
▁cassette 100
▁coloured 100
▁eventual 100
cyclopedia 100
rimination 100
▁Wimbledon 100
▁aluminium 100
▁believing 100
▁composite 100
▁condemned 100
▁declining 100
▁excessive 100
▁introduce 100
▁kilograms 100
▁machinery 100
▁rebellion 100
▁acceptance 100
▁commenting 100
▁discussing 100
▁immigrants 100
▁programmes 100
▁stationary 100
▁alternating 100
▁comparisons 100
▁generations 100
▁incorporate 100
▁continuously 100
▁effectiveness 100
▁interceptions 100
8- 100
FR 100
Ph 100
Red 100
atz 100
ogl 100
uum 100
▁CC 100
▁ul 100
Gold 100
Leod 100
ablo 100
luor 100
opez 100
rary 100
▁122 100
▁230 100
▁Ard 100
▁Bom 100
▁Bun 100
▁Fol 100
▁Laz 100
▁MLS 100
▁Phi 100
▁SAS 100
▁cum 100
▁hob 100
▁spo 100
ankar 100
comes 100
cycle 100
ensen 100
orted 100
▁(191 100
▁Cubs 100
▁Cust 100
▁Odin 100
▁Reid 100
▁Seas 100
▁Vish 100
▁brew 100
▁ease 100
▁haul 100
▁intr 100
▁plum 100
lining 100
▁1913, 100
▁1921, 100
▁1926, 100
▁1974. 100
▁1976. 100
▁Alien 100
▁Betty 100
▁Nixon 100
▁arter 100
▁gland 100
▁laser 100
▁motto 100
▁salts 100
▁tough 100
Spanish 100
chwader 100
imental 100
sterdam 100
▁Azores 100
▁Durham 100
▁Enough 100
▁Toledo 100
▁gentle 100
▁insign 100
▁seized 100
▁spiral 100
breaking 100
▁Ipswich 100
▁Majesty 100
▁Warwick 100
▁demands 100
▁dialect 100
▁estates 100
▁legally 100
▁retains 100
atography 100
▁Buddhism 100
▁Downtown 100
▁Ferguson 100
▁Platinum 100
▁Turnpike 100
▁comedian 100
▁confront 100
▁congress 100
▁consoles 100
▁customer 100
▁exported 100
▁intellig 100
▁maritime 100
▁membrane 100
▁ornament 100
▁rational 100
▁settling 100
▁treating 100
ordination 100
▁certainly 100
▁finalists 100
▁mortality 100
▁southward 100
▁coordinate 100
▁helicopter 100
▁undefeated 100
▁accelerated 100
▁manufacture 100
▁synthesizers 100
▁developmental 100
)) 100
72 100
TP 100
100 100
aic 100
cad 100
hea 100
iya 100
ppe 100
thy 100
▁Et 100
▁Ms 100
Here 100
Some 100
anan 100
anye 100
icol 100
olet 100
ttes 100
ussy 100
▁Cit 100
▁Fig 100
▁Hyp 100
▁Kun 100
▁Lic 100
▁Lil 100
▁Liv 100
▁Sew 100
▁ari 100
▁rab 100
allow 100
amous 100
grass 100
ibles 100
ritic 100
staff 100
woman 100
▁1864 100
▁1888 100
▁Alam 100
▁Dodd 100
▁Dors 100
▁Fine 100
▁Goes 100
▁Mesa 100
▁Slam 100
▁Thai 100
▁Vern 100
▁aims 100
▁calm 100
▁kidn 100
▁mock 100
▁oste 100
▁punt 100
▁rehe 100
Connor 100
berger 100
ocytes 100
uclear 100
▁Bloom 100
▁adequ 100
▁anten 100
▁arose 100
▁brack 100
▁fires 100
▁hatch 100
▁lyric 100
▁mimic 100
▁mould 100
▁stalk 100
highest 100
ouflage 100
pounder 100
rically 100
ulative 100
▁Leaves 100
▁Legacy 100
▁Orkney 100
▁Period 100
▁bitter 100
▁reluct 100
▁sulfur 100
▁tasked 100
▁thrust 100
oriented 100
▁Clifton 100
▁Complex 100
▁Goodman 100
▁Jakarta 100
▁Shelley 100
▁Sources 100
▁fitting 100
▁knocked 100
▁mercury 100
▁tension 100
▁virtual 100
▁Fletcher 100
▁Lacrosse 100
▁Mariners 100
▁Reynolds 100
▁Yankovic 100
▁Zimbabwe 100
▁alphabet 100
▁defences 100
▁hectares 100
▁monitors 100
▁properly 100
▁prospect 100
▁severity 100
▁Luftwaffe 100
▁followers 100
▁incidents 100
▁operators 100
cestershire 100
▁Dictionary 100
▁resembling 100
▁successive 100
▁unreleased 100
▁assassination 100
ID 100
-39 100
MLL 100
awk 100
roc 100
▁Eb 100
▁GR 100
ESCO 100
airy 100
anya 100
cope 100
itän 100
park 100
quer 100
uddy 100
zone 100
▁$25 100
▁Cul 100
▁Viv 100
▁Wis 100
▁Yuk 100
▁gig 100
▁tam 100
liest 100
ombat 100
rosso 100
super 100
▁1200 100
▁1887 100
▁Barr 100
▁Buzz 100
▁Crom 100
▁Goal 100
▁Jain 100
▁Karn 100
▁McCl 100
▁Patt 100
▁Rear 100
▁Said 100
▁Sang 100
▁Tele 100
▁dose 100
▁grap 100
▁hier 100
▁infl 100
▁kids 100
▁orth 100
▁pian 100
abetes 100
erving 100
iatric 100
solete 100
terian 100
▁1908, 100
▁1927, 100
▁Agent 100
▁Klein 100
▁Rings 100
▁Sales 100
▁Satan 100
▁dried 100
▁newer 100
▁pione 100
▁slope 100
largest 100
powered 100
▁Excell 100
▁Hispan 100
▁Hollow 100
▁Julius 100
▁Labrad 100
▁Patric 100
▁Stakes 100
▁Tintin 100
▁Tucker 100
▁afford 100
▁cavity 100
▁choral 100
▁delays 100
▁freely 100
▁heated 100
▁landsl 100
▁racial 100
▁rookie 100
hemistry 100
▁(2005). 100
▁Freeway 100
▁Halifax 100
▁arguing 100
▁baptism 100
▁careers 100
▁catcher 100
▁consent 100
▁impacts 100
▁imposed 100
▁linking 100
▁planted 100
▁swimmer 100
▁tackles 100
▁utility 100
▁Flotilla 100
▁Producer 100
▁blockade 100
▁contamin 100
▁murdered 100
▁sexually 100
▁shortest 100
classified 100
▁Ferdinand 100
▁Valentine 100
▁discusses 100
▁instances 100
▁goaltender 100
▁satellites 100
▁amphetamine 100
▁challenging 100
▁commercials 100
▁capabilities 100
cip 100
iza 100
kan 100
mir 100
non 100
squ 100
▁3) 100
▁NS 100
▁UB 100
That 100
anni 100
elly 100
enny 100
good 100
ovan 100
sign 100
tegr 100
▁Fow 100
▁GRT 100
▁Sul 100
▁ibn 100
▁omn 100
▁ori 100
▁pic 100
▁toy 100
▁unw 100
▁vib 100
Dream 100
State 100
atham 100
entry 100
▁(140 100
▁(160 100
▁1891 100
▁Loch 100
▁Palm 100
▁Pond 100
▁Reds 100
▁Thir 100
▁aest 100
▁amid 100
▁athe 100
▁bark 100
▁flav 100
▁lock 100
▁mail 100
▁tier 100
▁zool 100
bedded 100
heimer 100
iocene 100
oyalty 100
scenes 100
umines 100
▁(1970 100
▁Amman 100
▁Derek 100
▁Extra 100
▁Flash 100
▁Franz 100
▁Haiti 100
▁Lopez 100
▁Lynch 100
▁Nigel 100
▁Sanct 100
▁abstr 100
▁elong 100
▁exits 100
▁imper 100
▁presc 100
▁refug 100
▁schem 100
▁spont 100
▁stunt 100
▁topic 100
idships 100
ocratic 100
ubbling 100
▁Braves 100
▁Burger 100
▁Chance 100
▁GameSp 100
▁Heroes 100
▁Irving 100
▁Jerome 100
▁Leader 100
▁Nicole 100
▁Thorpe 100
▁counts 100
▁finest 100
▁revolt 100
▁suspic 100
pressure 100
▁Archive 100
▁Miranda 100
▁Warning 100
▁obvious 100
▁patrols 100
▁pyramid 100
September 100
▁Dramatic 100
▁Hastings 100
▁Johannes 100
▁Kendrick 100
▁Sheridan 100
▁Stafford 100
▁Superior 100
▁confined 100
▁crystall 100
▁spelling 100
▁Anthology 100
▁Lafayette 100
▁allegedly 100
▁consensus 100
▁electrons 100
▁inscribed 100
▁receptors 100
▁retaining 100
▁sophomore 100
▁collecting 100
▁collective 100
▁freshwater 100
▁nationwide 100
▁reflecting 100
▁Institution 100
▁electronics 100
▁politicians 100
▁consequences 100
▁advertisement 100
▁manufacturers 100
5- 100
OW 100
TE 100
ão 100
ël 100
Jan 100
bat 100
eer 100
has 100
iev 100
oco 100
utz 100
▁(− 100
▁Ri 100
arre 100
atri 100
bral 100
cats 100
eddy 100
film 100
jord 100
mind 100
olam 100
ongs 100
opol 100
otal 100
ucci 100
▁(2) 100
▁Bac 100
▁Ign 100
▁Ist 100
▁Peg 100
▁ask 100
eting 100
itius 100
ogram 100
ourse 100
ppers 100
umont 100
▁(183 100
▁Cena 100
▁Jets 100
▁Lois 100
▁Lund 100
▁Noel 100
▁Path 100
▁Quad 100
▁Shen 100
▁bron 100
▁bulb 100
▁glut 100
▁ital 100
▁lane 100
▁obst 100
▁trim 100
August 100
aceans 100
raints 100
venues 100
▁1933, 100
▁Arist 100
▁Bates 100
▁Citiz 100
▁Felix 100
▁Kerry 100
▁Match 100
▁Neigh 100
▁Rican 100
▁Rough 100
▁Thing 100
▁Weber 100
▁Yucat 100
▁bonds 100
▁boron 100
▁clade 100
▁horns 100
▁loyal 100
▁rever 100
Farlane 100
▁Borneo 100
▁Claire 100
▁Escape 100
▁Guadal 100
▁Lauren 100
▁Mechan 100
▁Nickel 100
▁UNESCO 100
▁boards 100
▁diesel 100
▁dragon 100
▁guided 100
▁harbor 100
▁indeed 100
▁landsc 100
▁pretty 100
▁undern 100
▁(2010). 100
▁Artists 100
▁Colbert 100
▁Hammers 100
▁Journey 100
▁Pioneer 100
▁Revenge 100
▁Strange 100
▁Voyager 100
▁Whitney 100
▁chicken 100
▁dynamic 100
▁eclipse 100
▁fitness 100
▁mileage 100
▁quantum 100
▁relinqu 100
▁spiders 100
▁spokesp 100
featuring 100
▁Academic 100
▁Interest 100
▁Mathemat 100
▁Trafford 100
▁adoption 100
▁defender 100
▁emission 100
▁explored 100
▁founders 100
▁orbiting 100
▁quantity 100
▁quarters 100
▁tendency 100
▁Malaysian 100
▁arguments 100
▁collector 100
▁incumbent 100
▁qualities 100
▁confidence 100
▁conspiracy 100
▁introduces 100
▁linebacker 100
▁postseason 100
▁preference 100
▁prominence 100
▁reinforced 100
▁unofficial 100
▁Alternative 100
▁Powderfinger 100
▁acknowledged 100
UK 100
ér 100
arf 100
dec 100
die 100
dis 100
emi 100
jud 100
lov 100
yon 100
yss 100
▁CW 100
They 100
alam 100
arte 100
atta 100
etus 100
imir 100
prus 100
rill 100
usky 100
ylie 100
▁133 100
▁Gol 100
▁Rut 100
▁Yas 100
▁hyd 100
▁lux 100
▁obl 100
▁sar 100
▁soc 100
▁ton 100
April 100
agram 100
aptor 100
avier 100
effic 100
idays 100
ourag 100
▁Beau 100
▁Casc 100
▁Chip 100
▁Duff 100
▁Erin 100
▁Grav 100
▁Mids 100
▁Peru 100
▁Saff 100
▁Tate 100
▁Vale 100
▁Virt 100
▁fant 100
▁jail 100
▁moll 100
namese 100
ometry 100
rified 100
stroke 100
thirds 100
ulator 100
▁1910. 100
▁1918. 100
▁1932. 100
▁1950. 100
▁1952, 100
▁Coron 100
▁Crash 100
▁Hiros 100
▁Moran 100
▁Prose 100
▁conce 100
▁excer 100
▁fluct 100
▁lined 100
▁promo 100
▁reefs 100
▁reper 100
▁sauce 100
▁saves 100
▁wears 100
America 100
culosis 100
▁Arctic 100
▁Circus 100
▁Compan 100
▁Ethiop 100
▁Fields 100
▁Juliet 100
▁Parish 100
▁Sister 100
▁cruise 100
▁deeply 100
▁finger 100
▁frames 100
▁gastro 100
▁lifesp 100
▁occupy 100
▁scorer 100
▁tongue 100
▁traces 100
ifferent 100
tenstein 100
▁Episode 100
▁Landing 100
▁Running 100
▁Timothy 100
▁Wyoming 100
▁combine 100
▁crucial 100
▁pursued 100
▁staying 100
Singapore 100
utherford 100
▁Anglican 100
▁Economic 100
▁Fighting 100
▁Michaels 100
▁consumer 100
▁emerging 100
▁fluorine 100
▁pavilion 100
▁portrait 100
▁renowned 100
▁reversed 100
▁settings 100
pendicular 100
▁Nominated 100
▁SmackDown 100
▁abundance 100
▁comparing 100
▁contacted 100
▁excavated 100
▁fortified 100
▁inception 100
▁Publishers 100
▁absorption 100
▁presenting 100
▁publishers 100
▁underneath 100
▁allegations 100
▁interviewed 100
▁Presbyterian 100
▁concurrently 100
▁conversation 100
▁Investigation 100
▁commissioning 100
▁decompression 100
▁pronunciation 100
▁municipalities 100
NL 100
ów 100
-22 100
-47 100
evo 100
oop 100
oos 100
ovo 100
uga 100
upe 100
▁Ya 100
este 100
izza 100
kill 100
lass 100
nton 100
quez 100
riet 100
tles 100
uder 100
▁(46 100
▁124 100
▁142 100
▁Cir 100
▁Jur 100
▁Led 100
▁Ost 100
▁Rip 100
▁Sep 100
▁Sit 100
▁guy 100
▁kin 100
anese 100
ayers 100
berto 100
iches 100
imson 100
onies 100
rific 100
rowed 100
▁Isis 100
▁JTWC 100
▁Kash 100
▁Monk 100
▁Shut 100
▁pawn 100
▁pulp 100
angles 100
ewater 100
henium 100
irical 100
ometre 100
onduct 100
played 100
single 100
▁1951. 100
▁1965. 100
▁Brent 100
▁Briar 100
▁Cohen 100
▁Crane 100
▁Joyce 100
▁Moroc 100
▁Wigan 100
▁crick 100
▁exile 100
▁fauna 100
▁nurse 100
▁opted 100
▁polls 100
▁suite 100
▁tales 100
▁towed 100
▁troop 100
▁(2016) 100
▁Bayern 100
▁Finals 100
▁Lester 100
▁Mulder 100
▁Royals 100
▁Terror 100
▁Thirty 100
▁cultiv 100
▁depths 100
▁dorsal 100
▁enable 100
▁floods 100
▁induct 100
▁proven 100
▁static 100
▁thrown 100
agonists 100
cylinder 100
ressions 100
▁(2011). 100
▁Everett 100
▁Glacier 100
▁Persona 100
▁favored 100
▁healthy 100
▁totaled 100
▁Americas 100
▁Manufact 100
▁advocate 100
▁climbing 100
▁massacre 100
▁matching 100
▁narrator 100
▁occupies 100
▁weighing 100
▁Brigadier 100
▁Relations 100
▁SpongeBob 100
▁revealing 100
▁tributary 100
▁decoration 100
▁discipline 100
▁substances 100
▁Agriculture 100
▁commentator 100
▁synthesized 100
▁interference 100
87 100
RE 100
▁q 100
-44 100
Que 100
Roy 100
Run 100
alu 100
him 100
oki 100
zes 100
▁Dh 100
▁IA 100
Cube 100
Rock 100
mans 100
mour 100
ogne 100
omac 100
rish 100
ults 100
▁$30 100
▁Eva 100
▁Hew 100
▁Lap 100
▁Lip 100
▁Miy 100
▁Moh 100
▁Rid 100
▁bip 100
▁joy 100
▁osc 100
▁pod 100
annah 100
azing 100
ceans 100
chlor 100
elope 100
ewise 100
rible 100
rowth 100
▁Brem 100
▁Buch 100
▁DVDs 100
▁Hoff 100
▁Lans 100
▁Mits 100
▁Sara 100
▁disk 100
▁guid 100
▁mour 100
Arthur 100
estock 100
isbury 100
▁1916. 100
▁1931, 100
▁1953. 100
▁1957. 100
▁Britt 100
▁Cuban 100
▁Eliot 100
▁Entry 100
▁Hazel 100
▁Humph 100
▁Hyper 100
▁Kumar 100
▁Manit 100
▁Sigma 100
▁Worth 100
▁bills 100
▁casem 100
▁embry 100
▁tuned 100
casters 100
ellular 100
ificant 100
riction 100
tingham 100
▁Angles 100
▁Helena 100
▁Vision 100
▁Weston 100
▁Writer 100
▁brakes 100
▁deeper 100
▁dispat 100
▁hollow 100
▁incarn 100
▁intend 100
▁thread 100
historic 100
▁Heather 100
▁Hundred 100
▁Nothing 100
▁Windsor 100
▁arrives 100
▁draught 100
▁modeled 100
▁mystery 100
▁nominal 100
▁pioneer 100
▁prosper 100
▁trapped 100
▁valleys 100
▁Benedict 100
▁Multiple 100
▁Veterans 100
▁ancestry 100
▁bankrupt 100
▁cyclists 100
▁escorted 100
▁foraging 100
▁lectures 100
▁ordinary 100
▁periodic 100
▁requests 100
▁unstable 100
▁Alexandra 100
▁Fantastic 100
▁Nicaragua 100
▁Riverside 100
▁Rodriguez 100
▁amidships 100
▁civilians 100
▁privately 100
▁Vietnamese 100
▁accomplish 100
▁explaining 100
▁inspection 100
▁structured 100
▁Legislature 100
▁Palestinian 100
▁accumulated 100
▁installment 100
▁susceptible 100
▁Jacksonville 100
▁astronomical 100
▁preparations 100
▁demonstration 100
▁neighborhoods 100
53 100
EV 100
tw 100
Per 100
Ste 100
oqu 100
won 100
▁AG 100
▁GM 100
▁Iz 100
▁SA 100
Will 100
area 100
assy 100
beck 100
died 100
emat 100
enia 100
isot 100
ndum 100
onde 100
rone 100
▁$50 100
▁BWV 100
▁Cyn 100
▁Ing 100
▁LLC 100
▁Paw 100
▁Vij 100
▁cyt 100
▁ect 100
▁iod 100
▁sid 100
Europ 100
Great 100
avery 100
elles 100
encia 100
illon 100
inate 100
oplan 100
ports 100
ragon 100
▁1884 100
▁Bord 100
▁Cord 100
▁Dana 100
▁Gamb 100
▁Glad 100
▁Herb 100
▁Krak 100
▁Pale 100
▁Roth 100
▁Toby 100
▁gest 100
▁keen 100
▁mars 100
▁oval 100
▁puff 100
▁quot 100
▁saga 100
Little 100
ancial 100
▁1952. 100
▁1959. 100
▁Amber 100
▁Brett 100
▁Bridg 100
▁Mitch 100
▁Occup 100
▁Revel 100
▁Siege 100
▁aside 100
▁bacon 100
▁doses 100
▁grams 100
▁harsh 100
▁illeg 100
▁loved 100
▁oboes 100
▁plaza 100
▁spare 100
▁vapor 100
▁(1992) 100
▁Access 100
▁Europa 100
▁Goldie 100
▁Letter 100
▁Magnus 100
▁Making 100
▁Parade 100
▁Search 100
▁blamed 100
▁curric 100
▁define 100
▁hotels 100
▁legacy 100
▁magnet 100
▁marker 100
▁oscill 100
▁paying 100
▁relate 100
▁retrie 100
▁spokes 100
▁washed 100
▁wishes 100
February 100
communic 100
▁(2004). 100
▁Certain 100
▁Legends 100
▁Neither 100
▁Revival 100
▁Shakira 100
▁Winston 100
▁couples 100
▁finance 100
▁patches 100
▁prequel 100
▁silicon 100
▁suburbs 100
▁surname 100
▁visitor 100
▁Fighters 100
▁Jennings 100
▁midnight 100
▁nineteen 100
▁overwhel 100
▁toxicity 100
▁weakness 100
▁Amsterdam 100
▁Argentine 100
▁advancing 100
▁affiliate 100
▁anonymous 100
▁consumers 100
▁defenders 100
▁eponymous 100
▁induction 100
▁prevalent 100
▁rendition 100
▁volunteer 100
▁Providence 100
▁archbishop 100
▁inhibitors 100
▁protecting 100
▁cylindrical 100
▁derivatives 100
▁introducing 100
▁resemblance 100
▁Historically 100
▁intersecting 100
▁modification 100
▁photographed 100
▁philosophical 100
1- 100
Dr 100
su 100
%), 100
CAR 100
Mon 100
ahu 100
azy 100
eys 100
sup 100
▁Fo 100
▁HC 100
▁SI 100
aldi 100
elyn 100
guez 100
hero 100
osus 100
plan 100
role 100
some 100
trak 100
▁0-8 100
▁148 100
▁Fry 100
▁Gam 100
▁Tud 100
▁Vul 100
arten 100
atics 100
axies 100
itone 100
oslov 100
ucket 100
▁Boyd 100
▁Dunn 100
▁Eddy 100
▁Hour 100
▁Lass 100
▁Nike 100
▁Sask 100
▁Spin 100
▁Spur 100
▁Tran 100
▁Wang 100
▁cake 100
▁corp 100
▁dent 100
▁mate 100
▁musc 100
▁priz 100
amorph 100
esters 100
iguous 100
istani 100
itance 100
opters 100
osomes 100
shaven 100
viated 100
▁1926. 100
▁1958. 100
▁2007) 100
▁Bowie 100
▁Cover 100
▁Hydro 100
▁Lance 100
▁Marco 100
▁Maxim 100
▁Meyer 100
▁Poole 100
▁Shock 100
▁Wanna 100
▁Wheel 100
▁arist 100
▁boost 100
▁feels 100
▁flies 100
▁keeps 100
▁monks 100
▁prone 100
▁retro 100
▁roofs 100
Chinese 100
ailable 100
breaker 100
ointing 100
reement 100
rentice 100
▁Arjona 100
▁Dawson 100
▁Greene 100
▁Hammer 100
▁Syrian 100
▁Talbot 100
▁Wester 100
▁assume 100
▁ballot 100
▁mammal 100
▁recycl 100
▁relied 100
▁slated 100
▁snakes 100
▁thanks 100
▁Anatomy 100
▁Battery 100
▁Cabinet 100
▁Carroll 100
▁Gardner 100
▁Million 100
▁Seymour 100
▁Volunte 100
▁avoided 100
▁consume 100
▁coupled 100
▁experts 100
▁harmony 100
▁pigment 100
▁pottery 100
▁slender 100
▁stained 100
▁statues 100
▁strikes 100
kilometre 100
published 100
▁Fortress 100
▁Heinrich 100
▁Moreover 100
▁Shetland 100
▁accuracy 100
▁airports 100
▁authored 100
▁compares 100
▁councill 100
▁feminist 100
▁integral 100
▁outfield 100
▁Gallagher 100
▁breakdown 100
▁exceeding 100
▁mitochond 100
▁prolonged 100
amphetamine 100
▁Previously 100
▁invitation 100
▁miniseries 100
▁practition 100
▁presumably 100
▁propulsion 100
▁punishment 100
▁Republicans 100
▁bombardment 100
▁registration 100
▁spokesperson 100
▁gravitational 100
HO 100
OM 100
ci 100
ár 100
▁~ 100
God 100
sha 100
sic 100
uku 100
vie 100
▁". 100
▁IF 100
▁Ng 100
Mart 100
Mich 100
anor 100
iese 100
link 100
oult 100
pose 100
sing 100
ucle 100
word 100
yers 100
▁(55 100
▁(56 100
▁11: 100
▁147 100
▁40- 100
▁49, 100
▁Cot 100
▁Dex 100
▁Hog 100
▁IMA 100
▁PWI 100
▁Rag 100
▁Vas 100
▁Weh 100
▁Why 100
▁cel 100
▁unt 100
alach 100
alone 100
asted 100
aunch 100
black 100
bours 100
elong 100
ierce 100
ococc 100
robic 100
ungle 100
usive 100
utors 100
wrote 100
▁Alma 100
▁Balk 100
▁Expo 100
▁Gret 100
▁Hers 100
▁Hook 100
▁Lars 100
▁Lect 100
▁Pony 100
▁Sidd 100
▁Tale 100
▁Yoga 100
▁bend 100
▁coup 100
▁fart 100
▁puzz 100
▁rely 100
▁riff 100
▁ware 100
London 100
arding 100
ingers 100
ocaust 100
▁1923, 100
▁1947. 100
▁1955. 100
▁2008) 100
▁Cliff 100
▁Dixon 100
▁Hyder 100
▁Kanye 100
▁Rodrí 100
▁Smash 100
▁Stern 100
▁Touch 100
▁Wrest 100
▁flame 100
▁limbs 100
▁poles 100
▁relax 100
▁semic 100
▁tally 100
▁theor 100
▁wheat 100
changes 100
estinal 100
▁Alison 100
▁Arcade 100
▁Barton 100
▁Bottom 100
▁Carson 100
▁Cherry 100
▁Cyprus 100
▁Dundee 100
▁Google 100
▁Guards 100
▁Prague 100
▁alloys 100
▁litter 100
▁merger 100
▁rulers 100
▁wicket 100
specific 100
▁(2006). 100
▁(2013). 100
▁Albania 100
▁Convers 100
▁Nigeria 100
▁Potomac 100
▁busiest 100
▁chassis 100
▁cinemas 100
▁inquiry 100
▁matched 100
▁outcome 100
▁tactics 100
▁umpired 100
▁varsity 100
▁villain 100
rological 100
▁Bubbling 100
▁Exchange 100
▁Gardiner 100
▁Highland 100
▁barracks 100
▁deceased 100
▁diabetes 100
▁findings 100
▁impacted 100
▁longtime 100
▁markings 100
▁notation 100
▁obsolete 100
▁Arlington 100
▁Lexington 100
▁Middlesex 100
▁hardcover 100
▁reprinted 100
▁variously 100
▁Gillingham 100
▁Hutchinson 100
▁coloration 100
▁constantly 100
▁contestant 100
▁cultivated 100
▁evacuation 100
▁formations 100
▁generating 100
▁guidelines 100
▁highlights 100
▁imprisoned 100
▁innovative 100
▁renovation 100
▁enforcement 100
▁exhibitions 100
▁tributaries 100
▁consolidated 100
▁descriptions 100
▁incorporating 100
,' 100
py 100
-75 100
ajo 100
awi 100
bet 100
esh 100
hra 100
pos 100
tte 100
▁(/ 100
▁SG 100
▁fa 100
Ital 100
abis 100
aryn 100
chan 100
this 100
▁(85 100
▁151 100
▁Ach 100
▁Ida 100
▁Kod 100
▁Moz 100
▁Pep 100
▁Sap 100
▁UFC 100
▁XII 100
▁dup 100
▁wor 100
atile 100
atisf 100
breed 100
human 100
idian 100
ilian 100
oland 100
onnet 100
ushes 100
▁(150 100
▁Frit 100
▁Giro 100
▁Gods 100
▁None 100
▁Pyth 100
▁Whed 100
▁Wins 100
▁auto 100
▁wors 100
ateral 100
licted 100
luence 100
urated 100
▁1907. 100
▁1930. 100
▁Close 100
▁Diane 100
▁Scale 100
▁Trond 100
▁altar 100
▁angel 100
▁burst 100
▁grace 100
▁inert 100
▁kinds 100
▁olive 100
▁reapp 100
▁rowed 100
atories 100
elected 100
elihood 100
mounted 100
olation 100
oslovak 100
▁Crisis 100
▁Length 100
▁Mongol 100
▁Paragu 100
▁Policy 100
▁Proper 100
▁Scenic 100
▁Zimmer 100
▁alpine 100
▁fusion 100
▁garage 100
▁hazard 100
▁hunted 100
▁knight 100
▁medall 100
▁nickel 100
▁orphan 100
▁paired 100
▁reject 100
▁steady 100
cystidia 100
▁Andrews 100
▁Clayton 100
▁Looking 100
▁Panhand 100
▁Streets 100
▁cycling 100
▁elderly 100
▁enthusi 100
▁lineage 100
▁revenge 100
▁sailors 100
▁teenage 100
▁welding 100
Beautiful 100
▁Adriatic 100
▁Augustus 100
▁Chemical 100
▁Labrador 100
▁advisory 100
▁diamonds 100
▁expenses 100
▁peripher 100
▁reopened 100
▁scenario 100
▁strictly 100
▁unemploy 100
▁unsigned 100
▁Augustine 100
▁Municipal 100
▁Pakistani 100
▁Rodríguez 100
▁Worcester 100
▁algorithm 100
▁bacterial 100
▁butterfly 100
▁decreases 100
▁detection 100
▁dinosaurs 100
▁surprised 100
▁yellowish 100
▁Collegiate 100
▁commanders 100
▁facilitate 100
▁parameters 100
▁rebuilding 100
▁recreation 100
▁southbound 100
▁acquisition 100
▁cultivation 100
▁grandmother 100
▁measurement 100
▁Subcommittee 100
▁Subsequently 100
▁commemorated 100
▁certification 100
▁recommendations 100
99 100
WR 100
▁· 100
00, 100
pez 100
sch 100
▁Kw 100
▁NL 100
athi 100
bone 100
club 100
insp 100
itas 100
joys 100
orrh 100
unge 100
▁$15 100
▁(48 100
▁odd 100
actor 100
arted 100
esley 100
gebra 100
rared 100
▁Chal 100
▁Emin 100
▁Gaon 100
▁Gwen 100
▁Leip 100
▁Ling 100
▁Mode 100
▁Myth 100
▁Peck 100
▁Pure 100
▁Saga 100
▁Tank 100
▁Tina 100
▁chol 100
▁epid 100
▁fake 100
▁latt 100
▁misc 100
▁stew 100
▁sued 100
▁vibr 100
author 100
ellite 100
except 100
gerald 100
member 100
riages 100
storey 100
▁1906, 100
▁1907, 100
▁1924. 100
▁1929, 100
▁Dolph 100
▁Fresh 100
▁Gould 100
▁Happy 100
▁Instr 100
▁Snake 100
▁Vaugh 100
▁deity 100
▁globe 100
▁hypot 100
▁intra 100
▁mobil 100
▁queue 100
▁smell 100
▁stere 100
▁tiles 100
▁urine 100
▁wound 100
fiction 100
rolling 100
▁Cannon 100
▁Claude 100
▁Darren 100
▁Morton 100
▁Nordic 100
▁Summit 100
▁Volcan 100
▁dozens 100
▁mantle 100
▁prince 100
▁remind 100
▁ridges 100
▁singly 100
▁stamps 100
▁traced 100
▁volunt 100
istocene 100
▁(2007). 100
▁Evening 100
▁Randall 100
▁bowling 100
▁employs 100
▁hosting 100
▁labeled 100
▁lateral 100
▁lessons 100
▁privile 100
▁rehears 100
▁tobacco 100
▁Designed 100
▁avoiding 100
▁chambers 100
▁coincide 100
▁enclosed 100
▁endorsed 100
▁inverted 100
▁promised 100
▁symbolic 100
▁utilized 100
▁Telegraph 100
▁advocated 100
▁bulkheads 100
▁composing 100
▁disappear 100
▁framework 100
▁gathering 100
▁intensify 100
▁westbound 100
dreadnought 100
▁Charleston 100
▁Rutherford 100
▁agreements 100
▁compatible 100
▁suggestion 100
▁contestants 100
▁determining 100
▁excavations 100
▁Astronomical 100
▁Czechoslovak 100
▁reclassified 100
▁Wilhelmshaven 100
▁characterised 100
▁modifications 100
▁unsuccessfully 100
DC 100
Hz 100
gé 100
yx 100
▁± 100
)". 100
-37 100
-90 100
How 100
Rem 100
eri 100
mph 100
▁NR 100
SDOT 100
Take 100
agic 100
arms 100
beit 100
hawk 100
ools 100
oros 100
oxic 100
stic 100
turn 100
▁Abr 100
▁Dew 100
▁Hak 100
▁Ich 100
▁Rao 100
▁Spl 100
▁Tat 100
▁cob 100
▁mad 100
▁orn 100
aphyl 100
arity 100
chron 100
occup 100
ogens 100
▁1886 100
▁Cody 100
▁Devi 100
▁Drop 100
▁Dust 100
▁Jump 100
▁Loud 100
▁Moss 100
▁Spok 100
▁Till 100
▁Tomb 100
▁Vlad 100
▁Wemb 100
▁acne 100
▁busy 100
▁dign 100
▁pent 100
▁plug 100
▁plut 100
estial 100
isodes 100
orters 100
reathe 100
square 100
▁1905, 100
▁1922. 100
▁1932, 100
▁Booth 100
▁Haupt 100
▁Nikol 100
▁Pluto 100
▁Schul 100
▁Worst 100
▁mouse 100
▁picks 100
▁treas 100
present 100
quality 100
usually 100
▁Greeks 100
▁Kombat 100
▁Manila 100
▁Mosque 100
▁Silent 100
▁Trevor 100
▁cement 100
[...]
