▁の 100
▁、 100
▁。 100
▁た 100
▁に 100
▁を 100
▁は 100
▁が 100
▁で 100
▁と 100
▁て 100
▁し 100
▁な 100
▁1 100
▁い 100
▁」 100
▁「 100
▁2 100
▁0 100
▁( 100
▁) 100
▁も 100
▁日 100
▁か 100
▁さ 100
▁す 100
▁こ 100
▁する 100
▁3 100
▁だ 100
▁ま 100
▁れ 100
▁大 100
▁あ 100
▁5 100
▁いる 100
▁年 100
▁や 100
▁4 100
▁から 100
▁・ 100
▁人 100
▁よ 100
▁など 100
▁6 100
▁ない 100
▁市 100
▁こと 100
▁中 100
▁7 100
▁月 100
▁会 100
▁一 100
▁8 100
▁9 100
▁そ 100
▁者 100
▁ら 100
▁つ 100
▁ある 100
▁国 100
▁自 100
▁同 100
▁ア 100
▁お 100
▁日本 100
▁出 100
▁ス 100
▁時 100
▁県 100
▁いう 100
▁地 100
▁高 100
▁さん 100
▁発 100
▁東 100
▁今 100
▁開 100
▁新 100
▁ます 100
▁見 100
▁生 100
▁選 100
▁前 100
▁対 100
▁上 100
▁カ 100
▁事 100
▁最 100
▁イ 100
▁行 100
▁的 100
▁目 100
▁シ 100
▁なっ 100
▁メ 100
▁フ 100
ート 100
▁円 100
かっ 100
▁分 100
▁サ 100
▁関 100
▁まで 100
▁約 100
▁でき 100
▁回 100
▁よう 100
▁後 100
ール 100
▁れる 100
▁へ 100
▁全 100
▁られ 100
▁本 100
▁コ 100
▁内 100
▁長 100
▁よる 100
▁だっ 100
▁政 100
▁戦 100
リー 100
▁実 100
▁万 100
▁取 100
ット 100
ター 100
▁入 100
▁以 100
▁ため 100
▁公 100
▁氏 100
▁米 100
▁なる 100
▁マ 100
▁小 100
▁連 100
▁現 100
▁です 100
▁機 100
▁決 100
▁ほ 100
▁通 100
ラン 100
しい 100
▁安 100
▁プ 100
▁受 100
▁ば 100
▁き 100
▁方 100
▁世 100
▁社 100
▁その 100
▁せ 100
ント 100
▁代 100
▁キ 100
▁強 100
▁オ 100
▁東京 100
▁経 100
▁学 100
▁たい 100
▁作 100
▁女 100
▁部 100
▁不 100
▁この 100
える 100
▁初 100
▁パ 100
▁思 100
▁バ 100
▁多 100
▁手 100
▁記 100
▁ド 100
▁共 100
ック 100
▁ト 100
▁主 100
▁= 100
▁チ 100
▁当 100
▁北 100
める 100
ーム 100
▁第 100
▁つい 100
▁支 100
▁み 100
▁場 100
▁調 100
▁話 100
▁% 100
▁区 100
▁性 100
▁指 100
ング 100
▁予 100
▁デ 100
▁男 100
▁平 100
▁金 100
▁三 100
▁セ 100
ース 100
▁ご 100
▁感 100
▁ロ 100
▁家 100
▁相 100
▁あり 100
▁エ 100
▁先 100
▁投 100
▁受け 100
▁所 100
▁電 100
▁原 100
▁教 100
▁増 100
▁活 100
▁問 100
▁町 100
▁く 100
▁ク 100
▁まし 100
▁保 100
▁向 100
▁運 100
▁勝 100
▁- 100
▁ず 100
▁化 100
▁～ 100
▁車 100
▁テ 100
▁続 100
▁使 100
▁できる 100
▁名 100
▁進 100
▁リ 100
▁都 100
▁特 100
▁知 100
▁位 100
▁なかっ 100
▁なく 100
▁下 100
ライ 100
▁首 100
▁あっ 100
▁法 100
▁山 100
▁体 100
▁午 100
▁二 100
▁意 100
▁期 100
▁参 100
▁. 100
▁ど 100
▁協 100
▁発表 100
▁世界 100
▁立 100
▁再 100
▁党 100
▁う 100
▁外 100
ップ 100
▁気 100
▁海 100
▁打 100
▁言 100
▁合 100
▁昨 100
▁ブ 100
▁これ 100
▁より 100
▁議 100
▁無 100
▁】 100
▁広 100
▁結 100
▁福 100
▁明 100
▁タ 100
▁警 100
▁【 100
▁企 100
▁レ 100
スト 100
▁次 100
▁中国 100
▁もの 100
▁選手 100
ュー 100
▁試 100
▁交 100
▁それ 100
▁集 100
▁重 100
▁文 100
▁取り 100
▁水 100
▁ジ 100
▁成 100
▁店 100
▁制 100
▁提 100
▁グ 100
▁総 100
▁計 100
▁確 100
▁改 100
▁会社 100
ョン 100
▁被 100
▁子 100
まっ 100
▁ハ 100
▁数 100
▁住 100
▁共同 100
▁ホ 100
▁たち 100
▁可 100
▁来 100
ード 100
▁A 100
▁時間 100
▁持 100
▁考 100
▁おり 100
▁力 100
ける 100
▁組 100
▁五 100
▁だけ 100
▁近 100
▁始 100
▁ん 100
▁なり 100
▁昨年 100
▁利 100
ーク 100
▁書 100
ティ 100
▁関係 100
▁基 100
▁設 100
▁委 100
▁動 100
▁理 100
▁問題 100
▁変 100
▁表 100
▁代表 100
▁優 100
▁ウ 100
▁わ 100
▁加 100
▁イン 100
▁報 100
▁検 100
▁引 100
▁必 100
▁点 100
▁情 100
▁容 100
▁各 100
▁女性 100
▁億 100
▁食 100
▁ミ 100
▁野 100
▁元 100
▁企業 100
▁られる 100
ディ 100
▁大阪 100
▁』 100
ション 100
▁観 100
▁可能 100
▁『 100
▁向け 100
▁歳 100
▁商 100
▁過 100
▁楽 100
▁反 100
▁: 100
▁解 100
▁付 100
▁ビ 100
▁工 100
▁ソ 100
▁両 100
▁語 100
上げ 100
▁台 100
▁大会 100
▁ボ 100
▁度 100
れる 100
▁以上 100
▁間 100
▁話し 100
▁民 100
ージ 100
▁モ 100
▁死 100
▁大き 100
がら 100
▁政府 100
▁そう 100
▁西 100
▁登 100
ープ 100
▁また 100
▁少 100
▁調査 100
▁認 100
▁C 100
▁J 100
▁半 100
▁終 100
ートル 100
▁監 100
▁情報 100
▁ベ 100
▁リー 100
▁行わ 100
▁ニ 100
▁状 100
▁有 100
▁ポ 100
▁直 100
する 100
▁業 100
▁求 100
▁考え 100
▁権 100
レー 100
▁ワ 100
ンド 100
▁必要 100
▁研 100
▁株 100
▁空 100
▁示 100
▁ながら 100
▁正 100
▁委員 100
▁プロ 100
▁事業 100
▁メートル 100
▁団 100
▁役 100
めて 100
リア 100
▁参加 100
▁防 100
▁建 100
▁判 100
▁省 100
▁地域 100
▁セン 100
▁比 100
▁神 100
▁とも 100
▁物 100
▁規 100
▁容疑 100
▁― 100
▁乗 100
▁道 100
イン 100
▁思い 100
▁ダ 100
▁仕 100
▁試合 100
▁起 100
カー 100
▁番 100
▁経済 100
▁N 100
▁南 100
▁展 100
▁施 100
▁減 100
▁なら 100
▁ファ 100
▁伝 100
かり 100
わせ 100
▁” 100
んな 100
▁たり 100
▁製 100
▁消 100
ャン 100
▁何 100
▁十 100
▁P 100
▁S 100
▁スタ 100
▁四 100
▁米国 100
▁全国 100
▁首相 100
▁販 100
▁員 100
▁得 100
▁年度 100
バー 100
▁! 100
▁放 100
▁チーム 100
かし 100
▁私 100
▁研究 100
▁担 100
▁宮 100
▁今年 100
▁多く 100
▁韓 100
▁資 100
▁自分 100
▁訪 100
▁周 100
▁引き 100
▁予定 100
▁声 100
▁販売 100
▁国際 100
ろう 100
▁側 100
▁“ 100
▁午後 100
▁活動 100
▁いい 100
▁支援 100
▁残 100
▁映 100
▁館 100
▁石 100
▁男性 100
▁移 100
▁ラ 100
▁心 100
▁コン 100
▁用 100
▁キロ 100
▁応 100
▁追 100
▁韓国 100
▁監督 100
▁大学 100
▁ガ 100
▁要 100
▁午前 100
▁いた 100
▁客 100
▁割 100
▁今回 100
▁サー 100
▁説 100
▁ユ 100
▁目指 100
▁呼 100
▁ぶ 100
▁いく 100
▁流 100
▁ほか 100
▁I 100
▁違 100
▁ひ 100
▁開催 100
▁開発 100
▁朝 100
▁医 100
▁売 100
▁課 100
▁現在 100
▁復 100
▁美 100
▁姿 100
▁利用 100
▁配 100
イト 100
▁含 100
▁産 100
▁述 100
▁さら 100
▁九 100
▁F 100
▁述べ 100
▁学校 100
▁ライ 100
▁け 100
▁一方 100
▁天 100
▁品 100
▁様 100
▁ち 100
▁早 100
▁いっ 100
▁市場 100
▁松 100
▁ね 100
▁記者 100
ころ 100
▁個 100
ジア 100
▁注 100
▁どう 100
▁愛 100
▁駅 100
▁T 100
▁官 100
▁定 100
ビス 100
▁競 100
▁軍 100
まり 100
▁職 100
▁もら 100
▁収 100
▁説明 100
▁初めて 100
ーン 100
▁技 100
▁英 100
▁楽し 100
▁影 100
▁実施 100
▁好 100
▁施設 100
▁率 100
ーズ 100
▁今後 100
▁選挙 100
▁税 100
▁リーグ 100
▁派 100
▁事件 100
▁中心 100
▁振 100
▁幹 100
▁社会 100
▁府 100
▁案 100
▁八 100
▁負 100
▁ゴ 100
▁サービス 100
▁安全 100
▁震 100
▁出場 100
▁料 100
▁事故 100
▁土 100
▁演 100
▁結果 100
らか 100
▁横 100
▁遺 100
▁確認 100
▁構 100
▁ネ 100
▁示し 100
▁影響 100
▁対応 100
▁B 100
込み 100
ょう 100
シア 100
▁専 100
▁担当 100
▁局 100
▁ペ 100
▁病 100
ラム 100
▁切 100
▁対し 100
▁真 100
▁川 100
▁ドル 100
▁風 100
▁村 100
▁会見 100
▁ぶり 100
イル 100
▁失 100
▁着 100
▁め 100
▁信 100
▁べ 100
▁超 100
▁他 100
▁千 100
▁W 100
▁聞 100
▁新聞 100
▁優勝 100
▁農 100
▁限 100
▁うち 100
▁若 100
▁価 100
▁和 100
▁G 100
▁ケ 100
▁さらに 100
▁京 100
▁せる 100
▁M 100
▁国内 100
がっ 100
▁別 100
▁低 100
▁ところ 100
▁女子 100
▁線 100
▁毎 100
しく 100
▁青 100
▁飛 100
▁ほど 100
▁環 100
▁時代 100
▁原発 100
よう 100
▁指摘 100
▁場合 100
ランド 100
▁太 100
統領 100
▁大統領 100
▁こう 100
▁財 100
▁深 100
▁平成 100
▁親 100
▁タイ 100
▁写 100
▁推 100
▁式 100
▁管 100
▁求め 100
▁未 100
▁白 100
▁面 100
▁敗 100
▁技術 100
込ん 100
▁買 100
▁D 100
▁感じ 100
▁つな 100
▁年間 100
▁提供 100
▁訴 100
▁対象 100
▁拡 100
わっ 100
▁会議 100
▁高校 100
▁良 100
▁就 100
▁費 100
▁震災 100
▁整 100
▁政権 100
▁末 100
▁計画 100
▁生活 100
▁五輪 100
▁対策 100
▁同じ 100
▁被害 100
▁決め 100
▁ル 100
▁ただ 100
っと 100
▁当時 100
▁落 100
▁だろう 100
▁明らか 100
▁捜 100
▁庁 100
▁べき 100
▁地元 100
▁準 100
▁自動 100
▁写真 100
▁キャ 100
▁種 100
▁佐 100
▁観光 100
▁新た 100
▁開か 100
リン 100
▁音 100
▁始め 100
▁高い 100
▁完 100
▁田 100
▁自民 100
▁公開 100
▁疑 100
▁でし 100
さい 100
▁グル 100
▁審 100
▁最大 100
▁取り組 100
出し 100
▁社長 100
▁方針 100
▁カ月 100
▁ナ 100
▁続け 100
▁クラ 100
▁期待 100
▁地方 100
▁商品 100
▁人気 100
▁センター 100
▁多い 100
▁ごろ 100
▁環境 100
▁賞 100
▁かけ 100
▁守 100
▁たら 100
ナー 100
▁球 100
ーツ 100
▁ツ 100
▁E 100
▁候 100
▁いただ 100
▁映画 100
▁避 100
▁候補 100
▁ピ 100
▁入り 100
▁文化 100
▁非 100
▁条 100
▁処 100
▁送 100
▁ふ 100
▁撮 100
▁形 100
▁株式 100
▁語っ 100
▁号 100
▁仙 100
▁状況 100
▁申 100
▁ノ 100
▁思っ 100
▁評 100
▁六 100
▁署 100
▁会長 100
▁富 100
▁与 100
▁木 100
▁連続 100
▁テレ 100
▁逮 100
▁逮捕 100
▁行っ 100
▁歴 100
▁独 100
▁安倍 100
▁武 100
▁笑 100
▁決勝 100
▁差 100
ベント 100
▁ませ 100
▁フォ 100
▁検討 100
▁健 100
▁福島 100
▁ほしい 100
▁難 100
▁掲 100
▁銀 100
▁イベント 100
▁最高 100
▁左 100
ッカー 100
▁北朝 100
▁北朝鮮 100
ンス 100
▁場所 100
▁アジア 100
▁迎 100
▁寄 100
▁内容 100
▁七 100
▁グループ 100
▁/ 100
▁決定 100
▁創 100
ども 100
▁危 100
▁ゲ 100
り返 100
▁住民 100
▁作品 100
▁視 100
▁科 100
▁効 100
▁ジャ 100
▁急 100
▁消費 100
▁隊 100
▁とき 100
たり 100
▁入っ 100
▁中央 100
▁仙台 100
▁秋 100
▁テレビ 100
▁際 100
まる 100
▁しかし 100
▁知事 100
フト 100
▁攻 100
▁目指す 100
▁一部 100
▁アイ 100
▁岩 100
▁大きな 100
▁異 100
▁さま 100
▁スポ 100
▁団体 100
▁園 100
ーマ 100
▁件 100
▁鉄 100
▁豊 100
▁判断 100
くり 100
▁最終 100
げる 100
ダー 100
▁狙 100
けれ 100
▁採 100
▁労 100
▁旅 100
▁伊 100
かけ 100
▁以降 100
▁悪 100
ンジ 100
▁教育 100
▁島 100
▁ヒ 100
▁火 100
▁身 100
▁野球 100
▁花 100
▁価格 100
▁報告 100
▁適 100
▁民主 100
▁経営 100
▁ショ 100
▁走 100
▁歌 100
▁男子 100
▁スト 100
▁練 100
▁足 100
▁ロシア 100
▁右 100
▁満 100
▁政治 100
▁使っ 100
▁近く 100
▁管理 100
ータ 100
▁光 100
▁育 100
▁協力 100
▁京都 100
▁証 100
▁沖 100
▁街 100
▁盛 100
▁読 100
▁東北 100
▁子ども 100
▁転 100
▁赤 100
▁組織 100
▁プレ 100
▁拡大 100
▁使用 100
▁欧 100
▁導 100
▁じ 100
▁▽ 100
がる 100
▁議員 100
▁機関 100
▁思う 100
▁開始 100
▁歩 100
▁電力 100
合わせ 100
▁ニュー 100
▁政策 100
▁突 100
▁従 100
▁協議 100
ブル 100
ッチ 100
ックス 100
▁事務 100
▁仕事 100
▁船 100
▁とっ 100
▁週 100
▁サッカー 100
わり 100
▁家族 100
▁※ 100
▁分かっ 100
▁L 100
▁報道 100
▁母 100
▁撮影 100
▁運転 100
▁ヘ 100
▁見つ 100
▁黒 100
▁福岡 100
▁裁 100
▁務 100
▁口 100
ーチ 100
▁ラン 100
ステ 100
▁講 100
メント 100
▁国民 100
▁背 100
▁投票 100
▁香 100
▁夏 100
▁地区 100
▁ヤ 100
▁設置 100
▁殺 100
▁イス 100
▁強化 100
ラー 100
▁スマ 100
▁関する 100
▁維 100
▁作業 100
がり 100
▁成長 100
▁期間 100
▁特別 100
▁離 100
▁やす 100
ディア 100
ネル 100
▁渡 100
▁合わせ 100
▁少な 100
▁海外 100
▁持ち 100
▁運営 100
▁細 100
▁出し 100
▁フィ 100
▁捜査 100
らし 100
▁展開 100
▁衆 100
▁生産 100
▁春 100
▁記念 100
▁勝ち 100
ッド 100
ンバー 100
▁紹 100
▁補 100
▁統 100
▁伝え 100
▁紹介 100
▁夜 100
▁進め 100
▁苦 100
▁古 100
▁くだ 100
▁市民 100
▁記録 100
▁舞 100
▁吉 100
▁航 100
▁制度 100
ーション 100
▁まま 100
▁通信 100
▁並 100
▁関連 100
▁達 100
▁来年 100
▁型 100
▁取材 100
▁厳 100
▁普 100
▁過去 100
▁系 100
▁発生 100
▁呼び 100
▁くれ 100
▁量 100
クト 100
▁やっ 100
▁校 100
▁挙 100
▁増え 100
▁? 100
▁避難 100
▁相手 100
▁− 100
▁知ら 100
▁理由 100
掛け 100
テル 100
▁強調 100
ャー 100
▁階 100
▁練習 100
▁建設 100
▁ファン 100
▁> 100
まれ 100
▁会場 100
▁いき 100
▁積 100
▁軽 100
▁図 100
ロー 100
▁出身 100
▁めぐ 100
▁兵 100
▁副 100
▁重要 100
▁帰 100
▁実現 100
▁以来 100
▁規模 100
▁見せ 100
▁発売 100
▁市長 100
▁現場 100
▁在 100
▁協会 100
▁熱 100
▁責 100
▁しか 100
▁自治 100
▁同社 100
▁評価 100
▁外国 100
▁住宅 100
▁認め 100
▁一般 100
▁ネット 100
ギー 100
▁登場 100
▁労働 100
▁なけれ 100
▁段 100
▁歴史 100
▁踏 100
▁ユー 100
▁博 100
▁強い 100
▁デザ 100
▁JR 100
▁病院 100
▁機能 100
ナル 100
して 100
ランス 100
▁輸 100
▁つく 100
▁電話 100
▁K 100
▁常 100
▁よっ 100
▁室 100
▁批 100
▁士 100
▁延 100
▁警察 100
▁王 100
▁将 100
▁営 100
▁立ち 100
▁懸 100
▁投資 100
▁昭 100
ンク 100
▁画 100
▁勢 100
イント 100
▁修 100
▁経験 100
▁飲 100
▁洋 100
▁ゆ 100
▁議会 100
▁ください 100
▁被災 100
▁描 100
▁専門 100
▁周辺 100
▁伸 100
▁整備 100
▁アン 100
▁味 100
▁サイト 100
▁存 100
▁弁 100
▁アル 100
▁杯 100
▁自衛 100
▁状態 100
▁衆院 100
▁森 100
▁職員 100
▁死亡 100
▁見通 100
▁H 100
持ち 100
▁意見 100
▁停 100
▁データ 100
▁責任 100
▁批判 100
▁メディア 100
▁っ 100
▁全体 100
▁子供 100
▁働 100
▁ドラ 100
▁退 100
入れ 100
▁頭 100
▁今季 100
▁トップ 100
▁個人 100
▁精 100
わる 100
▁動き 100
▁ポイント 100
▁持っ 100
ぞれ 100
▁州 100
レス 100
▁最後 100
▁行う 100
▁言葉 100
▁届 100
▁インター 100
▁指導 100
▁複 100
▁それぞれ 100
ラク 100
▁平均 100
付け 100
▁< 100
かる 100
海道 100
▁大手 100
▁訪れ 100
▁教授 100
▁果 100
▁ブラ 100
▁調べ 100
▁放送 100
ルト 100
▁値 100
▁ギ 100
▁打ち 100
▁O 100
▁宮城 100
プリ 100
▁通り 100
▁課題 100
▁見通し 100
▁医療 100
▁サイ 100
▁入れ 100
ニア 100
▁岡 100
▁活用 100
▁倍 100
▁藤 100
▁臨 100
▁温 100
▁憲 100
▁学生 100
▁導入 100
▁順 100
▁色 100
▁犯 100
▁スポーツ 100
▁対する 100
▁センチ 100
▁素 100
▁通じ 100
▁同市 100
▁話す 100
▁程 100
▁キャン 100
ラス 100
▁総合 100
▁加え 100
▁目標 100
▁規制 100
ステム 100
▁質 100
▁彼 100
▁効果 100
ールド 100
▁会談 100
▁例 100
▁本部 100
▁夫 100
じめ 100
▁義 100
▁契 100
▁接 100
▁続い 100
▁産業 100
▁清 100
らい 100
▁挑 100
▁持つ 100
▁国会 100
▁連携 100
▁浮 100
▁裁判 100
▁生まれ 100
▁システム 100
古屋 100
▁起き 100
▁復興 100
▁治 100
▁ニューヨ 100
▁気持ち 100
▁空港 100
▁名古屋 100
▁まと 100
▁父 100
▁休 100
▁屋 100
▁迎え 100
▁ニューヨーク 100
▁しま 100
▁すれ 100
▁食べ 100
▁程度 100
▁よく 100
▁フェ 100
▁欧州 100
込む 100
▁表明 100
▁自身 100
▁生徒 100
▁沖縄 100
▁ホーム 100
▁メンバー 100
▁イスラム 100
▁ここ 100
▁論 100
ッシ 100
ずれ 100
▁オープ 100
イス 100
▁航空 100
▁友 100
▁陣 100
▁投手 100
▁激 100
▁編 100
▁U 100
▁北海道 100
▁挙げ 100
▁活躍 100
▁命 100
▁救 100
▁大きく 100
▁児 100
▁想 100
▁訴え 100
なる 100
▁獲 100
▁巡 100
▁津 100
▁緊 100
▁ホテル 100
やか 100
▁自由 100
▁いずれ 100
▁ちゃ 100
▁法人 100
▁登録 100
▁もう 100
▁保護 100
▁広島 100
▁攻撃 100
▁押 100
▁前年 100
▁盛り 100
▁デザイン 100
▁繰 100
▁ゲーム 100
▁契約 100
▁企画 100
▁疑い 100
ーカー 100
▁取引 100
▁マン 100
▁紙 100
▁目指し 100
▁銀行 100
▁宇 100
▁単 100
▁改革 100
▁災 100
▁銭 100
▁ソフト 100
スク 100
▁喜 100
▁河 100
▁獲得 100
▁主張 100
▁展示 100
▁静 100
▁版 100
▁続く 100
▁除 100
▁乗り 100
▁くる 100
▁サン 100
▁マイ 100
▁含め 100
▁まだ 100
▁二十 100
▁暴 100
▁理事 100
▁症 100
▁破 100
▁開幕 100
▁アップ 100
▁求める 100
▁策 100
▁支持 100
▁橋 100
▁同日 100
▁上昇 100
▁抜 100
イツ 100
▁具 100
▁議論 100
▁昭和 100
▁買い 100
▁オープン 100
▁熊 100
▁購 100
▁逆 100
▁災害 100
ジェ 100
▁戻 100
▁金融 100
▁そんな 100
▁被告 100
▁最も 100
ベル 100
▁祭 100
▁i 100
▁そこ 100
▁都市 100
▁交渉 100
▁カップ 100
▁反対 100
▁置 100
▁意識 100
▁プレー 100
▁顔 100
▁注目 100
ウン 100
▁絶 100
▁能 100
ーター 100
▁待 100
▁抱 100
▁晋 100
▁巨 100
▁売り 100
▁路 100
▁そして 100
▁目的 100
▁たく 100
▁答 100
▁新しい 100
▁おい 100
▁体験 100
タル 100
▁遅 100
▁番組 100
ニー 100
▁, 100
▁漁 100
▁幹部 100
▁存在 100
▁交通 100
▁核 100
▁店舗 100
▁ステ 100
▁額 100
▁高齢 100
▁姿勢 100
▁憲法 100
▁R 100
▁毎日 100
シャ 100
▁始まっ 100
▁院 100
▁伴 100
▁自宅 100
▁酒 100
▁含む 100
▁所属 100
▁主催 100
▁ドイツ 100
▁調整 100
▁羽 100
ネット 100
▁景 100
▁スペ 100
▁クリ 100
▁今月 100
▁抑 100
▁詳 100
▁国家 100
ュース 100
デル 100
▁科学 100
ソン 100
ケット 100
▁つけ 100
▁遠 100
▁江 100
▁違反 100
▁申し 100
▁廃 100
▁地震 100
▁ディ 100
▁魅 100
▁舞台 100
リカ 100
▁短 100
▁厚 100
スタ 100
▁戦略 100
▁営業 100
ティー 100
▁合意 100
▁時期 100
▁応じ 100
▁記事 100
▁準備 100
リーズ 100
▁保障 100
▁都内 100
▁百 100
▁比べ 100
ネス 100
▁づ 100
▁バス 100
▁購入 100
▁幅 100
▁判決 100
▁装 100
せる 100
▁格 100
▁改正 100
▁トラ 100
▁自然 100
▁恐 100
▁改善 100
▁希 100
▁禁 100
▁オー 100
▁許 100
▁生き 100
わら 100
▁返 100
▁根 100
▁冷 100
から 100
っかり 100
▁等 100
▁枚 100
▁寺 100
▁弾 100
▁薬 100
▁一緒 100
▁旧 100
▁いつ 100
▁燃 100
▁前日 100
▁果た 100
▁級 100
▁仲 100
▁幸 100
▁供 100
▁断 100
込ま 100
▁音楽 100
▁無料 100
▁処分 100
▁料理 100
▁招 100
▁充 100
▁シャ 100
▁切り 100
▁出席 100
▁仮 100
▁安打 100
▁チェ 100
▁継 100
▁ブランド 100
▁奪 100
▁卒 100
▁製造 100
▁逃 100
▁甲 100
▁提出 100
▁晋三 100
▁確保 100
▁様子 100
▁界 100
止め 100
▁一人 100
▁稼 100
▁世代 100
▁予想 100
▁競技 100
▁介 100
▁集め 100
▁交流 100
▁以下 100
▁ひと 100
▁九州 100
▁追い 100
ースト 100
▁降 100
▁陸 100
▁兆 100
たる 100
ンチ 100
▁史 100
▁理解 100
▁各地 100
▁すべ 100
▁探 100
▁限定 100
▁モデル 100
▁圏 100
パー 100
▁速 100
▁鹿 100
▁しよう 100
▁シリーズ 100
▁電子 100
▁余 100
▁勝利 100
▁当局 100
▁テーマ 100
▁芸 100
▁焼 100
▁スタート 100
▁インターネット 100
▁フランス 100
▁損 100
▁相談 100
▁任 100
フォ 100
▁欠 100
▁事実 100
▁城 100
▁問い 100
▁公園 100
合い 100
▁V 100
メージ 100
▁障 100
▁なか 100
▁審査 100
▁テロ 100
▁秒 100
▁助 100
ッセ 100
▁鉄道 100
▁採用 100
▁務め 100
▁聞い 100
▁けど 100
▁工場 100
▁神戸 100
んど 100
▁ビジ 100
▁変更 100
▁基本 100
▁駆 100
▁社員 100
▁すべて 100
▁出演 100
▁以外 100
▁占 100
ビュー 100
▁〇 100
▁久 100
▁シン 100
▁取り組み 100
▁製品 100
▁ライン 100
▁連合 100
コン 100
▁拠 100
▁健康 100
▁いけ 100
ザー 100
▁工事 100
▁懸念 100
▁阪 100
▁落ち 100
▁提案 100
▁安定 100
▁しれ 100
▁振り返 100
▁患 100
▁披 100
▁部分 100
▁オリ 100
▁言い 100
▁回復 100
▁平和 100
▁戦争 100
▁実際 100
▁弁護 100
▁指定 100
▁混 100
フィ 100
▁披露 100
▁防衛 100
ざま 100
▁就任 100
▁浜 100
▁付け 100
▁否 100
▁増加 100
▁固 100
▁皆 100
▁曲 100
▁途 100
▁いわ 100
▁携 100
▁座 100
▁進ん 100
▁スマート 100
▁魅力 100
ビー 100
▁訪問 100
▁わけ 100
直し 100
▁既 100
▁原因 100
▁ワールド 100
▁推進 100
▁暮 100
▁使い 100
▁作り 100
▁志 100
ッグ 100
▁ダイ 100
アー 100
▁意味 100
▁いたし 100
▁基準 100
▁コー 100
▁負担 100
▁って 100
▁緩 100
▁カ所 100
▁やすい 100
▁丸 100
▁資金 100
▁願 100
▁児童 100
ニング 100
▁開い 100
▁分析 100
▁御 100
▁進める 100
▁集団 100
▁複数 100
▁絵 100
▁でしょう 100
▁しっかり 100
▁後半 100
▁及 100
▁カメ 100
アル 100
▁夢 100
▁予算 100
▁促 100
▁閣 100
▁やり 100
▁アク 100
▁イメージ 100
▁メーカー 100
▁更 100
サー 100
▁圧 100
▁ちゃん 100
▁言っ 100
▁つつ 100
▁領 100
▁現地 100
ダル 100
▁諸 100
▁失点 100
▁会合 100
▁業務 100
▁公表 100
▁印 100
▁極 100
▁辞 100
▁鈴 100
ントン 100
▁得点 100
シー 100
▁ニュース 100
▁ばかり 100
続き 100
▁関西 100
▁狙い 100
▁遊 100
▁掲載 100
▁起こ 100
▁終了 100
▁笑顔 100
▁呼ば 100
▁クラブ 100
▁障害 100
キング 100
▁努 100
▁カー 100
▁千葉 100
立て 100
▁利益 100
▁沿 100
▁決まっ 100
▁少し 100
出す 100
▁減少 100
▁拠点 100
▁傾 100
▁連絡 100
▁きっ 100
▁続ける 100
▁まとめ 100
▁まず 100
▁方法 100
▁さまざま 100
▁流れ 100
▁発電 100
▁映像 100
▁時点 100
▁ページ 100
▁奈 100
▁言わ 100
▁自ら 100
▁かつ 100
▁募 100
▁覚 100
▁争 100
▁あれ 100
▁誘 100
▁執 100
▁愛知 100
▁運動 100
▁表現 100
▁受賞 100
▁井 100
▁いか 100
▁削 100
ルフ 100
▁位置 100
▁想定 100
▁鳥 100
▁しまう 100
▁前回 100
▁罪 100
▁患者 100
▁危険 100
▁ユニ 100
▁もっと 100
▁再生 100
▁横浜 100
▁保険 100
▁列 100
▁妻 100
▁先発 100
▁十分 100
▁興 100
▁ゴール 100
▁一時 100
▁少なく 100
ウンド 100
▁関し 100
▁ホール 100
▁不明 100
▁応援 100
▁熊本 100
▁原子 100
▁幹線 100
▁変化 100
▁首脳 100
▁カメラ 100
▁告 100
▁便 100
▁訓 100
オン 100
▁頑 100
▁インド 100
▁発言 100
▁回答 100
▁挑戦 100
キー 100
▁司 100
▁分野 100
▁チャン 100
▁迫 100
▁将来 100
▁トン 100
▁本格 100
▁じゃ 100
▁パー 100
▁ボール 100
▁人間 100
▁好き 100
▁誰 100
▁脱 100
▁結婚 100
ロン 100
パン 100
ウス 100
▁人口 100
▁アプリ 100
▁旅行 100
▁富士 100
▁控 100
じる 100
▁上回 100
なり 100
なっ 100
▁向上 100
▁通算 100
▁慰 100
▁強く 100
▁宣 100
▁稼働 100
▁本当 100
▁はじめ 100
▁不安 100
▁触 100
▁茶 100
▁参院 100
▁備 100
▁維持 100
▁解決 100
▁雪 100
▁戸 100
▁あい 100
▁注意 100
▁ブラジ 100
▁エネル 100
▁アニ 100
▁行動 100
▁行為 100
▁希望 100
▁のみ 100
ーズン 100
▁長官 100
▁閉 100
▁港 100
▁ビル 100
▁質問 100
▁特に 100
▁検査 100
たい 100
▁次い 100
▁徹 100
▁雨 100
▁大切 100
▁具体 100
▁裏 100
▁当初 100
ウル 100
▁劇 100
▁田中 100
▁依 100
▁飛行 100
▁背景 100
▁エネルギー 100
ッシュ 100
▁操 100
▁道路 100
つけ 100
▁豪 100
バル 100
▁押し 100
▁付近 100
▁認識 100
▁とど 100
▁顧 100
▁兵庫 100
▁対戦 100
▁進出 100
▁佐藤 100
▁ツアー 100
▁機会 100
▁同時 100
▁どこ 100
▁種類 100
▁終え 100
▁こそ 100
▁完成 100
▁問い合わせ 100
▁なん 100
▁カ国 100
▁維新 100
▁いえ 100
▁超え 100
▁示す 100
▁車両 100
▁卒業 100
▁納 100
▁シーズン 100
▁ブラジル 100
▁うれ 100
▁宿 100
マン 100
リング 100
▁節 100
▁ごと 100
▁群 100
▁フォン 100
▁ガス 100
▁爆 100
▁コメント 100
▁静岡 100
▁英国 100
▁ドラマ 100
▁授 100
取り 100
▁栄 100
▁しまっ 100
▁札 100
▁方向 100
▁バー 100
▁ゼ 100
▁竹 100
▁る 100
▁首都 100
▁著 100
▁需 100
▁崩 100
▁発見 100
▁試験 100
▁楽しみ 100
▁最近 100
▁体制 100
▁気象 100
▁福井 100
▁上げ 100
▁すぎ 100
▁撤 100
▁作っ 100
たっ 100
▁成功 100
▁中学 100
▁訓練 100
らす 100
▁困 100
▁勤 100
▁スー 100
▁停止 100
▁習 100
▁朝日 100
▁冬 100
▁小学 100
▁追加 100
▁カード 100
▁もと 100
▁防止 100
▁繰り返 100
▁ケース 100
▁皇 100
ルス 100
組み 100
▁最初 100
▁頑張 100
▁組み 100
▁コミ 100
▁危機 100
▁トラン 100
▁みんな 100
▁野党 100
▁基づ 100
リスト 100
▁ビジネス 100
▁はず 100
▁日間 100
▁鈴木 100
▁同様 100
▁答え 100
▁感染 100
▁使う 100
▁日米 100
▁厳しい 100
▁僕 100
▁再開 100
▁週間 100
▁岩手 100
▁設立 100
▁貢 100
ティング 100
▁故 100
▁考える 100
▁ハイ 100
▁メール 100
▁治療 100
▁え 100
▁増や 100
▁菅 100
▁公式 100
▁使わ 100
▁入る 100
ポート 100
▁層 100
▁& 100
▁植 100
▁雇 100
▁見る 100
ラクター 100
▁動画 100
▁プロジェ 100
替え 100
▁全て 100
▁ヨ 100
▁ユーロ 100
▁津波 100
▁大型 100
▁食品 100
▁師 100
▁工業 100
▁見つかっ 100
▁ほぼ 100
▁国連 100
▁地裁 100
クス 100
▁巻 100
フェ 100
▁貢献 100
▁すぐ 100
▁条件 100
▁派遣 100
ライナ 100
▁行政 100
▁メダル 100
ニュー 100
▁投げ 100
▁行い 100
▁阪神 100
▁人々 100
▁部門 100
▁長野 100
▁伸び 100
▁アニメ 100
▁行き 100
▁痛 100
▁報じ 100
▁ジェ 100
▁協定 100
▁ほと 100
▁貴 100
▁つくる 100
込め 100
▁どの 100
▁一番 100
▁問わ 100
▁細胞 100
▁秘 100
▁最多 100
▁駐 100
▁不足 100
▁米軍 100
▁良い 100
▁果たし 100
▁寄せ 100
▁スピ 100
▁主義 100
▁知っ 100
▁見え 100
▁チャ 100
▁包 100
▁言う 100
▁ム 100
▁池 100
▁簡 100
▁フリー 100
▁実験 100
▁マー 100
▁模 100
ンドン 100
▁出る 100
▁多数 100
▁敗れ 100
▁馬 100
▁くれる 100
▁慎 100
▁与え 100
イド 100
▁当たり 100
▁選ば 100
▁席 100
▁もらい 100
▁介護 100
▁ほとんど 100
▁祝 100
▁輝 100
▁ウク 100
▁快 100
ッション 100
▁開業 100
▁養 100
▁亡 100
▁デジ 100
▁直後 100
▁組合 100
てる 100
▁大幅 100
▁片 100
ーナ 100
▁能力 100
▁距 100
▁積極 100
ンツ 100
▁距離 100
▁認定 100
▁家庭 100
▁公明 100
▁搭 100
さん 100
▁早く 100
▁誕 100
▁キャラクター 100
▁誕生 100
▁周年 100
▁m 100
スター 100
▁ウクライナ 100
▁機構 100
▁プロジェクト 100
▁君 100
▁朝鮮 100
▁贈 100
▁トランプ 100
▁連盟 100
▁非常 100
▁防災 100
▁バイ 100
▁きっかけ 100
▁夕 100
▁桜 100
▁需要 100
▁付き 100
▁特定 100
▁移動 100
▁長崎 100
▁山口 100
▁ゴルフ 100
▁主要 100
カル 100
▁弱 100
▁共産 100
▁内閣 100
▁太平 100
▁ブル 100
▁首位 100
▁農業 100
▁少年 100
▁従来 100
イロ 100
▁コース 100
▁奥 100
▁男女 100
▁雇用 100
▁張 100
▁札幌 100
▁警戒 100
▁甘 100
▁民間 100
▁支払 100
▁ロンドン 100
▁難しい 100
▁景気 100
ワー 100
▁北京 100
▁配信 100
▁特徴 100
▁婦 100
▁こんな 100
▁ジャン 100
▁高橋 100
ファ 100
▁シェ 100
▁台湾 100
▁賛 100
▁診 100
▁けが 100
▁つながる 100
▁衝 100
▁伝統 100
▁給 100
▁続き 100
▁制作 100
▁大きい 100
▁デジタル 100
▁段階 100
▁新人 100
ケート 100
▁丁 100
▁事態 100
▁務める 100
▁侵 100
▁端 100
ディング 100
▁消防 100
▁枠 100
▁ぬ 100
▁翌 100
▁越 100
▁資料 100
▁バンク 100
▁医師 100
▁達成 100
▁禁止 100
▁ウェ 100
▁恐れ 100
▁県内 100
▁締 100
▁表情 100
ウェ 100
▁不正 100
▁前半 100
▁現状 100
▁永 100
▁増税 100
▁起訴 100
▁イタ 100
▁外交 100
リンピ 100
▁汚 100
▁排 100
▁設定 100
▁驚 100
▁通常 100
▁抗 100
▁近い 100
▁用意 100
▁財政 100
▁駆け 100
▁タイム 100
▁波 100
▁刺 100
▁老 100
▁発信 100
▁独自 100
▁継続 100
▁運用 100
▁コンテ 100
▁秀 100
▁若者 100
▁票 100
▁石川 100
▁アド 100
▁携帯 100
▁阿 100
▁セット 100
▁株価 100
▁吉田 100
▁直接 100
▁いま 100
上げる 100
▁レベル 100
▁遅れ 100
▁青森 100
▁噴 100
▁指示 100
▁到 100
バマ 100
ボール 100
▁ミサ 100
▁器 100
▁延長 100
▁電気 100
▁軍事 100
▁措 100
▁連覇 100
▁措置 100
まえ 100
▁感謝 100
▁実行 100
▁倒 100
▁渋 100
▁岐 100
▁ワシ 100
▁アピ 100
▁輸出 100
ちら 100
▁星 100
▁造 100
▁全員 100
▁地下 100
▁途中 100
ッター 100
▁捕 100
リンピック 100
▁望 100
▁宇宙 100
▁与党 100
▁イタリア 100
▁開き 100
▁ウィ 100
▁オバマ 100
▁兼 100
▁観測 100
▁離れ 100
▁名前 100
▁重ね 100
▁集中 100
▁奈良 100
▁殺害 100
でに 100
▁すでに 100
エル 100
▁もち 100
▁価値 100
▁材 100
▁血 100
▁ワシントン 100
わい 100
▁構成 100
▁ジャパン 100
▁取締 100
▁意向 100
▁話題 100
▁由 100
▁ウォ 100
▁誇 100
▁いただき 100
▁賃 100
▁鹿児 100
▁鹿児島 100
▁秋田 100
▁徳 100
▁坂 100
▁若い 100
▁誤 100
▁なぜ 100
ジャ 100
▁部屋 100
▁建物 100
▁ミサイル 100
▁おけ 100
▁本社 100
▁飛び 100
▁壁 100
▁要請 100
▁息 100
▁掲げ 100
▁犠 100
▁予選 100
▁もらう 100
▁緩和 100
▁大使 100
▁照 100
▁更新 100
▁働き 100
▁あまり 100
▁スマホ 100
▁c 100
▁山形 100
▁復帰 100
▁敷 100
▁亡く 100
▁行方 100
▁マーク 100
▁動物 100
▁高く 100
▁超える 100
▁歓 100
▁埋 100
ンダ 100
▁免 100
▁およ 100
▁ぐ 100
▁違う 100
▁アピール 100
▁スーパー 100
▁少ない 100
▁いろ 100
▁立場 100
▁メッセ 100
▁福祉 100
▁目立 100
▁岐阜 100
▁行使 100
▁雑 100
▁語る 100
▁どんな 100
▁楽天 100
ディー 100
▁料金 100
▁下旬 100
▁水準 100
▁球団 100
▁すご 100
▁費用 100
▁競争 100
▁踏み 100
取っ 100
▁吹 100
▁PR 100
▁オースト 100
▁ブロ 100
▁服 100
▁会員 100
▁開く 100
▁聴 100
▁見直し 100
▁公演 100
さつ 100
▁オン 100
▁む 100
▁AP 100
▁小さ 100
▁発展 100
▁編集 100
▁印象 100
▁発行 100
▁あら 100
▁負け 100
▁純 100
ペーン 100
合っ 100
▁処理 100
▁思わ 100
▁中村 100
▁再び 100
▁選択 100
▁刑 100
▁谷 100
ュア 100
▁毎年 100
▁かかる 100
ジアム 100
▁フル 100
▁渡辺 100
▁アフ 100
▁埼 100
▁〜 100
▁傾向 100
▁神奈 100
▁前後 100
▁申請 100
▁神奈川 100
▁エンジ 100
▁燃料 100
▁s 100
▁天皇 100
▁意気 100
▁プレゼ 100
▁語り 100
▁上がっ 100
▁リスク 100
▁関心 100
▁キャンペーン 100
ッフ 100
▁削減 100
ジャー 100
▁売上 100
▁ぜ 100
▁胸 100
▁戦後 100
▁裕 100
▁遺体 100
▁隠 100
▁当選 100
▁伴う 100
▁保育 100
▁先行 100
▁受け入れ 100
▁留 100
▁建て 100
▁取り組む 100
▁大事 100
▁暮らし 100
▁埼玉 100
▁取得 100
▁表示 100
▁分から 100
▁聖 100
▁金沢 100
▁プラ 100
▁骨 100
▁連勝 100
▁あいさつ 100
▁人材 100
ビア 100
▁基地 100
▁進む 100
▁聞き 100
▁各国 100
▁役割 100
▁雄 100
ろん 100
▁高速 100
▁インフ 100
合う 100
▁届け 100
▁堂 100
▁スタッフ 100
▁幕 100
▁書き 100
▁戦い 100
ュニ 100
▁集まっ 100
▁俳 100
▁美術 100
▁ソウル 100
▁林 100
▁設備 100
▁同県 100
▁立っ 100
▁がん 100
▁浴 100
▁新潟 100
▁否定 100
▁麻 100
▁決める 100
▁請 100
▁反発 100
▁にて 100
▁広がっ 100
▁詰 100
レン 100
▁未来 100
▁シュ 100
▁Q 100
▁変え 100
ばし 100
▁幼 100
▁講演 100
▁過ぎ 100
▁最新 100
▁精神 100
▁看 100
▁ジョ 100
▁振り 100
▁香港 100
▁宝 100
▁作成 100
▁慰安 100
▁母親 100
▁標 100
▁NH 100
▁従業 100
▁塩 100
▁始める 100
▁元気 100
▁専用 100
▁つか 100
▁東海 100
▁握 100
▁守る 100
▁残る 100
▁備え 100
▁り 100
▁態 100
▁詳細 100
▁もらっ 100
▁浅 100
▁迎える 100
▁出す 100
▁承 100
▁大変 100
▁悲 100
メン 100
▁隣 100
▁機器 100
▁めぐる 100
デン 100
▁長期 100
▁済 100
▁努力 100
▁構想 100
▁描い 100
▁審議 100
▁限り 100
▁違い 100
▁にく 100
▁うま 100
▁逆転 100
▁魚 100
▁折 100
▁搭載 100
切り 100
▁富山 100
▁受ける 100
▁甲子 100
▁クロ 100
▁なれ 100
シャル 100
▁アメ 100
▁大人 100
▁スク 100
▁応募 100
▁パラ 100
▁願い 100
▁借 100
▁緊急 100
▁顧客 100
▁もちろん 100
▁かつて 100
そう 100
▁学園 100
▁踏まえ 100
▁神社 100
▁要求 100
▁相場 100
▁既に 100
▁牛 100
▁衣 100
▁ランキング 100
▁成立 100
▁取り組ん 100
▁遺産 100
こう 100
▁盗 100
▁信頼 100
ニック 100
▁悩 100
▁繰り返し 100
▁× 100
▁勢力 100
▁指数 100
▁JA 100
▁謝 100
▁幹事 100
ショ 100
▁至 100
▁訴訟 100
▁恵 100
▁忘 100
▁傷 100
▁文書 100
▁世紀 100
▁NHK 100
▁成果 100
▁ずつ 100
▁演説 100
ても 100
▁みる 100
▁勤務 100
▁梅 100
▁脅 100
▁声明 100
▁英語 100
▁簡単 100
▁たくさん 100
▁人生 100
▁事前 100
on 100
とう 100
▁勧 100
▁くらい 100
▁うれしい 100
▁ザ 100
▁過激 100
▁メニュー 100
▁設計 100
▁荒 100
▁教委 100
▁グラ 100
▁帯 100
▁場面 100
▁コーチ 100
▁見込み 100
▁乗っ 100
▁読み 100
▁広告 100
▁議長 100
ドル 100
▁正式 100
▁年齢 100
▁シリア 100
▁筋 100
レット 100
▁浮か 100
▁世帯 100
▁築 100
▁アー 100
▁早期 100
▁レース 100
グラム 100
▁列車 100
▁双 100
▁触れ 100
▁出発 100
▁居 100
▁同署 100
▁パリ 100
▁楽しん 100
▁国立 100
▁実績 100
▁ミス 100
▁ジュ 100
▁飾 100
かい 100
下げ 100
▁明治 100
▁揺 100
▁頼 100
ジオ 100
▁以内 100
ーフ 100
▁殺人 100
▁匹 100
▁けん 100
▁残っ 100
▁交換 100
▁拉 100
▁完全 100
▁仕組み 100
▁支え 100
▁終わっ 100
▁まい 100
▁充実 100
▁艦 100
▁メッセージ 100
▁出来 100
▁作る 100
▁検証 100
▁拉致 100
▁犠牲 100
▁季 100
▁低下 100
▁ベル 100
▁誌 100
▁現実 100
▁上位 100
越し 100
▁戦闘 100
▁懲 100
▁なし 100
ずか 100
▁捜索 100
▁仲間 100
▁宮崎 100
▁設け 100
▁犯罪 100
ラル 100
▁アクセ 100
▁作家 100
▁込め 100
▁振興 100
▁行く 100
▁手続き 100
ラリア 100
▁ざ 100
▁みな 100
▁とても 100
▁ミリ 100
▁浦 100
▁意欲 100
▁独立 100
▁幅広 100
▁やる 100
▁密 100
っくり 100
▁コンビ 100
▁かか 100
▁供給 100
▁ロボ 100
▁パス 100
▁扱 100
▁南部 100
▁めぐり 100
▁やすく 100
▁抑え 100
▁飲食 100
▁育成 100
▁デビュー 100
▁制限 100
▁教え 100
▁飼 100
▁執行 100
▁海上 100
ウム 100
▁募集 100
▁トヨ 100
▁スイ 100
▁学習 100
▁襲 100
▁エリア 100
▁ショー 100
▁普及 100
▁EU 100
イズ 100
▁手術 100
ーブ 100
▁当たる 100
▁ステージ 100
▁巨人 100
▁活性 100
▁@ 100
▁安心 100
ワーク 100
▁スター 100
▁娘 100
▁こだ 100
▁呼び掛け 100
▁プラス 100
▁ドーム 100
上がり 100
▁ター 100
▁範 100
▁プレゼント 100
▁コミュニ 100
▁コンサ 100
▁三十 100
▁間違 100
▁岸 100
▁スタジアム 100
▁サポート 100
▁勝負 100
づくり 100
▁剤 100
リート 100
▁トヨタ 100
▁過ご 100
▁本塁 100
▁外務 100
▁アナ 100
▁画像 100
▁端末 100
▁柔 100
▁関東 100
▁平方 100
▁宿泊 100
▁俊 100
▁コスト 100
▁生かし 100
▁巻き 100
▁球場 100
▁寝 100
▁草 100
▁勇 100
▁厚生 100
▁ベース 100
▁始まる 100
▁補助 100
▁湖 100
▁ロイ 100
▁宣言 100
▁引退 100
▁俳優 100
▁リオ 100
▁朴 100
▁悪化 100
▁オーストラリア 100
▁自信 100
▁そろ 100
▁狙う 100
▁取っ 100
▁ライブ 100
▁誠 100
▁肉 100
▁授業 100
▁シング 100
▁円安 100
▁ベスト 100
▁透 100
▁窓 100
▁券 100
▁湯 100
▁ユーザー 100
▁ハウス 100
▁山田 100
▁輸入 100
▁改めて 100
▁統一 100
▁加速 100
▁ちょ 100
▁財務 100
▁台風 100
▁楽しめる 100
▁頂 100
▁忘れ 100
▁尽 100
▁川崎 100
▁智 100
▁住む 100
▁確定 100
▁オリジ 100
タン 100
ッツ 100
▁和歌 100
▁判明 100
プト 100
▁勉 100
▁路線 100
▁緊張 100
▁予約 100
▁プラン 100
▁シナ 100
▁総務 100
▁歯 100
▁陸上 100
▁暴力 100
▁勝っ 100
▁就職 100
▁および 100
▁体育 100
ジー 100
▁自転 100
ミア 100
▁山本 100
▁アメリカ 100
▁太陽 100
かく 100
▁守備 100
▁事情 100
▁宗 100
▁比較 100
▁修正 100
▁物語 100
▁無職 100
▁まさ 100
▁異なる 100
▁スペイン 100
▁笑い 100
▁高め 100
▁先制 100
▁ラグ 100
▁相当 100
▁ころ 100
▁うえ 100
▁成績 100
▁書い 100
▁デモ 100
▁保存 100
▁債 100
ゅう 100
▁乗客 100
▁役員 100
▁敵 100
▁困難 100
▁瞬 100
▁放射 100
▁マネ 100
▁洗 100
われ 100
▁恋 100
▁立て 100
▁監視 100
▁カン 100
なか 100
▁北部 100
▁浸 100
太郎 100
▁是 100
▁友人 100
▁女優 100
▁投稿 100
▁あと 100
▁義務 100
しかっ 100
▁情勢 100
▁図る 100
▁e 100
▁連れ 100
▁現代 100
▁突き 100
▁以前 100
▁優先 100
▁為 100
▁耐 100
▁野菜 100
▁遺族 100
er 100
▁引き上げ 100
えば 100
▁検察 100
▁かね 100
▁制し 100
▁ロボット 100
▁差し 100
まら 100
▁控え 100
▁濃 100
▁漫 100
ッテ 100
▁重視 100
▁華 100
▁恩 100
▁昇 100
▁大量 100
かす 100
▁残し 100
▁本人 100
マー 100
▁適切 100
▁オリジナル 100
もり 100
▁政党 100
▁ワン 100
▁リリー 100
▁残り 100
▁現行 100
▁伝える 100
▁徹底 100
▁解散 100
▁下落 100
▁北陸 100
▁加藤 100
▁様々 100
▁新設 100
▁隆 100
ちゃ 100
▁範囲 100
▁材料 100
▁両国 100
▁里 100
▁雰 100
囲気 100
▁雰囲気 100
▁呼びかけ 100
▁黄 100
▁復活 100
▁稲 100
▁タイプ 100
▁選ん 100
▁パン 100
▁食事 100
ケーション 100
▁日経 100
▁人物 100
▁衛 100
▁向かっ 100
▁請求 100
▁仁 100
▁網 100
▁演奏 100
▁資産 100
▁クル 100
▁現金 100
▁一致 100
▁制裁 100
▁運行 100
▁あの 100
レンジ 100
▁漏 100
▁パート 100
▁相撲 100
▁始まり 100
▁心配 100
▁いただい 100
▁薄 100
▁伊藤 100
▁橋下 100
▁登板 100
▁警視 100
▁門 100
▁角 100
▁インタ 100
▁慎重 100
▁温泉 100
▁焦 100
▁主導 100
▁たっ 100
▁詐 100
▁自己 100
▁中日 100
▁和歌山 100
キュ 100
▁入場 100
▁含ま 100
▁赤字 100
▁融 100
▁飯 100
▁出版 100
▁きれ 100
▁アンダー 100
▁強制 100
▁搬 100
▁貿 100
▁響 100
▁わずか 100
▁パソ 100
▁迷 100
▁おら 100
▁部隊 100
▁那 100
▁中止 100
▁貿易 100
▁エンジン 100
▁康 100
▁スカ 100
▁資源 100
ティア 100
▁各社 100
▁欧米 100
▁発足 100
上がっ 100
ニス 100
▁中旬 100
▁浩 100
▁効率 100
▁杉 100
▁周囲 100
▁松本 100
▁緑 100
▁通し 100
レーション 100
▁負傷 100
▁エン 100
▁落と 100
▁玉 100
ざい 100
▁たた 100
▁ファッション 100
▁再建 100
ミング 100
▁人事 100
▁雅 100
▁ロー 100
▁犬 100
▁構造 100
マス 100
▁移転 100
▁送っ 100
▁関与 100
▁総額 100
▁対立 100
▁ゼロ 100
▁外相 100
▁製作 100
▁合計 100
▁渋谷 100
▁商標 100
▁変わら 100
▁共有 100
▁づくり 100
▁建築 100
▁パソコン 100
▁知り 100
▁認知 100
▁日程 100
▁乱 100
▁変わっ 100
▁繰り 100
▁有効 100
▁広報 100
ナム 100
▁フロ 100
渡し 100
▁学院 100
▁沈 100
▁地球 100
▁装置 100
ーグ 100
▁多かっ 100
▁高まっ 100
ウト 100
▁止 100
▁仏 100
▁矢 100
▁預 100
▁加工 100
▁噴火 100
▁証券 100
▁陛 100
▁陛下 100
▁オフ 100
▁二塁 100
クロ 100
▁マル 100
▁商店 100
▁年金 100
▁爆発 100
▁一定 100
育て 100
▁東部 100
▁衝突 100
▁プログラム 100
▁推薦 100
▁賠 100
▁切っ 100
▁昼 100
▁タイト 100
▁高級 100
▁次々 100
▁o 100
分け 100
▁江戸 100
▁釣 100
▁なお 100
▁グラン 100
▁働く 100
▁イラク 100
▁キャンプ 100
▁ツイ 100
▁まち 100
▁彩 100
▁エア 100
▁初日 100
▁金利 100
▁板 100
▁リリース 100
▁素材 100
▁+ 100
▁革 100
▁普通 100
▁悔 100
▁小説 100
▁勉強 100
▁倉 100
▁賠償 100
▁》 100
▁開設 100
▁要望 100
▁我 100
▁豊か 100
▁土地 100
▁博物 100
▁祈 100
▁興味 100
▁とり 100
▁子育て 100
ズム 100
▁昨季 100
▁柱 100
▁規定 100
▁スタイル 100
▁感じる 100
▁県立 100
▁長い 100
▁先生 100
▁適時 100
▁貸 100
▁頃 100
ぱい 100
▁現職 100
▁操作 100
リーン 100
▁主将 100
▁ティ 100
▁帰国 100
▁役所 100
▁ござい 100
▁閣議 100
▁騒 100
PO 100
▁若手 100
▁条例 100
▁観客 100
▁戻っ 100
▁総会 100
▁創業 100
▁互 100
▁低い 100
▁払 100
▁即 100
▁マンション 100
▁謝罪 100
▁文字 100
▁当日 100
▁IT 100
▁散 100
▁統合 100
▁寄付 100
▁X 100
▁議席 100
▁談 100
▁小型 100
▁ラグビー 100
▁少女 100
▁タイトル 100
▁芸術 100
▁紀 100
▁CM 100
ノミ 100
▁産経 100
▁優秀 100
▁現役 100
▁大分 100
▁繁 100
ピング 100
▁確か 100
▁唯 100
▁けれ 100
▁ぜひ 100
サン 100
▁定期 100
▁カナ 100
▁動産 100
▁マラ 100
▁致 100
▁三重 100
▁巨大 100
▁アマ 100
▁《 100
▁けれど 100
▁買収 100
▁広げ 100
▁振り返る 100
▁菊 100
▁跡 100
切っ 100
▁解説 100
▁敬 100
▁番号 100
▁掛け 100
向き 100
▁兄 100
▁趣 100
▁喫 100
▁解除 100
ッズ 100
▁滑 100
▁増える 100
▁チャンス 100
ガー 100
▁樹 100
▁ベンチ 100
▁指揮 100
▁走行 100
▁縮 100
▁見える 100
▁教室 100
▁突破 100
▁菓 100
▁官房 100
▁水産 100
▁ボラン 100
掛ける 100
▁並ぶ 100
らしい 100
▁組み合わせ 100
ダン 100
▁堅 100
▁a 100
▁詐欺 100
▁名誉 100
入り 100
▁ー 100
▁生命 100
▁像 100
▁割合 100
▁箱 100
▁空間 100
▁暗 100
▁好調 100
▁サイズ 100
▁業績 100
▁吸 100
▁リーダー 100
▁良く 100
▁嫌 100
▁達し 100
▁拘 100
▁シーン 100
▁容認 100
▁スコ 100
▁賛成 100
▁諸島 100
▁晴 100
▁得る 100
▁長男 100
▁閣僚 100
▁フライ 100
▁収入 100
▁直前 100
▁新規 100
▁菓子 100
▁減っ 100
▁同士 100
▁脳 100
▁対抗 100
NA 100
▁把 100
▁ネットワーク 100
▁滋 100
▁亡くなっ 100
スコ 100
▁出会 100
▁劇場 100
▁岡山 100
▁漫画 100
▁承認 100
▁似 100
▁抽 100
▁明確 100
▁リード 100
▁尾 100
ヤー 100
▁伊勢 100
なた 100
▁日中 100
▁決意 100
▁反応 100
▁部品 100
▁構築 100
▁見つけ 100
▁陽 100
▁夫婦 100
▁市議 100
▁全面 100
▁総裁 100
▁トラブル 100
▁半数 100
▁小さな 100
▁記憶 100
▁近づ 100
▁深い 100
▁物質 100
▁五十 100
ゆる 100
▁到着 100
▁最低 100
▁瞬間 100
▁おか 100
▁インタビュー 100
▁把握 100
▁入れる 100
▁商業 100
▁併 100
▁逃げ 100
▁父親 100
▁連邦 100
▁FW 100
▁克 100
▁決算 100
▁原則 100
▁概 100
▁資格 100
▁まつ 100
なし 100
▁茨 100
▁よい 100
▁いただけ 100
▁浜松 100
▁アルバ 100
▁止め 100
▁トレー 100
▁同国 100
▁同期 100
▁証言 100
▁満足 100
▁原油 100
▁視聴 100
▁全く 100
▁ビール 100
▁ベト 100
▁確実 100
▁多様 100
▁絶対 100
▁スピード 100
▁宅 100
▁らしい 100
▁郵 100
▁皮 100
▁譲 100
▁支配 100
▁龍 100
▁公共 100
▁近年 100
トル 100
レク 100
▁あたり 100
▁項 100
▁アイドル 100
▁電車 100
▁ちょっと 100
▁起こし 100
▁鳴 100
▁農家 100
▁佐賀 100
▁三菱 100
▁トレ 100
▁演出 100
▁チョ 100
▁めぐっ 100
▁k 100
▁いっぱい 100
▁必ず 100
▁銃 100
▁浮上 100
▁疑問 100
▁日常 100
▁弘 100
▁ハン 100
▁ベトナム 100
▁主人 100
▁膨 100
▁半島 100
▁カリ 100
かせ 100
レート 100
▁期限 100
▁深刻 100
▁勢い 100
▁イラン 100
▁もた 100
▁国土 100
▁自殺 100
▁滞 100
▁合同 100
一郎 100
▁為替 100
▁鮮 100
▁祖 100
▁土砂 100
▁今日 100
▁解消 100
▁条約 100
ウェー 100
▁打撃 100
▁バック 100
▁コンテンツ 100
▁並ん 100
▁分け 100
▁珍 100
▁IC 100
▁にくい 100
▁占める 100
きり 100
▁明る 100
▁クラス 100
▁気温 100
▁記載 100
▁棟 100
▁茂 100
▁中部 100
▁促進 100
▁レン 100
▁テニス 100
▁ミュー 100
▁げ 100
しゃ 100
いろ 100
▁境 100
▁唯一 100
▁ハム 100
▁固め 100
▁経緯 100
ナス 100
▁要因 100
▁収益 100
▁ボランティア 100
▁配慮 100
▁絞 100
▁砂 100
▁拒 100
▁囲 100
▁次第 100
▁クリス 100
▁人権 100
据え 100
▁抗議 100
かう 100
▁類 100
々木 100
▁錦 100
▁トラック 100
▁汚染 100
▁有名 100
▁発射 100
▁尊 100
▁業界 100
▁引き続き 100
▁チェック 100
▁内部 100
▁来場 100
▁実態 100
▁国防 100
▁適用 100
ッケ 100
▁カナダ 100
▁走り 100
▁下げ 100
▁仮設 100
▁液 100
▁〕 100
▁アフリカ 100
▁紅 100
▁たかっ 100
▁疲 100
▁p 100
▁松井 100
スタン 100
▁上回っ 100
▁一体 100
▁横綱 100
▁油 100
▁案内 100
▁ヴ 100
▁佳 100
▁下し 100
▁一環 100
▁岡田 100
▁透明 100
▁〔 100
▁ぼ 100
▁除く 100
▁区域 100
ランダ 100
▁依頼 100
▁普段 100
▁振り返っ 100
▁つき 100
▁アカ 100
▁死去 100
▁せい 100
▁鑑 100
▁彼女 100
▁乗用 100
▁題 100
▁研修 100
▁小林 100
▁エース 100
▁グロー 100
▁診断 100
▁ドライ 100
▁酸 100
▁怒 100
▁予測 100
▁浴び 100
▁息子 100
▁輪 100
▁象 100
▁スペース 100
▁与える 100
▁昔 100
ブリ 100
▁増やし 100
▁うまく 100
▁注文 100
▁主演 100
▁バン 100
▁石巻 100
▁日々 100
▁共通 100
▁ありが 100
▁定め 100
▁出荷 100
▁見守 100
▁送り 100
▁李 100
▁詰め 100
▁画面 100
▁感覚 100
▁潜 100
▁中間 100
▁栃 100
▁つながっ 100
▁ヤン 100
押し 100
▁ケア 100
▁新宿 100
▁出馬 100
▁ちな 100
▁知識 100
▁式典 100
▁初戦 100
▁所得 100
コール 100
▁調べる 100
▁視察 100
▁哲 100
▁パネル 100
▁取る 100
▁当然 100
もと 100
▁発覚 100
▁ルール 100
▁ほう 100
▁ダウン 100
▁上旬 100
ルコ 100
▁清水 100
▁幅広い 100
▁性能 100
▁フィリ 100
▁悪い 100
▁恒 100
ジュ 100
▁言え 100
▁来日 100
▁敏 100
▁指名 100
▁千代 100
▁選出 100
リオ 100
▁われ 100
▁ソー 100
▁転換 100
▁切れ 100
▁測 100
▁選考 100
▁ノー 100
▁明かし 100
▁喜び 100
▁互い 100
▁竜 100
▁非難 100
▁提携 100
▁有権 100
▁氷 100
シュ 100
▁いえる 100
▁輸送 100
▁秘密 100
▁傘 100
▁激しい 100
▁終値 100
▁高める 100
▁病気 100
▁育て 100
▁反映 100
▁対話 100
▁冒 100
▁Y 100
▁避け 100
▁広がる 100
▁羽田 100
▁積み 100
モン 100
▁滋賀 100
パス 100
▁いろいろ 100
▁寒 100
イク 100
▁群馬 100
▁通報 100
▁例えば 100
回り 100
▁失敗 100
▁代理 100
▁交代 100
ピン 100
▁丁目 100
▁インフラ 100
▁肌 100
▁引っ 100
▁走る 100
▁もらえる 100
▁西武 100
▁イチ 100
▁態勢 100
キシ 100
▁選抜 100
▁収集 100
▁守り 100
▁聞か 100
▁拘束 100
▁朝刊 100
▁ボー 100
▁上回る 100
▁わたっ 100
▁伴い 100
▁読む 100
▁勝ち点 100
▁茨城 100
▁人工 100
▁覆 100
▁筆 100
▁シード 100
▁空気 100
おう 100
▁スパ 100
リス 100
▁書類 100
▁行事 100
▁焼き 100
▁自主 100
▁支部 100
▁登山 100
▁見送 100
▁ヒット 100
▁打線 100
▁パーク 100
▁レスト 100
▁結ぶ 100
▁猛 100
▁創設 100
▁ブルー 100
▁連敗 100
らく 100
▁担う 100
▁分かり 100
▁安保 100
開票 100
▁投開票 100
ネイロ 100
▁誓 100
▁地上 100
▁銘 100
▁保有 100
▁作戦 100
▁あなた 100
ンプ 100
▁バランス 100
▁訴える 100
▁慶 100
▁冠 100
▁書か 100
シング 100
まし 100
▁復旧 100
▁敷地 100
▁〉 100
▁聞く 100
▁香り 100
ジャネイロ 100
▁防ぐ 100
it 100
▁リオデ 100
▁知る 100
▁リオデジャネイロ 100
▁芝 100
▁法律 100
▁ガイド 100
▁アベ 100
▁打者 100
▁移籍 100
▁源 100
▁駐車 100
▁涙 100
▁湾 100
▁発揮 100
▁所有 100
▁偽 100
▁人民 100
▁辺 100
▁念 100
▁ライフ 100
▁モン 100
▁言及 100
▁ラウンド 100
▁司法 100
▁栽 100
▁許可 100
▁廃止 100
▁投入 100
▁出資 100
▁石油 100
▁売却 100
▁売り上げ 100
▁栽培 100
▁なかなか 100
ない 100
▁面白 100
▁MF 100
▁民進 100
▁参考 100
▁加盟 100
▁狙っ 100
▁ウイル 100
▁鶴 100
▁もっ 100
▁合格 100
▁締め 100
▁配布 100
▁微 100
▁づけ 100
▁こちら 100
▁極めて 100
▁徒 100
▁共和 100
▁ミニ 100
▁アンケート 100
▁医学 100
▁入院 100
▁ダンス 100
▁バラ 100
▁かかっ 100
▁シー 100
▁耳 100
▁訪れる 100
▁詳しい 100
▁主な 100
▁カラー 100
▁季節 100
ッジ 100
▁主力 100
▁臨時 100
▁腕 100
▁残念 100
▁擁 100
▁ツイッター 100
▁苦し 100
▁郡 100
▁物価 100
▁日韓 100
▁論文 100
▁〈 100
▁長く 100
▁マラソン 100
▁メジャー 100
▁症状 100
▁啓 100
▁増やす 100
リーム 100
揚げ 100
▁種目 100
▁三振 100
▁混乱 100
▁レストラン 100
▁び 100
▁ヘリ 100
▁両親 100
▁パラリンピック 100
▁兵器 100
▁認める 100
▁火山 100
▁われわれ 100
▁スキー 100
▁待ち 100
▁ファイ 100
▁間違い 100
▁搬送 100
たく 100
べる 100
▁借り 100
▁分か 100
▁往 100
ーブル 100
▁食材 100
▁良かっ 100
▁国内外 100
▁柳 100
ティブ 100
▁床 100
▁集会 100
▁全力 100
▁マイナス 100
▁玄 100
テム 100
▁拍 100
▁損害 100
▁武器 100
▁踊 100
▁スケート 100
▁諸国 100
▁プレミア 100
▁小売 100
ーチン 100
▁にぎ 100
▁カフェ 100
▁楽しむ 100
▁いじめ 100
▁ずっと 100
▁NPO 100
▁圧力 100
▁ワイン 100
つい 100
▁警備 100
▁咲 100
▁頑張っ 100
▁ギャ 100
▁犯行 100
▁* 100
▁限ら 100
▁武装 100
▁すごく 100
▁強め 100
▁炭 100
▁深く 100
▁違法 100
▁公判 100
▁講師 100
タール 100
レント 100
▁決議 100
▁教諭 100
▁アイテム 100
▁イスラ 100
▁添 100
▁スイス 100
▁本来 100
▁業者 100
▁埋め 100
▁生み 100
バイ 100
▁松山 100
▁辞任 100
▁ウイルス 100
▁向かう 100
▁同月 100
っきり 100
返し 100
▁孝 100
▁闘 100
リュー 100
▁振る 100
▁成田 100
▁教員 100
▁バル 100
ミー 100
▁姉 100
▁未明 100
▁フィリピン 100
▁てる 100
▁項目 100
ウド 100
▁回転 100
ディングス 100
▁統計 100
▁肩 100
▁ましょう 100
▁かかわら 100
▁官邸 100
▁シェア 100
▁演じ 100
▁王者 100
▁テスト 100
▁天然 100
▁置い 100
▁粘 100
▁実感 100
リエ 100
かける 100
▁意思 100
▁喜ん 100
▁グローバル 100
▁半分 100
▁シュート 100
▁斎 100
出さ 100
▁遭 100
▁ぐらい 100
▁ショップ 100
▁スキ 100
▁ウエ 100
▁見解 100
▁たび 100
▁中東 100
▁抱え 100
レル 100
▁主席 100
▁不満 100
▁コミュニケーション 100
ノミクス 100
ワイ 100
▁賃金 100
リティ 100
▁とら 100
▁東電 100
▁反省 100
▁死者 100
▁見学 100
▁落とし 100
▁堀 100
▁交付 100
▁倒れ 100
▁単独 100
▁ルート 100
▁権利 100
▁世論 100
▁手が 100
AN 100
▁圭 100
▁覚え 100
▁上海 100
▁移設 100
▁差別 100
▁さえ 100
デオ 100
プル 100
▁縁 100
▁新型 100
▁ギリ 100
▁コーナー 100
ポール 100
▁つもり 100
▁戻る 100
▁準々 100
▁パナ 100
▁レー 100
▁オリックス 100
▁絡 100
▁使える 100
▁工夫 100
▁シンガ 100
▁大半 100
▁あふ 100
▁宏 100
▁まいり 100
▁冊 100
▁瀬 100
▁策定 100
▁乳 100
▁手法 100
バイス 100
▁受験 100
ラボ 100
▁来る 100
▁加入 100
▁懲役 100
▁金額 100
▁保健 100
▁シンガポール 100
▁布 100
▁歓迎 100
▁○ 100
ガン 100
▁供述 100
▁在住 100
▁投球 100
▁オリンピック 100
▁地検 100
起こ 100
▁有力 100
▁当社 100
▁タブ 100
▁再現 100
▁定例 100
▁救助 100
▁格差 100
▁陥 100
▁敦 100
▁ライト 100
▁方式 100
▁流し 100
▁刑事 100
▁放っ 100
▁亀 100
▁結び 100
▁かける 100
▁IS 100
▁プーチン 100
▁ダブル 100
▁県民 100
▁真っ 100
▁広がり 100
▁未満 100
▁慣 100
トロ 100
▁わたり 100
▁機械 100
▁幸せ 100
▁つくっ 100
▁軽減 100
▁乾 100
co 100
▁立つ 100
ピー 100
▁泰 100
▁文部 100
▁日銀 100
▁嘉 100
▁保守 100
▁出産 100
▁あたる 100
▁献 100
▁過ごし 100
▁持た 100
▁廃棄 100
▁突然 100
▁さい 100
▁わが 100
▁プライ 100
▁回っ 100
▁実質 100
▁脚 100
▁美しい 100
jp 100
▁オランダ 100
チャ 100
ーグル 100
▁アベノミクス 100
▁尽く 100
▁栃木 100
▁賞金 100
▁滞在 100
▁任期 100
▁銅 100
▁高度 100
▁ホールディングス 100
▁シングルス 100
▁旗 100
ワイト 100
▁占め 100
▁了 100
▁かなり 100
▁沿岸 100
▁施行 100
▁事例 100
▁失っ 100
▁あげ 100
▁素晴 100
▁描く 100
▁化学 100
▁起用 100
▁向き 100
▁もらえ 100
▁イスラエル 100
▁祭り 100
▁先輩 100
▁どれ 100
▁基づく 100
▁縦 100
▁香川 100
▁塗 100
▁織 100
▁促す 100
▁ホワイト 100
立ち 100
▁象徴 100
▁気圧 100
▁オフィ 100
▁表彰 100
▁異常 100
▁伸ばし 100
▁寿 100
▁泉 100
▁取れ 100
ミット 100
▁用い 100
▁品質 100
▁なんて 100
とり 100
▁ざる 100
▁数字 100
▁井上 100
▁焦点 100
エン 100
▁アクセス 100
▁保安 100
▁ヤマ 100
▁信じ 100
▁パワー 100
▁支払い 100
▁フレ 100
▁接続 100
▁カル 100
▁下回 100
▁及び 100
▁タレント 100
▁忠 100
▁証拠 100
リット 100
ろし 100
▁内野 100
▁歌手 100
▁編成 100
▁虐 100
▁流出 100
▁配置 100
▁株主 100
▁保管 100
▁結成 100
▁] 100
▁調達 100
▁大臣 100
▁面積 100
▁風速 100
しろ 100
アン 100
▁職場 100
▁掲げる 100
▁四十 100
▁演じる 100
▁結論 100
▁釜 100
▁栗 100
▁豊富 100
▁退職 100
▁百貨 100
▁描か 100
▁昌 100
▁巡る 100
▁自社 100
▁公務 100
▁進み 100
▁やら 100
▁ことし 100
▁校長 100
▁しん 100
▁アート 100
▁尋 100
▁封 100
▁コンビニ 100
▁チケット 100
▁留学 100
▁回収 100
▁降り 100
ーリー 100
ブン 100
▁雑誌 100
▁クラウド 100
▁前提 100
▁詩 100
▁盛り込ん 100
▁火災 100
▁コラボ 100
▁しまい 100
▁卵 100
▁飲み 100
▁済み 100
▁染 100
▁不可 100
▁縮小 100
▁バッグ 100
▁学ぶ 100
▁大和 100
▁上場 100
▁回り 100
▁炉 100
▁比例 100
▁通過 100
▁祐 100
▁張り 100
▁貯 100
▁出さ 100
▁基礎 100
▁待っ 100
▁誘致 100
▁ぎ 100
▁方々 100
▁よかっ 100
BC 100
▁フジ 100
an 100
▁千代田 100
▁沢 100
▁許さ 100
▁体調 100
▁つながり 100
▁抽選 100
▁通行 100
ラスト 100
▁葬 100
▁まる 100
▁東大 100
立つ 100
▁マレー 100
▁阻 100
チェ 100
クシー 100
▁提示 100
▁射 100
▁ふる 100
▁特殊 100
▁エコ 100
▁棋 100
▁パートナー 100
▁双方 100
▁佐々木 100
in 100
▁終盤 100
▁孫 100
▁満た 100
▁サイバー 100
▁郷 100
リティー 100
スン 100
▁自体 100
▁まっ 100
▁ロイター 100
▁区間 100
やく 100
▁会館 100
▁きょう 100
▁姫 100
▁外部 100
▁離脱 100
▁励 100
▁主婦 100
▁年内 100
▁青木 100
▁食べる 100
▁軸 100
▁しょう 100
▁いただく 100
▁つなげ 100
▁露 100
▁メル 100
▁一覧 100
▁海岸 100
▁変える 100
▁ワーク 100
▁約束 100
▁ビデオ 100
▁紛 100
▁思い出 100
▁マーケ 100
プレ 100
ペン 100
▁拒否 100
▁キー 100
▁圧倒 100
▁争い 100
▁目立っ 100
▁崩れ 100
▁鳥取 100
はり 100
▁主に 100
▁シート 100
▁ボギー 100
▁履 100
▁ペース 100
▁推定 100
▁させ 100
▁決断 100
どり 100
▁置く 100
▁臨む 100
▁有識 100
ッピング 100
▁さらなる 100
▁攻め 100
▁ボク 100
▁親子 100
▁欲 100
▁大島 100
ねる 100
▁とどまっ 100
▁アップル 100
▁広く 100
▁報酬 100
OC 100
▁町長 100
▁どちら 100
▁楽しい 100
▁知人 100
▁ギリシャ 100
▁置き 100
▁資本 100
▁やはり 100
▁基づき 100
ショナル 100
▁山梨 100
▁二人 100
ネシア 100
明け 100
▁検索 100
▁グランプリ 100
▁基盤 100
▁トイ 100
▁旭 100
▁善 100
▁フォー 100
▁穴 100
▁誇る 100
テン 100
▁後藤 100
▁入学 100
▁買っ 100
▁罰 100
▁礼 100
▁奪っ 100
フォーマ 100
▁親し 100
▁近畿 100
▁コンク 100
▁上る 100
▁連載 100
▁選ぶ 100
▁旅客 100
▁買い物 100
▁疑惑 100
入れる 100
▁力強 100
▁図書 100
▁既存 100
▁風景 100
▁コンサート 100
▁トリ 100
▁後押し 100
▁寛 100
▁壊 100
EC 100
▁低迷 100
▁地点 100
▁歩い 100
▁貴重 100
▁賢 100
re 100
▁畑 100
▁ブレ 100
▁解釈 100
▁うか 100
▁入社 100
▁順位 100
▁サイド 100
ーキ 100
▁先月 100
▁トレーニング 100
▁一気 100
▁次ぐ 100
▁[ 100
▁徐 100
▁阿部 100
▁桐 100
▁長年 100
▁文学 100
▁半年 100
▁ニーズ 100
▁商工 100
▁戦う 100
▁早い 100
▁みたい 100
▁明記 100
▁ぞ 100
▁会話 100
捨て 100
▁広場 100
▁市内 100
つき 100
▁講座 100
▁淡 100
▁軒 100
▁底 100
▁侵入 100
▁つくり 100
▁掘 100
▁史上 100
▁学ん 100
▁入居 100
▁芸能 100
▁ロッテ 100
▁通貨 100
▁いただける 100
▁変動 100
▁飼育 100
▁繰り広 100
▁終わり 100
▁海洋 100
ントリー 100
▁長女 100
▁弟 100
▁t 100
▁同意 100
▁サミット 100
▁変わる 100
▁手段 100
▁ブック 100
▁邦 100
ギュア 100
▁ラジオ 100
たん 100
▁同盟 100
▁厳しく 100
▁死刑 100
▁マレーシア 100
▁探し 100
▁アス 100
▁エル 100
▁助け 100
かさ 100
▁読者 100
▁かわい 100
▁フィギュア 100
▁マーケティング 100
▁ガラス 100
TT 100
▁スケ 100
▁演技 100
▁ミュージ 100
▁代わり 100
▁蒸 100
▁長谷 100
▁トルコ 100
くら 100
▁尖 100
▁予防 100
▁談話 100
▁主体 100
▁教科 100
▁構え 100
▁上映 100
▁セミ 100
▁インドネシア 100
▁帝 100
▁ST 100
▁無理 100
▁会計 100
▁羽生 100
▁命令 100
▁率い 100
▁収穫 100
▁見せる 100
バン 100
▁小野 100
▁対決 100
▁中継 100
▁前週 100
▁妨 100
▁アラ 100
IN 100
▁得意 100
▁博多 100
キシコ 100
▁参入 100
▁書記 100
▁高知 100
▁GP 100
▁整理 100
▁汗 100
▁木村 100
▁Z 100
▁やや 100
▁わかっ 100
▁ソロ 100
▁バレー 100
▁提言 100
▁タブレット 100
▁パフォーマ 100
▁しゃ 100
▁柏 100
ED 100
▁植物 100
たま 100
▁看板 100
九州 100
▁きれい 100
▁北九州 100
▁アパ 100
▁コンセ 100
▁下さい 100
んと 100
▁コス 100
▁キャラ 100
付ける 100
ソニック 100
ゴン 100
▁プロデ 100
▁リン 100
▁勧告 100
▁前向き 100
▁参拝 100
▁支える 100
▁先進 100
イア 100
▁分かる 100
▁民族 100
▁婚 100
▁輝い 100
▁腰 100
▁動向 100
▁FA 100
▁字 100
▁衣装 100
▁いち 100
EO 100
▁出店 100
▁翌日 100
▁あらゆる 100
▁菜 100
▁テク 100
▁パナソニック 100
ルク 100
直す 100
ごろ 100
▁ジャンプ 100
▁公認 100
▁試み 100
▁尖閣 100
▁納得 100
▁集まる 100
シン 100
▁先頭 100
▁妊 100
▁年末 100
ラリー 100
▁支出 100
▁ウェブ 100
▁おいしい 100
▁石原 100
▁治安 100
▁意義 100
▁かん 100
▁ジョン 100
▁電池 100
▁引き下げ 100
▁メキシコ 100
▁アウト 100
▁締結 100
▁摘 100
▁集まり 100
▁錦織 100
▁大津 100
▁アイス 100
▁毛 100
▁イング 100
▁ブロック 100
▁対処 100
引き 100
▁悩み 100
▁受け止め 100
▁四国 100
▁看護 100
▁リアル 100
▁抜け 100
▁点検 100
▁AI 100
▁神宮 100
▁小池 100
▁マグ 100
▁視野 100
▁上り 100
▁人形 100
▁視点 100
▁序 100
▁丁寧 100
▁栄養 100
▁腹 100
▁バーディー 100
越え 100
▁高値 100
▁葉 100
▁将棋 100
▁延期 100
▁ラー 100
▁会派 100
▁落ち着 100
▁大勢 100
▁海軍 100
▁優れ 100
取る 100
▁流行 100
▁レッド 100
▁猫 100
▁生物 100
▁抱える 100
▁件数 100
▁バンド 100
▁走っ 100
▁クレ 100
▁まさに 100
▁ヤク 100
▁TO 100
わし 100
▁週刊 100
▁隻 100
▁フラ 100
▁国務 100
▁受注 100
▁女児 100
▁b 100
▁ハード 100
ヒー 100
▁モバ 100
▁ロック 100
▁雲 100
▁計算 100
▁寄り 100
▁泊 100
▁支給 100
▁歴代 100
▁フラン 100
▁高裁 100
▁分間 100
▁パフォーマンス 100
▁是非 100
▁調理 100
▁徳島 100
▁漁業 100
▁拓 100
ピュー 100
▁受け取っ 100
▁冒頭 100
▁袋 100
▁イラスト 100
▁ナイ 100
▁家電 100
ュラー 100
▁込み 100
▁勝ち越し 100
▁貧 100
▁国境 100
▁プレイ 100
▁庁舎 100
▁孤 100
▁同級 100
▁感動 100
▁ダイヤ 100
▁いれ 100
▁溶 100
▁高まる 100
▁イオン 100
▁個別 100
がい 100
▁肝 100
▁墓 100
▁創生 100
▁感情 100
▁牧 100
▁金属 100
▁コメ 100
▁結ん 100
▁気付 100
▁衛星 100
▁署名 100
▁異例 100
▁固定 100
▁貸し 100
▁前期 100
ウント 100
▁クリスマス 100
▁同年 100
▁トーク 100
シップ 100
▁選び 100
▁完了 100
▁重大 100
▁磨 100
▁遠藤 100
▁きち 100
▁想像 100
▁チョコ 100
▁足り 100
▁値上げ 100
▁運航 100
▁奇 100
寄り 100
▁剛 100
▁名人 100
▁国債 100
▁◎ 100
▁臨ん 100
▁順調 100
▁繊 100
ok 100
▁本田 100
ボラ 100
▁やめ 100
▁荷 100
▁刺激 100
▁込ん 100
作り 100
▁次期 100
▁鏡 100
▁コート 100
好き 100
▁制覇 100
▁堤 100
▁オフィス 100
▁尚 100
▁FC 100
▁人数 100
▁空き 100
▁働い 100
フォーム 100
▁パイ 100
▁巡り 100
▁できれ 100
▁炎 100
やし 100
▁左右 100
シェ 100
▁制服 100
▁庭 100
▁分かれ 100
▁守っ 100
▁訪日 100
▁取り上げ 100
▁モバイル 100
▁法制 100
▁同校 100
▁指標 100
▁NTT 100
▁蔵 100
▁再編 100
▁農林 100
▁取り戻 100
▁セレ 100
▁硬 100
▁回避 100
▁通知 100
▁そば 100
▁読ん 100
▁顧問 100
▁作ら 100
▁来季 100
▁おお 100
▁外野 100
▁モノ 100
▁変わり 100
ティスト 100
▁プリ 100
▁ウイ 100
▁推移 100
▁リスト 100
▁ポスト 100
▁競り 100
▁傘下 100
▁入札 100
▁気分 100
キース 100
▁一層 100
▁活発 100
▁可決 100
▁打っ 100
▁翔 100
▁ようやく 100
▁がち 100
▁再発 100
▁コーヒー 100
▁連結 100
▁定員 100
▁暮らす 100
▁ヤンキース 100
▁返還 100
▁ヘッド 100
ポーター 100
▁本体 100
▁気づ 100
▁書籍 100
▁略 100
▁国交 100
▁卓 100
▁定数 100
▁頑張り 100
ガル 100
▁係 100
▁糸 100
▁懐 100
▁証明 100
▁町内 100
▁努め 100
▁トイレ 100
ゼルス 100
切る 100
▁狭 100
▁撤去 100
リューション 100
▁学び 100
▁吹き 100
▁ブリ 100
▁深夜 100
▁成分 100
▁順次 100
▁解体 100
▁領土 100
▁速報 100
▁応え 100
ライン 100
▁円高 100
▁称 100
▁コンピュー 100
▁脅威 100
▁初期 100
▁実力 100
▁録 100
▁打率 100
▁こだわり 100
▁収録 100
▁章 100
▁陳 100
▁懸命 100
▁前田 100
▁許し 100
▁上野 100
▁収支 100
NS 100
▁財団 100
イナー 100
▁招待 100
▁サム 100
リーナ 100
▁警告 100
まい 100
▁売れ 100
▁膨ら 100
▁拍手 100
▁社内 100
▁靴 100
▁素晴らしい 100
▁泣 100
▁よし 100
▁打席 100
▁置か 100
▁決して 100
▁斎藤 100
▁メン 100
レード 100
▁上がる 100
▁ストア 100
▁被爆 100
▁周り 100
▁ビッグ 100
▁接触 100
▁配備 100
▁FI 100
▁しかも 100
▁DF 100
▁ズ 100
▁乗せ 100
▁オール 100
▁ペット 100
▁比率 100
▁ハリ 100
▁ヤクルト 100
▁引き分け 100
▁援 100
▁呼ん 100
▁概要 100
▁負っ 100
▁懇 100
▁躍 100
▁セミナー 100
▁開会 100
▁東南 100
▁妥 100
▁メモ 100
▁奨 100
▁もともと 100
▁カット 100
▁ブログ 100
▁グッズ 100
▁凍 100
▁疲れ 100
▁西部 100
▁冬季 100
▁ナンバー 100
▁脇 100
▁後援 100
▁タクシー 100
▁ちょう 100
▁引き継 100
▁滝 100
▁あき 100
▁刻 100
▁先端 100
▁暴行 100
▁アーティスト 100
▁抵 100
▁グリーン 100
▁野田 100
ッキ 100
じみ 100
▁遺伝 100
▁遊び 100
▁盛岡 100
▁バスケット 100
▁釈 100
▁河北 100
▁マッチ 100
▁モーター 100
▁藩 100
▁全米 100
▁生じ 100
▁リサ 100
▁いかに 100
▁ショック 100
▁示さ 100
▁考慮 100
▁愛媛 100
▁催 100
▁合宿 100
▁四球 100
▁同町 100
▁夫妻 100
▁すごい 100
▁直球 100
▁ゾ 100
▁屈 100
▁関わる 100
▁肢 100
▁大戦 100
▁着手 100
▁アイデ 100
▁ピア 100
▁抜き 100
▁増し 100
ーナメント 100
▁めど 100
スティ 100
▁手紙 100
▁欠かせ 100
▁まつり 100
▁ホンダ 100
▁怖 100
▁改修 100
▁日報 100
▁撃 100
▁正確 100
▁厚労 100
▁速度 100
▁みせ 100
▁コント 100
▁割り 100
▁討 100
▁天候 100
▁掃 100
野古 100
▁辺野古 100
▁流通 100
▁施策 100
▁徐々 100
▁ランド 100
▁今夏 100
▁帰っ 100
▁白い 100
▁クー 100
▁トーナメント 100
▁基金 100
▁載 100
▁表面 100
▁上下 100
▁SP 100
▁コンセプト 100
▁ソリューション 100
▁計上 100
応え 100
▁故障 100
▁模様 100
▁衝撃 100
▁しの 100
▁ソニー 100
▁いろんな 100
▁クリエ 100
▁了承 100
▁カラ 100
らっ 100
▁ありがとう 100
▁上空 100
▁US 100
▁セキュ 100
▁診療 100
ぱり 100
▁サイン 100
▁命じ 100
フレ 100
▁歓声 100
▁もし 100
▁当面 100
▁顕 100
▁のぞ 100
▁堺 100
▁タイミング 100
▁打ち上げ 100
▁標準 100
▁複雑 100
▁ロード 100
▁同点 100
▁迫っ 100
▁公募 100
▁モスク 100
▁三井 100
▁打ち出し 100
▁時計 100
▁ただし 100
▁エレ 100
▁入手 100
▁依存 100
▁キュー 100
▁功 100
▁つまり 100
▁進行 100
▁原作 100
▁採択 100
クラ 100
▁ペン 100
ロード 100
▁強まっ 100
ベーション 100
▁司令 100
▁ピーク 100
▁ストーリー 100
ピオン 100
▁支局 100
ro 100
ルム 100
▁申し込み 100
▁打点 100
▁迷惑 100
っこ 100
▁弾道 100
▁イノ 100
▁委託 100
▁おも 100
▁台数 100
▁豊田 100
▁驚い 100
▁陣営 100
▁路上 100
▁サウ 100
▁宝塚 100
▁アイデア 100
▁取り消 100
▁経過 100
▁池田 100
▁銘柄 100
▁両党 100
▁一連 100
▁送る 100
▁根拠 100
▁トンネル 100
ッキー 100
▁送検 100
▁解放 100
▁隣接 100
▁当たっ 100
▁ダウ 100
▁合併 100
▁書店 100
▁過程 100
▁公約 100
ぷり 100
▁融資 100
▁例年 100
▁HD 100
カン 100
▁権限 100
▁CO 100
▁去 100
▁電源 100
▁ヘク 100
▁財源 100
▁本拠 100
▁身近 100
▁付い 100
▁防御 100
▁招い 100
▁上げる 100
▁原爆 100
▁数十 100
▁好評 100
▁芳 100
▁チャンピオン 100
▁ヘクタール 100
▁ジャーナ 100
▁リゾ 100
▁カウン 100
▁うかが 100
▁思え 100
▁ストレス 100
込める 100
▁漂 100
▁レギ 100
▁目立つ 100
▁街頭 100
▁重い 100
▁ゲスト 100
▁心理 100
▁三塁 100
▁化粧 100
▁CEO 100
立っ 100
▁グラム 100
▁出会い 100
▁頻 100
▁争点 100
▁窓口 100
▁アト 100
▁拡充 100
▁進化 100
▁上っ 100
ッパ 100
▁キム 100
▁アンド 100
アップ 100
▁後ろ 100
▁エボラ 100
▁無人 100
フォル 100
▁屋根 100
▁シャツ 100
の子 100
▁通っ 100
▁習近 100
▁葬儀 100
▁快勝 100
▁クリーム 100
▁東証 100
▁モチ 100
▁虚 100
▁スタンド 100
ポン 100
さと 100
▁ブレー 100
▁一生 100
▁新報 100
▁和田 100
DP 100
▁きちんと 100
▁支店 100
▁味わい 100
▁促し 100
▁小さい 100
▁g 100
▁検出 100
▁ドラフト 100
▁黒田 100
▁グーグル 100
one 100
▁節目 100
▁指針 100
▁盛り上げ 100
▁干 100
▁生きる 100
▁違っ 100
▁ブラック 100
▁桃 100
ボル 100
▁おく 100
▁郵便 100
▁スカイ 100
▁逸 100
セン 100
▁アドレス 100
▁つなげる 100
▁収容 100
▁追悼 100
▁カレー 100
▁ボクシング 100
BS 100
▁チャレンジ 100
▁豚 100
▁マニ 100
▁名乗 100
▁職人 100
▁黒字 100
▁魔 100
▁SNS 100
▁豪華 100
▁太郎 100
▁名称 100
▁虐待 100
▁准 100
▁プリン 100
▁サポーター 100
▁選定 100
▁深め 100
▁カバー 100
▁改定 100
▁スタジオ 100
▁随 100
▁橋本 100
▁函 100
▁浦和 100
▁仕上げ 100
▁ハンド 100
▁青葉 100
▁便利 100
▁漁船 100
▁レギュラー 100
▁一斉 100
▁代行 100
▁スポット 100
▁かた 100
▁浪 100
ルズ 100
▁高野 100
▁つける 100
▁CD 100
▁フット 100
▁神経 100
▁島根 100
丈夫 100
▁今春 100
▁デザイナー 100
▁明け 100
▁要素 100
▁珍しい 100
▁移行 100
▁個性 100
▁はる 100
▁両日 100
▁抑制 100
▁税込 100
FA 100
IC 100
▁枝 100
▁装備 100
▁貫 100
▁体重 100
シック 100
▁揺れ 100
▁銀座 100
▁立ち上げ 100
▁河野 100
パクト 100
▁交際 100
▁東芝 100
まだ 100
▁消え 100
▁ゴロ 100
▁初め 100
▁特産 100
▁閉鎖 100
▁車内 100
▁域 100
▁マリ 100
▁首長 100
▁眼 100
▁幼稚 100
▁ANA 100
▁灯 100
▁各種 100
▁国道 100
▁大好き 100
▁プール 100
▁モニ 100
▁取り入れ 100
▁タン 100
▁バイク 100
▁軌 100
▁ディス 100
▁ぴ 100
▁奉 100
▁少子 100
▁セル 100
▁ご覧 100
▁つぶ 100
▁最適 100
打ち 100
▁バスケットボール 100
▁入団 100
▁イチロー 100
▁現れ 100
▁本店 100
▁信用 100
▁設ける 100
▁破り 100
▁住所 100
▁薬物 100
▁トライ 100
▁不可欠 100
▁眠 100
▁オス 100
▁まだまだ 100
▁たま 100
▁問う 100
▁武力 100
▁ゆっくり 100
▁免許 100
▁GDP 100
▁競馬 100
▁療 100
▁架 100
▁ライバル 100
並み 100
▁解析 100
▁マイクロ 100
▁苦労 100
▁急増 100
▁ロサン 100
▁ワイ 100
▁ロサンゼルス 100
▁すぎる 100
▁共演 100
▁大賞 100
▁平野 100
▁枠組み 100
▁破壊 100
▁定着 100
▁唐 100
▁余り 100
▁見据え 100
▁農協 100
▁痛み 100
▁疾 100
▁イングランド 100
▁住ん 100
▁侵害 100
▁制定 100
▁誓っ 100
▁並み 100
▁出血 100
▁ヤード 100
▁空爆 100
▁須 100
▁新興 100
▁無事 100
▁開け 100
▁塾 100
ハウ 100
om 100
▁藤井 100
▁やま 100
▁なくなっ 100
▁敦賀 100
▁LED 100
▁態度 100
▁野村 100
▁悪く 100
▁三浦 100
▁ピンク 100
▁普天 100
▁典 100
▁ドア 100
▁同僚 100
ノー 100
コモ 100
▁急速 100
▁威 100
▁太田 100
クル 100
▁AC 100
フォルニア 100
ケル 100
▁擁立 100
▁一郎 100
▁豆 100
ar 100
▁昇格 100
▁機体 100
▁争う 100
▁明言 100
リック 100
▁普天間 100
▁同行 100
▁ふるさと 100
▁早朝 100
▁義偉 100
▁キャリア 100
ミン 100
▁繰り広げ 100
▁筑 100
▁友達 100
▁結局 100
▁迫る 100
▁打数 100
▁音声 100
▁つづ 100
▁カリフォルニア 100
▁葛 100
▁● 100
そも 100
テラン 100
▁告示 100
▁黙 100
換え 100
▁慣れ 100
▁コンサル 100
サス 100
▁付ける 100
▁明日 100
▁淳 100
▁マンガ 100
▁そも 100
▁そもそも 100
▁ベテラン 100
▁粉 100
▁PK 100
ちゃん 100
▁序盤 100
▁贈ら 100
▁大谷 100
▁鋭 100
▁n 100
▁楽しく 100
▁村上 100
▁六十 100
▁函館 100
▁抑える 100
▁訪ね 100
プライ 100
▁ノウ 100
▁巡っ 100
▁山崎 100
▁れれ 100
▁小川 100
▁除染 100
▁髪 100
久保 100
▁撤回 100
▁移住 100
▁すす 100
▁浸透 100
▁気仙 100
▁高まり 100
セル 100
▁合流 100
ールズ 100
▁震度 100
▁漢 100
▁接近 100
▁反論 100
▁抜い 100
▁進学 100
▁判定 100
▁蓄 100
▁ドラッグ 100
▁上がり 100
▁わかり 100
▁わから 100
▁靖 100
ったり 100
▁東洋 100
▁歌舞 100
▁修理 100
▁那覇 100
▁ふさ 100
▁ハワイ 100
▁ドレス 100
▁延べ 100
▁決まる 100
▁美容 100
▁目撃 100
▁ちなみ 100
つける 100
▁ガー 100
▁食料 100
▁申し訳 100
▁引き締 100
▁喪 100
▁届い 100
▁モスクワ 100
チン 100
▁覚悟 100
▁鬼 100
▁アサ 100
▁山下 100
▁マク 100
▁飾っ 100
▁引っ張 100
▁激しく 100
がん 100
ロール 100
▁IB 100
▁逃し 100
▁瀬戸 100
▁包ま 100
▁解明 100
▁別れ 100
▁ダウンロード 100
▁基調 100
▁ノウハウ 100
▁亜 100
▁ファミ 100
▁仕方 100
▁半ば 100
▁川内 100
▁もらおう 100
▁ヘル 100
▁藤田 100
▁亮 100
▁二百 100
▁もん 100
▁Ph 100
▁上田 100
▁単位 100
ボン 100
▁ごみ 100
売り 100
▁理想 100
▁手伝 100
がれ 100
▁新作 100
▁身体 100
▁ジャーナリスト 100
▁毎週 100
▁無線 100
▁切り替え 100
▁プレミアム 100
▁あらた 100
ワット 100
▁図っ 100
▁正しい 100
▁進展 100
▁女王 100
▁廃炉 100
▁河川 100
▁崩壊 100
▁扱い 100
キン 100
チュ 100
▁念頭 100
▁レシ 100
▁前線 100
▁転落 100
▁中京 100
▁惜 100
▁放置 100
▁日産 100
上がる 100
チナ 100
チャー 100
INE 100
▁リゾート 100
▁市街 100
▁はっきり 100
▁優勢 100
▁聞こ 100
▁運ん 100
▁職業 100
▁フェイス 100
▁宣伝 100
▁見込ま 100
▁気仙沼 100
▁男児 100
▁次回 100
▁捉 100
▁着用 100
▁辛 100
▁排除 100
▁形式 100
▁妊娠 100
▁アルバイト 100
▁運び 100
▁次ぎ 100
▁はや 100
詰め 100
▁クオ 100
レクション 100
▁大関 100
▁弁当 100
▁印刷 100
▁北東 100
▁測定 100
▁かぶ 100
▁怒り 100
▁集計 100
▁下回っ 100
▁室内 100
▁出力 100
▁口座 100
▁集める 100
ンチン 100
▁実践 100
▁教師 100
le 100
▁鍵 100
▁描き 100
▁抵抗 100
▁かみ 100
▁救急 100
▁並び 100
▁紛争 100
▁扱う 100
▁鹿島 100
▁シティ 100
▁レス 100
▁確立 100
▁驚き 100
▁ブーム 100
▁ドロ 100
▁当地 100
▁財産 100
▁取り扱 100
▁数値 100
▁まちづくり 100
▁誇り 100
▁アリ 100
▁FIFA 100
▁成人 100
▁カタ 100
▁形成 100
クター 100
▁試算 100
▁及ぶ 100
▁同じく 100
思議 100
ンサー 100
▁オーナー 100
▁たと 100
▁育児 100
TO 100
▁EC 100
▁移植 100
▁食い 100
▁故郷 100
▁面白い 100
▁祖父 100
▁身元 100
▁オーバー 100
▁両県 100
▁所持 100
▁だり 100
▁駒 100
▁レコ 100
▁ランク 100
▁意図 100
▁ブース 100
▁鑑定 100
▁赤ちゃん 100
▁柴 100
▁受け付け 100
▁信号 100
▁越え 100
▁観察 100
▁数々 100
▁握手 100
▁累 100
▁撤退 100
プロ 100
▁校舎 100
▁妨害 100
▁浸水 100
▁襲撃 100
▁中野 100
▁追う 100
▁奏 100
▁温暖 100
▁捕手 100
▁ショット 100
▁塔 100
▁届け出 100
▁メガ 100
▁改良 100
▁経費 100
▁GK 100
▁イエ 100
eb 100
▁趣味 100
▁防犯 100
▁挑む 100
▁スコア 100
▁右腕 100
▁踊り 100
▁タンク 100
▁敗退 100
▁制御 100
▁現象 100
▁継承 100
▁幻 100
▁青年 100
美子 100
▁下位 100
▁ソ連 100
▁特集 100
▁歌舞伎 100
▁CA 100
▁残さ 100
▁社民 100
▁刺し 100
▁否認 100
▁排出 100
▁広げる 100
▁皇后 100
んどん 100
▁まったく 100
▁小沢 100
▁翻 100
▁あん 100
▁記し 100
▁毎月 100
▁ガソ 100
▁算 100
▁中断 100
▁Phone 100
▁アドバイス 100
▁コンテスト 100
▁大野 100
▁温度 100
▁示唆 100
▁タッチ 100
▁地図 100
▁不思議 100
▁バイオ 100
▁後継 100
▁手応え 100
▁ガソリン 100
▁ジャンボ 100
▁面会 100
▁なき 100
▁あらためて 100
▁国産 100
▁晩 100
▁ポスター 100
▁求人 100
▁摂 100
▁死ん 100
▁眺 100
▁照明 100
▁詳しく 100
▁ローマ 100
▁収め 100
▁難民 100
▁急ぐ 100
▁ノーベル 100
▁スライ 100
▁静か 100
▁アルゼ 100
▁自国 100
▁後退 100
▁重点 100
▁ベンチャー 100
▁わい 100
▁乗車 100
▁福田 100
▁もて 100
▁シニア 100
▁アルゼンチン 100
▁操縦 100
▁ささ 100
▁アパート 100
▁使え 100
▁給与 100
▁革新 100
休み 100
▁広い 100
▁前月 100
▁中川 100
▁一切 100
▁フェア 100
▁ルー 100
▁背中 100
▁格好 100
▁チュー 100
▁著書 100
▁難しく 100
▁未定 100
▁待機 100
よい 100
▁暑 100
▁LINE 100
▁クリア 100
ナン 100
▁柔道 100
▁充電 100
▁戦っ 100
▁チェーン 100
▁斉 100
▁七十 100
▁ノル 100
▁浮き 100
▁上限 100
▁往復 100
▁宗教 100
▁ジュニア 100
▁創造 100
▁OB 100
▁奪わ 100
▁破っ 100
SA 100
▁開通 100
▁我々 100
テク 100
▁快適 100
▁国政 100
サル 100
▁木造 100
▁独特 100
▁恒例 100
▁ママ 100
▁NA 100
▁特急 100
▁仕掛け 100
▁紫 100
▁グラウンド 100
▁鎌 100
▁運輸 100
▁誘導 100
▁立地 100
▁ユニット 100
▁証人 100
or 100
▁勝て 100
▁数多 100
▁発症 100
▁パレス 100
▁兼ね 100
▁鶏 100
▁来春 100
▁近隣 100
▁ピッチ 100
▁大丈夫 100
▁提訴 100
っち 100
▁観戦 100
▁選管 100
▁関税 100
▁仕様 100
▁ベルギー 100
ッコ 100
▁暫 100
▁棄 100
▁和解 100
▁革命 100
▁イル 100
▁小松 100
▁白鵬 100
▁まるで 100
▁近所 100
▁スーツ 100
▁シャープ 100
▁糖 100
▁当て 100
▁丹 100
▁ステーション 100
▁安い 100
▁基づい 100
▁原告 100
▁槿 100
▁専務 100
▁沙 100
▁売買 100
▁暫定 100
▁殴 100
▁機種 100
▁全長 100
▁模索 100
▁秘書 100
▁峰 100
トン 100
▁クライ 100
▁奪い 100
▁レイ 100
▁潤 100
▁いす 100
▁限界 100
▁ドライバー 100
▁体力 100
▁債務 100
▁今度 100
▁パーティー 100
▁四半 100
▁客室 100
▁勝つ 100
▁マスコ 100
▁帰還 100
▁救援 100
▁漏れ 100
チュア 100
▁建造 100
▁保全 100
▁高山 100
▁スペシャル 100
▁戦力 100
▁教訓 100
▁不要 100
▁開放 100
▁DV 100
▁パイロ 100
▁山中 100
▁水族 100
▁明るい 100
▁AS 100
▁彦 100
▁たっぷり 100
ジュール 100
▁不審 100
▁プラット 100
▁すら 100
ワード 100
▁岡崎 100
▁数多く 100
ます 100
▁綾 100
▁摘発 100
▁博士 100
▁告発 100
▁パイロット 100
TA 100
▁シングル 100
▁殿 100
▁認可 100
▁コンピューター 100
▁劣 100
▁護 100
▁貼 100
▁外れ 100
▁低く 100
▁ショート 100
▁皇太 100
▁とる 100
▁不良 100
▁キューバ 100
▁懲戒 100
▁入試 100
▁釣り 100
▁初代 100
おり 100
▁是正 100
▁刃 100
セス 100
▁碑 100
▁日立 100
▁サヨ 100
▁偏 100
▁直径 100
▁冷静 100
▁持続 100
▁暖 100
▁そろっ 100
▁隠し 100
▁クロス 100
▁ゆかり 100
▁厘 100
▁感想 100
▁回数 100
▁槿恵 100
▁取ら 100
▁調子 100
▁フライト 100
▁法的 100
▁どんどん 100
▁★ 100
▁減らす 100
強い 100
▁文科 100
▁帰宅 100
▁玄関 100
▁県連 100
▁有料 100
▁追及 100
▁正常 100
▁ソーシャル 100
▁キロワット 100
▁mm 100
▁とう 100
▁店頭 100
▁肺 100
せつ 100
▁浮かべ 100
▁キャッチ 100
▁余裕 100
▁覇 100
▁味わ 100
▁沿い 100
▁古い 100
▁通販 100
▁とに 100
▁閲 100
▁センサー 100
▁コード 100
▁傷害 100
▁流れる 100
▁沸 100
イング 100
▁起業 100
ましい 100
▁だまし 100
▁奮 100
▁平日 100
▁起きる 100
▁渡し 100
▁線量 100
ーロ 100
ハラ 100
▁店内 100
▁ノート 100
▁とにかく 100
▁稽 100
▁ヒロ 100
▁南北 100
▁意外 100
ナラ 100
▁有志 100
▁稽古 100
▁リニュー 100
ロナ 100
▁要件 100
▁アカデ 100
▁卸 100
ゾン 100
▁くん 100
くま 100
▁西川 100
▁水素 100
ic 100
▁聴取 100
▁国籍 100
▁秩 100
▁かかり 100
▁税別 100
▁阻止 100
▁さいたま 100
▁東西 100
ッカ 100
▁与野 100
合わ 100
▁観点 100
▁リニューアル 100
▁停戦 100
▁おき 100
▁偉 100
▁移民 100
▁郊 100
▁長谷川 100
▁権力 100
▁関わっ 100
▁サムスン 100
▁肥 100
▁岸田 100
▁ツール 100
▁しば 100
▁異なり 100
切れ 100
▁見込ん 100
▁高松 100
▁横断 100
▁コラム 100
▁デー 100
▁郊外 100
▁先行き 100
▁挟 100
▁ドコモ 100
▁合っ 100
▁煮 100
▁気軽 100
▁率いる 100
▁動く 100
▁御嶽 100
▁予備 100
▁喫し 100
▁皇太子 100
送り 100
書き 100
▁サラ 100
▁与野党 100
▁PC 100
▁背負 100
▁過失 100
▁内定 100
▁フード 100
▁捨て 100
▁ファンド 100
▁業種 100
▁益 100
▁交差 100
▁閲覧 100
ッケージ 100
▁ウオ 100
▁強豪 100
ューサー 100
▁ディズ 100
▁見つかり 100
▁晴れ 100
▁他国 100
▁粘り 100
▁入力 100
▁実用 100
▁ディズニー 100
▁もっとも 100
▁聡 100
▁下り 100
▁パッケージ 100
▁数百 100
▁リハ 100
▁犯人 100
▁正午 100
クション 100
▁保証 100
▁無償 100
▁いったん 100
▁パレード 100
▁申し立て 100
▁具合 100
▁抱負 100
▁小泉 100
▁動い 100
▁大田 100
▁ロイヤ 100
▁歩く 100
▁押さ 100
▁医薬 100
▁据え 100
▁in 100
▁右翼 100
▁落語 100
▁特許 100
▁引き上げる 100
▁貨 100
▁はじ 100
▁退任 100
▁電機 100
▁一貫 100
エンス 100
▁買う 100
▁救出 100
▁IOC 100
ンニ 100
ac 100
▁後任 100
▁醸 100
▁慰霊 100
▁鮮明 100
▁見直す 100
▁日曜 100
▁クラシック 100
▁忍 100
▁並べ 100
▁習慣 100
▁石井 100
▁手掛ける 100
▁致死 100
▁プレス 100
▁☆ 100
▁篠 100
▁養殖 100
▁あろう 100
▁スクール 100
ルダン 100
▁涼 100
▁せん 100
▁オブ 100
▁ペア 100
▁うる 100
▁大陸 100
▁レンジ 100
▁妹 100
▁植え 100
▁複合 100
▁大気 100
テイン 100
▁テクノ 100
▁石垣 100
▁ケーキ 100
▁中島 100
▁生息 100
▁都心 100
▁加わっ 100
受け 100
▁メダ 100
▁控訴 100
▁切る 100
▁大雨 100
▁容器 100
▁住友 100
▁公立 100
▁実家 100
▁記述 100
▁エイ 100
▁上司 100
ホーム 100
プター 100
▁プロデューサー 100
▁原料 100
▁課税 100
▁循 100
▁窃 100
まれる 100
▁かな 100
ルド 100
▁線路 100
▁経由 100
▁有無 100
▁ポジ 100
▁着実 100
▁ボート 100
▁飲料 100
▁FR 100
▁処罰 100
▁セーブ 100
EL 100
▁全部 100
▁アルバム 100
▁おかげ 100
▁真剣 100
▁多彩 100
▁交え 100
▁萩 100
グラ 100
▁果たす 100
▁徒歩 100
▁壮 100
▁国営 100
▁大正 100
▁よれ 100
▁本番 100
▁迫ら 100
▁衛生 100
▁取り消し 100
▁ミャン 100
▁ベネ 100
▁所長 100
▁火力 100
▁西宮 100
▁ミャンマー 100
▁体操 100
▁ダム 100
▁工藤 100
▁着陸 100
▁工芸 100
▁整え 100
▁乗り越え 100
▁藤原 100
▁題し 100
▁初回 100
▁相互 100
▁迅 100
▁遺跡 100
▁ファースト 100
▁創出 100
▁乗務 100
▁呼ぶ 100
▁海域 100
▁熟 100
▁助成 100
▁追求 100
▁南海 100
▁小田 100
▁同省 100
▁方面 100
▁趣旨 100
ュアル 100
▁未遂 100
▁誤っ 100
▁歩み 100
▁決まり 100
▁ラーメン 100
▁まとめる 100
▁付属 100
▁ひとり 100
▁作用 100
モニー 100
▁集落 100
▁わび 100
▁旅館 100
▁仁川 100
▁入賞 100
▁スリ 100
▁育っ 100
▁繊維 100
▁タイムズ 100
▁つなぐ 100
エット 100
▁終わる 100
▁週末 100
▁政務 100
▁常務 100
▁循環 100
▁かき 100
▁改憲 100
▁剣 100
▁受付 100
▁振り返り 100
▁久保 100
▁ゆう 100
▁見舞 100
▁ドー 100
▁中山 100
▁送ら 100
▁グリ 100
▁願っ 100
▁県外 100
▁望む 100
▁究 100
▁出火 100
▁尽くし 100
▁書く 100
▁松田 100
▁辞職 100
▁支払う 100
▁次官 100
▁窃盗 100
▁クリエイ 100
▁見極 100
キスタン 100
ER 100
▁めざ 100
▁出展 100
▁アカデミー 100
at 100
わしい 100
▁ハー 100
▁EV 100
▁八十 100
▁ソース 100
▁強力 100
▁エンター 100
デス 100
▁満塁 100
▁損失 100
▁難航 100
▁サヨナラ 100
▁憧 100
▁部会 100
▁産地 100
▁駆けつけ 100
寄せ 100
▁泳 100
▁強める 100
▁落ち着い 100
▁メリット 100
▁党内 100
▁削除 100
▁軌道 100
▁税制 100
▁あわせ 100
▁小倉 100
▁班 100
▁開拓 100
▁見込む 100
▁警報 100
▁浄 100
▁金子 100
▁湿 100
▁鉱 100
▁わたる 100
▁ヨルダン 100
▁会い 100
▁改造 100
▁前進 100
▁関電 100
▁迅速 100
▁悠 100
▁ひな 100
当たり 100
▁展望 100
ナルド 100
▁実証 100
▁とどまる 100
▁虚偽 100
いは 100
▁隔 100
▁太鼓 100
▁しばらく 100
▁むしろ 100
▁到達 100
▁CS 100
▁ファミリー 100
▁兄弟 100
▁発掘 100
▁連日 100
▁達する 100
▁臨床 100
▁党首 100
▁無視 100
▁テキ 100
▁リベ 100
▁学会 100
▁粒 100
▁坂本 100
▁岳 100
▁みず 100
▁宜 100
▁着工 100
▁鎮 100
遂げ 100
▁断念 100
▁出来事 100
▁工学 100
▁沿線 100
サイト 100
▁近代 100
▁致し 100
▁ぶつ 100
▁北米 100
▁軟 100
こし 100
▁答弁 100
▁重傷 100
テインメント 100
▁民家 100
▁折り 100
▁たる 100
▁近藤 100
▁依然 100
▁エジ 100
▁庫 100
▁悔し 100
▁掛 100
▁勘 100
▁墜 100
▁ベルリン 100
▁正面 100
▁かい 100
▁勝手 100
▁好機 100
▁釜石 100
▁開票 100
▁コレクション 100
▁至る 100
▁補正 100
ストン 100
▁麻生 100
▁マツ 100
▁採決 100
▁当たり前 100
▁翌年 100
笠原 100
▁他人 100
▁丘 100
▁コロン 100
▁推計 100
ホン 100
しみ 100
▁一日 100
▁歩き 100
▁磐 100
▁缶 100
▁耕 100
▁所在 100
▁墜落 100
▁エピ 100
ヴァ 100
▁ショッピング 100
▁セント 100
▁知名 100
▁安藤 100
▁由来 100
▁避ける 100
▁無罪 100
▁特典 100
▁インフル 100
▁生涯 100
▁年代 100
▁あふれ 100
▁予告 100
▁休み 100
▁出品 100
▁キャンパス 100
▁介入 100
▁シンプル 100
▁豪雨 100
▁金正 100
▁領域 100
▁飾り 100
▁立ち入り 100
▁荷物 100
▁三百 100
▁フォーラム 100
▁桂 100
▁八幡 100
▁半径 100
▁宇都 100
▁至っ 100
▁遺棄 100
▁道具 100
▁脂 100
▁→ 100
▁均 100
▁牽 100
▁プラットフォーム 100
▁借金 100
▁花火 100
▁手掛け 100
▁飲ん 100
らさ 100
▁品種 100
▁同館 100
▁特区 100
▁あるいは 100
▁尊重 100
▁老朽 100
▁短期 100
▁モード 100
▁補償 100
▁言える 100
▁正規 100
▁居住 100
▁傍 100
▁減税 100
▁司会 100
▁さくら 100
▁作曲 100
▁実効 100
▁ゆる 100
▁先送り 100
▁之 100
▁Web 100
▁叫 100
▁広域 100
▁不振 100
▁言い渡し 100
▁短縮 100
▁黄色 100
▁ロケット 100
▁ダメ 100
▁夜間 100
▁取り付け 100
▁謙 100
▁心臓 100
▁エール 100
▁ギフト 100
▁溝 100
▁止まっ 100
リダ 100
▁謎 100
▁残す 100
▁恥 100
▁AT 100
▁身長 100
▁笑っ 100
▁人質 100
▁柿 100
ニチ 100
▁光景 100
▁容量 100
▁高官 100
▁入り口 100
▁大西 100
▁著者 100
ぎり 100
▁脚本 100
KA 100
▁インテ 100
▁徴 100
▁ルーム 100
▁あふれる 100
▁マド 100
ターン 100
▁d 100
▁やりとり 100
▁罰金 100
▁団地 100
▁巻き込ま 100
▁宇都宮 100
▁OS 100
▁あえ 100
▁マウンド 100
▁五百 100
抜け 100
▁柔軟 100
▁兵士 100
もう 100
▁伝わる 100
▁鈍 100
彫り 100
▁逃走 100
▁パレスチナ 100
▁手がけ 100
▁搭乗 100
▁出張 100
▁世話 100
▁言語 100
▁倫 100
▁特設 100
▁遼 100
▁堅持 100
ロジー 100
▁リズム 100
▁べく 100
▁鍛 100
▁理念 100
▁のぼ 100
▁はい 100
▁恋愛 100
アイ 100
▁本名 100
▁過剰 100
▁妖 100
▁合う 100
▁時速 100
どころ 100
▁中高 100
▁液晶 100
▁癒 100
▁ウォン 100
ディション 100
▁上院 100
▁打た 100
▁山頂 100
レイ 100
▁平年 100
▁禁じ 100
▁左翼 100
ter 100
▁エス 100
ージェ 100
▁小さく 100
▁囚 100
▁させる 100
▁見守っ 100
▁華やか 100
▁思想 100
▁連休 100
▁梨 100
▁アシ 100
▁入国 100
▁認証 100
▁砲 100
▁同大 100
▁村田 100
▁部長 100
▁バット 100
▁発達 100
ぶり 100
▁才 100
▁熱い 100
▁ムード 100
▁バッテ 100
▁踏ん 100
▁高浜 100
▁タワー 100
en 100
▁物流 100
▁討論 100
▁ラブ 100
▁ネイ 100
▁育てる 100
▁どころ 100
▁月額 100
▁勇気 100
ライト 100
▁理研 100
▁合わせる 100
▁俺 100
▁シカ 100
▁姫路 100
▁培 100
▁沼 100
▁騎 100
▁フロリダ 100
▁宮古 100
ゲット 100
バス 100
▁勧め 100
▁捉え 100
▁レシピ 100
▁気候 100
▁さっ 100
▁呼吸 100
▁法廷 100
ーンズ 100
早く 100
▁にじ 100
▁知的 100
▁斜 100
▁ボタン 100
▁ブレーキ 100
▁組ん 100
▁令 100
▁同区 100
▁もたらし 100
▁もつ 100
▁鼻 100
▁カブ 100
▁沿っ 100
▁給食 100
▁翁 100
▁利便 100
▁友好 100
▁グランド 100
▁離婚 100
▁絞り 100
▁なで 100
▁なさ 100
▁利上げ 100
なく 100
▁少数 100
▁追わ 100
▁わいせつ 100
▁パック 100
▁伝わっ 100
ゲン 100
▁出せ 100
▁高島 100
▁こども 100
▁名護 100
▁生まれる 100
▁減る 100
▁響い 100
▁断層 100
▁転じ 100
▁修復 100
ばす 100
▁地盤 100
▁耐震 100
▁強み 100
▁水位 100
▁ソックス 100
▁管内 100
ナミ 100
▁減らし 100
▁コロ 100
▁ちなん 100
▁モチーフ 100
▁吐 100
▁申し上げ 100
モンド 100
▁尋ね 100
▁動員 100
▁容易 100
▁審判 100
▁運ば 100
▁いわき 100
▁チョコレート 100
▁ツー 100
▁シア 100
▁あたっ 100
▁人道 100
▁南ア 100
▁ファイナル 100
▁笹 100
▁累計 100
▁監査 100
▁警官 100
▁張っ 100
リズム 100
▁共謀 100
▁中田 100
▁親族 100
▁左腕 100
▁リレー 100
▁崇 100
▁メダリスト 100
ぶさ 100
▁届か 100
フル 100
▁助言 100
▁上陸 100
▁走者 100
▁エジプト 100
▁塚 100
▁通う 100
つく 100
ークス 100
▁惑 100
▁申告 100
▁マッ 100
▁青山 100
▁ユニーク 100
▁あくま 100
▁ニコ 100
▁一帯 100
▁招き 100
ラシ 100
▁築い 100
▁物件 100
▁カウンター 100
▁地位 100
ビリ 100
▁正直 100
▁南西 100
▁リンク 100
▁下がっ 100
▁追っ 100
▁あくまで 100
▁物資 100
▁ヤフ 100
▁凝 100
▁他社 100
テナ 100
▁流さ 100
▁あし 100
ジーランド 100
▁参照 100
ラノ 100
▁北西 100
▁宮内 100
▁生地 100
▁GC 100
▁凍結 100
▁愛さ 100
▁声援 100
▁コンクリート 100
もの 100
▁会っ 100
▁投じ 100
▁最長 100
▁求刑 100
▁阪急 100
倒し 100
▁ニュージーランド 100
▁衰 100
▁com 100
▁スコット 100
▁気味 100
▁受講 100
ソード 100
▁もたらす 100
▁熱心 100
リンズ 100
▁倉庫 100
▁探査 100
▁稀 100
▁今秋 100
▁満了 100
▁ハーフ 100
▁HP 100
▁陰 100
▁ふん 100
▁同課 100
▁泥 100
▁おそ 100
▁ゴールデン 100
▁一塁 100
▁後輩 100
▁ストライ 100
▁割れ 100
とめ 100
▁ドローン 100
▁導体 100
▁ネタ 100
▁欲しい 100
マト 100
▁一昨 100
▁短い 100
▁大国 100
▁解禁 100
PS 100
▁煙 100
▁発想 100
ミネ 100
▁退け 100
▁リコール 100
▁鍋 100
▁公的 100
▁スウェー 100
▁エピソード 100
ファー 100
▁アジ 100
ぐる 100
▁田村 100
▁呉 100
▁手軽 100
▁スウェーデン 100
▁発注 100
▁受け入れる 100
▁インフルエン 100
▁スイーツ 100
▁デフレ 100
▁ジェット 100
▁渡っ 100
らめ 100
▁性格 100
▁頂点 100
▁すすめ 100
▁役立つ 100
勝ち 100
▁だい 100
り返し 100
▁大河 100
▁啓発 100
▁なれる 100
▁正月 100
▁残留 100
▁挙げる 100
替える 100
▁党派 100
▁シンポ 100
▁エキ 100
カス 100
▁だし 100
▁陶 100
▁菅原 100
▁最悪 100
だし 100
▁親しま 100
▁決済 100
▁DVD 100
▁全日 100
▁寂 100
▁両社 100
▁アクション 100
▁全身 100
▁集約 100
れき 100
▁メーン 100
▁天井 100
▁発着 100
▁蹴 100
▁直面 100
▁メイン 100
▁手作り 100
▁ピアノ 100
▁ユニホーム 100
▁セブン 100
▁演習 100
▁昨秋 100
▁製薬 100
▁リア 100
▁応用 100
ou 100
▁骨折 100
▁夕方 100
▁最速 100
▁GM 100
ah 100
▁ゴム 100
▁足元 100
▁精度 100
▁担っ 100
▁工作 100
▁飛ん 100
▁カネ 100
▁穏 100
▁両立 100
▁海水 100
▁競う 100
▁各党 100
▁八百 100
▁はね 100
▁新党 100
▁動機 100
▁大久保 100
ウッド 100
▁やっぱり 100
▁優しい 100
▁いける 100
▁ボウル 100
▁休日 100
ジウム 100
▁垂 100
▁下記 100
▁在宅 100
▁上演 100
▁健全 100
▁代打 100
ビン 100
▁事項 100
▁盛ん 100
▁老人 100
▁受給 100
▁北方 100
▁怪 100
▁練り 100
▁トロ 100
プス 100
▁愛称 100
▁親善 100
▁大きかっ 100
▁景色 100
▁公示 100
▁桑 100
▁蓮 100
▁下院 100
▁王座 100
▁住み 100
▁なじみ 100
▁ヴィ 100
▁聞こえ 100
▁税金 100
▁痛め 100
ミナル 100
▁強盗 100
▁諮 100
▁幅広く 100
▁浮かび 100
▁ターミナル 100
▁打つ 100
▁アマチュア 100
▁学年 100
焼き 100
▁もてなし 100
▁遠く 100
▁及ぼ 100
▁武田 100
▁掃除 100
▁握る 100
ほど 100
▁法務 100
▁棚 100
▁甘い 100
▁楽曲 100
つか 100
▁軽く 100
▁臨み 100
▁鮮やか 100
▁炭素 100
▁召 100
▁ヘリコ 100
▁分離 100
▁震源 100
ンマ 100
▁援助 100
▁志向 100
▁儀 100
▁にくく 100
▁菊池 100
▁食堂 100
エア 100
▁高等 100
▁懇談 100
et 100
▁水戸 100
ットル 100
▁補佐 100
▁絵本 100
▁融合 100
▁機動 100
▁高崎 100
▁わかる 100
▁燃え 100
▁ヘリコプター 100
▁忙 100
▁格安 100
▁シル 100
ネラル 100
▁灰 100
▁うつ 100
▁人手 100
ウィ 100
▁失わ 100
▁u 100
▁ぱ 100
▁フットボール 100
▁とどめ 100
▁振る舞 100
▁隊員 100
ダイ 100
▁割引 100
▁姉妹 100
▁クール 100
▁パク 100
▁賃上げ 100
▁猶 100
起こし 100
▁恵まれ 100
▁農産 100
ジェリア 100
▁焼け 100
▁保持 100
▁近鉄 100
▁テーブル 100
ルー 100
▁蒸気 100
▁思惑 100
▁翁長 100
▁インフルエンザ 100
ゼル 100
▁森林 100
抜き 100
▁貧困 100
行き 100
▁実戦 100
▁いまだ 100
▁則 100
▁家計 100
▁森田 100
▁託 100
▁うな 100
▁浅田 100
▁とらえ 100
▁琴 100
▁陥っ 100
▁つかん 100
▁沈没 100
▁外出 100
▁早大 100
▁品川 100
▁領海 100
▁高額 100
▁協同 100
▁柄 100
▁漁協 100
▁乗り出し 100
▁連動 100
▁預金 100
▁側面 100
▁名物 100
▁憧れ 100
▁TBS 100
▁店員 100
▁コントロール 100
しん 100
▁ロゴ 100
ブルク 100
▁一角 100
▁春日 100
▁女の子 100
ウェア 100
▁追い風 100
▁バルセ 100
▁たけ 100
▁回る 100
▁バルセロナ 100
▁無駄 100
▁先立ち 100
▁ピン 100
▁跳 100
▁両方 100
▁支社 100
▁こだわっ 100
▁閉じ 100
▁盛り込ま 100
▁省庁 100
▁古川 100
▁巡査 100
▁オペ 100
▁唱 100
▁獣 100
▁ゴールド 100
▁執筆 100
▁ナス 100
▁ラスト 100
▁総理 100
たら 100
▁覇者 100
▁耐え 100
▁疾患 100
▁来月 100
▁ビュー 100
▁駅前 100
▁興奮 100
▁スム 100
▁車線 100
▁反動 100
▁移し 100
▁減り 100
▁オート 100
▁芸人 100
OW 100
▁同一 100
▁換 100
▁たか 100
▁急い 100
▁戻り 100
AD 100
▁常識 100
▁町民 100
▁統括 100
▁新鮮 100
あい 100
▁試し 100
▁バッテリー 100
▁苦しい 100
▁コロンビア 100
▁伏 100
ョウ 100
▁総長 100
レーター 100
▁騒動 100
▁菌 100
▁交わし 100
▁名所 100
▁途上 100
▁やっと 100
▁招致 100
▁ヒロイン 100
▁歌う 100
▁ボトル 100
▁探る 100
▁拝 100
▁潮 100
▁見送っ 100
▁近郊 100
▁昨夏 100
▁取り締 100
▁階段 100
▁同氏 100
▁弥 100
▁返し 100
▁独占 100
▁もよう 100
▁文章 100
▁跡地 100
▁ウェブサイト 100
▁中堅 100
▁拳 100
▁力強く 100
▁乗る 100
▁グルメ 100
▁リットル 100
▁話し合い 100
振り 100
oo 100
▁待つ 100
BA 100
▁虫 100
▁いや 100
▁私立 100
▁課長 100
▁貨物 100
▁女流 100
▁バラエ 100
▁見合わせ 100
▁綱 100
▁開示 100
まさ 100
▁そろえ 100
▁メイ 100
▁稚 100
▁面接 100
▁盗ん 100
▁スタンプ 100
▁埋め立て 100
▁激化 100
もっ 100
PI 100
▁あお 100
ティック 100
▁好み 100
ジメント 100
▁落下 100
▁梅田 100
▁開館 100
▁ガン 100
スタイル 100
▁公安 100
▁家具 100
▁スケジュール 100
ノン 100
▁今週 100
▁相続 100
ベルト 100
▁族 100
▁いわゆる 100
▁辻 100
▁ワク 100
ナーズ 100
▁アウェー 100
▁高木 100
▁たば 100
▁小笠原 100
▁通話 100
▁バレーボール 100
▁ギャラリー 100
▁由紀 100
▁東海道 100
▁惑星 100
▁決着 100
▁近づく 100
▁cm 100
▁棒 100
▁抑止 100
▁明るく 100
▁かわいい 100
▁ヨーロ 100
▁マスター 100
▁トゥ 100
▁備える 100
▁孤立 100
▁任務 100
▁入所 100
▁電鉄 100
▁中核 100
▁猪 100
▁ボックス 100
▁にら 100
▁見事 100
▁白星 100
ite 100
▁ターゲット 100
▁釈放 100
▁巧 100
▁内田 100
▁採取 100
▁チーズ 100
▁夕刊 100
▁宜野 100
帰り 100
▁赤い 100
▁苦笑 100
▁ゾーン 100
▁睡 100
▁小中 100
▁残業 100
ナショナル 100
▁女川 100
▁返済 100
▁参戦 100
▁覚醒 100
▁コラボレーション 100
がき 100
▁立た 100
▁対局 100
▁ASE 100
▁品目 100
▁桁 100
▁刊 100
▁安く 100
▁猶予 100
▁歩行 100
▁富士通 100
▁シンポジウム 100
▁自立 100
▁酸化 100
▁狩 100
▁上原 100
▁帰り 100
▁主権 100
▁代替 100
▁レディ 100
▁土曜 100
▁放映 100
▁遮 100
▁飲酒 100
▁終戦 100
▁及ば 100
▁TEL 100
▁虎 100
▁サル 100
当て 100
▁相模 100
▁掲示 100
▁ダブルス 100
▁FRB 100
▁両氏 100
▁境内 100
レクター 100
▁繁殖 100
▁応じる 100
▁運ぶ 100
▁酒井 100
▁夏休み 100
▁貝 100
▁たばこ 100
▁刀 100
▁燃費 100
取ら 100
▁スパイ 100
▁名付け 100
▁ヨーロッパ 100
▁ハイテク 100
▁死因 100
▁座席 100
▁工程 100
フリカ 100
▁声優 100
▁苦手 100
かん 100
▁小山 100
▁ポルト 100
ボード 100
▁振っ 100
▁浮き彫り 100
▁渋滞 100
▁両者 100
▁けい 100
▁述べる 100
▁がれき 100
▁日系 100
▁星野 100
▁物理 100
▁消し 100
▁八戸 100
▁車体 100
▁空襲 100
▁繰り返す 100
▁掘り 100
▁中身 100
▁シャン 100
▁マスク 100
▁鑑賞 100
▁コピー 100
▁占拠 100
▁らしく 100
▁吉村 100
▁巨額 100
▁濃度 100
▁公正 100
▁マネジメント 100
▁紅白 100
▁根本 100
▁武蔵 100
▁受け継 100
▁突っ 100
▁ボーイング 100
の中 100
▁チャンネル 100
id 100
▁重く 100
▁参列 100
▁日清 100
そろ 100
▁アリーナ 100
▁南アフリカ 100
▁就航 100
▁抱い 100
▁ふさわしい 100
▁ローン 100
▁リサーチ 100
ベン 100
▁願う 100
▁定める 100
▁拡散 100
リーグ 100
▁コンクール 100
ばい 100
▁餌 100
▁弱い 100
ストロ 100
▁血液 100
▁石炭 100
▁ちょうど 100
▁マーリンズ 100
▁なあ 100
▁ポール 100
▁老舗 100
▁部員 100
▁通勤 100
▁シュー 100
▁ベッド 100
▁引い 100
▁統治 100
▁スンニ 100
▁ひろ 100
▁ぽ 100
▁加点 100
レンス 100
放し 100
▁オイル 100
▁スズ 100
▁おしゃ 100
エラ 100
▁世の中 100
ガニ 100
▁全域 100
▁夫人 100
ーバー 100
▁ケーブル 100
▁集合 100
▁テクノロジー 100
▁ワード 100
▁冷え 100
▁軽い 100
ナイ 100
▁ソング 100
▁刈 100
▁突入 100
ジット 100
▁パイプ 100
▁打球 100
▁両院 100
▁囲ま 100
▁睡眠 100
▁人類 100
▁恐怖 100
の里 100
ケイ 100
▁万全 100
▁伝説 100
▁屋外 100
▁抱き 100
▁学力 100
▁動かし 100
▁スイング 100
▁ファイル 100
▁クルマ 100
▁公民 100
▁すみ 100
▁喪主 100
▁入ら 100
▁スープ 100
▁手がける 100
▁ひっ 100
▁柔らか 100
▁也 100
ごと 100
▁当事 100
▁潜水 100
▁教職 100
リンク 100
▁ますます 100
▁挑発 100
▁桜井 100
▁見つめ 100
とし 100
▁本物 100
▁優位 100
▁正当 100
▁土俵 100
シスコ 100
▁祈り 100
▁適正 100
▁おしゃれ 100
▁帯び 100
▁公営 100
▁重量 100
▁落ち込ん 100
▁腐 100
▁オレンジ 100
▁代金 100
▁墨 100
▁紙面 100
▁エージェ 100
▁サプライ 100
▁表れ 100
▁ジム 100
▁不当 100
▁減速 100
▁払い 100
▁送信 100
▁リニア 100
▁磐田 100
ウンサー 100
がけ 100
▁必死 100
▁主役 100
▁大橋 100
▁過ごす 100
▁引き締め 100
▁構図 100
▁ストップ 100
▁晃 100
▁任命 100
▁行列 100
▁瑞 100
、4 100
▁3、4 100
▁風呂 100
▁滑り 100
▁携わっ 100
▁乾燥 100
▁国宝 100
▁麺 100
▁社団 100
▁絆 100
▁マウス 100
ッシャー 100
▁寄贈 100
am 100
▁カロ 100
▁ヒー 100
▁包括 100
そく 100
▁放棄 100
▁攻勢 100
▁甲府 100
▁祝日 100
▁有利 100
▁苦戦 100
▁アナウンサー 100
▁眺め 100
▁カップル 100
▁みそ 100
▁富岡 100
▁っぽ 100
▁動か 100
▁はやぶさ 100
▁ジャンル 100
▁TV 100
▁雑貨 100
▁こなし 100
▁棋士 100
▁中盤 100
▁大雪 100
▁旬 100
▁ランナー 100
▁激励 100
▁崩し 100
▁盆 100
▁雷 100
▁高騰 100
▁寄与 100
ッセル 100
▁よろ 100
▁迫力 100
▁JAL 100
▁ご飯 100
テッド 100
▁近づい 100
▁管区 100
▁畳 100
▁味わっ 100
ーキング 100
el 100
▁階級 100
▁セール 100
スティバル 100
シャン 100
▁古墳 100
▁モニター 100
▁話し合う 100
▁バージ 100
▁カジ 100
▁カイロ 100
▁モール 100
▁諮問 100
▁エク 100
▁記さ 100
▁テン 100
▁刑務 100
▁放ち 100
▁坂井 100
▁見逃 100
▁利回り 100
▁手渡し 100
▁スキル 100
▁ASEAN 100
▁合唱 100
▁一段 100
▁役場 100
▁損傷 100
▁賛同 100
▁惨 100
▁図り 100
▁操業 100
▁巣 100
▁合戦 100
▁たたき 100
▁撮っ 100
▁歌っ 100
▁追い込ま 100
▁一家 100
▁クルーズ 100
▁爆弾 100
▁せっ 100
▁還 100
▁自慢 100
▁高かっ 100
▁マネジャー 100
▁在籍 100
▁稀勢 100
▁ロング 100
▁稀勢の里 100
▁翻訳 100
HO 100
▁聴い 100
▁ポー 100
さっ 100
▁吸収 100
▁農地 100
▁聞き取り 100
▁仲介 100
▁配分 100
兵衛 100
▁宮里 100
▁小屋 100
▁エンジニア 100
▁捕獲 100
▁ハリウッド 100
▁トマト 100
▁実習 100
違い 100
▁小渕 100
▁出動 100
▁古代 100
▁著名 100
▁¥ 100
▁サーバー 100
▁パキスタン 100
▁貯蔵 100
▁伴っ 100
▁定番 100
▁知恵 100
▁アスリート 100
▁モー 100
▁伊東 100
▁全額 100
ダム 100
ハイ 100
▁公平 100
▁不法 100
▁本土 100
▁竹内 100
▁模型 100
▁届く 100
▁村井 100
▁にぎわっ 100
▁マーケット 100
▁放つ 100
だん 100
▁積み重 100
▁石破 100
▁通学 100
▁半身 100
▁アラブ 100
テーション 100
▁くま 100
▁年少 100
▁添え 100
▁原点 100
▁滑走 100
▁遭っ 100
▁着物 100
▁インターナショナル 100
▁負わ 100
▁iPS 100
▁造り 100
▁駿 100
グル 100
▁増す 100
▁載せ 100
▁野生 100
▁王子 100
▁都合 100
▁人員 100
のり 100
やり 100
▁セキュリティ 100
ャーズ 100
▁就活 100
▁ナショナル 100
▁辞め 100
▁リハビリ 100
払い 100
▁起こす 100
▁石田 100
リード 100
▁朗 100
一人 100
▁まん 100
▁ポジション 100
▁作製 100
▁彫 100
▁歩道 100
サイ 100
▁従事 100
▁引き出し 100
ビング 100
▁ふく 100
▁クリミア 100
▁しろ 100
▁市川 100
▁役者 100
▁一人一人 100
▁台北 100
▁渡り 100
▁しゅ 100
▁市中 100
▁愛好 100
▁ミラノ 100
▁値上がり 100
▁物産 100
▁妙 100
ベート 100
▁機内 100
▁毒 100
▁WE 100
▁評判 100
▁輝く 100
▁養成 100
セフ 100
▁来店 100
▁祥 100
st 100
▁次男 100
▁襲わ 100
▁スポンサー 100
▁出雲 100
プレー 100
▁先物 100
▁創作 100
▁航行 100
▁乃 100
▁あえて 100
コク 100
▁斉藤 100
▁脱却 100
▁役立て 100
▁先駆 100
下がり 100
▁軽量 100
▁時刻 100
▁悔しい 100
▁h 100
▁画家 100
▁生じる 100
▁給付 100
▁ついに 100
▁レッ 100
▁単純 100
▁メド 100
▁起こっ 100
▁シンボル 100
▁セレモニー 100
▁楽器 100
▁前職 100
ソー 100
タイ 100
▁AL 100
▁平壌 100
▁志摩 100
▁松島 100
▁淡路 100
たし 100
カラ 100
▁いこう 100
▁芽 100
チック 100
▁ティー 100
しこ 100
▁ロケ 100
▁高田 100
▁倫理 100
▁デバイス 100
▁庄 100
▁名簿 100
ショップ 100
▁尼 100
▁除去 100
▁カーブ 100
▁授賞 100
oku 100
▁共感 100
▁ソン 100
▁経産 100
▁転倒 100
▁根強い 100
▁ハイブリ 100
▁ドリ 100
▁喫煙 100
▁越前 100
▁気付い 100
▁家康 100
▁ビジョン 100
▁間に 100
▁呼びかける 100
▁アカウント 100
▁きり 100
▁著作 100
付き 100
▁運休 100
▁立体 100
ータル 100
▁ライフスタイル 100
▁佑 100
▁除い 100
エー 100
▁合理 100
▁飯田 100
▁クマ 100
▁落札 100
▁加える 100
▁生かす 100
▁毎回 100
▁評論 100
▁ずれ 100
▁地帯 100
▁ステップ 100
▁ストリート 100
▁全日空 100
▁構内 100
▁喚 100
▁飛躍 100
ービー 100
▁海底 100
▁響き 100
▁グラス 100
▁流入 100
▁しも 100
▁刃物 100
▁ディー 100
▁マネー 100
▁フロント 100
▁デイ 100
▁平安 100
al 100
▁官僚 100
▁ログ 100
まつ 100
▁アルコール 100
せん 100
ゴル 100
▁先着 100
▁フェスティバル 100
▁動作 100
▁トレンド 100
▁ほん 100
▁コール 100
▁筋肉 100
▁飼い 100
▁九十 100
▁宜野湾 100
▁教職員 100
▁フォーム 100
▁協賛 100
▁ストレート 100
▁バンコク 100
▁バブル 100
▁後方 100
なす 100
▁内訳 100
▁税込み 100
▁垣 100
▁集客 100
▁笑み 100
▁ハイブリッド 100
▁マイク 100
トリ 100
▁つらい 100
▁ピース 100
▁存続 100
▁サントリー 100
▁上手 100
▁オーク 100
▁売り場 100
▁在日 100
▁軽傷 100
nd 100
▁たたえ 100
▁充てる 100
▁標的 100
▁プラザ 100
▁タイヤ 100
▁ヴァ 100
▁自覚 100
▁思い出し 100
▁コンパクト 100
フラン 100
▁込む 100
▁術 100
▁停電 100
ネスコ 100
▁不在 100
▁担い 100
▁撤廃 100
▁聯 100
▁直樹 100
▁昆 100
デー 100
▁絵画 100
▁怠 100
▁ベア 100
ジン 100
▁駆使 100
▁高岡 100
▁テープ 100
▁好投 100
日市 100
▁南米 100
▁ろう 100
▁同党 100
ナギ 100
▁ポリ 100
▁家事 100
▁舛 100
▁及ん 100
▁三陸 100
OM 100
▁誤解 100
バラ 100
▁題材 100
▁岩田 100
▁特例 100
▁任せ 100
▁映し 100
▁ユネスコ 100
ンコ 100
▁収納 100
心地 100
▁つま 100
▁双葉 100
▁規則 100
▁冨 100
▁中前 100
▁停車 100
▁同居 100
▁漬 100
切ら 100
▁みや 100
▁プロモ 100
▁起こる 100
▁抜く 100
▁銃撃 100
▁ホル 100
▁祝い 100
▁酒造 100
▁渡航 100
▁八木 100
▁安値 100
▁得票 100
▁本日 100
▁およそ 100
ラックス 100
▁続伸 100
▁吉野 100
▁県議 100
▁売る 100
▁目玉 100
ーマン 100
▁言論 100
▁ちゃんと 100
▁イノベーション 100
▁破綻 100
よいよ 100
▁いよいよ 100
▁英樹 100
三塁 100
▁飛び出し 100
▁行進 100
▁隙 100
▁比べる 100
▁クレジット 100
のぼ 100
▁納税 100
リアム 100
シス 100
▁ジャイア 100
▁ヒーロー 100
▁成り 100
すぐ 100
▁併せ 100
▁堅調 100
▁スロー 100
▁体感 100
▁伊豆 100
▁停滞 100
▁同局 100
▁陸軍 100
▁食感 100
▁撮り 100
ad 100
▁大塚 100
▁説得 100
▁たとえば 100
▁ろ 100
▁向かい 100
▁歯止め 100
▁大宮 100
▁栗原 100
▁贈る 100
▁驚く 100
▁祝福 100
▁南東 100
▁違憲 100
ダック 100
▁バレ 100
▁クオーター 100
▁オーストリア 100
▁任意 100
▁緩やか 100
▁力士 100
▁招く 100
▁解任 100
すが 100
▁サロン 100
▁違和 100
▁金曜 100
▁上級 100
▁駆け込み 100
▁能登 100
▁見極め 100
▁イニング 100
▁ビーチ 100
▁分裂 100
▁ポーズ 100
▁w 100
▁湧 100
▁ポルトガル 100
▁輝き 100
▁熊谷 100
▁強硬 100
▁美し 100
▁はるか 100
▁貞 100
▁横山 100
ナップ 100
▁予報 100
▁スクリーン 100
▁脅迫 100
▁織り 100
下げる 100
▁DNA 100
▁毅 100
▁全線 100
▁同法 100
▁買わ 100
▁座っ 100
▁タウン 100
ュン 100
▁霊 100
▁早め 100
▁水泳 100
▁堪 100
▁登校 100
▁放題 100
▁向い 100
▁盛り込む 100
▁白石 100
▁同性 100
▁演劇 100
▁岡本 100
▁触れる 100
▁盤 100
▁箱根 100
▁開店 100
▁米田 100
▁敗戦 100
▁雌 100
▁中華 100
▁確信 100
▁国体 100
▁西村 100
▁進ま 100
▁てん 100
▁園児 100
▁原田 100
▁スピーチ 100
▁site 100
▁就い 100
▁濃厚 100
▁諦 100
▁混ぜ 100
▁秋山 100
▁レンズ 100
▁手前 100
▁学長 100
▁国有 100
ッタ 100
▁空母 100
▁kah 100
、2 100
▁1、2 100
付い 100
▁ダン 100
▁前橋 100
▁kahoku 100
▁識 100
-- 100
▁鋼 100
▁コマ 100
▁景観 100
▁ピンチ 100
▁移り 100
▁公益 100
▁同店 100
▁補強 100
止める 100
▁土産 100
▁こぼ 100
▁行か 100
▁ミュージカル 100
▁取り扱い 100
▁税収 100
▁両市 100
▁美味 100
▁上回り 100
▁手間 100
▁びっくり 100
▁黒い 100
▁終える 100
▁使命 100
▁郷土 100
▁帝国 100
▁前倒し 100
▁スムーズ 100
はや 100
▁拡張 100
▁疑わ 100
▁全然 100
▁店長 100
▁ポート 100
▁嶋 100
▁反撃 100
▁大い 100
▁フィン 100
▁ドライブ 100
▁片山 100
▁漢字 100
▁たど 100
暮らし 100
▁前面 100
じん 100
▁主任 100
▁復元 100
▁有罪 100
▁乱れ 100
チェスター 100
▁村山 100
▁性的 100
▁奪う 100
▁ガザ 100
▁買い取り 100
▁たん 100
▁たどり 100
なわ 100
▁実情 100
▁WEB 100
▁敵地 100
▁日大 100
▁樋 100
▁育英 100
▁同席 100
回し 100
▁パターン 100
▁無効 100
▁SU 100
▁恭 100
▁エクス 100
▁書き込み 100
▁募金 100
▁結束 100
▁出入り 100
▁うれしかっ 100
▁同紙 100
▁国王 100
ウロ 100
▁堂々 100
▁車種 100
▁≫ 100
▁戦術 100
▁運賃 100
▁遅く 100
▁幼い 100
▁モンゴル 100
▁正日 100
ジョ 100
▁亡くし 100
▁ほっと 100
▁らし 100
▁米紙 100
▁落選 100
ヴィ 100
▁北上 100
AR 100
▁賛否 100
ジラ 100
▁秩序 100
▁視線 100
▁マップ 100
▁プロモーション 100
▁魅了 100
▁生み出し 100
▁組み立て 100
▁世間 100
▁飯塚 100
タリー 100
▁見守る 100
▁休暇 100
▁動かす 100
▁内戦 100
▁ひき 100
▁篤 100
▁催し 100
▁賃貸 100
▁アブ 100
▁競泳 100
▁マドリード 100
▁歌い 100
せい 100
▁在庫 100
▁舛添 100
▁装着 100
▁がっ 100
▁漁師 100
▁表し 100
▁会津 100
▁踏み切っ 100
▁外し 100
▁火口 100
▁小売り 100
▁最小 100
▁親方 100
▁ツリー 100
▁ヌ 100
▁台頭 100
▁広瀬 100
▁会期 100
▁混入 100
▁控える 100
フィック 100
▁数千 100
▁キング 100
渡さ 100
▁不信 100
▁告げ 100
▁開花 100
▁計測 100
メートル 100
▁年俸 100
▁In 100
▁冷凍 100
▁珠 100
▁売ら 100
▁駆け付け 100
▁マンチェスター 100
▁区長 100
どん 100
▁支障 100
ティン 100
▁WBC 100
▁先日 100
▁浜田 100
▁松坂 100
▁宮本 100
▁嘆 100
▁マツダ 100
▁乏 100
▁だら 100
▁建屋 100
▁行け 100
▁ボディー 100
▁形状 100
▁氏名 100
▁療養 100
▁県庁 100
▁プレーヤー 100
▁座長 100
▁棄却 100
▁深める 100
▁コンサルティング 100
▁道内 100
▁年々 100
▁北側 100
▁ドリンク 100
▁日朝 100
▁見舞わ 100
▁ユニバー 100
▁伊達 100
しめ 100
▁四百 100
▁目線 100
▁帽 100
▁宮沢 100
▁総連 100
▁属 100
▁売っ 100
▁確率 100
▁高台 100
▁列島 100
▁側近 100
▁成年 100
▁真実 100
▁ガーデン 100
▁上方 100
▁兆し 100
▁穏やか 100
▁コスプレ 100
▁バレン 100
▁はん 100
▁税抜 100
田谷 100
▁世田谷 100
オル 100
▁封じ 100
▁こん 100
▁ケリー 100
▁引く 100
▁積ん 100
▁二千 100
▁押し上げ 100
▁アマゾン 100
▁評議 100
▁暴風 100
▁南京 100
▁パト 100
▁手数 100
▁江東 100
▁ID 100
▁絶滅 100
▁コイン 100
▁年寄り 100
▁連行 100
▁ディレクター 100
▁空き家 100
▁洪 100
▁出迎 100
▁点灯 100
▁配合 100
▁SL 100
▁検定 100
▁表記 100
▁ソチ 100
▁プロフィ 100
▁バリ 100
▁皇室 100
▁小中学 100
▁差し止め 100
▁再選 100
▁該 100
▁洞 100
▁新年 100
▁ブラン 100
▁院長 100
▁狂 100
プション 100
▁ワークショップ 100
▁天気 100
▁シンク 100
▁ありがたい 100
▁魂 100
▁ぴったり 100
▁反日 100
▁うどん 100
▁月曜 100
▁ドキュ 100
▁≪ 100
▁該当 100
▁受診 100
▁局面 100
▁工房 100
▁教材 100
▁祖母 100
▁競合 100
▁一瞬 100
▁冷蔵 100
▁伸び悩 100
▁一夜 100
▁味方 100
▁天神 100
▁斗 100
▁僧 100
▁卓球 100
▁漁港 100
遣い 100
▁中西 100
▁靖国 100
団連 100
▁経団連 100
▁水道 100
▁フィル 100
▁シド 100
▁伊賀 100
▁船長 100
▁巡視 100
▁有機 100
▁生存 100
▁藤本 100
▁苦しん 100
▁スコットランド 100
▁握っ 100
▁扉 100
▁徳川 100
▁戦国 100
▁ダル 100
▁大胆 100
▁文雄 100
▁ウル 100
▁ナビ 100
▁蓄積 100
▁持ち味 100
▁ランチ 100
▁囲碁 100
▁泣き 100
▁戦前 100
▁いくら 100
▁押収 100
▁パット 100
▁ばら 100
▁官民 100
▁通商 100
▁速やか 100
▁レンタル 100
▁駅伝 100
▁離党 100
▁レール 100
▁佐世 100
▁つなぎ 100
▁佐世保 100
▁プライベート 100
▁定義 100
入っ 100
▁困っ 100
▁塗り 100
▁和食 100
▁ダイヤモンド 100
じり 100
▁芝居 100
須賀 100
▁講義 100
▁抜本 100
▁扇 100
カイ 100
▁キャスト 100
▁目安 100
▁筆頭 100
▁ウィリアム 100
▁ガイドライン 100
▁妖怪 100
▁洗濯 100
▁ブルペン 100
▁民営 100
▁県警 100
ディネ 100
だい 100
▁アメリカン 100
▁ブリュ 100
▁汚職 100
▁職務 100
▁爽 100
▁事案 100
▁正義 100
▁風味 100
▁苗 100
▁市営 100
▁標高 100
▁怖い 100
▁教会 100
▁特化 100
▁炊 100
▁プレッシャー 100
▁ポケット 100
▁休止 100
▁だん 100
▁ひど 100
▁なでしこ 100
▁取り出し 100
▁ランニング 100
▁ヶ 100
▁安田 100
ばん 100
▁柴田 100
▁スズキ 100
次郎 100
▁大山 100
▁近江 100
▁刷 100
▁店主 100
▁寮 100
▁有数 100
ストラ 100
▁チャンピオンズ 100
ーナス 100
▁クリントン 100
▁ロス 100
▁ヒト 100
▁PP 100
▁量産 100
▁川口 100
▁楽しめ 100
▁ビック 100
▁フォト 100
▁セキュリティー 100
▁波及 100
▁針 100
▁シェフ 100
▁ハート 100
▁さらさ 100
▁清掃 100
▁鳩 100
▁とどまり 100
▁特長 100
▁なに 100
▁谷垣 100
▁大勝 100
▁彦根 100
il 100
▁エージェント 100
▁MV 100
▁秀吉 100
▁朋 100
ドラ 100
▁因 100
▁在り 100
コー 100
▁人件 100
DI 100
▁鎌倉 100
▁つれ 100
▁値下がり 100
PIX 100
▁危惧 100
▁回し 100
▁プロセス 100
▁キス 100
▁朝方 100
▁死傷 100
▁暴走 100
▁TOPIX 100
んぼ 100
▁中古 100
▁出会っ 100
▁日光 100
▁関わり 100
▁失業 100
▁勤め 100
▁がんば 100
▁発進 100
▁信託 100
▁初心 100
▁悩ん 100
▁旭川 100
▁梅雨 100
▁ボル 100
▁ゲート 100
▁水揚げ 100
▁クラフト 100
▁共闘 100
▁恋人 100
▁摂取 100
▁死体 100
▁チラシ 100
▁リーマン 100
▁福山 100
▁尼崎 100
▁考案 100
▁豪州 100
▁食べ物 100
wit 100
▁疎 100
▁大輔 100
▁弊 100
▁宴 100
▁憤 100
▁プリント 100
▁宛 100
▁鳥栖 100
▁切符 100
▁ベルト 100
▁性別 100
▁期日 100
▁案件 100
▁UR 100
▁キュ 100
▁挑ん 100
▁呼び掛ける 100
▁水俣 100
▁祈願 100
▁強行 100
▁褒 100
▁遠征 100
▁賄 100
▁庭園 100
▁規格 100
▁積み重ね 100
▁河村 100
ージュ 100
ミュ 100
▁QU 100
▁懸け 100
▁視覚 100
▁取り戻し 100
▁チリ 100
▁楽しかっ 100
▁芦 100
▁ヘア 100
▁脱出 100
▁偶 100
ロス 100
▁ペー 100
▁一言 100
▁皇居 100
▁届ける 100
▁反落 100
▁御所 100
ウォ 100
▁衆参 100
▁船舶 100
▁まさか 100
▁年始 100
AP 100
▁ウェイ 100
▁寄り添 100
▁疲労 100
▁CC 100
▁きっと 100
▁戸惑 100
▁つない 100
▁悪質 100
▁余儀 100
▁南三 100
▁南三陸 100
ッパー 100
▁ひょう 100
▁西側 100
▁サンケイ 100
▁倒壊 100
▁優子 100
▁ハル 100
▁バラエティー 100
▁完封 100
▁舌 100
▁すり 100
▁フィルム 100
▁中毒 100
▁ものづくり 100
▁言動 100
▁キッチ 100
▁生き残 100
▁一員 100
▁出国 100
▁賭 100
▁ウナギ 100
▁刺さ 100
▁用途 100
▁ハードル 100
▁マス 100
▁なさい 100
▁エントリー 100
▁主流 100
▁参り 100
ログ 100
▁全勝 100
ッキング 100
▁譲渡 100
▁土屋 100
▁堪能 100
▁家屋 100
▁キリスト 100
▁修了 100
▁マグロ 100
ICK 100
▁次元 100
▁PS 100
▁情熱 100
▁法王 100
▁佐野 100
▁取り締まり 100
▁せよう 100
▁シリ 100
▁下村 100
▁じっくり 100
▁生み出す 100
▁リング 100
▁いきなり 100
▁マルチ 100
▁ふた 100
▁裏付け 100
▁春季 100
▁生態 100
▁ポル 100
▁ヤマハ 100
▁大いに 100
▁講習 100
▁質疑 100
▁熱中 100
▁いん 100
▁才能 100
▁包丁 100
▁手口 100
▁改装 100
▁おいし 100
▁コーディネ 100
▁中期 100
▁導い 100
▁政調 100
▁解雇 100
▁マリン 100
▁緊迫 100
▁制球 100
▁機運 100
▁加わる 100
▁申し出 100
▁試食 100
▁奪還 100
▁奉納 100
▁乗り出す 100
▁聯合 100
▁除き 100
▁郡山 100
▁原稿 100
▁赴 100
▁没 100
▁抜群 100
▁多発 100
▁ジャズ 100
▁不調 100
▁寸 100
▁竹島 100
▁続々 100
▁もはや 100
▁プレート 100
▁仮想 100
▁婦人 100
▁レジ 100
▁取れる 100
▁シドニー 100
▁望ん 100
▁ベイ 100
▁録音 100
▁降っ 100
▁笠 100
▁努める 100
▁満ち 100
▁水面 100
▁施し 100
▁一括 100
▁答える 100
▁発動 100
▁胃 100
▁やれ 100
▁錯 100
▁築地 100
▁散歩 100
▁昼食 100
ヘン 100
▁こい 100
▁しょ 100
▁椅 100
▁レンジャーズ 100
▁小幅 100
▁覆わ 100
▁来週 100
▁欠席 100
▁下回る 100
▁キッチン 100
▁強風 100
▁立法 100
ラビア 100
▁ナスダック 100
▁タンパ 100
witter 100
▁技能 100
▁コム 100
▁過酷 100
▁宮城野 100
▁明かす 100
▁創立 100
▁コミック 100
▁転職 100
▁シャル 100
▁大社 100
▁対外 100
▁政令 100
▁わたし 100
▁探す 100
▁射殺 100
▁めざす 100
▁受け取る 100
▁混雑 100
▁労組 100
▁放火 100
▁師匠 100
▁なくなる 100
▁早急 100
▁誘っ 100
▁椅子 100
▁合い 100
センス 100
▁課程 100
トム 100
強く 100
▁山岳 100
▁ロビー 100
▁休憩 100
▁白山 100
▁教える 100
▁翼 100
▁参画 100
▁スライダー 100
▁のり 100
▁我慢 100
レッジ 100
▁体長 100
▁信長 100
▁手順 100
▁通る 100
▁渡部 100
▁余地 100
▁薩 100
▁釧 100
▁いら 100
▁コンビニエンス 100
▁じょう 100
▁テキサス 100
▁宅配 100
▁思える 100
▁零 100
、3 100
▁ふう 100
▁2、3 100
▁フィールド 100
▁歌劇 100
▁試作 100
▁就業 100
▁道筋 100
▁チャー 100
▁敬称 100
▁アプロ 100
▁欠場 100
▁早けれ 100
▁贈っ 100
▁高原 100
▁後期 100
▁頻繁 100
▁出口 100
▁豊洲 100
▁OK 100
▁絡み 100
▁セク 100
▁展覧 100
▁商事 100
▁遅い 100
▁アプローチ 100
かしく 100
▁京大 100
▁バッ 100
▁遊ん 100
▁藍 100
▁周知 100
▁三木 100
▁甘利 100
▁就労 100
▁美しく 100
▁従っ 100
▁住まい 100
わさ 100
▁向こう 100
▁審理 100
▁菅野 100
パール 100
▁倍率 100
▁傾け 100
▁心境 100
▁共催 100
▁諦め 100
稲田 100
モア 100
▁入山 100
▁実業 100
▁仕入れ 100
▁ブリュッセル 100
▁彰 100
▁エッセ 100
▁玲 100
▁和平 100
▁杏 100
▁協調 100
サリー 100
▁悲しみ 100
▁琉 100
▁悟 100
回っ 100
▁資材 100
▁矛 100
▁タオル 100
▁繰り返さ 100
リフ 100
ベット 100
▁づける 100
▁マスコミ 100
▁外観 100
▁アプリケーション 100
▁奇跡 100
▁斜面 100
▁新入 100
▁拾 100
▁据え置 100
▁又 100
▁QUICK 100
▁ドン 100
▁激戦 100
ザン 100
▁先週 100
▁分散 100
▁名目 100
▁シネ 100
▁大地 100
▁苦しみ 100
▁捕鯨 100
▁舎 100
▁克服 100
▁金銭 100
▁力強い 100
▁朱 100
▁劇団 100
▁政界 100
▁みよう 100
▁恐竜 100
▁ポロ 100
セラ 100
ークル 100
▁土壌 100
▁家宅 100
▁ジョージ 100
▁臭 100
▁鄭 100
▁常任 100
▁JT 100
▁代わっ 100
▁琵 100
▁琵琶 100
▁衣料 100
▁贈呈 100
▁前身 100
▁誤り 100
▁横ばい 100
ぶん 100
▁ベビー 100
▁住居 100
▁建て替え 100
アラ 100
江田 100
▁FAX 100
▁海江田 100
▁アキ 100
▁手伝い 100
▁四日市 100
之助 100
▁手当 100
イカ 100
▁へん 100
▁早稲田 100
▁圧勝 100
▁松江 100
▁BS 100
▁薄い 100
▁黒人 100
▁穂 100
▁高層 100
がて 100
▁回線 100
▁躍進 100
▁市政 100
▁プロデュース 100
▁弦 100
調べ 100
▁すば 100
▁シナリオ 100
▁両手 100
▁幸福 100
▁縫 100
▁藤沢 100
▁昇進 100
▁ケン 100
▁東山 100
▁けん引 100
▁井戸 100
▁一転 100
エネ 100
寄っ 100
▁気づい 100
▁詰まっ 100
▁細野 100
▁登壇 100
▁離島 100
▁飛ぶ 100
▁ポップ 100
▁大崎 100
▁ギター 100
▁急激 100
▁器具 100
▁特性 100
▁倍増 100
▁屋上 100
▁繁華 100
▁狭い 100
▁ボン 100
▁領有 100
▁平田 100
▁習氏 100
▁だまし取っ 100
▁重ねる 100
▁直線 100
▁あらか 100
▁妥当 100
▁分割 100
▁右足 100
▁ジュネ 100
▁おかしい 100
▁やがて 100
▁ターン 100
しょ 100
▁防護 100
▁皮膚 100
返り 100
▁内陸 100
▁百合 100
▁粒子 100
▁にじま 100
▁否決 100
▁刊行 100
▁妃 100
ろい 100
▁安否 100
▁県内外 100
▁ノン 100
▁発送 100
▁膝 100
▁とく 100
▁及ぼす 100
▁辰 100
▁尽力 100
▁コミュニティー 100
▁化石 100
高田 100
▁武藤 100
▁リラックス 100
▁対日 100
▁サンゴ 100
▁本音 100
▁学芸 100
勝っ 100
▁田辺 100
▁間近 100
▁館長 100
▁ライス 100
▁満たし 100
▁路面 100
▁くす 100
▁ベン 100
▁ミュージック 100
▁テント 100
▁侵略 100
▁フルーツ 100
▁多摩 100
▁やろう 100
▁あらかじめ 100
▁付加 100
てき 100
▁那須 100
▁AF 100
▁SM 100
▁直人 100
動き 100
▁バトル 100
▁社説 100
▁幾 100
▁省エネ 100
▁凶 100
▁無死 100
▁移っ 100
▁出迎え 100
▁ユース 100
▁休養 100
▁笑う 100
▁ちゃう 100
▁健二 100
▁巡回 100
▁契機 100
ルツ 100
▁木曽 100
▁エンターテインメント 100
▁勝敗 100
▁飲む 100
▁取り戻す 100
▁続落 100
▁応える 100
▁本書 100
▁理化 100
▁出現 100
▁加わり 100
▁りん 100
▁預け 100
タント 100
▁ひた 100
▁改選 100
▁メイク 100
▁合成 100
▁値段 100
▁延伸 100
▁逃れ 100
▁ジャケット 100
▁喚起 100
レム 100
▁都民 100
▁鳩山 100
▁スプリ 100
▁チーフ 100
▁にぎわい 100
▁勲 100
▁餅 100
▁桐蔭 100
▁腫 100
かしい 100
▁若年 100
▁徴収 100
▁ジェイズ 100
▁アレンジ 100
▁机 100
▁実務 100
▁アサド 100
▁吸い 100
▁ブレーク 100
チア 100
▁やさ 100
▁名乗る 100
エスト 100
▁保つ 100
ap 100
▁整える 100
▁取り除 100
▁電波 100
▁遠い 100
▁レコード 100
▁ジャイアンツ 100
▁魔法 100
▁デュ 100
▁通訳 100
▁ジュネーブ 100
▁披露目 100
投げ 100
▁献金 100
▁霧 100
▁本質 100
▁立命 100
▁黄金 100
ch 100
▁奄 100
▁こま 100
▁配当 100
▁汁 100
▁投げる 100
▁加賀 100
▁奄美 100
▁かさ 100
▁営む 100
▁レーダー 100
▁サウジア 100
落ち 100
▁多額 100
▁悲劇 100
▁本気 100
▁優遇 100
▁乗員 100
しくは 100
▁装飾 100
き出し 100
▁理化学 100
▁形態 100
▁かま 100
▁薩摩 100
▁釧路 100
▁頑張る 100
▁楽団 100
▁さすが 100
ook 100
▁積雪 100
▁ゼネラル 100
▁国税 100
▁筆者 100
イクル 100
ギリス 100
▁欄 100
▁克也 100
▁磨き 100
▁話し合っ 100
▁抹 100
▁インパクト 100
タイン 100
▁しゃべ 100
▁アテ 100
▁見い 100
▁少なかっ 100
▁空軍 100
▁強まり 100
めん 100
やす 100
▁告白 100
▁遺骨 100
プレス 100
▁日本橋 100
▁親露 100
▁青い 100
▁呈 100
▁休館 100
くっ 100
▁おっ 100
lu 100
▁体質 100
▁内外 100
▁島田 100
▁無形 100
▁厳格 100
▁彫刻 100
▁戻し 100
▁取り調べ 100
ファレンス 100
▁磯 100
▁定年 100
▁つる 100
▁レア 100
▁古く 100
▁うかがえる 100
▁エンタ 100
▁支払っ 100
▁盛り上がり 100
ばく 100
▁安佐 100
▁ブライ 100
▁ECB 100
▁蒲 100
▁出かけ 100
▁越し 100
▁ライター 100
▁先駆け 100
▁サブ 100
▁Twitter 100
▁カテ 100
▁欠陥 100
▁遠隔 100
▁細川 100
▁カンパ 100
▁カツ 100
▁集結 100
まとめ 100
▁支払わ 100
▁表す 100
▁取扱 100
▁ミキ 100
▁桐生 100
▁汚れ 100
リーブ 100
▁ダイオ 100
▁答申 100
▁温かい 100
▁戦時 100
▁数量 100
▁降る 100
▁法定 100
▁左前 100
▁名門 100
▁奮闘 100
▁曽 100
ヨン 100
リアン 100
▁月間 100
▁サークル 100
▁ロイヤルズ 100
▁リバ 100
▁東急 100
▁療法 100
▁知能 100
▁損壊 100
▁文庫 100
▁サウジアラビア 100
▁日航 100
ジョン 100
セット 100
▁さて 100
▁角度 100
▁握り 100
▁守ら 100
▁祭典 100
▁斬 100
▁三千 100
▁夕食 100
▁幼児 100
▁微妙 100
パウロ 100
▁ヒント 100
▁サンフラン 100
ay 100
▁IP 100
▁減額 100
▁上村 100
▁増強 100
▁咲き 100
▁受け取り 100
▁人種 100
▁厳重 100
▁授与 100
▁架空 100
▁部下 100
▁アドバイ 100
▁充て 100
▁警部 100
▁かし 100
▁本紙 100
▁強かっ 100
▁損益 100
▁適し 100
▁入れ替え 100
▁総括 100
▁丸山 100
▁受信 100
▁スイッチ 100
▁八重 100
▁スノー 100
▁ミラン 100
▁カト 100
▁国外 100
▁蚊 100
▁完璧 100
▁楽しま 100
▁スロ 100
▁媒 100
メンタリー 100
▁出生 100
▁送付 100
▁km 100
▁随時 100
▁学術 100
▁文言 100
▁神田 100
▁尽くす 100
▁サンフランシスコ 100
▁細かい 100
▁密着 100
▁キック 100
おい 100
▁幻想 100
▁失い 100
▁戦車 100
▁薬剤 100
▁みずほ 100
▁縄 100
▁イギリス 100
らせる 100
▁ごく 100
▁ドリーム 100
▁強烈 100
▁水分 100
レオ 100
▁理論 100
▁隠れ 100
▁飛ばし 100
▁降板 100
▁くじ 100
▁用地 100
▁平等 100
▁インテリア 100
▁シフト 100
▁好感 100
▁遺憾 100
▁エリ 100
▁薫 100
▁宇治 100
▁なくなり 100
▁通路 100
▁休業 100
▁外科 100
ニャ 100
コミ 100
SS 100
プレイ 100
▁ネパール 100
▁想い 100
ルン 100
▁ドラゴン 100
▁j 100
▁絶え 100
▁メカ 100
▁着目 100
▁試行 100
▁東大阪 100
▁あきらめ 100
▁侍 100
▁訳 100
▁後日 100
▁阿蘇 100
▁チップ 100
▁提唱 100
▁ポーランド 100
▁もみ 100
▁ナイジェリア 100
▁堤防 100
▁聖地 100
▁始動 100
DA 100
▁つり 100
▁算出 100
▁郵政 100
▁弟子 100
▁コンサルタント 100
▁土木 100
▁ふれ 100
▁推測 100
▁ワゴン 100
▁踏み切る 100
▁携わる 100
しか 100
▁つづっ 100
▁イー 100
▁赤坂 100
▁崎 100
▁今井 100
▁内側 100
▁溶け 100
二塁 100
▁直結 100
▁バージョン 100
▁カジノ 100
▁分類 100
▁担保 100
▁新築 100
▁ドキュメンタリー 100
▁水槽 100
▁経常 100
▁代々木 100
▁サンパウロ 100
戻し 100
▁あて 100
▁すき 100
▁着け 100
▁販路 100
▁鋭い 100
▁真摯 100
▁木材 100
▁脂肪 100
▁マイナー 100
▁発祥 100
▁培っ 100
▁添付 100
▁町田 100
ビッチ 100
▁ボーナス 100
▁f 100
▁奴 100
立た 100
▁配達 100
▁我が 100
▁武道 100
▁サンタ 100
▁整っ 100
▁マリナーズ 100
▁オーディション 100
▁カギ 100
▁寿命 100
▁膨らん 100
▁外食 100
▁菊地 100
▁つぶや 100
▁横須賀 100
▁背負っ 100
▁見守り 100
▁週明け 100
▁王国 100
▁究明 100
▁豊島 100
▁尻 100
▁潜在 100
▁レディース 100
▁部署 100
ぜん 100
▁四季 100
そか 100
▁機長 100
ss 100
▁インチ 100
▁おもしろ 100
▁NG 100
▁池袋 100
▁発光 100
▁引き継い 100
▁うた 100
▁履行 100
▁採算 100
ロイド 100
▁終始 100
▁浮かぶ 100
ッシング 100
▁ライセンス 100
▁連立 100
▁麻薬 100
▁慌 100
▁対面 100
▁カプ 100
▁成し 100
巻く 100
▁帰る 100
▁ユニバーサル 100
▁嘘 100
っぽ 100
▁熊野 100
らん 100
▁ゆえ 100
ージー 100
▁恩恵 100
▁走ら 100
わけ 100
▁かえ 100
起こす 100
本木 100
▁左足 100
▁シティー 100
▁嬉 100
差し 100
▁個々 100
▁皿 100
▁間違っ 100
▁もしくは 100
▁ミルク 100
▁さか 100
▁タグ 100
▁明大 100
▁下がる 100
▁慶応 100
▁職種 100
▁補給 100
▁偽造 100
▁名乗り 100
▁めで 100
▁ネク 100
▁空振り 100
▁早々 100
▁けん制 100
▁確かめ 100
▁KO 100
▁歴任 100
ナイテッド 100
▁バド 100
▁県政 100
▁間際 100
▁旨 100
▁訂 100
▁アレ 100
▁債権 100
▁いかが 100
▁一面 100
▁坪 100
▁ラス 100
フレット 100
▁次女 100
▁ソフトウェア 100
RI 100
▁漏らし 100
▁絡む 100
▁レッスン 100
▁遥 100
▁クア 100
▁カタール 100
▁下方 100
ニコ 100
▁地中 100
▁投下 100
▁歌詞 100
▁面倒 100
ネツ 100
▁カウント 100
ちに 100
▁訂正 100
▁ボストン 100
▁制約 100
▁大村 100
▁酔 100
▁打診 100
▁イケ 100
▁稲田 100
▁ユナイテッド 100
▁手配 100
▁ダイエット 100
ニスト 100
▁不全 100
▁失踪 100
▁欠い 100
▁失う 100
▁仮称 100
▁真央 100
▁年長 100
▁素直 100
▁液体 100
▁吉川 100
▁海峡 100
▁チェンジ 100
roid 100
▁NATO 100
▁牛乳 100
▁毀 100
ダヤ 100
ッポ 100
▁牛肉 100
▁祝う 100
▁講談 100
掛かり 100
▁マート 100
▁消火 100
▁心地 100
テナンス 100
▁磁 100
▁珍しく 100
▁エレクト 100
▁可愛 100
▁数え 100
▁都議 100
▁屋内 100
▁トラフ 100
▁適合 100
ッショ 100
▁よみ 100
▁土日 100
▁要する 100
がし 100
▁たった 100
▁見どころ 100
▁米韓 100
▁WHO 100
▁オープニング 100
▁箇 100
▁吹奏 100
▁エンド 100
▁通称 100
▁コミュニティ 100
▁じゅ 100
▁ドゥ 100
▁ラリー 100
▁マニュアル 100
▁例外 100
▁摩 100
カリ 100
▁殺し 100
▁真ん 100
▁フランク 100
▁接種 100
▁記入 100
▁締めく 100
▁木下 100
▁探っ 100
▁フィット 100
▁はがき 100
▁告別 100
▁接戦 100
▁難し 100
▁流す 100
▁脅し 100
ぼう 100
▁二階 100
▁朝食 100
▁盗塁 100
▁ミズ 100
ndroid 100
割り 100
▁不服 100
▁十字 100
▁悩む 100
▁監修 100
▁ジャー 100
たび 100
▁冒険 100
▁背後 100
▁通い 100
▁発令 100
▁攻守 100
レーン 100
▁カンファレンス 100
▁自営 100
▁受刑 100
▁米側 100
▁つくら 100
▁コウ 100
▁贈り 100
▁邦人 100
▁知り合い 100
▁ユダヤ 100
▁ナイン 100
▁籍 100
▁膨大 100
▁みれ 100
▁エキス 100
▁下げる 100
▁スカート 100
▁エコノミ 100
▁秋葉 100
▁半面 100
酒屋 100
▁速い 100
▁居酒屋 100
▁舟 100
▁功績 100
▁運命 100
がえ 100
▁上京 100
▁国語 100
▁最強 100
だち 100
▁出土 100
▁ポンド 100
▁落とす 100
▁レスリング 100
こち 100
▁エネ 100
▁数学 100
ビッシュ 100
▁絞っ 100
ピア 100
NG 100
▁良好 100
ニョ 100
▁ジオ 100
▁終わら 100
▁放出 100
▁騒ぎ 100
▁レク 100
▁明石 100
▁カブス 100
▁葵 100
わす 100
▁短く 100
▁船橋 100
▁ダルビッシュ 100
▁メンテナンス 100
▁ウィン 100
▁漆 100
▁相模原 100
▁シカゴ 100
▁琉球 100
▁バレエ 100
▁めい 100
▁Android 100
むね 100
積み 100
▁下関 100
▁ファー 100
▁マクド 100
▁命名 100
▁強まる 100
▁痕 100
▁一種 100
▁達也 100
▁換算 100
▁綿 100
▁住人 100
▁鍛え 100
▁BA 100
▁解剖 100
▁需給 100
▁やむ 100
▁年収 100
▁ナイフ 100
▁ミュージアム 100
▁移す 100
▁西田 100
▁プラスチック 100
▁甚 100
▁川島 100
ミントン 100
ion 100
▁掘削 100
▁間に合わ 100
▁嵐 100
▁海老 100
▁ハンドル 100
▁単なる 100
▁同会 100
▁分担 100
▁アレル 100
泳ぎ 100
▁地面 100
▁引き下げる 100
▁ES 100
▁手帳 100
▁歯科 100
ジック 100
▁アルミ 100
▁サイクル 100
▁ストレ 100
デター 100
▁取り込み 100
通り 100
▁松原 100
▁死ぬ 100
▁織田 100
▁ぐる 100
▁とれ 100
▁止める 100
▁吾 100
▁県道 100
▁真ん中 100
▁条項 100
▁注視 100
▁飼い主 100
▁生ん 100
▁同庁 100
▁引用 100
▁千歳 100
▁風評 100
▁市販 100
▁メルケル 100
▁KD 100
▁気合 100
▁久し 100
▁とどまら 100
▁IBM 100
▁ビザ 100
▁南相 100
▁受け付ける 100
▁アドバイザー 100
フィー 100
▁胴 100
▁憂 100
▁招集 100
▁うまい 100
▁フォル 100
▁大川 100
▁至ら 100
▁頼り 100
▁反する 100
▁揚げ 100
▁帽子 100
▁せよ 100
▁併設 100
▁喜ぶ 100
スル 100
▁上部 100
▁残高 100
▁水田 100
▁ビン 100
▁とりわけ 100
▁グレー 100
▁万博 100
▁青色 100
▁ウイグル 100
▁マスコット 100
AE 100
ギーレ 100
▁申し入れ 100
▁おおむね 100
ざん 100
▁読書 100
▁なきゃ 100
▁カザ 100
▁壊れ 100
▁次長 100
▁幕府 100
▁南相馬 100
らえ 100
ドン 100
ッポン 100
▁引っ張っ 100
▁フォーク 100
ドウ 100
▁平昌 100
▁接客 100
▁アギーレ 100
▁論議 100
▁マナー 100
▁プレゼン 100
ハン 100
▁IR 100
▁戦線 100
▁でしょ 100
▁降格 100
▁国技 100
▁超過 100
▁首席 100
乗り 100
▁百合子 100
▁エアコン 100
▁創刊 100
▁全焼 100
▁セラー 100
▁アフガニ 100
▁名取 100
▁トー 100
▁GO 100
▁調書 100
メート 100
▁マシン 100
▁競り勝っ 100
▁在来 100
▁サラダ 100
▁かく 100
▁戻す 100
▁ローソン 100
▁アフガニスタン 100
▁邪 100
▁正しく 100
▁新車 100
▁地理 100
▁救済 100
▁新潮 100
▁y 100
▁NI 100
▁自称 100
▁プロダ 100
▁奨学 100
▁専念 100
まつり 100
▁特捜 100
▁発効 100
▁雨量 100
▁ささげ 100
▁ガール 100
▁アシスト 100
▁抽出 100
▁見つから 100
▁アクセサリー 100
▁増田 100
▁大坂 100
▁殺到 100
▁よろしく 100
▁ドーピング 100
ざし 100
しま 100
▁─ 100
▁新井 100
▁秋季 100
▁みどり 100
▁取りや 100
▁加害 100
▁送金 100
イルド 100
▁ホッケ 100
▁会う 100
▁スタイ 100
AC 100
▁すし 100
シェンコ 100
▁せき 100
▁エビ 100
▁思考 100
▁喜ば 100
▁舞鶴 100
▁伝達 100
▁領事 100
▁飾ら 100
▁北野 100
▁末期 100
▁粗 100
▁下げ幅 100
下ろし 100
▁亘 100
▁裸 100
▁駄 100
▁養護 100
▁KDDI 100
▁献花 100
▁MI 100
▁屋台 100
▁絶賛 100
▁ゴミ 100
▁バドミントン 100
▁納入 100
▁メトロ 100
▁和紙 100
▁青春 100
ガス 100
▁倉敷 100
▁天王 100
▁必至 100
▁竜巻 100
▁合わ 100
▁ロープ 100
▁曇 100
落とし 100
▁財布 100
▁落ち込み 100
ベース 100
▁皮切り 100
▁関脇 100
▁筒 100
▁響く 100
▁スタン 100
▁祇 100
バシー 100
▁トータル 100
▁厳選 100
▁投与 100
▁軍人 100
▁BBC 100
▁邸 100
▁隠さ 100
▁イレ 100
クソン 100
シシ 100
▁署員 100
▁ローズ 100
さえ 100
▁博文 100
▁議案 100
▁追跡 100
ぐるみ 100
▁プライバシー 100
▁反響 100
▁彩る 100
▁カスタ 100
▁組む 100
▁荘 100
▁挟ん 100
▁クリニック 100
▁名義 100
▁鶴竜 100
▁境界 100
▁強度 100
▁筑波 100
ub 100
▁包ん 100
▁法令 100
ネツク 100
▁臓 100
▁広め 100
▁だれ 100
ace 100
▁弘前 100
▁作者 100
▁頭部 100
▁年明け 100
▁対照 100
シーベルト 100
▁ヘルス 100
▁済ま 100
▁ミー 100
▁ケイ 100
▁検知 100
▁読売 100
▁入館 100
▁奨励 100
▁見出し 100
オク 100
▁急落 100
▁つかみ 100
▁リンゴ 100
▁目立ち 100
ロフ 100
▁元職 100
▁ハマス 100
▁六本木 100
▁リサイクル 100
▁サヨナラ勝ち 100
▁不備 100
▁外資 100
▁配送 100
▁覚せい 100
▁大衆 100
▁就く 100
▁拳銃 100
グアイ 100
pp 100
らぎ 100
▁喫茶 100
▁見頃 100
▁サプライズ 100
▁文京 100
▁祇園 100
ニオン 100
▁ナイト 100
▁小野寺 100
▁担任 100
▁繊細 100
▁ワクチン 100
▁止まら 100
▁刷新 100
▁文芸 100
▁本件 100
歩き 100
▁施工 100
▁野手 100
▁AD 100
▁水域 100
▁EX 100
▁区画 100
▁用語 100
▁愛する 100
▁クイ 100
▁闘争 100
▁慈 100
▁ナゴ 100
▁去年 100
▁日記 100
▁トレード 100
ンマーク 100
▁永井 100
▁パブリ 100
▁戒 100
▁閉幕 100
▁伊丹 100
▁尽き 100
▁ボディ 100
▁のぞか 100
▁デンマーク 100
▁にらみ 100
▁京セラ 100
▁同園 100
▁足立 100
▁クルド 100
▁議事 100
▁右手 100
▁新書 100
▁鈴鹿 100
ンスター 100
▁志望 100
▁丼 100
▁労使 100
▁立て直し 100
▁表紙 100
▁見れ 100
▁右肘 100
▁頂き 100
ウエア 100
たた 100
▁外側 100
▁クイズ 100
▁活かし 100
ェル 100
祭り 100
▁住職 100
▁常勤 100
▁三越 100
▁不祥 100
▁毀損 100
なう 100
らり 100
▁値下げ 100
リュ 100
リットル 100
ディック 100
▁外来 100
▁遅れる 100
▁ノルウェー 100
▁商社 100
▁天守 100
▁フロア 100
▁レアル 100
▁望ましい 100
マックス 100
▁募っ 100
▁量販 100
▁直近 100
バード 100
▁うれしく 100
▁坊 100
ガース 100
▁箇所 100
和田 100
to 100
▁不快 100
▁尊敬 100
▁打開 100
▁簡易 100
▁所蔵 100
▁IM 100
▁本作 100
▁ドネツク 100
▁安保理 100
▁右前 100
▁哀 100
▁上記 100
▁低め 100
▁帳 100
▁シリコン 100
▁沿道 100
▁ウォール 100
▁ああ 100
▁盗ま 100
▁陸前 100
▁ビット 100
▁ツイート 100
▁集積 100
▁クリエイター 100
▁すい 100
▁虐殺 100
▁高野連 100
▁紅葉 100
▁アクセル 100
▁都会 100
▁ココ 100
▁めぐみ 100
▁ソーラー 100
らせ 100
▁こぎ 100
▁受理 100
▁議決 100
▁付き合い 100
▁混合 100
▁近親 100
▁北斗 100
▁給料 100
▁西岡 100
▁CI 100
▁再会 100
▁辞退 100
▁低減 100
▁果物 100
▁折り返し 100
▁半期 100
▁長田 100
▁見送り 100
テイ 100
▁左派 100
▁アナリスト 100
▁ミッション 100
▁嫌い 100
▁遂げ 100
▁突き放し 100
▁ロール 100
▁中韓 100
▁健太 100
▁襲っ 100
▁長岡 100
▁初旬 100
▁観衆 100
▁趙 100
▁増額 100
▁紗 100
▁進歩 100
ドー 100
▁お前 100
▁援護 100
ティス 100
▁引っ越し 100
▁生後 100
▁樋口 100
▁皇族 100
▁寄せる 100
▁オプション 100
▁童 100
▁立てる 100
▁園内 100
▁GPS 100
増し 100
▁SA 100
▁モディ 100
▁瓶 100
▁駅舎 100
▁原理 100
▁タイガース 100
▁ホッケー 100
▁フィンランド 100
▁コツ 100
▁信仰 100
▁萌 100
▁天下 100
▁ヤフー 100
▁わか 100
▁苦笑い 100
▁恩返し 100
▁レモン 100
▁クーデター 100
▁退院 100
▁アレルギー 100
▁甘く 100
▁完投 100
▁関節 100
降り 100
▁厳し 100
▁糖尿 100
▁包み 100
▁相性 100
▁富裕 100
▁マッサ 100
▁向き合う 100
▁禎 100
▁長浜 100
▁仰 100
▁市道 100
▁河口 100
▁罰則 100
▁自家 100
ワール 100
▁イチゴ 100
▁気配 100
▁釈明 100
▁井山 100
▁飛来 100
▁配っ 100
OX 100
▁債券 100
▁相馬 100
▁並行 100
▁マクドナルド 100
▁客観 100
▁馬場 100
▁若林 100
▁サンド 100
▁セクハラ 100
▁心身 100
▁指し 100
▁見立て 100
▁港湾 100
▁アニメーション 100
▁おや 100
▁カメラマン 100
▁上告 100
▁パワ 100
▁縛 100
▁最中 100
ニカ 100
▁黒星 100
さま 100
▁日馬 100
▁松尾 100
▁リス 100
▁郵送 100
▁鵜 100
▁精密 100
▁貼り 100
プラ 100
▁免税 100
▁際し 100
▁データベース 100
▁自力 100
▁仕上がり 100
▁キロメートル 100
▁梶 100
▁犠飛 100
ュード 100
▁ちゃっ 100
▁ラッシュ 100
▁締め切り 100
留米 100
▁抱く 100
▁牽制 100
▁仕立て 100
▁ラインナップ 100
▁冷却 100
▁マガ 100
▁五千 100
▁小島 100
▁枝野 100
▁チューブ 100
▁供与 100
▁聴く 100
▁プリンター 100
▁庶 100
▁漁獲 100
▁六百 100
▁塗装 100
▁プロフィル 100
▁たつ 100
▁騒音 100
ンズ 100
▁すっかり 100
回る 100
フルト 100
▁大筋 100
▁SS 100
▁育ち 100
▁道交 100
▁貸し出し 100
▁揺る 100
▁榊 100
▁搬入 100
▁武将 100
▁シアター 100
▁日成 100
▁ゴー 100
▁開ける 100
クトパス 100
▁ゆく 100
▁耐久 100
カルタ 100
▁志願 100
▁羊 100
▁全般 100
▁横田 100
▁イルカ 100
▁たどり着 100
▁ライオン 100
▁強気 100
ニール 100
▁ユニセフ 100
▁夏季 100
▁真相 100
▁ミュン 100
▁全文 100
▁ロイヤル 100
▁中谷 100
▁落ちる 100
▁盛り上がっ 100
▁づらい 100
▁湘 100
ドリ 100
▁ハッ 100
▁グレ 100
▁かかわる 100
ごう 100
▁球界 100
▁澄 100
淀川 100
▁語ら 100
▁コーポ 100
ョー 100
▁崔 100
▁SE 100
▁ケネ 100
▁機材 100
ルトラ 100
▁ナゴヤ 100
▁しょうゆ 100
▁ねぎ 100
▁イカ 100
▁ショウ 100
▁飛び込ん 100
▁かず 100
▁弾み 100
▁一因 100
▁臓器 100
▁豊橋 100
▁排水 100
▁休場 100
▁空中 100
▁ミュンヘン 100
▁リポート 100
▁下部 100
▁機密 100
▁河内 100
々しい 100
▁チェル 100
▁小児 100
▁巻き返し 100
▁年賀 100
▁科目 100
▁古賀 100
▁味わえる 100
▁ハロー 100
▁内装 100
▁EP 100
▁いち早く 100
▁なくし 100
▁UF 100
▁カンパニー 100
▁イレブン 100
▁圧迫 100
▁宛て 100
▁シャッター 100
━━ 100
▁利点 100
▁踏ん張 100
▁細かく 100
▁長谷部 100
▁ウルトラ 100
▁ぼう 100
▁塩釜 100
▁民俗 100
▁クーポン 100
▁見込める 100
▁右肩 100
▁真理 100
▁連戦 100
▁モンスター 100
▁出向 100
▁打て 100
▁払拭 100
▁満載 100
▁ボード 100
▁ヘクトパス 100
▁ヘクトパスカル 100
▁血圧 100
▁続投 100
▁ビー 100
▁URL 100
▁参道 100
▁快挙 100
▁シミュ 100
クネ 100
▁感慨 100
▁ホークス 100
▁取り巻く 100
▁洗い 100
▁切断 100
▁登用 100
▁野々 100
▁在学 100
がみ 100
▁現れる 100
▁立ち上がり 100
▁駆動 100
▁西洋 100
▁匿 100
▁なめ 100
▁浅野 100
▁のん 100
カオ 100
替わり 100
▁スポニチ 100
▁樹脂 100
▁結構 100
▁半減 100
▁古里 100
▁パンツ 100
▁焼い 100
▁くださっ 100
▁蒸し 100
▁LNG 100
▁海保 100
▁単に 100
▁やめる 100
▁闇 100
パート 100
▁パパ 100
▁愛し 100
▁セルビア 100
▁甘み 100
▁出勤 100
▁通用 100
▁盛り上げる 100
▁樹立 100
▁インスト 100
▁拭 100
▁いざ 100
▁カイ 100
▁変革 100
▁USJ 100
▁持参 100
▁完売 100
▁立派 100
▁ラム 100
▁控除 100
▁荒木 100
ラーリ 100
▁傷つけ 100
▁助手 100
▁遂 100
▁湘南 100
▁オペラ 100
▁社名 100
▁テラス 100
たて 100
▁営ま 100
▁野口 100
▁天野 100
▁金庫 100
▁ケネディ 100
体大 100
▁法相 100
▁スピーカー 100
▁接し 100
▁APEC 100
▁匿名 100
▁っぽい 100
▁陸前高田 100
▁ジャカルタ 100
▁奥山 100
▁座り 100
▁永田 100
▁仏教 100
▁ポケ 100
▁悲願 100
▁茂木 100
▁だめ 100
▁立川 100
▁自粛 100
▁もらえれ 100
▁造成 100
▁信任 100
▁増大 100
▁マイケル 100
▁ドルトム 100
▁ドルトムント 100
▁偶然 100
▁GI 100
▁総体 100
ニズム 100
▁サウジ 100
▁ストック 100
▁株高 100
▁花束 100
▁インテル 100
▁緊密 100
ma 100
▁唱え 100
▁フレーム 100
NN 100
fo 100
▁PKO 100
▁伸びる 100
ルトン 100
▁山陽 100
ir 100
▁吹い 100
▁新華 100
シウム 100
▁苦しむ 100
▁希少 100
▁電動 100
▁飾る 100
▁考えれ 100
▁手元 100
▁ゆったり 100
▁とん 100
▁バター 100
▁サラリー 100
▁持ち込ん 100
▁読み上げ 100
▁句 100
▁大船 100
▁経路 100
▁ストライク 100
さり 100
▁貯金 100
▁遊撃 100
▁即時 100
▁かっこ 100
▁募ら 100
▁果たして 100
▁偽装 100
▁卸売 100
▁開門 100
▁バレル 100
▁揚 100
▁別途 100
▁土石 100
▁キリン 100
▁ゆき 100
▁常連 100
▁マッサージ 100
▁扱っ 100
ディオ 100
▁若狭 100
▁連ね 100
▁カンボ 100
▁束 100
▁一丸 100
▁前方 100
▁観覧 100
RO 100
▁時折 100
ニックス 100
▁直し 100
▁一室 100
▁インス 100
▁クリエイティブ 100
▁艇 100
▁忙しい 100
▁持ち帰 100
▁巧み 100
▁通告 100
▁クライマックス 100
▁祝っ 100
▁蓮舫 100
▁宙 100
▁棋聖 100
▁脱線 100
▁農薬 100
▁コア 100
▁宇佐 100
▁江田 100
▁かす 100
▁屈指 100
▁特有 100
▁浮かん 100
▁シネマ 100
▁乗組 100
▁豚肉 100
▁こなす 100
▁まつわる 100
▁陵 100
▁まれ 100
▁セイ 100
▁系統 100
▁つくば 100
▁詰めかけ 100
▁霞 100
▁領収 100
▁シャー 100
▁鶴岡 100
▁再度 100
▁国対 100
▁カンボジア 100
▁ねん 100
▁処方 100
▁オーダー 100
▁書簡 100
▁称賛 100
▁優しく 100
▁ウィーン 100
▁過ぎる 100
▁愛情 100
▁信州 100
▁見逃し 100
▁まか 100
▁内蔵 100
▁次いで 100
▁引き渡し 100
▁ファンタ 100
盛り 100
▁伝承 100
▁南側 100
▁呈し 100
▁稚魚 100
▁フェラーリ 100
▁上乗 100
▁退団 100
▁遊ぶ 100
ンドル 100
▁見送る 100
▁知り合っ 100
▁花粉 100
▁起こり 100
▁キャスター 100
▁安価 100
▁漂う 100
▁円滑 100
▁興行 100
留め 100
▁酸素 100
▁久留米 100
▁哲学 100
▁温室 100
▁タリ 100
▁繁栄 100
▁出番 100
▁屈し 100
▁祈っ 100
▁駐在 100
▁選べる 100
▁診察 100
▁アウ 100
▁壊滅 100
揃え 100
▁従軍 100
▁美浜 100
▁重なる 100
▁占領 100
▁ハーブ 100
▁客席 100
▁造船 100
▁上乗せ 100
▁隣国 100
ミネーション 100
▁庶民 100
▁踏切 100
▁レポート 100
▁あげる 100
▁親しみ 100
ジャース 100
▁試乗 100
▁吹田 100
▁超す 100
▁頂い 100
▁うなず 100
▁負債 100
▁フレー 100
▁泣い 100
▁キッズ 100
▁おう 100
▁履歴 100
▁出来る 100
▁嫁 100
渡す 100
▁ホット 100
▁慎太郎 100
▁メロ 100
▁東松 100
▁凡 100
▁観音 100
▁働きかけ 100
▁合間 100
▁横領 100
▁ノルディック 100
▁天才 100
▁励まし 100
▁USB 100
▁チェコ 100
▁免れ 100
▁単価 100
▁前夜 100
▁ペーパー 100
▁かじ 100
▁冊子 100
▁秋篠 100
▁うそ 100
▁直撃 100
▁ワイヤ 100
▁下がり 100
▁腐敗 100
▁SKA 100
▁断定 100
▁系列 100
▁肺炎 100
▁スカウト 100
▁飽 100
▁誓い 100
▁重なっ 100
ゴー 100
▁防潮 100
▁SD 100
▁メルセ 100
レクト 100
▁ヒュー 100
▁地道 100
▁宮殿 100
▁ブドウ 100
▁妥結 100
▁順守 100
▁館内 100
▁高倉 100
リアル 100
▁隅 100
バーグ 100
▁メス 100
▁岩崎 100
▁指す 100
▁布団 100
▁クリー 100
▁メルセデス 100
▁ホイ 100
▁散策 100
▁イノシシ 100
▁申込 100
▁ガールズ 100
▁しみ 100
▁トランス 100
BI 100
の内 100
▁熱戦 100
ポリ 100
▁タマ 100
▁離陸 100
▁風力 100
▁接する 100
▁客数 100
▁マット 100
▁難しかっ 100
▁フォーン 100
▁新しく 100
▁長友 100
▁失策 100
▁おそれ 100
HA 100
▁サラリーマン 100
▁わざ 100
▁イト 100
▁冷たい 100
もも 100
▁渡る 100
えい 100
▁VR 100
▁局長 100
▁レジャー 100
▁キン 100
▁カク 100
▁台所 100
▁平井 100
▁キャプ 100
▁永遠 100
▁伸ばす 100
▁ガル 100
▁米中 100
▁秋篠宮 100
▁識別 100
▁ガード 100
▁まとまっ 100
▁総省 100
▁満たす 100
▁カキ 100
▁大麻 100
▁小麦 100
▁熱く 100
▁仲良 100
▁フォロー 100
▁常磐 100
▁感触 100
▁税務 100
って 100
▁きめ 100
▁公社 100
▁吉本 100
▁トキ 100
アス 100
▁田んぼ 100
モス 100
▁終結 100
▁瓦 100
▁内海 100
▁美濃 100
▁キープ 100
▁おもちゃ 100
▁ニッポン 100
ニチュード 100
▁パンフレット 100
▁勾 100
▁結集 100
▁バカ 100
▁分解 100
▁ウィーク 100
▁憎 100
▁浪江 100
デリー 100
ケン 100
▁破損 100
▁孔 100
▁ほほ 100
▁ヶ月 100
▁リクル 100
▁ジョーンズ 100
▁ユン 100
▁玩 100
▁量的 100
▁佐渡 100
井沢 100
エフ 100
▁体内 100
▁ポン 100
▁払っ 100
▁征 100
▁主題 100
▁スラ 100
▁風化 100
▁荒川 100
▁日時 100
▁コールド 100
▁軽井沢 100
▁倶 100
▁渦 100
▁間隔 100
▁駐屯 100
▁攻防 100
▁アイル 100
▁おいしく 100
▁kg 100
▁再審 100
▁フロー 100
▁なろう 100
▁聴き 100
▁せり 100
▁バナ 100
▁鴻 100
▁異動 100
▁川上 100
▁誘い 100
▁ふと 100
▁急務 100
▁連発 100
チョ 100
▁たたい 100
▁トリプル 100
▁矛盾 100
▁エリート 100
王子 100
▁宿舎 100
▁出せる 100
▁‐ 100
▁寅 100
▁生前 100
▁関空 100
▁メーク 100
▁シール 100
▁灘 100
▁うれし 100
▁苦情 100
▁イルミネーション 100
▁立ち向 100
▁麦 100
▁濃い 100
▁改ざん 100
ラマ 100
▁編入 100
▁面談 100
▁奥行き 100
▁込める 100
植え 100
▁昨日 100
▁民意 100
▁消極 100
▁オル 100
▁LAN 100
ずら 100
▁孤独 100
▁対中 100
あげ 100
▁ストラ 100
▁早速 100
▁譲り 100
▁JOC 100
▁農村 100
▁難い 100
▁ダイオード 100
▁NBA 100
▁打ち出す 100
▁光栄 100
▁引き出す 100
▁あらわ 100
▁任さ 100
▁含ん 100
▁土台 100
▁日野 100
▁可否 100
▁後世 100
▁松岡 100
▁要領 100
▁Pad 100
▁仲井 100
▁寂しい 100
▁マグニチュード 100
▁ラボ 100
▁一目 100
▁駐日 100
▁ヒルズ 100
▁作動 100
▁村長 100
▁ヤフオク 100
▁オオ 100
▁推し 100
▁あしらっ 100
▁ウイーク 100
▁アロ 100
▁アーチ 100
▁碁 100
▁くみ 100
▁戦場 100
▁ごう 100
▁消滅 100
▁習得 100
▁かから 100
らっしゃ 100
▁カテゴ 100
長期 100
▁付く 100
▁玩具 100
▁タンパク 100
▁繰り広げる 100
▁アミ 100
▁蔵王 100
▁陳述 100
ノコ 100
▁押す 100
▁白紙 100
▁釣れ 100
▁偉大 100
▁見物 100
▁八王子 100
▁やり取り 100
▁進路 100
▁郁 100
▁嗣 100
▁途絶 100
▁高村 100
レラ 100
▁威力 100
▁統制 100
▁錯誤 100
▁鴨 100
▁特製 100
▁目黒 100
▁ジョンソン 100
▁鉢 100
▁小浜 100
▁GE 100
▁慢 100
▁日の 100
ボー 100
▁冗 100
少年 100
釣り 100
▁博之 100
▁氾 100
▁新卒 100
▁消化 100
▁葛西 100
▁獅 100
▁暁 100
▁困る 100
▁爆撃 100
▁遺構 100
▁しばし 100
▁原案 100
▁水野 100
▁総数 100
▁CG 100
▁故人 100
▁水着 100
はん 100
▁フェル 100
▁勧誘 100
▁母子 100
▁UFJ 100
ベーター 100
▁すっきり 100
▁澤 100
▁繋 100
▁中長期 100
▁踏み込ん 100
▁バンクーバー 100
ob 100
▁牧場 100
▁独裁 100
▁田口 100
メル 100
▁棄権 100
▁敗北 100
▁率直 100
▁暗殺 100
▁氾濫 100
▁どん 100
▁意志 100
▁購買 100
▁のど 100
▁トム 100
衛門 100
▁入浴 100
▁杉本 100
▁花見 100
▁頻度 100
▁勝てる 100
▁柳田 100
▁感激 100
▁緒 100
▁七百 100
▁ベー 100
▁マガジン 100
▁コク 100
▁たとえ 100
▁上げ幅 100
▁無く 100
▁すく 100
▁学科 100
▁落雷 100
▁振るわ 100
▁カロリー 100
▁慶大 100
▁ウルグアイ 100
▁本館 100
▁歩ん 100
▁られれ 100
▁青少年 100
▁あや 100
▁一線 100
ラクション 100
▁免疫 100
くる 100
▁大熊 100
▁花巻 100
▁莉 100
▁誠実 100
▁積み上げ 100
▁工大 100
▁いわば 100
▁ストロ 100
▁賀 100
▁かぶっ 100
▁写っ 100
▁格納 100
▁セクター 100
▁英雄 100
▁尿 100
▁募る 100
▁救う 100
▁査 100
▁制圧 100
▁レコー 100
出せ 100
▁妥協 100
ナンシャル 100
▁ドジャース 100
▁一新 100
▁即日 100
▁持ち出し 100
▁グア 100
▁伏見 100
▁書道 100
▁官兵衛 100
▁渓 100
▁両面 100
▁競い 100
▁おん 100
ちこち 100
▁僧侶 100
▁母校 100
▁突風 100
▁難病 100
▁サクラ 100
▁拠出 100
▁訪米 100
▁プログラ 100
▁カザフ 100
▁成し遂げ 100
ブズ 100
▁もも 100
▁活気 100
▁長引 100
▁冷戦 100
▁最短 100
▁提起 100
▁洗浄 100
▁草津 100
▁受け皿 100
すら 100
▁あちこち 100
▁ディスプレイ 100
▁漬け 100
▁録画 100
▁激減 100
▁農水 100
▁アテネ 100
▁見つける 100
チェンジ 100
▁リーダーシップ 100
▁眞 100
▁国々 100
▁CNN 100
▁ミドル 100
▁牽引 100
▁立ち会 100
▁ワイド 100
▁ルイス 100
▁紳 100
▁MS 100
▁月刊 100
▁ポロシェンコ 100
▁剥 100
▁国鉄 100
▁MVP 100
リル 100
▁要員 100
▁関学 100
▁キット 100
沿い 100
▁更に 100
▁薄く 100
▁一流 100
▁素早く 100
▁たびたび 100
▁告訴 100
▁派手 100
▁屋敷 100
▁退い 100
LE 100
▁パーソ 100
▁主宰 100
▁中高生 100
▁瑠 100
▁高温 100
ベリー 100
▁スタンダ 100
なら 100
▁直営 100
▁手伝っ 100
▁農場 100
▁book 100
▁コンテナ 100
▁媒体 100
▁ジュース 100
ヴェ 100
▁弊社 100
▁乗り込ん 100
ag 100
▁遭難 100
▁ぼく 100
▁海兵 100
▁王将 100
▁醸造 100
▁津軽 100
OS 100
▁造形 100
▁インフレ 100
▁テロリスト 100
▁概念 100
▁本町 100
▁結ば 100
▁薬局 100
▁日体大 100
▁経歴 100
▁三島 100
▁冥 100
▁田原 100
▁リクルート 100
グロ 100
▁ポケモン 100
▁ドメ 100
▁揺さ 100
▁クロー 100
▁送電 100
▁下ろし 100
▁楢 100
▁奴隷 100
▁食糧 100
▁多賀 100
▁日頃 100
▁規律 100
▁過労 100
▁多少 100
▁限っ 100
▁NGO 100
返す 100
▁変身 100
っとり 100
▁隔離 100
▁生まれ変 100
▁享 100
▁付与 100
▁川端 100
ずる 100
▁許す 100
▁胡 100
▁街道 100
▁薬品 100
▁運搬 100
▁最少 100
▁有明 100
▁触っ 100
▁秋葉原 100
▁アオ 100
▁家賃 100
▁幸い 100
▁水中 100
▁パスワード 100
▁八千 100
▁自爆 100
▁中立 100
▁カレン 100
▁心がけ 100
▁みち 100
▁悦 100
▁おと 100
▁合弁 100
▁田沢 100
▁納付 100
▁こぼれ 100
▁太もも 100
タミン 100
マル 100
▁竹田 100
▁調印 100
▁悲しい 100
▁下着 100
▁じん 100
▁バイト 100
▁いかなる 100
▁カール 100
▁スティー 100
▁ディーゼル 100
きょ 100
の素 100
▁味の素 100
のう 100
▁待遇 100
▁マイル 100
▁豊臣 100
▁チームメート 100
▁杉山 100
▁究極 100
▁総局 100
▁含み 100
ジュアル 100
▁顕著 100
▁東側 100
▁製鉄 100
▁ダメージ 100
▁トウ 100
▁底上げ 100
トラ 100
▁反し 100
▁亀山 100
▁重み 100
▁持て 100
▁負荷 100
▁久美子 100
去っ 100
▁まな 100
▁IMF 100
▁ガラ 100
▁満喫 100
▁NASA 100
▁アフガン 100
▁精力 100
▁進撃 100
▁過度 100
▁撃墜 100
▁有事 100
▁沈ん 100
▁作詞 100
▁公選 100
▁イヤー 100
イスキー 100
▁アタ 100
▁入園 100
▁四方 100
▁身柄 100
▁パンダ 100
▁戦没 100
▁継投 100
▁せっかく 100
▁ダニ 100
▁報復 100
▁サンプル 100
▁広大 100
▁みなみ 100
▁シルク 100
▁くら 100
▁バウンド 100
ばら 100
▁精査 100
ak 100
▁一見 100
▁勝山 100
オケ 100
▁美人 100
RE 100
▁れん 100
▁FOM 100
▁ジェイ 100
チス 100
▁大物 100
▁閉会 100
▁エディ 100
▁カラフル 100
キュー 100
FL 100
▁服装 100
▁譲歩 100
じっ 100
▁ビニール 100
▁オーケ 100
▁食卓 100
▁台東 100
▁モル 100
▁今村 100
▁荒井 100
ブラ 100
▁ばあ 100
▁原動 100
▁乏しい 100
XA 100
▁スーパ 100
▁こだわる 100
けん 100
▁閉店 100
アリング 100
▁LG 100
▁増設 100
▁決戦 100
れん 100
▁北川 100
▁カラオケ 100
▁染め 100
▁生誕 100
▁SUV 100
▁知らせ 100
▁ストーカー 100
▁改め 100
▁裾 100
▁小平 100
▁枯 100
▁間違え 100
▁洪水 100
▁歳出 100
▁鳴らし 100
▁民事 100
▁蘇 100
▁一変 100
▁皮肉 100
▁盗撮 100
▁v 100
▁JP 100
▁げん 100
▁配偶 100
▁マスターズ 100
ッソ 100
▁立方 100
▁JAXA 100
▁欠け 100
セント 100
▁ディスプレー 100
▁倒産 100
▁痛い 100
▁発砲 100
▁取り込む 100
▁書き込ん 100
▁ふっ 100
シエ 100
▁対談 100
▁極端 100
▁見本 100
▁赴任 100
▁駄目 100
▁男の子 100
▁インターチェンジ 100
▁野外 100
▁体系 100
▁シェル 100
▁過疎 100
▁柵 100
▁外貨 100
▁節電 100
ステル 100
ビック 100
押さえ 100
▁如 100
▁猿 100
デシュ 100
ol 100
▁強打 100
▁南極 100
▁押し出し 100
▁籠 100
▁修学 100
▁通じる 100
▁白書 100
▁目前 100
▁あま 100
▁圧縮 100
▁舞い 100
▁NEC 100
▁スス 100
▁登米 100
▁真夏 100
▁オム 100
ーマー 100
▁何者 100
▁おこ 100
▁後続 100
▁手足 100
▁血管 100
▁代わる 100
▁受け止める 100
▁幕末 100
バナ 100
▁後部 100
▁伺 100
▁有害 100
ハー 100
▁輪島 100
▁商売 100
▁ポンプ 100
▁ウイスキー 100
テージ 100
▁梗 100
▁まあ 100
▁山内 100
▁川越 100
▁満開 100
▁カザフスタン 100
▁噴出 100
▁風物 100
▁HI 100
▁テック 100
▁淡々 100
▁オリーブ 100
▁団結 100
▁騎手 100
▁ディスカ 100
▁大垣 100
▁ダービー 100
▁バレンタイン 100
▁壇 100
▁アバ 100
▁文明 100
▁爽やか 100
▁ベネッセ 100
▁カシ 100
▁学級 100
▁射撃 100
▁遮断 100
▁格付け 100
▁採点 100
▁旋 100
▁論理 100
ニウム 100
▁晶 100
▁ボス 100
▁OP 100
▁一律 100
▁松阪 100
▁伊勢丹 100
▁窮 100
▁払う 100
▁レーザー 100
▁持ち込み 100
▁牡 100
▁加納 100
▁移管 100
三郎 100
▁ねじ 100
▁熱気 100
▁関大 100
▁愚 100
▁節約 100
▁グラフ 100
▁出願 100
▁振動 100
▁エレベーター 100
▁丈 100
▁笑わ 100
▁ブロー 100
▁はら 100
▁望月 100
ウェイ 100
▁総統 100
▁梗塞 100
▁奔 100
▁励ん 100
▁info 100
is 100
▁噂 100
▁中南 100
▁エクスプレス 100
べく 100
▁なるべく 100
▁川村 100
▁狙える 100
▁固有 100
▁変換 100
▁膨らむ 100
▁とくに 100
▁SC 100
▁ニホン 100
ボルン 100
ぐり 100
▁オレ 100
▁作れ 100
▁動脈 100
▁王位 100
▁だらけ 100
▁ポルノ 100
▁マリア 100
アミ 100
▁全壊 100
▁強固 100
▁すてき 100
▁パッド 100
▁防空 100
リエーション 100
▁本業 100
▁除外 100
▁開校 100
▁きめ細 100
買い 100
▁ヒル 100
しり 100
ワン 100
▁リュ 100
▁豊岡 100
▁キャプテン 100
▁中枢 100
▁未知 100
▁一元 100
▁チャイ 100
▁敏感 100
▁健一 100
▁実物 100
▁風刺 100
▁またがる 100
▁ワーキング 100
▁ソフトボール 100
▁まき 100
▁ヤマト 100
▁FOMC 100
▁窒 100
▁露出 100
▁来館 100
▁東経 100
▁目覚 100
▁応答 100
▁ふり 100
▁加熱 100
▁映っ 100
▁結い 100
▁論戦 100
スタント 100
▁x 100
▁張る 100
▁釜山 100
▁浮かび上がっ 100
▁体罰 100
▁内藤 100
▁有村 100
▁広州 100
▁注力 100
離れ 100
▁スナ 100
▁受託 100
▁速く 100
▁陸連 100
▁サウンド 100
▁リフォーム 100
▁検事 100
まず 100
ッと 100
▁ねえ 100
▁山林 100
▁押さえ 100
▁秩父 100
▁尋ねる 100
▁ぶつけ 100
▁万里 100
▁発熱 100
▁谷口 100
▁有する 100
▁PT 100
▁人柄 100
▁増収 100
▁築き 100
シェル 100
▁ミリリットル 100
▁杜 100
▁保っ 100
▁昨今 100
▁作り上げ 100
▁発明 100
▁真司 100
レール 100
▁ウォッチ 100
▁作れる 100
▁そろえる 100
▁養鶏 100
▁刻ま 100
▁推奨 100
▁豪快 100
ァー 100
▁北緯 100
▁議題 100
▁ちゅう 100
ングラ 100
▁春闘 100
▁青空 100
▁ネック 100
▁交響 100
▁可視 100
▁鉄筋 100
▁眼鏡 100
▁寺院 100
▁松野 100
▁火星 100
▁ウラン 100
▁稔 100
▁婚姻 100
▁すばらしい 100
▁限度 100
▁瞳 100
▁重症 100
▁被ばく 100
▁あさ 100
▁農園 100
▁パトカー 100
ベス 100
▁ブッシュ 100
▁リベリア 100
▁陽子 100
▁インディア 100
▁免除 100
▁プロポ 100
▁旺 100
負け 100
▁大森 100
▁樹木 100
▁春秋 100
▁DI 100
ナント 100
▁泡 100
▁支所 100
▁知れ 100
▁担い手 100
▁佳彦 100
▁枚数 100
▁無断 100
ニクス 100
▁続出 100
▁輝か 100
▁発し 100
▁磨い 100
▁サク 100
▁インターン 100
▁輩 100
▁鳴り 100
▁チュニ 100
▁有望 100
▁木製 100
▁スキャン 100
▁隙間 100
▁国旗 100
▁地形 100
▁密漁 100
▁カウンセ 100
▁倒し 100
▁尾崎 100
▁歌声 100
▁口コミ 100
▁出そろ 100
▁割安 100
▁カクテル 100
▁NE 100
▁アストロ 100
▁活力 100
▁うかがわ 100
▁カニ 100
▁上質 100
▁理科 100
▁丸の内 100
▁■ 100
▁監禁 100
▁アール 100
トロール 100
▁争わ 100
▁招か 100
▁直ちに 100
▁同作 100
▁府議 100
▁チキン 100
▁悔や 100
▁悲惨 100
▁照らし 100
▁つら 100
▁東レ 100
▁風土 100
った 100
▁公算 100
▁哲也 100
▁華麗 100
▁引き揚げ 100
▁入門 100
▁腎 100
ちり 100
▁望み 100
▁満点 100
▁半額 100
▁しつ 100
▁増殖 100
▁アトラクション 100
▁文楽 100
▁取りまとめ 100
▁串 100
▁たまっ 100
▁医大 100
▁異論 100
▁浅草 100
▁発酵 100
▁面し 100
▁ハンバー 100
▁天文 100
▁婚活 100
▁植民 100
もん 100
▁実演 100
▁焼却 100
▁還元 100
取れる 100
▁フレッシュ 100
▁におい 100
▁専攻 100
▁補修 100
▁鐘 100
ケア 100
▁切ら 100
▁鉄鋼 100
▁なくす 100
▁反射 100
▁概算 100
▁競売 100
▁暗い 100
▁責務 100
▁道のり 100
▁カタログ 100
ing 100
▁今治 100
▁最古 100
がかり 100
チンコ 100
▁取りやめ 100
楽部 100
▁絶た 100
HI 100
▁おなか 100
▁鳳 100
▁水曜 100
▁害 100
▁北村 100
▁雅子 100
▁ジー 100
▁黒部 100
▁以後 100
▁倶楽部 100
▁SF 100
▁沖合 100
▁はな 100
▁ひどい 100
▁乗り換え 100
▁Face 100
▁梁 100
▁宮下 100
▁納め 100
ろす 100
▁ダンサー 100
▁ワースト 100
▁カジュアル 100
ゲル 100
▁夢中 100
▁CL 100
かかっ 100
▁争っ 100
▁とおり 100
▁えん 100
▁今期 100
▁湯川 100
ンドウ 100
▁伸び率 100
▁ダイヤル 100
▁冗談 100
▁法学 100
▁いらっしゃ 100
▁どうぞ 100
▁アイルランド 100
▁ミュージシャン 100
▁r 100
歩い 100
▁断っ 100
▁au 100
こん 100
▁シロ 100
▁商戦 100
▁見積 100
▁急行 100
▁りゅう 100
▁酷 100
▁住吉 100
▁告知 100
▁社外 100
▁ふたり 100
▁重なり 100
▁デザート 100
▁贅 100
▁パル 100
▁知見 100
▁降雪 100
▁シミュレーション 100
▁NO 100
▁全中 100
▁届き 100
▁昆虫 100
▁片岡 100
▁大綱 100
▁パスポート 100
▁おそらく 100
▁山間 100
▁’ 100
▁健闘 100
▁御殿 100
▁擁護 100
▁乙 100
▁断固 100
▁常時 100
▁晴子 100
▁しゅう 100
助け 100
▁PM 100
▁主戦 100
▁ビタミン 100
刈り 100
▁奪取 100
▁訴状 100
es 100
▁対馬 100
▁田舎 100
▁ブラウン 100
▁メカニズム 100
▁ジョー 100
▁移る 100
▁真田 100
ニン 100
▁加算 100
▁前川 100
▁名刺 100
▁スケール 100
▁将大 100
▁ネコ 100
▁管轄 100
▁道徳 100
▁爪 100
▁幼少 100
▁洋服 100
▁浄化 100
ぶし 100
▁済む 100
▁さわ 100
▁必須 100
▁母国 100
▁備蓄 100
▁明示 100
▁訪朝 100
▁小樽 100
▁豆腐 100
ケ谷 100
▁きん 100
▁励み 100
請け 100
▁攻略 100
▁持ち直し 100
▁シーア 100
▁尋問 100
▁白人 100
▁大介 100
▁栄誉 100
▁値動き 100
▁サバ 100
▁怠っ 100
▁割っ 100
▁新生 100
▁バトン 100
▁隼 100
▁海賊 100
▁たまたま 100
▁オーケストラ 100
▁デン 100
▁アルファ 100
▁◇ 100
畜産 100
▁うん 100
▁わき 100
▁症候 100
▁思い切っ 100
RA 100
▁がら 100
▁スローガン 100
▁別府 100
▁撮る 100
しょう 100
▁JC 100
▁改札 100
▁マール 100
▁鷹 100
▁告げる 100
▁重体 100
▁手入れ 100
as 100
支え 100
▁移送 100
▁くれれ 100
▁国益 100
▁同志 100
▁時々 100
▁窯 100
▁しめ 100
▁連打 100
▁いと 100
▁カプセル 100
ブス 100
▁足首 100
▁風俗 100
▁均衡 100
▁あこ 100
▁順番 100
▁サーブ 100
WA 100
ホー 100
▁視界 100
▁ぶつかっ 100
▁夏場 100
▁弁論 100
▁リビング 100
▁下水 100
▁承知 100
▁サス 100
ow 100
▁榊原 100
▁載っ 100
アルプス 100
▁やけ 100
▁抹茶 100
▁You 100
▁わく 100
▁日比 100
川内 100
▁千秋 100
▁輩出 100
▁のぼる 100
ノキ 100
▁薩摩川内 100
▁大敗 100
▁片側 100
▁神話 100
ズミ 100
▁装っ 100
▁当該 100
▁パーツ 100
▁つながら 100
▁オファー 100
▁ソフトウエア 100
▁帆 100
▁新日 100
▁帰省 100
▁幕内 100
▁大船渡 100
▁鯖 100
▁あか 100
▁定住 100
▁獅子 100
▁東松島 100
▁オークション 100
▁がたい 100
ンジャー 100
▁松下 100
▁湾岸 100
▁絶望 100
ジボ 100
▁異議 100
▁延び 100
▁組員 100
▁娯 100
構え 100
▁将軍 100
▁ニコニコ 100
▁見送ら 100
▁種子 100
▁角田 100
▁荻 100
▁増益 100
合せ 100
▁鳥羽 100
ヌー 100
▁直下 100
▁はた 100
▁踊る 100
▁行ける 100
▁クレーン 100
▁的確 100
▁色彩 100
▁バナナ 100
▁エンタテインメント 100
▁ボコ 100
▁航路 100
▁コートジボ 100
▁娯楽 100
▁待た 100
▁パートナーシップ 100
▁ぷ 100
▁禎一 100
▁史跡 100
▁パトロール 100
▁志賀 100
諏訪 100
▁劣化 100
▁殺さ 100
▁覚える 100
▁衰え 100
▁サリン 100
▁出来高 100
▁ファクス 100
▁フェンス 100
▁コートジボワール 100
▁ムー 100
▁口頭 100
▁QB 100
▁挿 100
▁口調 100
▁常設 100
▁寒い 100
▁左手 100
▁西山 100
▁配る 100
▁廊 100
ズエラ 100
▁着る 100
▁商談 100
▁退場 100
▁艦船 100
▁果実 100
▁手助け 100
▁ミーティング 100
▁じゅう 100
▁頼み 100
ブック 100
▁ビジュアル 100
▁ぜい 100
▁ピク 100
▁感性 100
▁離れる 100
▁クロダイ 100
▁忍者 100
▁飛び交 100
▁陳謝 100
▁みせる 100
▁強要 100
▁素敵 100
▁造ら 100
▁めざし 100
▁引き受け 100
ンジュ 100
▁仕方ない 100
▁基幹 100
▁甲信 100
▁潔 100
▁開園 100
▁ウエア 100
▁メドレー 100
▁洲 100
▁タカ 100
▁四千 100
▁さかのぼ 100
▁固まっ 100
▁ラウ 100
▁リク 100
▁アストロズ 100
▁ベネズエラ 100
より 100
▁万能 100
▁競走 100
▁MD 100
▁圭佑 100
▁祈る 100
▁著しく 100
▁酵 100
すご 100
▁出頭 100
▁痛感 100
▁わら 100
▁長寿 100
▁ファーム 100
▁速球 100
▁信者 100
▁景況 100
▁植樹 100
▁五十嵐 100
▁ニューデリー 100
津川 100
▁前原 100
ッティ 100
▁短編 100
▁ダイレクト 100
▁日高 100
▁片付け 100
▁到来 100
▁築く 100
▁めでとう 100
▁打ち明け 100
▁メルボルン 100
▁区別 100
▁タス 100
▁起点 100
▁風邪 100
▁生き物 100
▁贅沢 100
▁みつ 100
▁模擬 100
▁味わう 100
▁アント 100
▁懐かし 100
▁クリーン 100
ail 100
▁絡ん 100
▁思い出す 100
▁いただけれ 100
▁砂糖 100
▁禁じる 100
▁イケメン 100
▁ジャーナル 100
▁剣道 100
▁管制 100
▁誘拐 100
▁殿堂 100
▁シンガー 100
▁弔 100
タケ 100
▁先取 100
▁見いだ 100
ただ 100
▁逃げる 100
▁大平 100
▁中南米 100
▁ヤング 100
▁存分 100
BM 100
▁もり 100
▁光る 100
▁ロン 100
▁寝台 100
▁幸男 100
▁のぼり 100
▁しばしば 100
ッサ 100
▁鈍化 100
▁林業 100
バート 100
ig 100
▁曇り 100
▁チャリティー 100
▁セラ 100
▁合法 100
▁後悔 100
▁本因 100
▁論争 100
▁護衛 100
▁チベット 100
▁モーニング 100
▁本因坊 100
▁墨田 100
▁険 100
▁コンペ 100
▁公職 100
▁ぜん 100
▁描写 100
▁パブリック 100
▁安佐南 100
▁宮司 100
▁点数 100
▁詠 100
ゼン 100
▁方策 100
じゅ 100
▁まね 100
▁急性 100
▁愛用 100
▁エコノミスト 100
▁弓 100
▁ハチ 100
▁ツイン 100
▁救命 100
▁花園 100
▁キャメ 100
▁ふれあい 100
▁バングラ 100
▁絞め 100
▁マニラ 100
▁焼酎 100
▁生む 100
▁集う 100
▁論点 100
▁テンポ 100
▁ドリブル 100
▁施さ 100
▁陥る 100
▁佐久 100
▁大沢 100
▁懐かしい 100
生き 100
▁クロア 100
▁全校 100
▁選対 100
▁神事 100
▁書面 100
▁もうけ 100
th 100
▁咲か 100
▁真っすぐ 100
▁鶏肉 100
▁向き合っ 100
▁カレンダー 100
▁ケニア 100
▁枕 100
▁BM 100
▁なんか 100
▁郎 100
▁崩落 100
▁UAE 100
ネーション 100
▁正解 100
▁ドクター 100
付か 100
▁大台 100
▁渡す 100
▁おかしく 100
▁権威 100
▁ICT 100
▁キャップ 100
▁硫 100
▁ウエディング 100
▁冨田 100
▁猛暑 100
▁通夜 100
にぎり 100
▁あんな 100
▁真珠 100
▁セダン 100
ばさ 100
▁マリー 100
▁新日鉄 100
▁叫び 100
▁失望 100
▁長編 100
▁高架 100
▁ATM 100
わざ 100
▁一挙 100
▁除雪 100
▁キャッシュ 100
▁親交 100
ノイ 100
かみ 100
▁咲く 100
▁日数 100
デント 100
▁仮面 100
▁イエメン 100
▁一関 100
▁迷い 100
▁紅茶 100
コビッチ 100
▁エアバス 100
▁△ 100
▁引き継ぎ 100
▁引き継ぐ 100
EN 100
▁内角 100
▁転向 100
アント 100
▁オーガ 100
▁大井 100
▁掛け声 100
▁哉 100
▁箕 100
▁民放 100
▁FBI 100
▁フェス 100
▁ものすご 100
かえ 100
▁収賄 100
▁美香 100
▁シルバー 100
▁キャメロン 100
▁マジック 100
▁藤浪 100
▁アクア 100
▁畠 100
テレ 100
▁分断 100
▁文句 100
▁アユ 100
▁エステ 100
▁ゼミ 100
▁断じ 100
ドア 100
▁有田 100
▁りょう 100
▁不詳 100
▁併合 100
▁親戚 100
▁木曜 100
▁返す 100
▁ひも 100
▁デル 100
▁心情 100
▁マネージ 100
▁入会 100
▁沸か 100
ンプール 100
▁ギャップ 100
▁クアラル 100
▁含める 100
▁個体 100
▁免職 100
▁クアラルンプール 100
▁講じ 100
ローニ 100
▁欠航 100
▁構える 100
▁営利 100
▁慌て 100
▁校内 100
▁黄色い 100
代子 100
▁廊下 100
▁捜し 100
▁たけし 100
▁足利 100
キット 100
▁峯 100
こと 100
▁刻ん 100
▁折れ 100
▁開場 100
▁水上 100
▁スーダン 100
▁じい 100
▁チュ 100
▁派閥 100
▁信念 100
▁勝者 100
▁学べる 100
▁盲 100
▁クロアチア 100
▁ベク 100
▁叱 100
▁がる 100
▁ペル 100
▁短大 100
▁ミックス 100
▁家裁 100
▁満員 100
▁靱 100
▁大豆 100
▁袴 100
エリー 100
TI 100
▁三宅 100
▁そん 100
▁全容 100
▁弾圧 100
っぱ 100
▁強引 100
▁劇的 100
▁やる気 100
▁バイエル 100
▁身分 100
リューム 100
▁コスタ 100
▁摩擦 100
▁産卵 100
▁揺れる 100
▁送り出し 100
▁古典 100
▁存じ 100
▁楽観 100
▁逆風 100
▁ミラー 100
▁パウ 100
ビエ 100
▁街並み 100
▁羅 100
▁破棄 100
▁競っ 100
▁シューズ 100
▁驚か 100
▁デスク 100
▁警鐘 100
▁陽性 100
ずかしい 100
▁苫 100
▁博し 100
▁昼間 100
▁慢性 100
▁都庁 100
▁退役 100
▁雄志 100
▁マイアミ 100
▁付か 100
▁託し 100
▁年次 100
▁保留 100
▁行こう 100
▁熱狂 100
ビル 100
▁交番 100
▁環状 100
バツ 100
▁甚大 100
かせる 100
▁リビア 100
ノル 100
ワシ 100
▁手腕 100
▁県営 100
▁艦隊 100
チウム 100
▁ボリューム 100
▁傾斜 100
▁地権 100
▁ディナー 100
▁たて 100
▁同誌 100
▁アンテナ 100
▁モチベーション 100
▁独身 100
▁ピーチ 100
▁同組 100
BO 100
▁デリ 100
▁連帯 100
▁武士 100
ましく 100
▁おにぎり 100
▁フラワー 100
そり 100
▁修行 100
▁敬意 100
▁臭い 100
キャ 100
▁党員 100
▁分子 100
▁□ 100
離し 100
▁妨げ 100
▁伐 100
▁頑丈 100
▁パチンコ 100
▁コカ 100
▁称さ 100
▁マイン 100
▁バングラデシュ 100
ロコ 100
▁大将 100
▁行き来 100
▁途絶え 100
▁就学 100
▁検診 100
ゾナ 100
見え 100
▁守護 100
▁殴っ 100
▁激突 100
▁CT 100
▁ホン 100
▁見かけ 100
▁遷 100
▁ギネス 100
▁フォード 100
▁寺田 100
▁ISS 100
そば 100
▁介し 100
▁ウオッチ 100
▁生まれ育 100
▁センス 100
▁ダイナミ 100
▁アンドロイド 100
▁沼津 100
▁特色 100
▁迫り 100
▁ローカル 100
▁一宮 100
▁外為 100
▁画期 100
▁袖 100
▁装い 100
▁セッション 100
▁舞踊 100
▁鉄骨 100
▁切り替える 100
▁ファンタジー 100
▁飯舘 100
▁テイ 100
▁同州 100
▁大槌 100
▁手首 100
▁禁煙 100
▁悪用 100
▁戸田 100
ひとり 100
ーラー 100
▁心掛け 100
▁コネ 100
▁俳句 100
▁セールス 100
▁崖 100
▁FT 100
▁陸自 100
▁デート 100
▁もったい 100
▁人的 100
▁密輸 100
▁導く 100
▁島民 100
▁琢 100
カメ 100
▁侵攻 100
▁勝ち上がっ 100
直さ 100
▁経理 100
▁しんし 100
ぶれ 100
▁指さ 100
▁無念 100
▁センバツ 100
▁笛 100
▁虹 100
▁オタ 100
▁独り 100
ザーズ 100
▁名作 100
▁破産 100
▁課金 100
▁WOW 100
▁喪失 100
▁セレクト 100
▁ボーカル 100
▁鼓 100
▁停職 100
▁無い 100
▁本場 100
▁絶妙 100
▁退陣 100
▁WOWOW 100
▁卑 100
▁パシ 100
▁蘭 100
▁去っ 100
▁ドット 100
▁うら 100
▁ラフ 100
▁軍隊 100
▁持ち主 100
▁バックアップ 100
▁時事 100
▁ライダー 100
▁龍谷 100
▁替え 100
▁連係 100
じょう 100
▁地場 100
▁埋まっ 100
▁見せつけ 100
▁引き起こす 100
▁捏 100
ネギ 100
▁排気 100
▁豊中 100
▁重複 100
▁メッシ 100
▁やさしい 100
▁シェール 100
▁外傷 100
▁横峯 100
▁遠ざ 100
▁迎撃 100
▁仏像 100
▁各県 100
▁米欧 100
▁頼る 100
▁リース 100
▁見つかる 100
▁掛川 100
▁ダイエー 100
ニヤ 100
▁飛鳥 100
▁ぎり 100
▁バチ 100
▁ピカ 100
▁森内 100
▁役目 100
▁かなわ 100
▁ビア 100
▁亀田 100
▁恒久 100
▁焦り 100
▁やれる 100
▁言い渡さ 100
▁追い上げ 100
▁中井 100
▁外角 100
▁負う 100
▁誇っ 100
▁きゅう 100
▁ペルー 100
▁下支え 100
▁日露 100
▁転売 100
▁気付き 100
▁ウィリアムズ 100
▁みえ 100
▁追突 100
▁ほの 100
▁l 100
▁訪中 100
バリー 100
▁付着 100
▁内山 100
ホール 100
▁絶好 100
▁ルーキー 100
▁スプリント 100
▁フランクフルト 100
▁くつ 100
▁起動 100
▁振る舞い 100
▁紡 100
▁処刑 100
▁婚約 100
▁オランド 100
ハラム 100
ウンス 100
▁マッチング 100
▁プログラミング 100
▁安易 100
▁偵 100
▁大名 100
▁緑色 100
▁退去 100
▁長島 100
AL 100
▁松浦 100
▁波紋 100
▁出塁 100
▁フェニックス 100
▁はし 100
▁ドレ 100
▁生え 100
▁あがっ 100
▁埋める 100
▁ベクレル 100
▁共存 100
▁誘わ 100
▁ドバイ 100
▁寒気 100
▁私的 100
▁HC 100
▁松戸 100
▁英紙 100
バリ 100
▁外す 100
▁捏造 100
▁河合 100
▁ラベル 100
▁胎 100
▁寄港 100
▁特攻 100
ギン 100
▁売れる 100
津男 100
▁偵察 100
▁誤認 100
▁転覆 100
まき 100
▁運送 100
チュー 100
▁ヘイト 100
▁メタ 100
▁映る 100
▁米子 100
▁飲ま 100
▁戸惑い 100
▁水谷 100
▁裕子 100
▁レート 100
▁空手 100
▁しゃべり 100
▁放水 100
▁福原 100
▁重工 100
▁収束 100
▁洗練 100
▁闘い 100
▁サイク 100
▁大竹 100
▁左京 100
▁房 100
▁請け 100
▁取り入れる 100
▁着服 100
▁芯 100
▁多大 100
▁調和 100
▁雪崩 100
▁キャピ 100
▁アボ 100
▁典子 100
▁月内 100
▁賞品 100
▁もく 100
▁コンディション 100
▁船体 100
▁太白 100
▁学者 100
▁セリフ 100
▁最上 100
▁黒沢 100
▁放流 100
▁顕彰 100
▁負ける 100
▁上越 100
▁専業 100
▁竹下 100
▁酒田 100
▁せりふ 100
▁出題 100
▁EPA 100
▁とらわれ 100
▁売れ行き 100
▁扮 100
▁発案 100
▁積乱 100
▁考古 100
▁AR 100
▁デコ 100
▁回す 100
▁困惑 100
メット 100
▁きら 100
▁ゆり 100
▁指原 100
▁読め 100
▁たかし 100
▁メモリー 100
▁押し寄せ 100
ングル 100
▁アリゾナ 100
▁ズボン 100
▁那津男 100
▁符 100
ビッド 100
▁勝率 100
ペット 100
▁JTB 100
▁メディ 100
▁朗読 100
▁純一 100
▁米沢 100
▁船内 100
▁ヒマ 100
▁断言 100
▁響か 100
▁本郷 100
▁アム 100
▁ごはん 100
▁モダン 100
▁大東 100
▁熱帯 100
▁諏訪 100
▁堆 100
▁傍ら 100
▁浴衣 100
▁苦痛 100
▁ブローカー 100
込もう 100
▁挙がっ 100
▁サイエンス 100
▁駐留 100
▁コーディネート 100
▁原口 100
▁長嶋 100
▁ACL 100
▁初夏 100
▁伸び悩ん 100
▁撲 100
▁No 100
▁動揺 100
▁重圧 100
▁ダッシュ 100
▁ラク 100
▁劉 100
▁バタ 100
▁最盛 100
ハウス 100
▁エド 100
▁肥満 100
ジング 100
キア 100
▁栗山 100
▁要一 100
ケード 100
▁当たら 100
▁タリバン 100
▁浮い 100
カード 100
▁ハッカー 100
▁肝臓 100
▁ボイ 100
▁史料 100
▁温かく 100
去り 100
開き 100
▁暑い 100
▁仲良く 100
▁傑 100
▁封鎖 100
▁クジラ 100
▁安堵 100
▁所管 100
▁見返り 100
▁水深 100
▁身代 100
▁フェリー 100
▁味噌 100
▁次郎 100
▁申込み 100
▁レイン 100
▁共生 100
▁地質 100
▁意地 100
▁賭博 100
▁全会 100
▁アサヒ 100
▁あこがれ 100
▁紘 100
▁CK 100
▁福知 100
▁燃やし 100
ライター 100
▁フェスタ 100
PG 100
ぐら 100
▁死後 100
▁片手 100
▁金賞 100
▁日差し 100
リラ 100
▁成熟 100
タス 100
▁追放 100
▁早川 100
▁Inc 100
▁福知山 100
シル 100
▁玄海 100
ew 100
▁あす 100
▁貫い 100
▁和子 100
▁更改 100
▁衰退 100
▁浴びる 100
リッシュ 100
▁保ち 100
▁崩さ 100
▁熟成 100
▁因果 100
▁悼 100
▁包囲 100
▁衣類 100
▁服部 100
▁エルサ 100
▁みこし 100
▁亭 100
▁詩人 100
ed 100
ぶる 100
▁不利 100
▁参謀 100
▁火曜 100
▁日テレ 100
ON 100
▁償 100
▁大飯 100
▁ハッピー 100
▁投打 100
▁期す 100
▁法要 100
▁かたち 100
▁エレクトロ 100
▁格闘 100
▁嘉浩 100
▁腸 100
▁西口 100
▁グアム 100
チー 100
▁柿谷 100
▁クッキー 100
ツジ 100
▁探知 100
ッケローニ 100
▁GT 100
▁指令 100
▁橿 100
▁和牛 100
▁関わら 100
▁下流 100
アンス 100
▁フェン 100
▁注い 100
▁聖火 100
▁覆う 100
▁紫外 100
▁海面 100
▁たどっ 100
シュー 100
▁シアトル 100
▁踏み出し 100
▁失速 100
▁畜産 100
▁騒が 100
▁別条 100
▁注ぐ 100
▁黒川 100
ベガス 100
▁ベンツ 100
▁ラスベガス 100
張り 100
プトン 100
▁凝らし 100
▁春夏 100
▁据え置い 100
ゲーム 100
▁語り継 100
▁コボ 100
▁妊婦 100
▁殺傷 100
▁バリア 100
▁チェルシー 100
デート 100
▁ザッケローニ 100
IT 100
▁向ける 100
▁楢葉 100
▁アナウンス 100
▁全豪 100
▁大作 100
▁円売り 100
▁会費 100
▁暗号 100
▁永久 100
▁聞け 100
▁上積み 100
▁漏洩 100
▁集い 100
▁コンパ 100
▁プロレス 100
▁住金 100
▁傍聴 100
▁凡退 100
▁取組 100
▁奔走 100
▁宅地 100
▁探偵 100
▁教養 100
▁ススメ 100
しむ 100
イダ 100
町村 100
▁三田 100
▁新曲 100
▁謙虚 100
▁天満 100
▁疑念 100
▁致傷 100
▁サーキット 100
▁手の 100
▁ナチス 100
▁止まり 100
▁篠田 100
▁VW 100
▁正男 100
▁了解 100
---- 100
▁聞こえる 100
▁加計 100
▁撲滅 100
▁減益 100
▁同乗 100
▁死に 100
▁田植え 100
▁ノバ 100
▁競り勝ち 100
▁籾 100
▁GH 100
▁心肺 100
▁ボウ 100
▁ルイ 100
▁公衆 100
▁厚木 100
▁戦死 100
▁♪ 100
▁掌 100
▁読ま 100
▁醸し 100
▁駆除 100
▁雪辱 100
▁飛散 100
出せる 100
▁ため息 100
▁クエスト 100
▁ラインアップ 100
リコ 100
▁単身 100
▁本文 100
▁肥料 100
▁愛子 100
▁アパレル 100
めき 100
▁ノース 100
▁著しい 100
▁ベースボール 100
りん 100
▁個室 100
▁足並み 100
▁注射 100
▁ユニクロ 100
▁FM 100
▁突きつけ 100
さら 100
▁肉体 100
▁フィナンシャル 100
▁群れ 100
▁つかむ 100
▁黙とう 100
▁のち 100
▁祖父母 100
ずり 100
▁コーラ 100
づけ 100
ひら 100
▁やん 100
▁相対 100
▁誘客 100
スラ 100
ube 100
▁斬新 100
▁里山 100
▁打ち明 100
くじ 100
▁三郎 100
▁出そろっ 100
▁宮川 100
▁染み 100
▁ルネ 100
▁抗日 100
▁トレーナー 100
▁紺 100
▁手話 100
▁よみがえ 100
▁打ち明ける 100
▁手厚 100
ot 100
▁イヌ 100
▁° 100
▁化成 100
▁墓地 100
▁薄れ 100
▁たどる 100
▁佐伯 100
▁味覚 100
▁教団 100
▁闘志 100
▁天王寺 100
▁建立 100
▁白井 100
▁靱帯 100
▁揃 100
▁頭取 100
▁果て 100
▁矢野 100
▁漏えい 100
▁アウトドア 100
▁PL 100
▁ニュ 100
▁食物 100
▁アグ 100
▁善治 100
▁追いつか 100
▁チャーター 100
▁医者 100
▁照れ 100
▁売り出し 100
▁アップデート 100
▁ムン 100
▁回帰 100
▁足跡 100
▁用いる 100
▁冷や 100
▁広まっ 100
メス 100
▁性質 100
▁短文 100
▁稼ぎ 100
▁伐採 100
▁来園 100
▁淀川 100
▁メッツ 100
▁日帰り 100
▁肯 100
▁日出 100
▁バイエルン 100
ガリー 100
▁ミステ 100
▁素晴らし 100
エス 100
▁起源 100
▁ひい 100
▁医科 100
▁下回り 100
▁カルチャー 100
▁防ぎ 100
ちょ 100
ボス 100
▁色々 100
ランカ 100
▁そっくり 100
▁ホルモン 100
モリ 100
▁カム 100
▁秘め 100
▁潘 100
▁白馬 100
▁ランプ 100
▁前例 100
▁キャンセル 100
▁久々 100
▁小谷 100
▁芥 100
▁発端 100
▁街中 100
▁金田 100
付く 100
▁行える 100
▁アクティブ 100
▁町村 100
▁美咲 100
▁草案 100
ずみ 100
▁処遇 100
▁やわ 100
▁儀式 100
▁原画 100
▁やけど 100
カンド 100
▁オウム 100
アラブル 100
ぶた 100
▁有し 100
▁グラブ 100
▁亘理 100
▁人身 100
▁強姦 100
▁クロマ 100
▁ン 100
▁スキン 100
▁AM 100
▁歓喜 100
▁近海 100
▁適応 100
ボウ 100
▁不倫 100
▁助ける 100
▁YouT 100
こり 100
▁パンチ 100
▁区割り 100
ースター 100
▁汽 100
▁ワタ 100
▁足場 100
▁簿 100
▁平泳ぎ 100
▁茅 100
▁肯定 100
シアム 100
▁コメディー 100
▁炭鉱 100
▁骨格 100
▁カズ 100
▁多忙 100
▁劇中 100
▁デング 100
▁手書き 100
▁町議 100
▁美女 100
▁持てる 100
▁一族 100
▁召集 100
▁日ごろ 100
▁ごま 100
▁壁画 100
▁けんか 100
▁ドメイン 100
▁アルジェリア 100
▁送迎 100
幼児 100
▁乳幼児 100
▁岬 100
▁ML 100
▁スチ 100
▁解像 100
わく 100
▁大迫 100
▁破る 100
▁なす 100
▁選任 100
▁完敗 100
▁ぎりぎり 100
コム 100
▁ジン 100
▁定額 100
▁サケ 100
▁岩国 100
▁FTA 100
▁頑張れ 100
▁リッター 100
▁恥ずかしい 100
▁金星 100
▁悪かっ 100
まと 100
▁内科 100
▁エスカ 100
▁諫 100
▁新田 100
▁チュニジア 100
▁七夕 100
▁高安 100
▁みえる 100
▁持ち株 100
▁近づき 100
▁懸案 100
▁躍動 100
▁魚介 100
▁セントラル 100
▁つぶやい 100
▁園長 100
▁キラ 100
▁憲司 100
▁洋平 100
▁立案 100
▁取り扱う 100
▁先手 100
▁見通せ 100
▁科す 100
▁デス 100
分ける 100
▁カテゴリー 100
▁絹 100
▁着い 100
▁返事 100
▁ジェーム 100
▁とろ 100
▁様相 100
▁果たせ 100
▁昨春 100
▁本堂 100
▁鯖江 100
▁請け負 100
▁受章 100
▁酸味 100
▁八百長 100
▁県境 100
そこ 100
▁甲斐 100
▁立件 100
▁萩野 100
▁高梨 100
▁釣れる 100
▁引き起こし 100
▁温め 100
▁飽き 100
▁ウエスト 100
▁チューリ 100
▁ユーモア 100
▁音色 100
タリング 100
▁かばん 100
たえ 100
▁唇 100
▁画質 100
▁薬事 100
▁製法 100
▁ペナル 100
▁調味 100
▁難波 100
▁博覧 100
▁持論 100
▁市町村 100
▁スプレー 100
▁GS 100
▁厚い 100
▁消息 100
▁メロン 100
zon 100
▁一行 100
▁団長 100
▁爆破 100
▁NS 100
ドキ 100
▁実写 100
▁パスタ 100
▁上がら 100
▁とりどり 100
▁オービック 100
▁イヤ 100
▁寿司 100
フェスト 100
▁京阪 100
▁感心 100
▁吟 100
▁一大 100
▁日用 100
▁土佐 100
▁根底 100
▁薦 100
▁掃討 100
▁補う 100
▁中継ぎ 100
▁不況 100
▁傾い 100
▁間接 100
▁ボルト 100
▁慰謝 100
▁産品 100
▁陶芸 100
▁山元 100
▁スリー 100
▁友だち 100
オー 100
▁細部 100
▁タイガー 100
ガイ 100
▁目当て 100
▁大韓 100
▁模し 100
▁SMAP 100
▁神楽 100
▁エリザ 100
▁ギャン 100
▁アダ 100
▁戸籍 100
▁七尾 100
▁紀伊 100
▁翔太 100
▁逃亡 100
▁元町 100
▁全農 100
▁軽快 100
▁野々村 100
▁きっちり 100
▁山手 100
▁配給 100
▁干し 100
▁野鳥 100
▁在任 100
▁粛 100
▁さき 100
▁瑞穂 100
▁豊川 100
▁リノ 100
▁正彦 100
▁メガネ 100
▁ラウンジ 100
▁オーディオ 100
ワク 100
▁今野 100
▁ミカン 100
▁セクシー 100
▁初球 100
▁学部 100
▁純粋 100
▁全仏 100
▁唐津 100
▁生理 100
えん 100
▁天理 100
▁屋久 100
▁溢 100
▁ハマ 100
▁若き 100
▁ホスト 100
▁恥ず 100
▁生鮮 100
▁同等 100
▁稼ぐ 100
▁仕留め 100
▁持ち込ま 100
▁フリ 100
▁安部 100
▁チョン 100
▁三河 100
▁働か 100
▁導き 100
据える 100
▁明かり 100
▁本州 100
▁近大 100
▁飛騨 100
▁跳ね 100
▁転機 100
▁さわやか 100
▁あべ 100
わう 100
▁ポテ 100
▁上流 100
▁亡くなる 100
▁上品 100
▁和夫 100
▁肝心 100
▁くるみ 100
人暮らし 100
▁引か 100
▁区切り 100
▁出陣 100
▁学問 100
▁配管 100
▁ネクタイ 100
▁キヤ 100
▁音響 100
▁ジョコ 100
▁スカー 100
▁税関 100
ウォル 100
▁曳 100
まま 100
▁岩隈 100
▁ぶつかり 100
▁若干 100
▁銀河 100
▁バリエーション 100
ギリ 100
▁直木 100
▁さく 100
▁中道 100
▁西野 100
▁集英 100
▁スライド 100
▁ウェア 100
▁腺 100
▁麗 100
▁監察 100
▁氷点 100
▁石橋 100
▁米朝 100
▁純一郎 100
▁アトラン 100
▁ジャック 100
むら 100
▁休ん 100
▁橿原 100
タウン 100
マーク 100
捨てる 100
▁気づき 100
▁蛍 100
▁三角 100
▁軍艦 100
▁取り壊 100
▁軒並み 100
ラド 100
▁各店 100
▁リボン 100
▁そろい 100
▁由紀子 100
▁蒼 100
▁しのぎ 100
▁ボイス 100
▁搾 100
▁営ん 100
▁空白 100
▁ノリ 100
▁冥福 100
▁歴訪 100
▁満州 100
▁聴衆 100
▁調布 100
おこし 100
いぐるみ 100
▁ギニア 100
▁懸かる 100
▁レオ 100
▁低調 100
▁定時 100
▁思い切り 100
ネン 100
▁公聴 100
▁炎症 100
面目 100
▁彩り 100
▁返っ 100
▁鳥谷 100
▁コスタリカ 100
▁舘 100
▁漫才 100
▁航海 100
▁急きょ 100
▁チャット 100
逃げ 100
▁注入 100
▁島内 100
▁通年 100
▁WBA 100
▁子宮 100
▁本島 100
▁見入っ 100
▁粘り強く 100
▁体格 100
▁挙式 100
▁転居 100
▁退社 100
▁エム 100
▁朋美 100
ダウン 100
AI 100
▁兼任 100
▁大差 100
さく 100
▁スミ 100
▁不動 100
▁鳴門 100
▁叫ん 100
▁待望 100
KI 100
▁映し出さ 100
▁ドキ 100
▁海自 100
ンスク 100
▁ひら 100
▁忠実 100
▁配属 100
▁ジュエリー 100
▁乃木 100
▁吸っ 100
▁敵対 100
▁ラッピング 100
▁念願 100
▁米原 100
▁松村 100
▁警護 100
▁危ない 100
▁セウォル 100
▁箸 100
ぶき 100
残し 100
▁供養 100
▁藩主 100
▁わざわざ 100
▁さな 100
▁篠原 100
▁鋭く 100
▁増産 100
▁向き合い 100
▁ゾウ 100
▁体温 100
▁軽視 100
▁返り 100
▁遭遇 100
▁膨らま 100
▁結晶 100
、6 100
▁全土 100
▁六甲 100
▁5、6 100
▁CP 100
▁勲章 100
▁地銀 100
▁籾井 100
▁チョウ 100
▁置き場 100
▁不妊 100
▁森友 100
▁いたずら 100
求め 100
▁地獄 100
▁小結 100
▁略式 100
▁袴田 100
▁裕太 100
▁奏者 100
▁キヤノン 100
ズル 100
▁自公 100
▁舞妓 100
ンジー 100
▁フェデ 100
▁明日香 100
▁明子 100
▁梨田 100
▁低かっ 100
▁LI 100
▁府中 100
▁シエラ 100
▁バックス 100
▁褒め 100
▁ゴジラ 100
▁一堂 100
▁別々 100
▁車載 100
▁曜 100
▁取り下げ 100
いち 100
▁明白 100
▁焼失 100
▁貫く 100
▁パラオ 100
▁武蔵野 100
▁引っ張り 100
▁ジェン 100
mazon 100
▁遂行 100
あえ 100
▁ルノー 100
▁食器 100
▁財閥 100
▁ハロ 100
▁今作 100
▁売春 100
▁守れ 100
▁踊っ 100
▁前売り 100
サイド 100
▁地層 100
▁進捗 100
▁こころ 100
▁国別 100
▁ALS 100
▁メンタル 100
▁パーセント 100
▁文春 100
▁切手 100
▁コーポレーション 100
▁院内 100
▁受精 100
▁見極める 100
▁FK 100
▁根幹 100
▁帯広 100
▁故意 100
▁目の 100
▁農作 100
▁ダイナミック 100
iv 100
▁大声 100
▁天国 100
▁ヘルメット 100
ぞう 100
▁白川 100
▁電通 100
▁真っ赤 100
▁ローテーション 100
un 100
▁宣誓 100
▁鉱山 100
▁密接 100
▁キャピタル 100
▁危う 100
▁語学 100
▁返上 100
▁稲葉 100
▁椎 100
▁日付 100
▁病原 100
▁頼ら 100
▁拙 100
▁ヘー 100
▁自作 100
▁酢 100
▁あいまい 100
▁択 100
▁碧 100
▁茜 100
▁坂口 100
▁望遠 100
▁蛇 100
▁工法 100
▁ラック 100
▁大町 100
▁小物 100
▁熱意 100
▁吹く 100
▁富田 100
▁曖 100
▁呼び込む 100
▁佳子 100
▁柏崎 100
▁立山 100
▁自在 100
▁ムービー 100
▁域内 100
▁スリランカ 100
▁UN 100
▁ドミ 100
▁ユニシス 100
▁元年 100
残さ 100
▁ビラ 100
▁渡さ 100
▁_ 100
▁HS 100
▁曖昧 100
▁ハンセン 100
▁拓也 100
▁過熱 100
▁更なる 100
▁カス 100
▁兆候 100
▁募り 100
▁川勝 100
▁平屋 100
▁酒気 100
▁防水 100
▁レーン 100
▁ちり 100
▁太宰 100
▁フィルター 100
▁マキ 100
▁進入 100
▁バッジ 100
▁ワクワク 100
▁愛護 100
▁三原 100
▁兼務 100
▁所要 100
▁小倉北 100
▁スギ 100
▁滝沢 100
▁シャワー 100
▁同駅 100
▁下請け 100
▁湿度 100
▁現し 100
▁垂直 100
々しく 100
▁出世 100
▁カッコ 100
▁インターンシップ 100
▁マタ 100
▁調節 100
▁命じる 100
五郎 100
▁シャトル 100
▁デマ 100
▁取り外 100
▁引き合い 100
▁でん 100
▁手塚 100
▁藤枝 100
▁差し引 100
▁持ち運 100
▁▼ 100
▁県勢 100
▁任天 100
▁天安 100
▁緑地 100
▁ほしかっ 100
▁手のひら 100
レスト 100
▁にぎわう 100
▁芥川 100
どき 100
▁技法 100
▁ブラシ 100
▁小田原 100
じて 100
▁おもしろい 100
▁生駒 100
▁駿河 100
▁ひっく 100
▁ピー 100
▁右膝 100
▁遊園 100
▁トーマ 100
▁ラップ 100
▁突っ込ん 100
▁左側 100
▁委ね 100
▁ヘルスケア 100
小牧 100
▁苫小牧 100
▁バーディ 100
▁グラフィック 100
▁辺り 100
▁駅員 100
▁争奪 100
▁無期 100
▁生かさ 100
▁荒れ 100
ーミング 100
▁穀 100
▁不能 100
▁併用 100
▁空輸 100
▁THA 100
▁ずらり 100
▁グランパス 100
▁生まれ育っ 100
▁壮大 100
▁生育 100
▁秋元 100
▁拍車 100
▁母体 100
▁細菌 100
▁縁起 100
▁腫瘍 100
▁THAAD 100
▁個展 100
▁室蘭 100
▁ウィンドウ 100
▁Amazon 100
フィン 100
▁ペンギン 100
▁ヒアリング 100
▁使途 100
▁帝京 100
こもり 100
▁うちわ 100
▁マクロ 100
さる 100
トゥ 100
▁アルペン 100
▁一筋 100
▁中原 100
▁見当 100
▁ひかり 100
寄る 100
▁台本 100
▁ひたすら 100
ミナ 100
干し 100
▁分配 100
スキー 100
▁ミリシーベルト 100
▁えび 100
▁みやぎ 100
▁捻 100
▁六千 100
▁建国 100
▁ビートル 100
▁伯 100
▁異変 100
ブール 100
▁流れ込ん 100
▁区分 100
▁こっち 100
▁巻き込ん 100
▁内村 100
▁決選 100
▁やわらか 100
▁山城 100
▁欠く 100
▁足ら 100
▁ピザ 100
▁後手 100
▁カントリー 100
▁悔い 100
▁火事 100
▁判事 100
▁システムズ 100
ハツ 100
▁久慈 100
▁五郎 100
▁談合 100
▁健太郎 100
▁ナン 100
▁じっと 100
▁醤 100
なみ 100
▁RE 100
▁併殺 100
▁出港 100
▁森山 100
チャン 100
▁多賀城 100
▁ステーキ 100
▁コシ 100
▁山車 100
▁炎上 100
▁返礼 100
ニュ 100
▁始発 100
▁極東 100
▁テナント 100
▁こもっ 100
▁おじ 100
▁前節 100
▁手掛かり 100
▁EE 100
▁両町 100
▁和泉 100
ーチャ 100
▁ダイバー 100
▁諭 100
▁鉛 100
▁イモ 100
▁愛着 100
▁覚書 100
▁杉並 100
▁隠岐 100
▁クローズ 100
▁タク 100
▁刈り 100
▁退位 100
▁飲み物 100
▁典型 100
▁舞う 100
▁バント 100
▁周波 100
▁放課 100
ress 100
▁中高年 100
▁シベ 100
▁ロマ 100
▁塩崎 100
▁接点 100
▁色鮮 100
▁部位 100
▁重軽 100
▁色鮮やか 100
エゴ 100
▁禁錮 100
▁時価 100
▁察 100
▁脆 100
▁マインツ 100
▁TM 100
▁嫌気 100
▁素案 100
▁双子 100
▁壊し 100
▁年率 100
▁自前 100
▁決め手 100
▁街づくり 100
▁続行 100
タム 100
▁修繕 100
▁幕張 100
▁王室 100
▁立憲 100
▁たまに 100
▁扶 100
やさ 100
▁Pl 100
▁コンピュータ 100
遊び 100
▁ナチュ 100
▁組み合わせる 100
▁PA 100
▁ひか 100
▁学童 100
▁カープ 100
▁アルプス 100
▁ダイハツ 100
▁祝賀 100
▁義塾 100
▁CIA 100
▁カート 100
▁そろそろ 100
▁持ち帰っ 100
▁滅 100
ぞろい 100
ディアン 100
▁DL 100
▁寝室 100
▁森本 100
▁セカンド 100
VE 100
▁プル 100
▁浪速 100
▁通院 100
▁目の当たり 100
▁橘 100
▁漱 100
▁大喜 100
▁市側 100
▁粟 100
▁脱税 100
▁返金 100
▁詰める 100
ーサル 100
▁まひ 100
ゃく 100
▁ばん 100
▁奥州 100
▁物事 100
▁叩 100
っこり 100
ッフェ 100
▁引っ張る 100
▁プレイヤー 100
▁アーム 100
▁焼け跡 100
▁漱石 100
▁面白く 100
▁カーター 100
▁ジョンウン 100
▁頼ま 100
▁署長 100
▁ルーマ 100
▁キリ 100
▁形跡 100
▁クリック 100
▁プレゼンテーション 100
▁ハナ 100
▁レコーダー 100
▁きょ 100
▁通す 100
▁付き添 100
▁切れる 100
▁禅 100
ホルム 100
▁ポテト 100
▁マニフェスト 100
▁向か 100
▁和彦 100
▁晩年 100
▁パシフィック 100
▁しい 100
▁やつ 100
▁俊一 100
▁メロディー 100
▁ルーマニア 100
▁スタンダード 100
▁宴会 100
▁狩り 100
▁ブラウ 100
▁育つ 100
▁頬 100
▁のせ 100
ンジン 100
▁作ろう 100
▁造る 100
▁友情 100
▁恵子 100
▁暮れ 100
▁紛失 100
▁絡め 100
▁演目 100
▁生田 100
▁苦悩 100
がす 100
▁解き 100
▁九百 100
▁頻発 100
▁生かせ 100
▁桃子 100
▁殺す 100
▁甲賀 100
▁邪魔 100
まわり 100
▁起こさ 100
▁バグ 100
▁えり 100
▁へい 100
▁優良 100
▁思い浮 100
▁立ち上がっ 100
▁栄え 100
▁訴追 100
▁ギア 100
▁小豆 100
▁吐き 100
▁試写 100
▁追いかけ 100
▁みなし 100
▁出廷 100
▁財界 100
▁JAF 100
▁ステン 100
▁mail 100
▁挨 100
ぞろ 100
▁一歩 100
▁龍馬 100
スティング 100
びり 100
▁多岐 100
▁レンタ 100
▁挫 100
たか 100
▁心筋 100
▁時給 100
歩く 100
▁津田 100
▁親友 100
▁ラマ 100
▁挨拶 100
▁本殿 100
▁論評 100
▁気づか 100
▁ダニエル 100
▁一刻 100
▁重軽傷 100
▁麓 100
▁ルーブル 100
牟田 100
▁スワ 100
▁中途 100
▁先人 100
▁光学 100
▁分科 100
▁問合せ 100
▁釣具 100
ッキリ 100
▁ストックホルム 100
▁BMW 100
▁大根 100
▁憤り 100
▁猛烈 100
▁リハーサル 100
バチ 100
▁良質 100
▁高潮 100
▁ガリ 100
▁点在 100
▁ディスク 100
レオネ 100
▁えい 100
▁期し 100
▁採り 100
▁異物 100
▁笹井 100
▁否め 100
ab 100
▁尹 100
ゆき 100
▁取り上げる 100
▁炒 100
▁蜂 100
▁退避 100
▁唱える 100
▁オフィシャル 100
▁大口 100
▁チン 100
▁巻い 100
▁本戦 100
▁負い 100
▁タマネギ 100
▁取り残さ 100
▁三沢 100
▁悲鳴 100
▁見知 100
▁シエラレオネ 100
比べ 100
焼け 100
▁日田 100
▁カトリック 100
▁不幸 100
のぼり 100
▁かわし 100
▁ギャンブル 100
▁叶 100
さみ 100
ニッシュ 100
▁礁 100
だれ 100
▁裏側 100
▁迷っ 100
ニカル 100
▁ハリー 100
▁味付け 100
▁ファスト 100
▁根強く 100
▁講じる 100
っぴ 100
▁地価 100
▁細い 100
▁光っ 100
▁召し 100
▁濃く 100
▁Net 100
▁地名 100
▁もんじゅ 100
サギ 100
▁和ら 100
▁夜空 100
▁本数 100
▁移り住 100
▁大小 100
▁通期 100
▁銀次 100
▁ヨガ 100
▁隠蔽 100
▁テスラ 100
▁洋一 100
▁海中 100
▁わくわく 100
▁肖 100
敷き 100
着陸 100
▁包装 100
▁同調 100
▁常駐 100
▁サプリ 100
▁異なっ 100
▁離着陸 100
▁侮 100
▁湊 100
▁分譲 100
▁刻み 100
▁貼っ 100
▁役立てる 100
まち 100
OKA 100
▁土居 100
▁不定 100
チョウ 100
▁奮起 100
▁水温 100
▁ヨーグ 100
▁痕跡 100
▁蓄電 100
▁立ち並 100
▁ラーニング 100
▁礎 100
▁セリエ 100
▁鷲 100
▁古巣 100
▁掌握 100
▁部数 100
▁一騎 100
▁平塚 100
▁河原 100
▁浦安 100
▁イエロー 100
▁却 100
▁若松 100
▁ぬいぐるみ 100
落と 100
▁生還 100
▁羽根 100
▁造っ 100
▁由紀夫 100
▁おっしゃ 100
ばり 100
▁Ch 100
▁くぎ 100
▁山地 100
▁戸数 100
▁搬出 100
▁ターボ 100
▁守山 100
▁戦士 100
▁戻ら 100
▁液化 100
▁譲位 100
▁高尾 100
▁フレンチ 100
▁沙汰 100
▁切り開 100
▁ファイナ 100
im 100
▁しー 100
▁精進 100
▁蜜 100
▁阿倍 100
さか 100
▁リモ 100
▁北極 100
▁厳正 100
▁ロマン 100
▁控えめ 100
▁立ち上げる 100
しき 100
▁特任 100
▁蹴り 100
▁車輪 100
▁マサ 100
▁測量 100
▁自負 100
▁持ちかけ 100
▁従い 100
▁興業 100
▁フロン 100
▁当てる 100
▁▲ 100
▁まり 100
▁最期 100
▁水路 100
らう 100
gle 100
▁テコ 100
▁仲裁 100
▁裏付ける 100
▁垣間 100
▁正明 100
▁ドラム 100
▁求職 100
▁衣服 100
どう 100
▁ヴェ 100
▁客員 100
▁取り除く 100
▁ET 100
▁かる 100
▁ぶん 100
▁チア 100
▁公邸 100
▁土井 100
▁真面目 100
▁バチカン 100
▁切り出し 100
がめ 100
▁製糸 100
▁ホタル 100
▁抜ける 100
▁さながら 100
▁優雅 100
▁適当 100
▁たたえる 100
むつ 100
▁下山 100
▁分布 100
フィア 100
▁リベラル 100
▁殴ら 100
▁Goo 100
▁増進 100
▁実刑 100
▁服用 100
▁登っ 100
ニーズ 100
▁受け継い 100
▁ハラ 100
▁ガッツ 100
▁打ち合わせ 100
▁次戦 100
▁食欲 100
▁タケ 100
▁回路 100
▁減産 100
▁アース 100
▁メンズ 100
▁無数 100
▁セーフ 100
▁スナック 100
どっ 100
▁破裂 100
▁てい 100
▁予め 100
▁眠れ 100
▁別荘 100
▁干渉 100
▁直売 100
▁降雨 100
変わり 100
▁ヨーグルト 100
▁補選 100
▁本線 100
▁相乗 100
▁プリンス 100
▁語りかけ 100
▁クロマグロ 100
▁掘り起こし 100
▁イラストレーター 100
ケ崎 100
▁左中 100
▁醸成 100
▁悩まさ 100
▁スクエア 100
▁受け継が 100
▁リピ 100
▁プラント 100
メーション 100
▁スモ 100
▁氷見 100
▁頼ん 100
▁PTA 100
▁盛り上がる 100
▁部活 100
▁極め 100
ージス 100
継ぎ 100
▁乱用 100
▁英文 100
▁転嫁 100
ロット 100
コラ 100
▁未然 100
▁定評 100
▁盗難 100
ンダム 100
▁培養 100
▁愛犬 100
右衛門 100
▁ファウル 100
▁柔らかい 100
▁亡命 100
▁プロポーズ 100
▁コレ 100
▁有馬 100
▁頼っ 100
▁高槻 100
言葉 100
▁消毒 100
▁規範 100
ーレ 100
▁協業 100
▁大江 100
▁脆弱 100
ベルク 100
合える 100
▁あっさり 100
▁ヘン 100
▁宏幸 100
▁進退 100
▁出会う 100
TR 100
オス 100
▁杉田 100
ミネート 100
▁なぁ 100
▁却下 100
っしり 100
▁椿 100
▁カサ 100
▁整形 100
▁直す 100
▁賃料 100
▁中西部 100
▁気付か 100
▁だる 100
▁下痢 100
▁規約 100
▁イーグル 100
▁ふくら 100
▁デッキ 100
▁茶屋 100
▁大石 100
▁権益 100
▁送致 100
▁ウッド 100
▁入選 100
▁平行 100
▁発議 100
▁会え 100
▁客船 100
▁裾野 100
▁原宿 100
▁科し 100
▁阿倍野 100
二郎 100
▁ぬぐ 100
▁空い 100
▁固める 100
▁教え子 100
▁フラッシュ 100
届け 100
▁新鋭 100
▁要所 100
ッティング 100
▁少々 100
▁ファンディング 100
▁敬遠 100
▁瞬時 100
▁乃木坂 100
▁イージス 100
▁匠 100
ベニア 100
com 100
▁泳ぎ 100
▁乳がん 100
▁エッセー 100
▁一人ひとり 100
▁内堀 100
▁子孫 100
▁戦勝 100
▁伝わり 100
▁抜け出し 100
▁ネイチャー 100
▁猟 100
▁道場 100
▁オリオ 100
▁好奇 100
▁抱か 100
▁燃焼 100
▁ホッと 100
▁日の丸 100
▁恨 100
▁外壁 100
▁大丸 100
▁鎌田 100
聞かせ 100
▁仕上がっ 100
▁ストレッチ 100
▁弥生 100
▁朝倉 100
▁琢磨 100
▁ささやか 100
▁専属 100
▁膨張 100
▁催さ 100
あえず 100
ンダイ 100
▁免震 100
▁誓う 100
▁にぎやか 100
▁各市 100
▁じゅん 100
ブルドン 100
▁農政 100
▁局地 100
▁左膝 100
IS 100
▁人脈 100
▁吉岡 100
▁PV 100
ストア 100
▁贈り物 100
▁紋 100
▁水増し 100
▁モナ 100
▁手本 100
▁最善 100
▁篇 100
▁並木 100
▁労災 100
▁年初 100
▁インフォ 100
▁実在 100
▁特派 100
▁兼ね備 100
▁天安門 100
▁申し上げる 100
ne 100
▁室町 100
▁ハンター 100
▁取り押さえ 100
▁諒 100
▁下車 100
▁吐露 100
▁閉館 100
止まり 100
指し 100
▁泳ぐ 100
▁冬場 100
▁練馬 100
▁沈黙 100
ぶっ 100
巻き 100
▁名産 100
▁圧巻 100
▁奥田 100
▁ウィンブルドン 100
▁峠 100
▁アスレ 100
▁YouTube 100
▁ほほ笑 100
▁ウイン 100
▁人格 100
▁ことば 100
▁行き交 100
▁ハンガリー 100
▁密集 100
▁真澄 100
▁醤油 100
▁リチウム 100
▁食肉 100
▁オリオールズ 100
▁モーターズ 100
埋め 100
▁流動 100
▁藤岡 100
▁離職 100
▁コンタ 100
▁テキスト 100
▁こな 100
▁下京 100
▁中大 100
▁焼く 100
▁茨木 100
▁嬉しい 100
▁動け 100
▁追い詰め 100
▁条文 100
▁直筆 100
▁配り 100
▁ふんだん 100
▁濁 100
▁しのぶ 100
▁大祭 100
▁コンパニオン 100
▁庵 100
▁ざん 100
▁ウラ 100
▁電球 100
▁頂上 100
▁EEZ 100
▁グリコ 100
▁色合い 100
▁楠 100
ペラ 100
▁北島 100
▁漂っ 100
▁DC 100
▁会頭 100
▁解約 100
▁遊説 100
▁馬力 100
▁れい 100
▁スマイル 100
ばめ 100
▁はく 100
▁市原 100
▁長州 100
ADOKA 100
▁プライド 100
ベツ 100
▁宇野 100
▁雨天 100
▁宮古島 100
▁粉末 100
フォード 100
▁# 100
▁弾ま 100
▁恐ろ 100
▁服役 100
▁規正 100
▁がかり 100
▁やりがい 100
▁清武 100
▁致死傷 100
▁烏 100
▁往来 100
▁眞子 100
▁アイアン 100
▁敢 100
▁現存 100
▁重力 100
▁リフレ 100
▁ひつ 100
▁従わ 100
▁怒ら 100
▁薦め 100
▁城下 100
▁道警 100
▁砕 100
▁減収 100
▁柚 100
▁難色 100
▁保湿 100
▁要人 100
▁吸引 100
▁ヒート 100
▁顔ぶれ 100
▁プロフェ 100
▁ウォーター 100
▁空調 100
立てる 100
▁ウィル 100
▁ニセ 100
▁小高 100
▁ナチュラル 100
ばき 100
ノス 100
▁凶器 100
デラ 100
▁塩分 100
▁水力 100
▁砂浜 100
▁類似 100
apan 100
▁いったい 100
▁狙わ 100
受ける 100
▁ホルダー 100
クシ 100
▁もろ 100
▁偏見 100
▁優し 100
▁板橋 100
▁癒やし 100
▁GB 100
▁劣勢 100
▁接待 100
▁湿っ 100
寄せる 100
▁度合い 100
▁亀裂 100
▁浜岡 100
▁緩め 100
▁複製 100
▁モント 100
▁宇佐美 100
佐子 100
▁GA 100
▁弱く 100
▁新薬 100
▁祈念 100
▁立証 100
ンドー 100
▁ウー 100
▁レビュー 100
跳び 100
▁力説 100
▁沈め 100
▁駅長 100
▁トーマス 100
▁飛び込み 100
ギャ 100
▁年上 100
▁ピック 100
スマ 100
▁上川 100
▁覆っ 100
▁連想 100
之介 100
▁うたっ 100
▁ビートルズ 100
▁助教 100
▁名曲 100
▁有希 100
▁西成 100
▁閉じ込め 100
▁セガ 100
▁ループ 100
▁シベリア 100
▁Google 100
▁エレクトロニクス 100
▁駒大 100
▁つかめ 100
▁礼拝 100
▁給油 100
▁討議 100
▁ぽつ 100
▁苦境 100
▁しのい 100
▁ミズノ 100
▁ブー 100
▁座る 100
▁榎 100
▁惨敗 100
▁転身 100
▁にらん 100
▁思い浮か 100
▁ゴルファー 100
▁廃絶 100
▁弱点 100
ックル 100
レンデ 100
▁人選 100
▁奈緒 100
▁江戸川 100
▁カワ 100
▁指輪 100
▁業態 100
▁編み 100
▁清潔 100
▁総研 100
ーナツ 100
▁トレイン 100
▁オブジェ 100
ADOKAWA 100
▁KADOKAWA 100
▁オマ 100
▁直通 100
▁ゴメス 100
▁サマー 100
▁交わす 100
▁消える 100
▁キーボード 100
▁名張 100
▁法大 100
▁説い 100
▁背負う 100
▁具材 100
▁バッハ 100
▁暖かい 100
EM 100
オフ 100
▁マックス 100
▁エルサレム 100
▁おさ 100
▁すず 100
▁測位 100
▁赤崎 100
▁赤色 100
▁グロ 100
▁投じる 100
▁はせ 100
▁暴露 100
▁仕込み 100
▁捉える 100
▁ドラゴンズ 100
▁奏で 100
▁対米 100
▁スタンス 100
んじ 100
▁ふな 100
▁祖国 100
▁腰痛 100
▁レジェ 100
▁脊 100
▁ロウ 100
▁地熱 100
▁ペナルティー 100
▁冬型 100
▁夢見 100
▁不便 100
▁右側 100
▁夜景 100
▁阻害 100
▁同業 100
▁敷い 100
▁校庭 100
▁称し 100
▁走塁 100
▁重機 100
▁ぜいたく 100
▁加減 100
▁恵美子 100
▁ノミネート 100
働き 100
▁敷き 100
▁磨く 100
▁いちご 100
▁なぞ 100
▁尊厳 100
▁資生 100
抜ける 100
▁パワハラ 100
▁振り込め 100
▁満面 100
▁降水 100
OP 100
▁折る 100
▁筋力 100
▁乾杯 100
▁根室 100
▁算定 100
▁軍縮 100
▁うなずい 100
▁さっそく 100
▁匂 100
てい 100
▁灯籠 100
▁ベリー 100
▁クライアント 100
▁愉 100
▁乗船 100
▁削っ 100
▁増資 100
▁球児 100
▁組長 100
▁転用 100
▁まとっ 100
▁グラビア 100
▁ランドセル 100
っ子 100
よし 100
▁化合 100
▁名指し 100
▁忙しく 100
▁真っ白 100
▁ワイルド 100
▁ゆで 100
▁単語 100
▁再三 100
▁交錯 100
▁十勝 100
▁スカーフ 100
▁余震 100
▁武者 100
▁証書 100
▁かみしめ 100
▁カーテン 100
▁テクニック 100
▁中傷 100
▁おば 100
▁各紙 100
▁山笠 100
▁岩沼 100
▁新春 100
▁本山 100
▁本願 100
▁凄 100
▁ふじ 100
▁頂け 100
▁アレク 100
ッショナル 100
▁一色 100
▁勾留 100
▁ナノ 100
▁ばか 100
▁三村 100
▁写し 100
▁インク 100
▁勤労 100
▁暴言 100
▁つまみ 100
▁流用 100
▁減災 100
▁コーディネーター 100
づく 100
▁実況 100
▁毎朝 100
▁猛攻 100
▁米兵 100
フライ 100
▁カンヌ 100
ゲス 100
▁ml 100
▁だく 100
▁全治 100
▁日向 100
▁飼料 100
▁鳥居 100
▁十和田 100
▁芋 100
▁ヤジ 100
▁電柱 100
▁ピアニスト 100
▁くに 100
▁激し 100
▁犯し 100
▁TK 100
▁資質 100
▁ノック 100
▁カスタマ 100
▁スイート 100
▁たどり着い 100
ぼこ 100
思い 100
▁MC 100
▁ミツ 100
▁高価 100
▁勘違い 100
▁レバ 100
▁カヌー 100
▁サンマ 100
▁溺 100
▁肖像 100
▁製紙 100
▁見直さ 100
ザイ 100
▁家畜 100
▁金色 100
▁メイド 100
▁勤める 100
▁桟 100
▁遠慮 100
▁たろう 100
▁スイカ 100
▁ブレンド 100
▁ミステリー 100
▁閑 100
▁俊博 100
▁葛藤 100
▁浴びせ 100
テイメント 100
▁匹敵 100
▁山積 100
▁救っ 100
▁ぐるみ 100
▁及ぼし 100
▁イースト 100
▁立ち向かう 100
▁ひび 100
▁納豆 100
▁スノーボード 100
▁人命 100
▁盛況 100
▁ビッチ 100
▁コボスタ 100
▁拍子 100
▁ケルン 100
▁SO 100
▁サマ 100
▁池上 100
▁ダイニング 100
メイ 100
▁怒っ 100
▁生成 100
▁砲撃 100
▁七千 100
▁波乱 100
よく 100
▁協働 100
▁平常 100
▁賭け 100
なわち 100
ッポロ 100
▁NSC 100
▁かさ上げ 100
▁すなわち 100
▁ウォーズ 100
▁スパイス 100
▁奇妙 100
▁寂し 100
▁役職 100
▁叔 100
ナカ 100
▁委嘱 100
▁よしひ 100
置き 100
▁濃縮 100
▁たこ 100
▁なな 100
▁在留 100
▁定価 100
▁レザー 100
▁眉 100
▁民法 100
▁眠っ 100
▁働き掛け 100
▁鯨 100
▁気比 100
▁クルー 100
▁サッポロ 100
▁好む 100
▁ぴあ 100
▁余計 100
ノール 100
▁旺盛 100
▁とれる 100
▁取り囲 100
▁ぺ 100
▁深まっ 100
▁サウス 100
▁掛ける 100
▁利府 100
▁着替え 100
▁美味しい 100
▁追いつい 100
▁央 100
▁論じ 100
▁トラベル 100
▁ネタニヤ 100
▁々 100
▁観賞 100
▁諫早 100
▁踏ま 100
▁チェア 100
▁安楽 100
▁愛国 100
▁戦艦 100
▁聖子 100
ation 100
▁さっぱり 100
開け 100
▁雄大 100
っちゃ 100
▁元々 100
▁ネタニヤフ 100
みれ 100
▁乗降 100
▁必勝 100
▁芝生 100
▁踏む 100
▁増員 100
▁壁面 100
▁ひざ 100
▁自律 100
▁智子 100
▁深海 100
▁かえって 100
▁ウズ 100
▁八尾 100
▁細工 100
▁かねて 100
▁修業 100
▁投影 100
▁有人 100
▁要し 100
▁ソングライター 100
▁広東 100
▁萎 100
▁光一 100
▁同名 100
▁天童 100
▁遺影 100
▁可愛い 100
▁ブロード 100
▁処置 100
▁タッグ 100
▁東亜 100
▁狩野 100
▁連鎖 100
サンプトン 100
▁応急 100
▁返納 100
▁ブリス 100
▁だんだん 100
▁タコ 100
▁肩書 100
▁酔っ 100
▁冷やし 100
▁臼 100
カチ 100
▁カモ 100
▁三好 100
▁ディスカッション 100
踏み 100
キュラム 100
えもん 100
US 100
▁cc 100
▁武雄 100
▁裁量 100
▁分かち 100
▁プロフェッショナル 100
▁大義 100
▁東武 100
▁ゆめ 100
▁公言 100
▁勝た 100
▁サウサンプトン 100
▁宮原 100
▁持ち上げ 100
ES 100
▁凱 100
▁ケガ 100
▁引け 100
▁競輪 100
▁カスタマイズ 100
▁カリキュラム 100
磨き 100
▁刺殺 100
▁藤川 100
▁かぶり 100
▁売り出す 100
▁モジュール 100
▁様式 100
キュア 100
▁だくさん 100
▁炭酸 100
▁日没 100
▁惜しん 100
ゆみ 100
▁ナッツ 100
▁親しん 100
▁商務 100
▁新宮 100
▁景品 100
▁硬い 100
▁讃 100
の出 100
▁岡部 100
▁隆一 100
トリー 100
▁初日の出 100
▁テル 100
▁ベランダ 100
ばせ 100
▁水質 100
▁疎開 100
▁終身 100
▁苦言 100
▁近づけ 100
▁兼ね備え 100
ee 100
ねり 100
洗い 100
▁女神 100
▁従う 100
▁MLB 100
▁聞き手 100
▁ネガ 100
▁粘っ 100
▁レッズ 100
▁並べる 100
▁共働き 100
▁損なわ 100
OR 100
▁縄文 100
▁持ち帰り 100
すき 100
ーシ 100
▁綾瀬 100
▁製菓 100
▁ケータ 100
▁とりあえず 100
ur 100
▁めん 100
▁ヨン 100
▁加美 100
▁工期 100
▁谷川 100
▁隠す 100
▁ドキドキ 100
▁てこ 100
▁翔平 100
▁誠司 100
▁再婚 100
▁多角 100
▁糸井 100
▁鶴見 100
▁リストラ 100
▁ジェームズ 100
▁怖く 100
▁断ら 100
▁満席 100
▁こいのぼり 100
▁ドラえもん 100
▁白色 100
▁秀樹 100
▁起爆 100
▁上り線 100
▁咲い 100
▁異色 100
▁誤報 100
▁養子 100
▁シルエット 100
▁盗み 100
▁突い 100
▁団塊 100
▁昭恵 100
▁竜王 100
▁カツオ 100
▁ワークス 100
▁血糖 100
マリア 100
換える 100
▁落書き 100
▁暖房 100
▁落ち着き 100
▁好意 100
▁抜か 100
▁染色 100
▁横手 100
ーリ 100
▁危ぶ 100
▁延岡 100
▁最寄り 100
▁あけ 100
▁ピエ 100
▁桑原 100
▁見よう 100
▁MA 100
▁拘置 100
▁眠る 100
▁ミネラル 100
▁但 100
▁貴族 100
▁震え 100
栄え 100
▁ワト 100
▁学期 100
▁対峙 100
▁米倉 100
▁あべの 100
▁留置 100
▁竹中 100
▁補完 100
▁見ごろ 100
▁アワード 100
▁加齢 100
▁実装 100
art 100
▁入港 100
▁撃ち 100
▁評し 100
▁チェン 100
▁股 100
▁キティ 100
▁スパイク 100
▁FG 100
▁新庄 100
▁若く 100
▁当ては 100
▁専任 100
▁売り込む 100
▁伊方 100
▁泳い 100
マイ 100
▁松竹 100
▁中退 100
▁昆布 100
ーツク 100
▁じょ 100
▁頼も 100
▁目覚め 100
▁障がい 100
▁とらえる 100
▁ツーリズム 100
もれ 100
らわ 100
▁本多 100
▁付け加 100
▁あっせん 100
▁確かめる 100
▁千里 100
▁厚み 100
▁地蔵 100
▁豪志 100
▁軟式 100
▁そろう 100
▁忘れる 100
▁ストーン 100
▁譜 100
▁モニタリング 100
▁冷え込み 100
▁何十 100
▁やり直し 100
▁うみ 100
▁同窓 100
▁ドアン 100
▁朝ドラ 100
▁保釈 100
▁増減 100
▁壇上 100
▁大手町 100
▁キャベツ 100
▁打ち切り 100
▁売店 100
▁円買い 100
▁盛り込み 100
ーラ 100
▁リノベーション 100
▁ムハ 100
▁一手 100
▁薬師 100
▁秦 100
でも 100
▁タクシン 100
▁インストール 100
▁楼 100
▁涌 100
▁功労 100
▁とんでも 100
▁哲郎 100
▁封印 100
▁義援 100
さし 100
深い 100
▁一足 100
▁施錠 100
▁社債 100
▁総勢 100
▁ビーフ 100
▁仮名 100
▁普遍 100
▁亡くなり 100
▁機雷 100
▁キノコ 100
▁長身 100
▁レイズ 100
▁読める 100
▁見当たら 100
▁勢ぞろい 100
▁コンタクト 100
▁ビス 100
▁緊縮 100
▁きつい 100
ウリ 100
▁ちら 100
▁喜多 100
▁摂津 100
ct 100
▁三笠 100
▁合図 100
▁送料 100
バナンス 100
▁バーガー 100
▁元日 100
▁先導 100
▁凝縮 100
▁腎臓 100
▁軌跡 100
▁運河 100
みそか 100
▁生き残り 100
▁締めくくっ 100
▁飢 100
▁預かり 100
▁駆け引き 100
▁しな 100
▁なみ 100
▁ヴォ 100
YA 100
▁錠 100
▁方言 100
▁険しい 100
▁細か 100
um 100
▁定休 100
▁芦屋 100
ショウ 100
▁返り咲 100
▁割り込ん 100
▁ガバナンス 100
▁渡米 100
▁寄り添う 100
▁ミル 100
▁利害 100
▁茶色 100
▁ミナミ 100
▁酪 100
ケース 100
▁ほんの 100
▁リアス 100
タンブール 100
楽町 100
ナリー 100
▁JRA 100
▁変形 100
▁継い 100
▁雨水 100
▁内川 100
▁国学 100
▁覆い 100
▁防火 100
▁ラファ 100
▁たまら 100
ia 100
▁脱法 100
▁要旨 100
待ち 100
▁商用 100
▁松陰 100
テック 100
▁ハット 100
▁お目 100
▁けっ 100
▁総菜 100
▁OPEC 100
▁お目見え 100
▁亨 100
▁来訪 100
▁田畑 100
▁花子 100
▁ナビゲ 100
▁台場 100
▁のぞき 100
▁ジョージア 100
▁やき 100
▁開演 100
出そう 100
▁LT 100
▁z 100
▁まろ 100
▁久米 100
▁発車 100
▁衆議 100
▁ショコラ 100
びら 100
▁ひん 100
▁ハミ 100
▁木々 100
▁武井 100
▁長打 100
▁くり 100
▁所沢 100
▁減給 100
▁分ける 100
▁リターン 100
▁バイオリン 100
▁オーガニック 100
▁コミュニケーションズ 100
▁聴覚 100
▁レンタカー 100
▁気筒 100
▁サファ 100
▁はん濫 100
▁ゴーン 100
▁暮らせる 100
▁嘆く 100
▁ルーツ 100
▁AV 100
▁あわ 100
▁狭く 100
▁ウッズ 100
▁ネイル 100
▁教わっ 100
▁作物 100
▁宮田 100
▁転じる 100
▁完結 100
▁桑名 100
▁抗争 100
▁三味 100
▁上西 100
▁先祖 100
▁宮家 100
▁ゆとり 100
▁かご 100
▁団員 100
▁黙っ 100
▁浅い 100
▁貸出 100
▁コル 100
▁敗者 100
▁マクロン 100
▁囲む 100
▁水平 100
▁ひき逃げ 100
▁はか 100
▁表敬 100
▁グッド 100
▁田園 100
▁密度 100
▁物品 100
▁遺書 100
プリカ 100
▁鋳 100
どい 100
▁多用 100
▁出直し 100
▁エナ 100
▁供え 100
▁前作 100
▁塊 100
大成 100
▁原産 100
▁集大成 100
▁ウイング 100
▁筑後 100
▁隔たり 100
▁ロッカー 100
▁売り込み 100
▁宝物 100
▁ゅ 100
▁能楽 100
▁たたく 100
▁セルフ 100
▁譲り受け 100
▁バタフライ 100
▁てき 100
▁三鷹 100
CE 100
▁白く 100
▁触る 100
▁COP 100
▁擁する 100
▁取り込ん 100
▁単行 100
▁改訂 100
▁殿下 100
▁RPG 100
▁貧しい 100
▁しっとり 100
▁田川 100
びれ 100
▁大内 100
▁許せ 100
▁ょ 100
▁鬱 100
▁破片 100
▁肺がん 100
▁古田 100
▁牧野 100
▁吹き飛 100
▁上々 100
▁大黒 100
▁キャバ 100
▁深まる 100
▁飛び降り 100
もる 100
▁片道 100
▁萩原 100
▁おこし 100
▁信じる 100
▁フランシスコ 100
▁広野 100
▁萎縮 100
ばっ 100
▁増水 100
▁キャロ 100
入る 100
▁棋院 100
▁検問 100
▁落合 100
▁送球 100
▁幸運 100
▁捕虜 100
▁断続 100
▁本間 100
上がら 100
▁刑法 100
▁小原 100
▁横行 100
▁望ま 100
▁ろうそく 100
▁根絶 100
ぞろえ 100
▁レイア 100
▁品ぞろえ 100
シマ 100
▁労務 100
▁及川 100
▁理系 100
▁っこ 100
▁番付 100
▁金剛 100
▁俊之 100
▁直感 100
▁心地よい 100
ドゥ 100
▁ふみ 100
▁着地 100
▁近辺 100
▁イスタンブール 100
▁匂い 100
▁名詞 100
▁国分 100
▁沢田 100
▁砂漠 100
▁おやつ 100
▁働ける 100
▁匡 100
▁吉永 100
▁まわり 100
▁中尾 100
▁喜劇 100
▁っぽく 100
▁リッチ 100
▁自給 100
▁一路 100
▁正念 100
▁疎通 100
▁任せる 100
▁大牟田 100
植物 100
▁誠意 100
▁つぶやき 100
▁バラバラ 100
▁排他 100
▁もらわ 100
▁スターズ 100
▁畠山 100
▁身の 100
▁レトロ 100
▁スタートアップ 100
げん 100
▁真由 100
▁着々 100
▁速攻 100
▁歌唱 100
ンクス 100
▁AFP 100
▁もとより 100
▁乱暴 100
ウエー 100
▁サト 100
▁園芸 100
▁奏功 100
▁降下 100
ビリティ 100
▁言い切っ 100
▁おとな 100
▁行き詰 100
▁アトランタ 100
▁丹羽 100
▁開閉 100
プール 100
▁ウィンドウズ 100
▁合致 100
▁続編 100
ぐさ 100
▁硫黄 100
らしく 100
▁マカオ 100
▁こつ 100
▁五島 100
▁貸与 100
▁陥り 100
ナーレ 100
▁ネーム 100
▁明かさ 100
まね 100
▁大原 100
▁きわ 100
▁出走 100
▁発泡 100
▁かかわっ 100
▁執る 100
▁就き 100
▁山村 100
ンジェ 100
ンドラ 100
▁分かれる 100
▁くさ 100
▁二の 100
▁噴煙 100
▁左岸 100
▁東邦 100
▁動植物 100
▁ダーク 100
▁一人暮らし 100
にく 100
▁名鉄 100
▁学内 100
▁山谷 100
▁アイコン 100
▁郭 100
▁藤村 100
▁遭い 100
▁馬券 100
ョーザ 100
▁追い込み 100
▁壕 100
バサ 100
▁埋葬 100
▁墳 100
▁頓 100
▁健在 100
▁探り 100
▁守ろう 100
ゲリ 100
▁小西 100
▁湧き 100
▁踏襲 100
▁かたどっ 100
▁ネギ 100
▁周回 100
▁恵み 100
▁白鳥 100
▁襲名 100
▁戦える 100
ングラス 100
▁ICBM 100
▁同機 100
▁履い 100
▁厄 100
▁ふか 100
▁直行 100
▁蹴っ 100
▁アロマ 100
▁チャンピオンシップ 100
ガメ 100
仕事 100
▁イニ 100
▁法科 100
▁発する 100
▁ガンダム 100
▁大腸 100
▁高瀬 100
っちり 100
▁呼称 100
▁喜朗 100
▁断ち 100
━━━━ 100
▁信金 100
▁打倒 100
▁タカラ 100
▁あつ 100
▁購読 100
▁問いかけ 100
▁ぞう 100
▁スプ 100
▁相沢 100
▁マネージャー 100
▁己 100
▁シイ 100
▁参事 100
▁等身 100
▁平幕 100
▁更生 100
▁新橋 100
▁ミスター 100
▁無縁 100
▁除幕 100
FF 100
▁TA 100
▁布陣 100
▁廃案 100
レーツ 100
▁ひまわり 100
ヨシ 100
▁励む 100
▁寝る 100
▁通達 100
▁なめらか 100
▁さし 100
▁右中 100
▁キエフ 100
▁満たさ 100
▁預かっ 100
▁創り 100
▁宝石 100
▁東彦 100
▁登り 100
▁福留 100
▁細め 100
▁知らさ 100
向け 100
▁困窮 100
▁美馬 100
▁闘病 100
▁Blu 100
▁ギョーザ 100
▁乗り込み 100
▁打ち込ん 100
▁閖 100
▁即座 100
▁終日 100
▁アイヌ 100
▁突き進 100
▁ガイドブック 100
▁反転 100
▁同友 100
▁湧い 100
▁先立つ 100
▁ギガ 100
▁殴り 100
▁葛飾 100
▁トッピング 100
▁舗 100
▁枚方 100
▁パウダー 100
流し 100
▁問屋 100
▁寄稿 100
▁岡村 100
▁旅券 100
▁のんびり 100
▁ワトソン 100
▁プロダクト 100
▁樽 100
里子 100
▁東口 100
▁楽譜 100
▁残虐 100
▁留め 100
▁閖上 100
▁標本 100
▁ビズ 100
▁大工 100
▁転勤 100
▁黒木 100
めり 100
▁堆積 100
▁巡業 100
▁開講 100
ーマル 100
▁ガチャ 100
▁決まら 100
▁販促 100
▁賞味 100
▁高卒 100
▁BOX 100
▁よそ 100
▁乗れ 100
▁岩盤 100
▁打撲 100
▁都立 100
▁永田町 100
▁年数 100
▁随所 100
ブレム 100
▁閉め 100
▁頂く 100
▁中銀 100
▁主砲 100
▁廃業 100
▁生体 100
▁翻弄 100
▁風船 100
▁ロドリ 100
▁ジャクソン 100
さぎ 100
▁園田 100
▁耕作 100
▁証し 100
▁バーベ 100
▁出掛け 100
▁他者 100
▁入江 100
▁籠池 100
▁トロント 100
▁Press 100
▁エリザベス 100
▁入念 100
▁大間 100
▁手袋 100
▁教頭 100
▁稼い 100
▁ドール 100
▁アクセント 100
▁浩二 100
り返す 100
▁パール 100
ent 100
▁各校 100
▁平沼 100
▁絶大 100
▁ひろし 100
▁柔らかく 100
合え 100
日月 100
▁加古 100
▁許容 100
▁高市 100
▁三日月 100
▁塗り替え 100
▁綴 100
▁浅尾 100
▁独創 100
▁賄賂 100
▁降し 100
▁欠ける 100
▁沸い 100
▁GHQ 100
▁ドラッグストア 100
▁効い 100
▁プロダクション 100
▁機嫌 100
▁酪農 100
わじ 100
▁DJ 100
▁中世 100
▁新垣 100
▁日刊 100
▁死球 100
▁メモリ 100
▁モスル 100
▁フラッグ 100
シカ 100
▁DS 100
▁果敢 100
▁枯れ 100
▁素朴 100
▁養父 100
▁レバー 100
▁追い込ん 100
MA 100
▁先勝 100
▁復調 100
▁闘う 100
▁NFL 100
▁伊原 100
▁遠の 100
▁費やし 100
▁万引 100
▁かしら 100
▁ケビン 100
▁種子島 100
▁チャージ 100
▁一端 100
▁地味 100
▁源泉 100
▁なるほど 100
▁ぶち 100
▁岩礁 100
▁脱北 100
▁里見 100
▁コック 100
▁フェデラー 100
とき 100
▁一朗 100
▁内需 100
▁創建 100
▁攻める 100
やき 100
ドロ 100
▁がく 100
▁山陰 100
▁見つめる 100
▁フィニッシュ 100
の間 100
▁健診 100
▁肘 100
ぶら 100
▁GW 100
▁おび 100
▁江口 100
▁軍用 100
▁阻ま 100
▁萬 100
▁半端 100
▁真意 100
▁キログラム 100
▁哀悼 100
▁場内 100
▁扱わ 100
▁杉浦 100
▁製鋼 100
▁いっそう 100
▁つくろう 100
▁妄 100
▁ペイ 100
▁陽気 100
▁嶺 100
▁いな 100
▁まく 100
▁中等 100
▁慎司 100
▁買え 100
▁踏み出す 100
▁白浜 100
チックス 100
▁バーベキュー 100
▁露呈 100
▁コーン 100
▁美里 100
▁話せ 100
▁隊長 100
▁算数 100
▁ごめん 100
▁下り線 100
▁尽くさ 100
▁和也 100
ヴァン 100
▁だまさ 100
ペス 100
▁中型 100
▁前述 100
▁融和 100
▁インテリ 100
▁幽 100
▁煎 100
若松 100
▁カビ 100
▁射程 100
▁浜名 100
ラーレン 100
▁うかがえ 100
▁会津若松 100
▁伝えよう 100
▁メッセンジャー 100
▁スニ 100
▁悪魔 100
▁ポジティブ 100
ケ浜 100
▁艦艇 100
▁誇示 100
▁高円 100
▁突き刺 100
▁殻 100
醍醐 100
▁借り入れ 100
▁ベニ 100
▁紀子 100
▁長良 100
▁ガーナ 100
▁仲井真 100
▁毎時 100
▁軽やか 100
▁WD 100
▁湯沢 100
ンマド 100
▁リュック 100
▁浮かび上がる 100
▁ろく 100
▁傑作 100
▁挑み 100
▁アボット 100
ツェ 100
▁キレ 100
▁代え 100
▁みなと 100
▁未払い 100
▁買える 100
▁鳴らす 100
▁やじ 100
▁賢治 100
▁スタイリッシュ 100
▁地表 100
▁更迭 100
▁音源 100
▁下敷き 100
▁to 100
▁松崎 100
▁網羅 100
▁ヒューマン 100
ババ 100
▁しら 100
▁乳児 100
▁夜中 100
▁抵触 100
▁秘訣 100
▁引き寄せ 100
▁追い付か 100
▁ずい 100
▁長引く 100
▁デパート 100
出る 100
▁素人 100
▁ポータル 100
▁バニ 100
▁市外 100
▁パナマ 100
▁日比谷 100
ネックス 100
▁フォルクス 100
▁おぼ 100
▁こく 100
▁ワイヤレス 100
▁腹部 100
▁覆す 100
▁クック 100
▁ブロン 100
▁持ち込む 100
▁料亭 100
▁眠り 100
▁ヴァン 100
▁患っ 100
▁拾っ 100
▁無言 100
▁口論 100
▁同伴 100
▁岡島 100
▁志村 100
▁襲い 100
▁都政 100
▁立ち寄っ 100
▁升 100
▁小牧 100
▁玲奈 100
▁訪ねる 100
▁始球 100
▁本年 100
▁こぎ着 100
▁止まる 100
▁アスレチックス 100
笑い 100
▁SG 100
▁ヒラ 100
▁中嶋 100
▁向井 100
ローラ 100
▁律 100
▁岩本 100
▁照射 100
▁有楽町 100
▁エンブレム 100
▁難易 100
▁大喜び 100
ペル 100
▁バイヤー 100
▁カーペット 100
ザス 100
▁疾走 100
▁フォロ 100
▁辞める 100
ire 100
▁AFC 100
▁クッション 100
▁忌 100
▁御前 100
▁助かっ 100
▁挽 100
コフ 100
▁岩瀬 100
▁特権 100
▁組ま 100
ガイモ 100
▁脅かす 100
▁らん 100
▁法政 100
▁詐取 100
オイ 100
▁消す 100
▁App 100
▁万歳 100
▁厚く 100
▁漂わ 100
▁切り札 100
▁しき 100
▁文献 100
切れる 100
▁みなさ 100
▁スリム 100
▁眺める 100
▁セシウム 100
▁全う 100
▁憂慮 100
▁膜 100
▁対露 100
▁小澤 100
▁素顔 100
▁不二 100
▁淡い 100
▁陶器 100
暮れ 100
▁囲い 100
▁支柱 100
▁簡素 100
▁骨太 100
▁ハノイ 100
▁北見 100
▁クラウン 100
▁噴石 100
▁歌謡 100
ワーゲン 100
▁早紀 100
▁WR 100
▁散布 100
▁銅像 100
▁非核 100
▁ハロウィ 100
▁ジャム 100
チオ 100
▁磁気 100
フォン 100
▁日出男 100
▁サンデー 100
パイ 100
▁和風 100
▁格段 100
▁自制 100
▁立たさ 100
▁康弘 100
▁心中 100
▁融通 100
▁恐ろしい 100
▁餃 100
▁内政 100
▁右派 100
▁撤収 100
▁コスメ 100
▁駆け抜け 100
▁にゃ 100
▁召喚 100
ホジ 100
▁ネス 100
▁字幕 100
▁撃た 100
▁窒息 100
▁質感 100
▁勝ち取っ 100
▁楊 100
▁一役 100
▁悩ま 100
▁フォース 100
▁大みそか 100
▁だまし取ら 100
▁〝 100
▁ソウ 100
▁奉仕 100
▁孔明 100
▁今冬 100
▁森永 100
▁臨海 100
▁賢一 100
GM 100
▁TP 100
▁落ち込む 100
▁城南 100
▁ニンニ 100
▁遅延 100
▁配ら 100
▁高圧 100
▁収める 100
▁愛らしい 100
▁ME 100
▁共用 100
▁硬化 100
▁初演 100
▁ずさん 100
アスロン 100
▁振り切っ 100
▁TD 100
▁くわ 100
ットー 100
▁嘆い 100
▁盾 100
▁ふ化 100
▁餃子 100
▁味わえ 100
▁言い訳 100
▁ピックアップ 100
▁フォルクスワーゲン 100
ケス 100
▁流域 100
▁測る 100
▁発起 100
▁網膜 100
▁開所 100
▁鳥獣 100
▁久保田 100
▁抗がん 100
▁預かる 100
▁バンタム 100
▁練り歩い 100
▁フォックス 100
づい 100
▁米英 100
▁チャイナ 100
▁デーリー 100
▁受け取れる 100
ho 100
▁足取り 100
▁ダー 100
▁先代 100
▁初頭 100
▁多種 100
▁ノベル 100
▁立ち直 100
▁癖 100
▁MO 100
▁威嚇 100
▁村民 100
▁標識 100
▁バイパス 100
▁パロ 100
▁中津 100
▁キレイ 100
▁ドッグ 100
▁埋もれ 100
▁北アルプス 100
▁糧 100
▁こけ 100
▁身内 100
▁適性 100
▁同種 100
▁彩子 100
▁断り 100
▁ずいぶん 100
▁さび 100
▁亡き 100
▁周遊 100
▁敦子 100
▁殺意 100
▁脱退 100
▁説く 100
▁持ち前 100
▁ロナルド 100
▁申し込む 100
▁八代 100
▁スルー 100
ノ門 100
▁つぼ 100
▁モロ 100
▁両校 100
▁同小 100
▁川西 100
▁虎ノ門 100
▁振り付け 100
▁パーソナル 100
▁共著 100
▁食用 100
の川 100
ノ島 100
▁RB 100
▁照会 100
本松 100
▁常陸 100
▁湯浅 100
▁田野 100
▁めちゃ 100
▁賜 100
▁岩泉 100
▁平川 100
▁核心 100
▁民兵 100
▁海運 100
▁ならび 100
▁膨らみ 100
▁よしひで 100
▁プラチナ 100
▁西尾 100
▁ヒノキ 100
▁承諾 100
▁重荷 100
▁右京 100
▁平山 100
▁生き生き 100
▁顔合わせ 100
ine 100
▁執念 100
▁じゃあ 100
▁つくれ 100
▁まじめ 100
▁損なう 100
▁人体 100
▁実名 100
▁極右 100
▁グレード 100
▁結びつけ 100
▁公然 100
▁茶葉 100
▁ステンレス 100
▁フォロワー 100
▁らく 100
▁何事 100
▁ドーハ 100
▁遊べる 100
▁際立っ 100
▁亀井 100
▁天草 100
▁新発 100
▁移さ 100
▁播 100
オリ 100
ブレ 100
▁音質 100
セナル 100
▁バンキング 100
▁ども 100
▁一千 100
▁アーセナル 100
▁称号 100
▁紳士 100
▁論説 100
▁語り部 100
▁ハンカチ 100
▁〟 100
遠い 100
▁助長 100
▁垂れ 100
▁安置 100
▁新疆 100
▁辞書 100
▁鹿屋 100
▁数える 100
▁到底 100
▁鎮魂 100
▁パイオ 100
取れ 100
▁器用 100
▁外見 100
▁くださる 100
▁ムハンマド 100
キラ 100
▁建つ 100
が一 100
▁前哨 100
▁突出 100
▁ソファ 100
▁万が一 100
▁大詰め 100
ジャパン 100
▁頑張ろう 100
▁さと 100
▁テヘ 100
▁医院 100
▁着任 100
▁振れ 100
▁追い付き 100
すり 100
▁天竜 100
頓堀 100
▁RC 100
▁おの 100
▁古屋 100
▁誤算 100
▁道頓堀 100
▁まっすぐ 100
▁ニンジン 100
アナ 100
▁下校 100
▁救い 100
▁民生 100
▁臨場 100
▁路地 100
▁WBO 100
▁推し進 100
▁飛ばす 100
▁きっぱり 100
▁不通 100
▁演歌 100
▁自責 100
▁若田 100
▁買春 100
▁テヘラン 100
▁ボーリング 100
▁都県 100
▁酒蔵 100
▁風情 100
▁刺し身 100
▁図ろう 100
▁郷田 100
ジュア 100
越える 100
▁偉業 100
▁四川 100
▁がんばっ 100
▁ブリスベン 100
▁少量 100
▁立会 100
▁金箔 100
▁ほころ 100
▁ウェル 100
▁マイクロシーベルト 100
obo 100
▁物体 100
ワリ 100
▁属性 100
▁見舞い 100
▁仕上げる 100
▁SH 100
ぐれ 100
▁残せ 100
▁田代 100
▁ブルガ 100
▁ドーナツ 100
▁直美 100
▁脚光 100
▁おかず 100
▁国歌 100
▁境港 100
▁歳入 100
▁若山 100
▁蔡 100
▁やく 100
▁後遺 100
▁挟ま 100
▁転送 100
▁グリー 100
▁膳 100
▁鳴き 100
▁地産 100
▁塚本 100
▁大洋 100
▁役柄 100
▁益城 100
▁認否 100
▁過ごせる 100
▁千佐子 100
パラ 100
▁or 100
▁こじ 100
▁塗っ 100
▁曲げ 100
▁タップ 100
▁横た 100
▁モンテ 100
▁手渡さ 100
▁押しつけ 100
▁小嶋 100
▁正答 100
▁訓示 100
▁イーブ 100
▁受動 100
▁対向 100
塗り 100
テーター 100
▁アシスタント 100
▁変遷 100
▁鉄板 100
▁ジャマ 100
▁改める 100
ビオ 100
渡り 100
▁走れ 100
ライズ 100
▁真っ先 100
▁佐竹 100
▁拝観 100
▁部局 100
▁リバウンド 100
崩し 100
▁下地 100
▁好転 100
▁雪印 100
▁霧島 100
▁黒色 100
▁かなっ 100
▁生かせる 100
▁フィリップ 100
▁主幹 100
▁東通 100
▁絶景 100
▁観劇 100
▁限る 100
▁風潮 100
▁シップ 100
▁タックル 100
▁メモリアル 100
▁凱旋 100
▁大泉 100
▁躍起 100
▁スリップ 100
▁ストローク 100
▁パイオニア 100
▁同賞 100
▁うまみ 100
▁だいぶ 100
▁ガレ 100
▁福袋 100
▁精細 100
▁鴨川 100
▁この世 100
▁スタメン 100
▁マンゴー 100
▁ものすごく 100
▁スティーブ 100
▁ロドリゲス 100
▁炳 100
▁矯 100
▁低温 100
▁正体 100
▁転出 100
きょう 100
▁花びら 100
▁ボクサー 100
ーカ 100
▁CF 100
▁千家 100
▁恩師 100
▁資する 100
▁パニック 100
▁株安 100
▁車掌 100
カロ 100
▁そり 100
▁全人 100
▁苦い 100
▁開港 100
▁ゼリー 100
グマ 100
▁メグ 100
▁早苗 100
▁科さ 100
▁飼っ 100
ファン 100
▁取り付ける 100
▁桓 100
▁抗告 100
▁旭日 100
アウト 100
▁工費 100
▁幕僚 100
▁東方 100
▁綾子 100
▁トルク 100
ニオ 100
▁半田 100
▁完走 100
▁あわら 100
▁ひととき 100
触り 100
▁南方 100
▁埋蔵 100
▁江崎 100
▁ふだん 100
▁クラン 100
▁ビジネスマン 100
▁張ら 100
ガンダ 100
リイカ 100
▁詰め掛け 100
if 100
▁PH 100
▁植木 100
▁留意 100
▁レジェンド 100
▁大卒 100
▁マニア 100
▁マクラーレン 100
▁客足 100
▁快速 100
▁絞ら 100
▁農相 100
▁気づく 100
▁インディ 100
▁ストレージ 100
▁ウオーキング 100
▁営農 100
▁ウエアラブル 100
▁宗像 100
▁新駅 100
▁海南 100
▁着せ 100
▁鉱物 100
▁ボーイズ 100
▁思い思い 100
ジュアリー 100
▁内覧 100
▁工科 100
▁惜敗 100
▁宋 100
▁慕 100
▁パティ 100
▁借りる 100
ik 100
▁菩 100
▁はめ 100
▁水害 100
▁なぎ 100
▁パズル 100
▁面持ち 100
▁コスモス 100
▁ウズベ 100
▁サメ 100
▁三脚 100
▁森下 100
▁トーン 100
▁ラグジュアリー 100
ブド 100
▁うっ 100
▁工具 100
▁採掘 100
▁正人 100
▁税額 100
▁金本 100
▁難題 100
▁哨 100
▁エー 100
▁沢村 100
▁滝川 100
▁ハラス 100
▁政宗 100
▁牛丼 100
▁ティラー 100
▁DA 100
▁おろ 100
▁新居 100
▁狩猟 100
▁陳情 100
ミック 100
▁はまっ 100
▁中略 100
▁各所 100
▁解答 100
▁窪 100
▁こめ 100
▁中越 100
▁多田 100
グラフ 100
▁ロバート 100
▁翌朝 100
▁思いやり 100
過ぎ 100
▁天地 100
▁急が 100
▁書房 100
▁果汁 100
▁死な 100
▁注ぎ 100
▁マリオ 100
▁脈 100
▁議場 100
▁フラット 100
av 100
▁批准 100
▁甘味 100
▁返却 100
▁京王 100
▁室長 100
▁締約 100
ートン 100
▁ヨット 100
▁アリババ 100
▁買い入れ 100
▁カウンセリング 100
▁アナログ 100
▁話しかけ 100
▁ホップ 100
▁モナコ 100
▁全人代 100
ホジッチ 100
▁胎児 100
▁トル 100
▁精子 100
▁頂ける 100
▁上向 100
▁識者 100
▁ハラスメント 100
▁同胞 100
▁指紋 100
▁フレーズ 100
▁繰り出し 100
▁安達 100
▁理屈 100
▁チャネル 100
▁志位 100
▁加古川 100
▁松永 100
▁誘う 100
▁壱 100
ind 100
▁pr 100
▁思い描 100
ギス 100
ーー 100
紀子 100
▁由利 100
▁メリー 100
▁委ねる 100
▁暖かく 100
▁アルカイ 100
▁差し引い 100
▁手がかり 100
▁タフ 100
▁北欧 100
クトリー 100
▁宿題 100
▁正論 100
▁キャンドル 100
近江 100
▁平沢 100
▁新種 100
▁直子 100
▁達増 100
▁ディア 100
▁ナダル 100
▁打てる 100
▁東近江 100
▁むら 100
▁床下 100
▁済州 100
▁苗木 100
▁雄一 100
▁CR 100
▁下す 100
▁康夫 100
▁酒類 100
▁テラ 100
▁ハタ 100
▁倉田 100
▁病棟 100
▁しわ 100
▁ハウ 100
▁かなえ 100
▁議連 100
▁選別 100
▁シイタケ 100
▁レイアウト 100
▁千種 100
▁弊害 100
▁論告 100
アニア 100
▁スラム 100
▁ショール 100
▁金魚 100
起こっ 100
▁アウディ 100
▁スペシャ 100
ノフ 100
▁洲本 100
▁バイオマス 100
▁三谷 100
▁完勝 100
▁松平 100
▁被曝 100
▁試練 100
▁ゲット 100
▁ふわ 100
▁本能 100
▁猪瀬 100
▁一口 100
▁予知 100
▁関根 100
▁もつれ 100
▁リトル 100
▁入れ替 100
▁滑らか 100
▁アイランド 100
▁トロフィー 100
プライアンス 100
TS 100
▁巌 100
みつ 100
▁ぐん 100
▁転入 100
▁須田 100
テール 100
▁あそこ 100
▁りんご 100
▁イーブン 100
▁卵子 100
▁産ん 100
▁箕面 100
▁あきら 100
▁襟 100
踊り 100
▁高揚 100
▁ニンニク 100
▁ゼネ 100
▁器物 100
▁小国 100
▁弱者 100
▁コロラド 100
▁ラブロフ 100
▁コト 100
▁垣間見 100
▁ライナー 100
▁堀江 100
▁怒鳴 100
▁柏木 100
▁温か 100
▁見いだし 100
▁PB 100
▁乱射 100
▁有形 100
▁心強い 100
▁遍 100
▁心待ち 100
▁ジャガイモ 100
▁桟橋 100
▁訪韓 100
ットン 100
▁こぎ着け 100
▁マインド 100
ちん 100
ぱく 100
▁ぶつかる 100
▁スル 100
▁矯正 100
▁帰れ 100
▁広める 100
セイ 100
▁縛ら 100
▁ストラップ 100
▁LP 100
▁さつ 100
▁下田 100
▁歩調 100
▁親指 100
▁見上げ 100
▁男優 100
▁驚異 100
ノトリ 100
去ら 100
▁他党 100
▁献上 100
プライズ 100
▁リベンジ 100
▁切りつけ 100
▁レーシング 100
▁胆 100
▁島崎 100
▁春節 100
▁検疫 100
▁雄平 100
▁New 100
スティン 100
▁ディフェ 100
▁エンゼルス 100
エム 100
持つ 100
食い 100
▁多能 100
▁漏らす 100
▁越える 100
曽根 100
▁勇太 100
▁かるた 100
▁プリンセス 100
▁徴用 100
▁沙羅 100
ファイ 100
▁ユーザ 100
▁傾ける 100
▁侮辱 100
▁収監 100
▁揺ら 100
▁補充 100
▁みらい 100
▁マザー 100
▁バラエティ 100
ut 100
▁鮎 100
▁視力 100
▁過ち 100
▁ニック 100
▁ニット 100
▁こだわら 100
▁付け加え 100
▁ゼン 100
▁下町 100
▁相棒 100
▁突如 100
▁ドナルド 100
▁ハルカス 100
▁コウノトリ 100
▁戯 100
▁絢 100
▁ええ 100
▁メタル 100
ネタ 100
▁哨戒 100
▁嘉田 100
▁植村 100
▁祐一 100
▁農学 100
▁鉾 100
▁話さ 100
▁構わ 100
▁遠野 100
かれ 100
▁オートバイ 100
▁ハンバーグ 100
▁オホ 100
▁タイル 100
▁足踏み 100
▁Play 100
▁凌 100
ひろ 100
▁夏ごろ 100
▁二郎 100
▁赤く 100
▁大河原 100
▁突き止め 100
交ぜ 100
▁遺品 100
▁彩ら 100
▁臆 100
▁頸 100
▁行え 100
▁見かける 100
▁盟 100
▁千尋 100
▁殴る 100
▁税理 100
▁デマンド 100
▁仕掛ける 100
▁便宜 100
▁新婦 100
▁櫛 100
▁茉 100
続け 100
▁やせ 100
▁中年 100
▁内務 100
▁土産物 100
▁リピーター 100
▁ロペス 100
▁ヘディング 100
▁霜 100
▁エプ 100
▁トク 100
▁隠せ 100
▁左越え 100
▁パーソナ 100
▁乗り越える 100
▁ッ 100
▁久子 100
▁大樹 100
▁負け越し 100
▁地酒 100
▁懐疑 100
▁くつろ 100
▁積もっ 100
▁介助 100
▁奥村 100
▁敷設 100
▁贈賄 100
▁切れ目 100
▁オホーツク 100
▁謹 100
わん 100
▁代謝 100
▁理学 100
▁疑義 100
▁試飲 100
▁にん 100
▁冷め 100
▁失格 100
▁手記 100
▁潮流 100
▁炒め 100
▁老後 100
▁返信 100
▁太宰府 100
▁ステッカー 100
▁かわいらしい 100
ps 100
▁人出 100
▁内臓 100
▁天使 100
▁彩っ 100
▁未熟 100
▁着く 100
▁茶会 100
▁できあ 100
リントン 100
▁NY 100
▁ヘイ 100
▁射水 100
ミルク 100
▁携わり 100
▁町並み 100
▁リフレッシュ 100
だっ 100
リナ 100
▁潜伏 100
▁アスタ 100
▁持ち運び 100
▁一望 100
▁体現 100
▁茂雄 100
▁門前 100
▁スピン 100
ナンデス 100
▁櫻 100
▁ヨシ 100
▁休む 100
▁動力 100
▁建材 100
▁柳川 100
▁刈羽 100
▁戻れ 100
▁落とさ 100
▁パワフル 100
▁作り出す 100
▁苑 100
▁ねつ 100
▁育休 100
▁騒然 100
▁溢れる 100
▁ブラッター 100
▁喜美 100
▁寛容 100
▁手当て 100
▁着ぐるみ 100
ケ原 100
▁小坂 100
▁年配 100
きわ 100
▁精通 100
▁バース 100
▁ずれ込む 100
▁真鍋 100
▁結党 100
▁まとも 100
カーイダ 100
▁バンダイ 100
▁行き交う 100
▁交じり 100
ハマ 100
▁いの 100
▁プルト 100
▁デンソー 100
FE 100
▁つぎ 100
▁山野 100
▁取り揃え 100
▁堅守 100
▁屈辱 100
▁添加 100
▁ちゃい 100
▁ウエスタン 100
▁洋子 100
▁糖質 100
▁堀内 100
▁寸前 100
▁縮め 100
▁電磁 100
▁ジャマイカ 100
▁プルトニウム 100
▁貴志 100
▁軽め 100
▁しみじみ 100
▁史実 100
▁敷か 100
▁滞納 100
▁野心 100
▁遅らせ 100
▁アルカイダ 100
TV 100
▁建てる 100
▁◆ 100
▁グマ 100
▁予感 100
▁壮行 100
▁織物 100
▁過大 100
▁アリス 100
▁バスケ 100
▁レシー 100
▁ヘーゲル 100
▁絞り込み 100
▁サングラス 100
控え 100
▁柴崎 100
▁背負い 100
▁途切れ 100
▁立ち並ぶ 100
▁マッピング 100
▁アルカーイダ 100
▁あず 100
▁岩井 100
▁騎乗 100
重なる 100
▁ほしく 100
みず 100
▁セー 100
▁改築 100
▁託さ 100
▁酵素 100
▁カリスマ 100
YO 100
レア 100
▁いさ 100
▁レゴ 100
▁就寝 100
▁浄水 100
デレラ 100
▁バケ 100
▁プチ 100
▁目立た 100
▁見込め 100
▁丹波 100
▁前々 100
▁惨事 100
▁時効 100
▁洋上 100
▁都連 100
▁清涼 100
▁穀物 100
▁そっと 100
スリ 100
ポワ 100
▁おろし 100
▁ルペン 100
▁ハミルトン 100
▁痴 100
▁悲観 100
ジカル 100
ロコシ 100
▁たぶん 100
▁ニオイ 100
ECD 100
▁SR 100
▁親王 100
▁館山 100
▁競り合い 100
▁サイクリング 100
▁侑 100
▁広範 100
▁防い 100
▁OECD 100
▁名城 100
▁引き換え 100
奈子 100
▁醍醐 100
▁野原 100
▁いけれ 100
▁ハーバード 100
▁した 100
▁山道 100
▁独走 100
ICA 100
▁安佐北 100
▁捨てる 100
▁修二 100
▁舗装 100
ベンチ 100
▁うさぎ 100
▁ディープ 100
▁効力 100
▁勝久 100
▁炊き 100
▁英明 100
▁ADB 100
▁染まっ 100
▁上杉 100
▁北信 100
▁卑劣 100
▁技師 100
抜い 100
▁PG 100
▁対岸 100
▁巨匠 100
▁青島 100
▁詰まら 100
▁LD 100
▁土器 100
▁のぞみ 100
▁アダム 100
▁ミッキー 100
ズナ 100
▁ハブ 100
▁堀川 100
▁魔女 100
▁ザン 100
▁即位 100
▁収拾 100
▁のぼっ 100
▁フュー 100
▁大田原 100
▁買い付け 100
ワイライト 100
ブロ 100
▁公道 100
▁古都 100
▁高波 100
▁モニュ 100
▁淑 100
▁執り 100
▁緒方 100
▁隆寛 100
▁増えれ 100
▁大通り 100
▁出所 100
▁往生 100
▁浄土 100
▁ちそう 100
▁カンザス 100
ぷら 100
▁出れ 100
▁向く 100
▁富ん 100
▁急ぎ 100
▁栄冠 100
▁コンシェル 100
▁電線 100
▁出かける 100
でん 100
▁差額 100
▁韓流 100
ラート 100
▁リコー 100
▁トワイライト 100
▁未婚 100
▁どっち 100
▁尽きる 100
▁御殿場 100
が関 100
▁救難 100
▁沸騰 100
▁絵馬 100
▁苦難 100
▁遷宮 100
バック 100
▁ファル 100
▁霞が関 100
▁のび 100
▁食い止める 100
▁渕 100
▁信条 100
▁河崎 100
▁レクサス 100
▁びわ 100
▁ざわ 100
▁ひどく 100
▁骨子 100
下ろす 100
▁属する 100
▁ストーブ 100
▁ロジャー 100
府県 100
▁地政 100
▁軍団 100
▁小豆島 100
▁防げ 100
▁突っ込み 100
em 100
▁欣 100
はぎ 100
▁育む 100
ープル 100
▁はしご 100
▁買い上げ 100
ラミ 100
▁京子 100
▁商人 100
▁年下 100
▁沼田 100
▁浴室 100
▁溶接 100
リウム 100
▁クリスタル 100
▁ストライカー 100
▁モニュメント 100
こく 100
消し 100
▁和洋 100
▁小雨 100
▁ホース 100
▁アンディ 100
いき 100
▁トウモ 100
▁官庁 100
▁総力 100
▁覇権 100
▁トウモロコシ 100
▁僅 100
返さ 100
▁なじ 100
▁墓参 100
▁慎吾 100
▁銭湯 100
▁ヘルシー 100
斎橋 100
▁巡礼 100
▁のぞく 100
▁クイーン 100
▁乗り入れ 100
建て 100
▁ビート 100
▁プラカード 100
▁サプリメント 100
飾り 100
▁占い 100
▁名村 100
▁民謡 100
▁爽快 100
ラップ 100
▁勝ち進 100
▁アラビア 100
▁此 100
▁プロフィール 100
▁挫折 100
▁謝意 100
▁逸脱 100
▁重度 100
▁食育 100
▁親しい 100
▁シンデレラ 100
▁アッ 100
▁多治 100
▁肝炎 100
▁西鉄 100
▁難関 100
▁呪 100
▁喉 100
▁一服 100
▁歌人 100
▁ゲリラ 100
▁フレーバー 100
▁シャーロット 100
▁サザ 100
▁信一 100
バース 100
▁総当たり 100
▁くい 100
▁本丸 100
▁秩父宮 100
合わせる 100
▁いちばん 100
▁クリエーター 100
▁ミク 100
▁減量 100
▁西原 100
▁春日井 100
ごし 100
▁垣根 100
▁生協 100
▁芳賀 100
▁インスタ 100
▁カーボン 100
▁逢 100
▁ぐっ 100
▁公用 100
▁削り 100
▁湖西 100
▁無休 100
▁だいたい 100
▁小柄 100
▁給水 100
▁収まる 100
▁リクエスト 100
▁平泉 100
▁発給 100
▁多治見 100
▁曲がり 100
▁欠かさ 100
▁PD 100
▁万葉 100
▁参与 100
▁面識 100
▁追い付い 100
▁盧 100
▁半壊 100
▁均等 100
▁抑留 100
ザンヌ 100
▁みずみず 100
▁寄り添っ 100
▁はち 100
▁よさ 100
▁出前 100
▁辰巳 100
▁ナポリ 100
▁乗り物 100
▁円形 100
▁フォーカス 100
▁ぶっ 100
▁切実 100
▁家臣 100
▁父母 100
▁ねらい 100
▁エレガ 100
▁ジオラマ 100
▁スキャンダル 100
ハブ 100
バタ 100
▁幸子 100
▁断熱 100
▁OFF 100
▁たまり 100
▁アトリエ 100
▁むつ 100
▁交互 100
▁徹し 100
▁松葉 100
▁真っ向 100
▁ブルース 100
▁リーガー 100
▁立て続け 100
▁ネガティブ 100
▁拷 100
▁打破 100
▁拷問 100
▁村松 100
▁素早 100
▁パーソン 100
が丘 100
むき 100
▁刈谷 100
▁車庫 100
バサダー 100
▁織り交ぜ 100
▁乳製 100
ガルト 100
▁しまえ 100
▁勧める 100
▁仮装 100
▁破砕 100
▁軍国 100
あわせ 100
▁ノバク 100
ッショナー 100
▁きょうだい 100
▁コンシェルジュ 100
▁悪意 100
▁緑茶 100
▁練っ 100
▁仕切り 100
▁日焼け 100
だら 100
ノム 100
▁硬式 100
▁自陣 100
▁順延 100
▁引き金 100
▁ヒュース 100
戻す 100
▁暗闇 100
レーズ 100
▁リーチ 100
▁古谷 100
▁乗せる 100
▁メグミルク 100
▁杏奈 100
▁芽生 100
▁音波 100
▁エンタープライズ 100
▁モモ 100
▁入幕 100
▁ホイール 100
▁伝授 100
▁斜め 100
▁葉山 100
▁街宣 100
▁だるま 100
▁色紙 100
▁見習 100
▁願望 100
カミ 100
▁一杯 100
▁欠如 100
▁浩司 100
▁消耗 100
▁缶詰 100
▁跳び 100
▁ひときわ 100
▁ウズベキスタン 100
▁暇 100
▁絞る 100
▁裕之 100
▁はじめて 100
▁戦犯 100
▁断行 100
プー 100
▁すが 100
▁遺言 100
▁マグマ 100
▁アライ 100
▁リーフ 100
ーチャル 100
▁プロバイ 100
くみ 100
▁恵比 100
▁清治 100
▁短歌 100
ージャ 100
PAN 100
▁イブ 100
▁藤野 100
▁道県 100
▁重鎮 100
ぽつ 100
▁ヤギ 100
▁封筒 100
▁東映 100
▁見越し 100
PT 100
og 100
▁前頭 100
▁ひそか 100
▁ともかく 100
▁ポッター 100
▁貸し出す 100
▁メディカル 100
▁御堂 100
▁杉原 100
▁王滝 100
▁取り出す 100
▁キックオフ 100
▁歪 100
クタ 100
越さ 100
▁必需 100
▁ヒューストン 100
▁憎悪 100
▁星稜 100
▁無限 100
▁思い入れ 100
▁振る舞わ 100
▁おれ 100
▁喫緊 100
▁垂水 100
ージナル 100
▁生み出さ 100
▁粋 100
▁イグ 100
▁ソム 100
▁学館 100
▁日照 100
▁異様 100
▁だす 100
▁ハピ 100
▁丸岡 100
▁力投 100
▁南野 100
▁収蔵 100
▁紙幣 100
▁カリブ 100
▁シャラ 100
▁ピーター 100
ナビ 100
▁定食 100
▁理工 100
▁パルコ 100
▁乏しく 100
▁コミッショナー 100
▁かが 100
▁はり 100
▁営み 100
▁底堅 100
▁暴動 100
▁知子 100
▁遊び心 100
▁キラキラ 100
漬け 100
▁山東 100
▁適度 100
▁ハノー 100
▁アンバサダー 100
▁フェンシング 100
▁メリ 100
▁レガ 100
▁作文 100
▁順子 100
▁ボーイ 100
▁夏祭り 100
▁ウソ 100
▁他県 100
▁救護 100
▁田島 100
▁突く 100
▁逸品 100
▁はじき 100
▁ばらつき 100
▁言い切る 100
スピ 100
良部 100
▁中之 100
▁全店 100
▁島原 100
▁議院 100
▁賄う 100
▁しのぐ 100
ジョコビッチ 100
ハイオ 100
▁行き先 100
▁角川 100
▁ジュー 100
▁例え 100
▁削る 100
▁岸本 100
▁役人 100
▁推す 100
▁量刑 100
▁カ年 100
▁怪獣 100
▁ボランチ 100
▁蓋 100
▁ぶら 100
▁物販 100
ニティ 100
ットガルト 100
▁ルク 100
▁来夏 100
▁燃える 100
▁惹 100
▁か月 100
▁幸村 100
▁歩む 100
ビエル 100
▁コメン 100
▁エサ 100
▁栄光 100
▁疾病 100
ヒカリ 100
▁暴投 100
けない 100
▁うわさ 100
▁れんが 100
▁使い道 100
▁カーリング 100
▁OL 100
▁にっこり 100
▁オハイオ 100
▁カージナル 100
▁一掃 100
▁各界 100
▁奈々 100
▁火花 100
▁碁聖 100
まん 100
キス 100
▁ゲイ 100
▁書け 100
▁本命 100
▁歳月 100
▁貝塚 100
▁アブドラ 100
▁スクラン 100
▁てつ 100
▁壊さ 100
▁感知 100
▁死骸 100
▁没後 100
▁管弦 100
▁咲き誇 100
▁スタミナ 100
▁調停 100
▁大蔵 100
▁官公 100
▁整合 100
▁登る 100
▁プロペラ 100
▁コメンテーター 100
▁De 100
▁プラグ 100
▁カージナルス 100
▁新町 100
▁漁場 100
システム 100
▁封じ込め 100
▁公子 100
▁求心 100
▁脅かさ 100
MO 100
▁鉛筆 100
ハリ 100
百合 100
▁太一 100
▁銘打 100
▁カカオ 100
▁Kobo 100
▁エンジニアリング 100
恵子 100
▁竜也 100
▁ひとまず 100
▁カミ 100
▁ガイ 100
▁熱海 100
▁示せ 100
▁遠方 100
ティビ 100
▁まろやか 100
ザード 100
▁バーゼル 100
▁サーフィン 100
▁采 100
ーヴ 100
▁なつ 100
▁寄生 100
▁灯油 100
▁鼓舞 100
▁ビーム 100
▁漏れる 100
▁シャラポワ 100
▁シャンパン 100
▁BO 100
▁タバ 100
▁トス 100
▁伊吹 100
▁吉祥 100
▁おまえ 100
▁タービン 100
▁ウオーター 100
▁芹 100
▁まど 100
▁ワー 100
▁利子 100
▁指先 100
▁筑紫 100
▁自販 100
▁長らく 100
▁露天 100
▁ラッキー 100
▁ハンドリング 100
▁背泳ぎ 100
▁使節 100
▁入荷 100
▁対空 100
▁恨み 100
▁成瀬 100
▁須磨 100
▁マック 100
▁幕開け 100
▁歯磨き 100
まとめる 100
▁リタ 100
▁外遊 100
▁落胆 100
▁訴求 100
ギング 100
ざす 100
▁一躍 100
▁俊介 100
▁設問 100
▁赤外 100
▁部材 100
▁妄想 100
▁山川 100
▁真一 100
▁英輝 100
▁うたう 100
▁伊勢崎 100
▁呼び込み 100
香子 100
▁下手 100
▁大友 100
▁大曲 100
▁習い 100
デックス 100
▁やすかっ 100
▁ハンマー 100
ce 100
▁はみ 100
▁代弁 100
▁新刊 100
▁済ん 100
ンジャ 100
▁ジャス 100
▁ホノル 100
▁コロシアム 100
▁インテリジェ 100
▁昂 100
にち 100
の花 100
▁ぶれ 100
▁船員 100
▁降ろし 100
▁うかがう 100
▁レスター 100
▁丈夫 100
▁散乱 100
▁東名 100
▁物議 100
ターズ 100
▁ホノルル 100
ヤン 100
▁単一 100
アレス 100
ビスコ 100
▁空き地 100
▁ギリギリ 100
▁えと 100
ータン 100
▁あおり 100
▁叫ぶ 100
▁縫い 100
▁障壁 100
▁苦しめ 100
▁プレハブ 100
▁樺 100
▁会食 100
▁同村 100
▁平地 100
▁改竄 100
▁テイスト 100
じい 100
▁同展 100
▁執拗 100
▁小雲 100
▁メタン 100
▁馨 100
▁新緑 100
ッスル 100
▁フェリ 100
▁心構え 100
▁つなげよう 100
▁カウントダウン 100
▁爆笑 100
崩れ 100
▁同所 100
▁穴水 100
▁美穂 100
▁さかのぼる 100
▁ガニ 100
▁サツ 100
▁伸晃 100
▁伸び悩み 100
▁こっ 100
▁ほお 100
▁ムラ 100
▁全社 100
▁大成 100
▁ヨナ 100
▁弾き 100
▁情緒 100
▁細田 100
▁軸足 100
▁CAS 100
▁呼び出し 100
▁組み込ま 100
▁在外 100
▁玲子 100
▁真弘 100
▁課す 100
利き 100
▁弾頭 100
▁拒ん 100
ビアン 100
▁煩 100
ズマ 100
パル 100
▁手放 100
▁病床 100
▁しのん 100
▁めった 100
リオール 100
▁引き取り 100
▁先住 100
▁存立 100
▁庄内 100
▁政局 100
▁しんど 100
▁分社 100
▁又吉 100
▁植田 100
▁福士 100
▁里親 100
▁宝くじ 100
▁ナビスコ 100
▁乗り心地 100
▁FX 100
▁洋画 100
▁筆記 100
ジャン 100
▁ふもと 100
▁取り外し 100
▁生き残っ 100
デーション 100
▁Japan 100
▁フライパン 100
IP 100
そな 100
▁つや 100
▁丸亀 100
▁休校 100
▁再燃 100
▁出水 100
▁座敷 100
▁麻友 100
▁さり 100
▁にこ 100
▁予見 100
▁坂田 100
▁マーティン 100
CA 100
▁井口 100
▁破れ 100
▁選べ 100
▁鎖 100
▁分権 100
▁カルロス 100
▁度重なる 100
▁厨 100
▁かわ 100
▁フグ 100
▁優作 100
▁序列 100
▁清算 100
▁秒間 100
▁返答 100
▁グリップ 100
▁常滑 100
▁暗く 100
▁辞さ 100
▁青柳 100
▁順当 100
▁高畑 100
▁ウォー 100
ーティー 100
▁JAPAN 100
戻さ 100
▁はつ 100
▁共鳴 100
▁大館 100
▁好物 100
▁宮中 100
▁車窓 100
▁重厚 100
▁長短 100
▁中小 100
▁塩谷 100
▁正樹 100
▁登記 100
▁ねぶた 100
▁塁 100
▁ネオ 100
▁フー 100
▁帰属 100
▁皇位 100
▁かまぼこ 100
▁クオリティ 100
▁ハンバーガー 100
▁混戦 100
▁異名 100
▁ジーンズ 100
▁卒中 100
▁常態 100
▁遊具 100
▁たたず 100
▁怖かっ 100
ポー 100
▁対案 100
▁美智 100
▁押し下げ 100
▁シャンプー 100
▁パイプライン 100
hi 100
▁魁 100
▁でる 100
▁エフ 100
▁りそな 100
▁苦しく 100
▁取り消す 100
▁カボ 100
▁山々 100
▁名乗っ 100
▁食い止め 100
めい 100
▁ざい 100
▁巡行 100
▁体形 100
▁捻出 100
▁蹴る 100
▁振る舞っ 100
▁ホタ 100
▁忠誠 100
▁デフォ 100
▁危ぶま 100
▁Blue 100
▁サンダー 100
▁日替わり 100
▁アドベンチ 100
ぐっ 100
▁探検 100
▁桜島 100
▁掛かる 100
▁檜 100
グゼ 100
▁偏っ 100
▁大鵬 100
▁太地 100
▁むき出し 100
▁趣向 100
▁せめて 100
▁ホテルズ 100
▁買い求め 100
ram 100
▁ぬれ 100
▁入金 100
▁後者 100
▁新郎 100
▁沈む 100
▁インストラクター 100
▁マカ 100
▁晴天 100
▁そら 100
▁キル 100
▁油田 100
▁絵師 100
▁惜しま 100
通し 100
▁オア 100
▁命日 100
▁智美 100
▁決起 100
▁出合い 100
▁収まっ 100
ビジョン 100
▁京浜 100
▁出没 100
▁山麓 100
▁鮮度 100
▁北信越 100
▁じつ 100
▁主軸 100
▁各務 100
▁筒香 100
▁習っ 100
▁黙々 100
▁ODA 100
▁コナミ 100
▁カウンセラー 100
わか 100
▁往年 100
▁中曽根 100
▁一巡 100
▁一幕 100
▁周期 100
▁モリ 100
▁出入 100
▁講堂 100
▁農民 100
▁ヒール 100
▁稲荷 100
▁ペダル 100
▁キュート 100
▁犠打 100
▁高円宮 100
ice 100
▁ゴン 100
▁油断 100
▁課し 100
▁遊覧 100
▁ヤンゴン 100
▁引き離し 100
アリ 100
▁ゲン 100
▁民泊 100
▁振り回 100
▁走れる 100
▁申し込ん 100
トー 100
▁がり 100
▁原型 100
▁既成 100
▁極力 100
▁絶っ 100
▁試さ 100
▁伊藤忠 100
▁盛り土 100
▁こぼれ球 100
▁アンコール 100
滑り 100
▁火の 100
▁小久保 100
▁輔 100
▁失礼 100
▁しぐさ 100
▁マダイ 100
更津 100
▁懇親 100
▁本国 100
▁溶融 100
▁天ぷら 100
▁木更津 100
▁焼き肉 100
▁ミニゲーム 100
▁込 100
▁欠き 100
なじみ 100
▁MBS 100
▁しごと 100
▁バニラ 100
▁ワカメ 100
▁手放し 100
▁たかじん 100
▁ギャラク 100
▁牙 100
▁ろっ 100
▁再興 100
▁大連 100
▁尾張 100
▁フランチャ 100
▁ほめ 100
▁海浜 100
▁版画 100
▁したた 100
▁移り住ん 100
ニエ 100
▁九千 100
▁硬く 100
ケーキ 100
▁置き去り 100
▁ササ 100
▁一途 100
▁全英 100
▁友美 100
▁安曇 100
▁語気 100
▁論調 100
ッタリ 100
▁ブライダル 100
▁世耕 100
▁ジェフ 100
▁ブルーム 100
▁艶 100
▁国公 100
▁恐喝 100
▁釣果 100
▁比べれ 100
ort 100
▁ミネ 100
▁公介 100
▁化し 100
▁疲弊 100
▁連ねる 100
リアーズ 100
▁ノロ 100
▁とどめる 100
▁ぽつぽつ 100
▁張り上げ 100
▁おっしゃっ 100
はだ 100
▁レセ 100
▁不順 100
▁学研 100
▁居間 100
▁折衝 100
▁損保 100
▁海産 100
フレーズ 100
▁サックス 100
OL 100
▁稲垣 100
▁絵柄 100
ステン 100
▁塀 100
▁伊那 100
▁回顧 100
▁地消 100
▁鳴っ 100
▁すくい 100
▁カエル 100
▁アフター 100
テイリング 100
▁外さ 100
▁査定 100
▁精彩 100
▁解党 100
▁ヒツジ 100
UN 100
▁ザル 100
▁昭宏 100
▁競演 100
▁たすき 100
▁崩れる 100
▁度々 100
▁新婚 100
▁秀人 100
ペスト 100
▁きのう 100
▁バーチャル 100
OK 100
▁一心 100
▁暴れ 100
▁ブリヂ 100
ティション 100
▁ブリヂストン 100
▁流氷 100
▁電工 100
▁見届け 100
▁キャッチフレーズ 100
▁上皇 100
▁傍受 100
▁安住 100
▁聞かさ 100
▁疫 100
▁特命 100
▁マウント 100
▁モットー 100
▁スティック 100
▁熱唱 100
▁真偽 100
▁積ま 100
▁行楽 100
▁要衝 100
▁にじむ 100
▁ラファエル 100
▁インターフェ 100
四郎 100
▁やゆ 100
▁分泌 100
▁基文 100
▁石綿 100
▁空席 100
▁潰 100
▁パド 100
▁清原 100
▁玉川 100
▁藤崎 100
▁うらや 100
▁振り込み 100
ずっ 100
▁今宮 100
▁片田 100
▁デフォルト 100
▁唄 100
▁渉 100
▁紀明 100
▁須藤 100
ルーン 100
▁わが家 100
▁シーム 100
まけ 100
去る 100
▁名手 100
▁調教 100
▁ファシ 100
▁売り切れ 100
▁モントリオール 100
あっ 100
▁挿入 100
ビット 100
▁フィットネス 100
なが 100
▁深み 100
▁調剤 100
▁しきり 100
▁レンガ 100
▁サスペン 100
▁高止まり 100
▁三上 100
▁乙女 100
▁五典 100
▁傾き 100
▁抜擢 100
▁有価 100
▁欲望 100
▁石山 100
▁送還 100
▁びょう 100
▁エナジー 100
▁専大 100
▁弾力 100
ホーテ 100
▁譲っ 100
▁ゴル 100
▁再任 100
▁挟み 100
▁猪木 100
▁結審 100
▁ガーディアン 100
っぺ 100
▁球技 100
▁酔い 100
▁濱 100
越す 100
▁フン 100
▁ムーン 100
▁スニーカー 100
のこ 100
荒れ 100
馴染 100
ell 100
▁築か 100
▁うつ病 100
▁プライム 100
▁スペシャリスト 100
▁挺 100
▁栩 100
▁TR 100
▁芝田 100
▁花嫁 100
▁ウサギ 100
▁クリーニング 100
きん 100
▁風習 100
▁スッキリ 100
▁上智 100
▁割高 100
▁同額 100
▁利下げ 100
▁買い取る 100
▁ON 100
▁佐川 100
▁涼子 100
▁率先 100
▁電撃 100
▁佐久間 100
▁泊まり 100
▁イリ 100
▁利か 100
▁気球 100
▁溶岩 100
▁産み 100
▁関ケ原 100
▁シンクロ 100
▁弱体 100
▁点火 100
▁やさしく 100
▁ハンディ 100
▁ホーチ 100
▁ワイナリー 100
▁盛り上げよう 100
us 100
▁道中 100
▁銃刀 100
▁雑草 100
▁くみ上げ 100
▁緻 100
▁きる 100
▁イド 100
▁緻密 100
▁結びつい 100
▁むす 100
▁代々 100
▁加茂 100
▁海女 100
▁相乗り 100
▁ナショナルズ 100
連れ 100
▁はに 100
▁オセ 100
▁清宮 100
▁神秘 100
▁納車 100
▁能代 100
ンシー 100
▁ねぎらっ 100
▁怒る 100
ベスト 100
▁物語る 100
がわ 100
▁各自 100
▁減ら 100
バイバル 100
▁フランチャイズ 100
▁共済 100
▁熟練 100
▁ラオス 100
▁News 100
▁テクニカル 100
▁ホーチミン 100
▁スクランブル 100
▁盲導 100
▁贈与 100
▁陳列 100
▁兼ねる 100
ファクス 100
▁シェアリング 100
▁丸く 100
▁亮太 100
▁目視 100
▁行員 100
▁心斎橋 100
▁菜の花 100
ウマ 100
ムシ 100
▁除名 100
▁はっ 100
▁寺社 100
▁拒絶 100
▁生い 100
▁貼ら 100
サック 100
▁カストロ 100
▁割り当て 100
▁ファイバー 100
▁檀 100
▁茶道 100
▁試す 100
▁掘っ 100
▁アクリル 100
ME 100
▁Sp 100
▁山岸 100
▁智之 100
▁架線 100
▁累積 100
▁開封 100
▁ヤマザ 100
▁デイリー 100
▁いらっしゃる 100
▁微小 100
▁航平 100
▁蛍光 100
▁学業 100
▁クウェ 100
▁夕張 100
▁拾い 100
▁摘み 100
▁WTO 100
▁いのち 100
▁シュワ 100
▁せんだい 100
▁ダイビング 100
▁生計 100
▁カルテ 100
▁俊樹 100
▁借入 100
▁結末 100
▁装束 100
▁頓挫 100
▁ロッキ 100
▁取扱い 100
▁坑 100
▁狂言 100
▁ノンフィ 100
▁出来栄え 100
たれ 100
リャ 100
廃合 100
▁体外 100
▁天空 100
▁気遣 100
▁経っ 100
▁讃岐 100
▁統廃合 100
▁しなやか 100
▁もたらさ 100
▁茎 100
▁ボロ 100
▁叔父 100
▁国費 100
▁救わ 100
▁星空 100
▁献立 100
▁痴漢 100
▁詠ん 100
▁のぞい 100
▁先ほど 100
▁プリウス 100
▁ノンフィクション 100
ずく 100
広島 100
▁村岡 100
▁気迫 100
▁無量 100
▁薄型 100
▁コシヒカリ 100
▁学歴 100
▁百田 100
▁トライアル 100
▁廣 100
▁あざ 100
▁与那 100
▁産油 100
▁譲ら 100
▁はさみ 100
▁ミッド 100
▁上値 100
▁厳罰 100
▁小口 100
▁必然 100
しょく 100
ちょう 100
▁下北 100
▁執務 100
▁士気 100
▁慎一 100
コース 100
チュエ 100
▁エイズ 100
▁リバー 100
▁いで 100
▁シグ 100
▁洗剤 100
▁直也 100
▁電産 100
▁ギャラクシー 100
▁ねこ 100
▁反則 100
▁比嘉 100
▁激怒 100
▁継ぎ 100
▁寄り添い 100
▁エスカレート 100
ゆり 100
▁井岡 100
▁各駅 100
▁フットサル 100
▁ナマ 100
▁的中 100
▁くさい 100
▁カボチャ 100
▁レプリカ 100
▁容体 100
▁年月 100
▁疑う 100
▁結城 100
かかる 100
延ばし 100
▁ともし 100
▁増便 100
▁アトレ 100
もち 100
▁わん 100
▁サキ 100
▁宮間 100
CO 100
▁St 100
▁公害 100
▁冠水 100
▁天体 100
▁応対 100
▁頭痛 100
▁後発 100
▁トリオ 100
▁ソマリア 100
▁チューリップ 100
▁三洋 100
▁白熱 100
▁ハーグ 100
▁ホタテ 100
▁瀧 100
▁涙ぐ 100
▁美玲 100
▁脱し 100
▁小田急 100
▁リテイリング 100
小路 100
▁ダビ 100
▁慈善 100
▁田子 100
▁髪形 100
▁尺 100
▁バク 100
▁あおる 100
▁トラスト 100
▁乳酸 100
▁君臨 100
▁慣例 100
▁青酸 100
▁一助 100
▁中米 100
▁似顔 100
▁批評 100
▁おやじ 100
▁くらし 100
▁ベラル 100
▁燃やす 100
シデント 100
▁ハビエル 100
▁バージニア 100
▁インデックス 100
▁シマ 100
▁同寺 100
▁まなざし 100
▁流れ込み 100
▁ショールーム 100
▁かぎ 100
▁創価 100
くちゃ 100
▁オタク 100
▁懇話 100
▁森川 100
▁無名 100
▁痛恨 100
▁総監 100
▁莉乃 100
▁遅かっ 100
▁グラフィ 100
スティック 100
▁図ら 100
▁国軍 100
▁穏健 100
▁自白 100
▁こだま 100
▁執っ 100
▁太子 100
▁貯蓄 100
ポリス 100
▁素早い 100
▁フレンド 100
▁無理やり 100
▁ブレーブス 100
▁亀岡 100
▁司馬 100
▁脳死 100
▁ジョーダン 100
▁國 100
▁乳業 100
▁宣告 100
▁照準 100
▁生野 100
▁マララ 100
▁似合う 100
▁吉原 100
▁スピリ 100
▁デトロ 100
▁デトロイト 100
▁ウミ 100
▁見せ場 100
▁のま 100
▁父子 100
わしく 100
▁投げかけ 100
▁再起 100
▁同情 100
▁網走 100
▁野沢 100
▁入り込ん 100
▁引きずり 100
▁遠ざかっ 100
こい 100
▁登頂 100
▁頭皮 100
▁セレブ 100
▁囲ん 100
▁献血 100
▁還付 100
▁富士見 100
▁恵比寿 100
▁レスラー 100
▁師団 100
▁混在 100
▁草野 100
▁ヌード 100
▁ハリル 100
▁変えよう 100
▁立ち合い 100
▁城崎 100
▁日南 100
▁考察 100
▁自発 100
▁ねじれ 100
▁飛び出す 100
▁イク 100
▁吐い 100
▁西郷 100
▁迎賓 100
▁透け 100
▁マーチ 100
▁ガルシア 100
▁コースター 100
▁事後 100
▁画素 100
▁親類 100
▁POP 100
▁レタス 100
▁役立ち 100
▁手厚い 100
▁ニューズ 100
▁パーティ 100
▁エンターテイメント 100
▁喝 100
▁肇 100
▁しぼ 100
▁大通 100
▁相違 100
▁能見 100
▁ゲノム 100
シオ 100
▁容赦 100
▁切除 100
▁砂防 100
起こさ 100
▁巻き起こし 100
▁とび 100
▁上層 100
▁読み解 100
▁てこ入れ 100
▁とっても 100
▁井出 100
▁樹齢 100
▁胴体 100
▁自虐 100
取ろう 100
▁傷つい 100
LA 100
▁汐 100
▁慶長 100
▁教官 100
▁森岡 100
▁逸話 100
▁高砂 100
▁うま味 100
▁トリノ 100
▁ブーツ 100
▁話せる 100
▁長かっ 100
▁ジャージー 100
▁トレーラー 100
八幡 100
▁留守 100
こもっ 100
▁コップ 100
▁たんぱく 100
▁近江八幡 100
▁せつ 100
▁別人 100
▁左肩 100
▁無敗 100
▁税抜き 100
▁ビオ 100
▁マナ 100
▁徳田 100
▁邦彦 100
ユット 100
▁じゃん 100
▁たまる 100
▁崩す 100
▁車道 100
▁イタリアン 100
▁レフ 100
▁履き 100
▁上着 100
▁修一 100
▁再来 100
▁奪え 100
▁解く 100
▁冷え込ん 100
の毛 100
ロジ 100
▁正統 100
▁緩み 100
▁遼寧 100
▁龍一 100
▁髪の毛 100
▁ベラルーシ 100
▁プロジェクション 100
▁必見 100
▁童話 100
▁ヒマワリ 100
ざり 100
▁神谷 100
しゃく 100
▁スピー 100
▁フォア 100
▁ロースト 100
▁コンペティション 100
▁変異 100
▁越境 100
新しい 100
▁アミノ 100
▁カッター 100
▁サンディ 100
▁スケッチ 100
ダイス 100
▁オリエン 100
▁シッター 100
▁アーケード 100
▁党勢 100
▁始末 100
▁応酬 100
▁ウォーク 100
▁汰 100
▁恭久 100
▁洞窟 100
▁おかし 100
▁ペンス 100
▁付き合っ 100
▁成り立た 100
▁ポピ 100
▁剥奪 100
▁直轄 100
▁長尾 100
▁うなぎ 100
▁表れる 100
▁立ち会っ 100
▁見積もり 100
▁憩 100
▁古来 100
▁堅い 100
▁病状 100
▁困り 100
▁土浦 100
▁岸壁 100
▁成否 100
▁柳沢 100
▁緩急 100
▁音頭 100
▁惜しむ 100
▁残酷 100
▁泣く 100
▁護憲 100
▁大師 100
▁年中 100
▁海辺 100
▁浩一 100
▁鎮火 100
▁阿久 100
の島 100
▁情景 100
▁段落 100
▁転載 100
▁かわいそう 100
▁優待 100
▁立花 100
▁近日 100
▁ちょく 100
▁美味し 100
▁軟らか 100
▁遊歩 100
▁采配 100
▁グリル 100
▁タブー 100
騒ぎ 100
▁エベ 100
▁信越 100
▁接着 100
▁連峰 100
ントス 100
▁ジブリ 100
▁ねつぞう 100
▁キュウリ 100
▁トリック 100
▁伸一 100
▁固く 100
▁大洗 100
▁本尊 100
▁清流 100
▁ピリオ 100
▁岸和田 100
▁コットン 100
十郎 100
▁くっ 100
▁飯山 100
▁伸ばせ 100
▁ピリオド 100
▁全盛 100
▁越冬 100
ちゅう 100
▁総じて 100
▁鳴り響 100
▁ブリッジ 100
▁立ち寄り 100
▁合憲 100
ントラ 100
▁どなた 100
▁バケツ 100
▁アドベンチャー 100
▁桑田 100
▁浮世 100
▁三笠宮 100
▁夜明け 100
あう 100
▁ユリ 100
▁空洞 100
セッツ 100
▁ソムリエ 100
よけ 100
ers 100
▁単体 100
▁棚田 100
▁特撮 100
▁ほのか 100
▁Inst 100
▁PF 100
▁休ま 100
▁追随 100
▁スクイズ 100
▁ペッパー 100
▁マルシェ 100
▁ミシェル 100
▁ネーミング 100
▁固い 100
▁かなう 100
▁後ろ盾 100
▁あいにく 100
▁打ち上げる 100
返っ 100
▁大仙 100
▁長所 100
▁サーモン 100
チューセッツ 100
▁茂樹 100
▁鵜飼 100
▁リチャ 100
メディア 100
▁マサチューセッツ 100
▁っ子 100
▁保た 100
▁転々 100
▁酵母 100
▁マフ 100
▁不発 100
▁新法 100
▁紀州 100
バキア 100
▁こぼし 100
▁不尽 100
▁大し 100
▁大寺 100
▁岡野 100
▁漂流 100
▁辛い 100
▁顔面 100
▁クーペ 100
ポイント 100
▁かじ取り 100
▁ピッタリ 100
▁マルケス 100
▁パティシエ 100
ベラ 100
▁対等 100
▁払わ 100
われる 100
▁糾 100
ゆく 100
▁ヨウ 100
▁帝拳 100
▁新地 100
▁溝口 100
▁CSR 100
▁ごとく 100
▁エッジ 100
▁押し上げる 100
ーん 100
▁宝飾 100
▁解け 100
▁都城 100
▁結びつき 100
▁ユニバース 100
▁子役 100
▁市況 100
▁門司 100
▁高専 100
▁サイレン 100
▁切り離し 100
▁淳一 100
▁裏面 100
▁れよう 100
▁クレーム 100
▁ひめ 100
▁半月 100
▁田上 100
▁終止 100
▁フェルナ 100
がく 100
▁アザ 100
▁公館 100
▁北の 100
▁菊川 100
ッタン 100
▁飾り付け 100
▁える 100
▁のこ 100
▁縦横 100
▁振るっ 100
▁買い替え 100
▁クウェート 100
▁一雄 100
▁分別 100
▁名残 100
▁壊す 100
▁摘出 100
▁新旧 100
▁コマース 100
▁使い分け 100
▁とりまとめ 100
▁よみがえっ 100
▁十両 100
▁用紙 100
▁いっしょ 100
▁パイレーツ 100
じゃ 100
ank 100
▁回想 100
▁客車 100
▁河瀬 100
▁浅井 100
▁アウトレット 100
▁リカ 100
▁休職 100
▁夏目 100
▁大木 100
▁馴染 100
▁各務原 100
▁コンプライアンス 100
▁中台 100
▁ホー 100
▁連隊 100
▁グローブ 100
TE 100
▁すけ 100
▁大夫 100
▁後見 100
▁抹消 100
▁母乳 100
▁苦慮 100
▁ラテン 100
▁ライアン 100
▁押し込ん 100
▁フライデー 100
▁ブルガリア 100
▁抽象 100
▁遭う 100
ヘルツ 100
▁ふわふ 100
▁悔やん 100
勝手 100
▁FF 100
▁四角 100
▁開戦 100
▁魚津 100
▁シック 100
▁エベレスト 100
▁インディアンス 100
ボミ 100
▁係員 100
▁太い 100
▁景勝 100
▁軟調 100
▁シュツ 100
▁プラユット 100
▁トライアスロン 100
づき 100
▁ストリー 100
▁乗り込む 100
▁買い戻し 100
▁富谷 100
▁積む 100
▁ミライ 100
ニム 100
▁DM 100
▁入閣 100
▁好ま 100
▁掃海 100
▁深谷 100
▁神職 100
延び 100
▁北大 100
▁裕樹 100
▁転校 100
▁銃弾 100
▁外れる 100
▁コーティング 100
▁Te 100
▁干拓 100
▁武史 100
▁特使 100
▁甲板 100
▁養豚 100
▁クリスト 100
▁ネル 100
▁各日 100
▁操る 100
▁深化 100
▁発火 100
▁ポリ袋 100
LD 100
▁大瀬 100
▁民衆 100
▁マティス 100
▁引き継が 100
▁恥ずかし 100
▁パラダイス 100
▁号泣 100
▁混迷 100
▁フィー 100
▁メーター 100
▁取り壊し 100
▁カメルーン 100
▁コミックス 100
▁MP 100
▁中尉 100
▁実り 100
▁氏子 100
▁長沢 100
▁見据える 100
▁ヨネックス 100
ロウ 100
▁っぱ 100
▁師事 100
▁式年 100
▁施政 100
▁窮地 100
▁評さ 100
▁駆逐 100
ダッド 100
▁マテ 100
▁至り 100
▁ぎょう 100
▁オーブン 100
▁確約 100
しゅう 100
むけ 100
▁底力 100
▁騎士 100
▁JICA 100
▁擁し 100
▁切り捨て 100
▁組み込ん 100
青山 100
▁享年 100
▁春樹 100
▁王毅 100
ヨシノ 100
▁ステイ 100
▁ふわふわ 100
▁ハリルホジッチ 100
▁上達 100
▁付帯 100
▁作為 100
▁倒す 100
▁吉崎 100
たけ 100
▁修士 100
コット 100
▁シュツットガルト 100
▁模範 100
▁留保 100
イスター 100
▁競い合う 100
▁さあ 100
▁那智 100
▁麻酔 100
▁続か 100
▁JSS 100
▁官公庁 100
▁買い手 100
▁ゴマ 100
▁ハス 100
▁余っ 100
▁長妻 100
▁いたる 100
▁鳴き声 100
▁津山 100
▁金山 100
▁ひしめ 100
▁コペン 100
▁瑛 100
▁但馬 100
▁失脚 100
▁根元 100
▁聖光 100
▁飯島 100
▁まんが 100
▁ウォル 100
▁客引き 100
▁バンカー 100
▁ディフェンス 100
▁ソリューションズ 100
▁共犯 100
▁同罪 100
▁尚子 100
▁柏原 100
▁灰色 100
▁発音 100
▁裕也 100
▁リッジ 100
▁頑張ら 100
▁ビューティー 100
▁決心 100
▁礼儀 100
▁裏腹 100
▁チームワーク 100
▁インタファクス 100
ガム 100
▁ゆず 100
▁係争 100
▁月末 100
▁残ら 100
▁段差 100
カット 100
▁はやし 100
▁切り離 100
▁っぱなし 100
▁ふくしま 100
▁マートン 100
▁初動 100
▁同府 100
▁心拍 100
▁配線 100
▁モロッコ 100
▁受領 100
▁消臭 100
▁ジェル 100
▁ファイナリスト 100
▁旦 100
▁きゃ 100
▁予断 100
▁白血 100
▁山根 100
▁明徳 100
苦しい 100
▁ソメイ 100
▁ちょうちん 100
▁ソメイヨシノ 100
▁すっ 100
▁一任 100
▁上山 100
▁尾道 100
▁湯郷 100
▁ドリル 100
▁マッカ 100
▁ファイン 100
チュエーション 100
▁1, 100
▁代役 100
▁光明 100
▁大仏 100
▁成沢 100
▁沈下 100
▁頼む 100
ヴァンゲリ 100
▁多々 100
▁豊作 100
▁シェルター 100
読み 100
▁悪口 100
▁真野 100
▁退く 100
▁通ら 100
▁たしか 100
▁みかん 100
▁アデ 100
▁主審 100
▁東宝 100
▁草原 100
▁須賀 100
▁おおい 100
▁作り出し 100
▁触れ合い 100
ハム 100
ョク 100
▁ミン 100
▁三成 100
▁京田 100
▁前列 100
▁巧妙 100
落とさ 100
▁切り口 100
▁語り合う 100
os 100
阿蘇 100
▁洗う 100
▁白河 100
▁相応 100
▁頭上 100
▁南阿蘇 100
▁フォール 100
▁チャールズ 100
▁ファクトリー 100
これ 100
▁占う 100
▁囲み 100
▁県産 100
▁親日 100
ooth 100
▁値引き 100
ET 100
佐野 100
死球 100
▁北原 100
▁去る 100
▁タバコ 100
▁四死球 100
▁パートナーズ 100
▁くち 100
▁サテ 100
▁合言葉 100
▁傷つける 100
▁焼き上げ 100
▁主食 100
▁健治 100
▁和宏 100
▁志保 100
▁時報 100
▁火砕 100
▁球速 100
▁裏方 100
マンズ 100
ラスカ 100
▁ローラ 100
ーティブ 100
▁まずまず 100
▁キホーテ 100
▁全幅 100
▁各回 100
▁川合 100
▁留任 100
▁細く 100
▁至上 100
▁長居 100
▁ありの 100
▁シチュエーション 100
▁謀 100
▁復刻 100
▁校歌 100
▁ありのまま 100
▁エコノミー 100
lus 100
▁常総 100
▁非行 100
▁IBF 100
▁右越え 100
ハイマー 100
▁ツル 100
▁利息 100
▁原資 100
ローラー 100
▁バグダッド 100
▁原燃 100
▁感度 100
▁雅人 100
▁麻衣 100
▁逃げ出し 100
▁クス 100
ハイム 100
▁すみれ 100
▁ギャル 100
▁トニー 100
▁生まれ変わっ 100
▁ばっ 100
▁偽っ 100
▁式場 100
▁港町 100
▁緑化 100
▁袋井 100
▁ホープ 100
▁コミカル 100
▁セメント 100
▁こうじ 100
▁フック 100
▁おいしかっ 100
▁細長 100
▁ネズミ 100
造り 100
▁信楽 100
▁危害 100
▁商会 100
▁納品 100
▁純子 100
▁越後 100
▁メソ 100
▁別所 100
▁工務 100
▁ハイレ 100
ぎっ 100
▁本編 100
▁石碑 100
▁迷わ 100
▁逆走 100
ータス 100
▁つぶし 100
▁つながれ 100
▁コロッケ 100
ーマーケット 100
刻み 100
屋川 100
▁ほぐ 100
▁もど 100
▁羽ば 100
▁魅せ 100
▁寝屋川 100
下り 100
▁あう 100
▁官製 100
▁常盤 100
▁コーポレート 100
モト 100
▁刻む 100
▁換気 100
▁森脇 100
▁検挙 100
▁決壊 100
▁渓谷 100
▁鳴る 100
▁中軸 100
▁模倣 100
▁辞表 100
▁ヒラメ 100
▁ホスピ 100
▁Apple 100
加茂 100
▁座談 100
▁西京 100
▁顕微 100
▁どおり 100
▁リップ 100
▁照らす 100
アリーナ 100
▁戦え 100
▁殊 100
グリ 100
▁陥落 100
▁先立っ 100
▁出向い 100
▁吉祥寺 100
探し 100
ive 100
▁大役 100
▁太夫 100
▁有用 100
▁JAS 100
▁人ごと 100
▁三国 100
▁凶悪 100
▁半沢 100
▁抜粋 100
▁携え 100
▁講和 100
▁ブラウザ 100
▁美濃加茂 100
▁サテライト 100
▁ほろ 100
▁勇壮 100
▁図面 100
▁少額 100
▁挽回 100
▁かけ声 100
ぐい 100
漏れ 100
▁不測 100
▁NPT 100
▁アンナ 100
▁せれ 100
▁ひこ 100
▁典範 100
▁売電 100
▁天元 100
▁重心 100
▁閉校 100
▁フィラ 100
▁報じる 100
▁行き届 100
▁ホームレス 100
ユー 100
▁のっ 100
▁丘陵 100
▁丸い 100
▁1,2 100
▁勝ち星 100
▁スーパーマーケット 100
▁孤児 100
▁目さ 100
▁臨席 100
▁アンチ 100
▁スプラ 100
▁志津川 100
▁tooth 100
▁担ぎ 100
▁狭山 100
▁糸口 100
▁背面 100
▁山あい 100
▁涼しい 100
▁パトリック 100
▁妖精 100
▁抗菌 100
▁智弁 100
▁荒浜 100
▁流れ込む 100
IL 100
▁当主 100
▁誘発 100
▁延びる 100
▁水没 100
▁津島 100
▁直視 100
▁起因 100
▁配し 100
ルフス 100
▁ギャグ 100
▁捕まえ 100
▁そび 100
▁冷房 100
▁大場 100
▁岩佐 100
▁志し 100
▁明暗 100
ラルド 100
▁ひと言 100
ei 100
川原 100
▁ネバ 100
▁原木 100
▁難度 100
icro 100
▁TOP 100
▁WTI 100
▁いとう 100
▁収まら 100
戻り 100
▁岩出 100
▁良き 100
▁軍師 100
▁手投げ 100
▁終われ 100
▁飛び交っ 100
▁バッティング 100
・3 100
▁ツバ 100
▁他方 100
▁孝行 100
▁平穏 100
▁空室 100
▁靴下 100
▁2・3 100
▁打ち込む 100
▁蝶 100
残り 100
▁こし 100
▁ミシ 100
▁持病 100
▁湿地 100
▁翌月 100
▁ウェディング 100
▁さる 100
▁専修 100
▁感銘 100
▁投棄 100
▁浪人 100
▁畑中 100
▁競歩 100
▁富士宮 100
▁探索 100
▁検閲 100
▁津々 100
▁健やか 100
▁ヤンマー 100
▁身の回り 100
芝居 100
▁三条 100
▁所定 100
▁盤石 100
▁よしもと 100
▁コントラスト 100
▁ひげ 100
▁一報 100
▁内面 100
▁曲線 100
▁責め 100
▁閉塞 100
▁アロン 100
ベンション 100
▁簡裁 100
▁追徴 100
▁ブレス 100
▁励まさ 100
キンソン 100
▁置き換え 100
▁輿 100
▁万一 100
▁甲状 100
▁音量 100
▁幸雄 100
▁面影 100
▁戸惑っ 100
▁冠し 100
▁察知 100
▁憲章 100
▁水銀 100
▁玉木 100
▁耐性 100
▁葛城 100
▁補欠 100
▁アタック 100
▁スアレス 100
▁出来上がっ 100
▁南アルプス 100
▁ぱく 100
▁犬山 100
▁癒し 100
▁阿弥 100
▁阿波 100
ショー 100
▁仕分け 100
▁ルネサス 100
▁タイムリー 100
とど 100
▁上本 100
▁在韓 100
▁月面 100
▁残骸 100
▁車中 100
フェクト 100
▁ぬく 100
▁ナガ 100
▁フク 100
▁中沢 100
▁凍土 100
▁日和 100
▁校区 100
▁石崎 100
▁黙秘 100
▁NISA 100
▁スポンジ 100
▁在校 100
▁焦げ 100
▁町家 100
▁裏切ら 100
▁輸出入 100
▁銘打っ 100
ルドルフ 100
▁アーリントン 100
▁ィ 100
▁ひょ 100
▁献身 100
▁護岸 100
▁リフト 100
▁売れ筋 100
▁引き取っ 100
▁フロンティア 100
▁UP 100
▁利明 100
▁原電 100
▁流失 100
▁雲南 100
▁間に合う 100
and 100
▁全席 100
▁工高 100
▁沈み 100
▁笠原 100
▁よほど 100
▁御前崎 100
▁払い戻し 100
▁面白かっ 100
▁与謝 100
▁岩城 100
▁後進 100
▁抑圧 100
▁養老 100
▁香ば 100
▁まして 100
▁交わさ 100
▁フィード 100
▁乗り上げ 100
▁締め切ら 100
ばる 100
▁卓越 100
▁実体 100
▁架け 100
▁特大 100
▁親密 100
セージ 100
ディン 100
▁デニム 100
チューム 100
▁かかわり 100
▁オスカー 100
▁スロベニア 100
▁つっ 100
▁保衛 100
▁義久 100
スリム 100
▁にわか 100
▁作り手 100
▁鍛える 100
▁USTR 100
▁カロライナ 100
▁ナレーション 100
▁遣 100
▁小出 100
▁曽根 100
▁片方 100
▁色素 100
▁鉄製 100
クロース 100
▁サンタクロース 100
▁ひる 100
▁マヨ 100
▁喚問 100
▁圭司 100
▁敗訴 100
▁男鹿 100
▁電流 100
ルダー 100
▁サスペ 100
▁たちまち 100
▁ペンシル 100
▁一誠 100
▁予期 100
▁急進 100
▁民宿 100
▁高良 100
▁アディ 100
▁リチャード 100
▁リーディング 100
▁小木 100
▁島々 100
▁法被 100
▁記す 100
▁ビクト 100
▁エッセイ 100
▁買い取っ 100
▁あた 100
▁きつ 100
しめる 100
▁かき氷 100
▁モラル 100
▁長短打 100
▁ヘルパー 100
▁いし 100
▁しげ 100
▁寄っ 100
▁曲折 100
▁混同 100
▁ボケ 100
▁武生 100
▁沢東 100
▁特異 100
▁矢板 100
▁芸妓 100
▁足し 100
▁間伐 100
▁さんま 100
▁胃がん 100
▁ただちに 100
▁平時 100
▁断裂 100
▁有限 100
▁王手 100
▁立石 100
▁要項 100
▁賞与 100
▁アーカイ 100
▁シリアル 100
▁ブラッド 100
▁店名 100
▁威勢 100
▁痛く 100
▁舞っ 100
▁ばく 100
▁君野 100
▁平岡 100
▁本屋 100
▁紛れ 100
▁蒲郡 100
▁載せる 100
agram 100
▁ショウガ 100
▁みき 100
▁リム 100
▁外装 100
▁木戸 100
▁気力 100
▁糸魚 100
集め 100
ont 100
▁くぼ 100
▁井村 100
▁分党 100
▁怪物 100
▁淡水 100
▁好天 100
▁新米 100
▁会える 100
▁フェルナンド 100
od 100
ガキ 100
▁IE 100
▁城西 100
▁安芸 100
▁平松 100
▁産出 100
▁蓄え 100
▁立て直す 100
▁ティッシュ 100
▁ハンドボール 100
▁三輪 100
▁和室 100
▁新城 100
▁極秘 100
▁歩け 100
▁静止 100
▁際立つ 100
▁スイミング 100
▁DB 100
▁ER 100
▁伏せ 100
▁勝又 100
▁悦子 100
▁ヘビー 100
ウオ 100
▁堀田 100
▁戦列 100
▁義理 100
▁花街 100
▁転移 100
▁カシオ 100
▁天下り 100
▁取り寄せ 100
▁コスチューム 100
▁なご 100
▁ケタ 100
▁天津 100
▁牧田 100
▁王道 100
▁邸宅 100
▁チルド 100
▁手伝う 100
▁ヘッドホン 100
▁だろ 100
▁周平 100
▁治験 100
▁激動 100
▁病室 100
▁ヒップ 100
▁貼り付け 100
フラ 100
▁晶子 100
▁アルツ 100
▁リンパ 100
▁受け継ぐ 100
ri 100
▁嘱 100
▁桶 100
▁山県 100
▁有益 100
▁櫻井 100
▁粘土 100
ork 100
▁悪夢 100
▁朝市 100
▁雄一郎 100
▁姓 100
▁両足 100
▁基板 100
ロラ 100
▁塩見 100
▁眺望 100
▁たいじ 100
▁エチオ 100
▁カラス 100
▁春日部 100
▁かけがえ 100
▁スチール 100
ピレーション 100
IF 100
▁UV 100
▁合金 100
▁新選 100
▁月給 100
▁炉心 100
▁遠州 100
▁ファーマ 100
▁クローバー 100
▁パノ 100
▁斎場 100
▁結合 100
▁ボンベ 100
▁ムスリム 100
▁ハノーバー 100
▁没収 100
▁躍り 100
▁鮮魚 100
▁プロパ 100
▁カトマンズ 100
▁ソーセージ 100
▁光秀 100
▁敏充 100
▁美紀 100
▁通帳 100
▁ジェネ 100
▁プロト 100
▁抜てき 100
▁頼もしい 100
▁オーシャン 100
▁書き下ろし 100
▁一夫 100
▁異性 100
▁盗聴 100
▁まわし 100
▁おおさか 100
▁エチオピア 100
ge 100
▁アワ 100
▁坂東 100
▁黒岩 100
▁けいこ 100
▁ナイロ 100
▁レター 100
▁近づける 100
▁コンベンション 100
ヌア 100
解け 100
▁LO 100
▁光ら 100
▁庄司 100
▁此花 100
▁立大 100
▁鉄砲 100
▁防疫 100
▁泉佐野 100
▁ブン 100
▁勘案 100
▁定征 100
▁BI 100
▁BL 100
▁乗じ 100
▁好ん 100
▁灯台 100
▁秀夫 100
▁雄勝 100
ッツァ 100
▁市内外 100
▁つり上げ 100
▁下級 100
▁容姿 100
▁教習 100
▁格別 100
▁現住 100
▁老化 100
▁辞意 100
▁気付く 100
吉田 100
▁信雄 100
▁千本 100
▁小関 100
▁戦地 100
▁旗艦 100
▁水色 100
▁静養 100
ピドー 100
▁クオリティー 100
af 100
AEA 100
▁丸紅 100
▁国勢 100
イルム 100
▁ミシュ 100
▁立ち上がる 100
振れ 100
▁煎茶 100
▁病死 100
▁竹山 100
▁フイルム 100
▁アルツハイマー 100
▁呂 100
▁カウ 100
▁漬物 100
▁私鉄 100
▁養う 100
▁IAEA 100
▁レシート 100
▁サンディエゴ 100
▁坂道 100
▁神山 100
▁山田町 100
▁モルガン 100
▁踏ん張れ 100
▁あめ 100
▁もぎ 100
▁本家 100
▁づらく 100
▁クルム 100
▁レクチャー 100
▁エミ 100
▁南下 100
▁各局 100
▁弁明 100
▁鈍い 100
▁露店 100
▁由美子 100
▁糸魚川 100
決め 100
▁ハニ 100
▁両軍 100
▁二宮 100
▁大門 100
▁街角 100
▁青学 100
▁こまち 100
▁フーズ 100
人組 100
▁ヨハ 100
▁pre 100
▁さほど 100
▁サスペンス 100
▁いらっしゃい 100
イラ 100
之江 100
▁剛力 100
▁朝廷 100
▁篤人 100
▁襲う 100
テルテ 100
▁ワイヤー 100
▁伸び悩む 100
だす 100
▁世相 100
▁敢行 100
▁つづら 100
▁デモン 100
▁ドゥテルテ 100
▁創部 100
▁横転 100
▁飛ば 100
テルス 100
▁ch 100
▁嘉手 100
▁香織 100
▁ジビエ 100
▁芽生え 100
▁降りる 100
サンブル 100
ST 100
▁延焼 100
▁松川 100
▁皇帝 100
▁野上 100
シカル 100
▁小百合 100
▁市町村長 100
さじ 100
ハト 100
▁北口 100
▁文理 100
tore 100
▁チャート 100
▁働きかける 100
▁まじ 100
▁衰弱 100
▁アイン 100
▁ピュー 100
▁ヤマダ 100
▁かけ離れ 100
▁飛び交う 100
▁ジャニーズ 100
▁北条 100
▁街路 100
▁谷原 100
ガチャ 100
▁大さじ 100
▁橋渡し 100
▁BB 100
▁ばい 100
▁希薄 100
▁すさま 100
▁アンカー 100
▁ジョブズ 100
がさ 100
▁MT 100
▁主査 100
▁施術 100
▁熱演 100
▁都度 100
ろく 100
菜子 100
▁のべ 100
▁ブエ 100
▁上戸 100
▁南沙 100
▁因縁 100
▁滑る 100
▁縦断 100
▁さらし 100
▁スミス 100
▁メタボ 100
▁振る舞う 100
▁追い込む 100
▁寺島 100
▁特技 100
▁縫製 100
▁託す 100
▁上席 100
▁仙一 100
▁懸賞 100
▁秀章 100
▁陶磁 100
ッサー 100
▁根付い 100
▁仏壇 100
▁年頭 100
▁次代 100
▁羽織 100
▁早紀江 100
▁起こら 100
▁スクープ 100
▁ひっくり返し 100
ソル 100
▁石狩 100
▁能美 100
▁手持ち 100
▁ゆうちょ 100
▁レバノン 100
▁XP 100
▁リフ 100
▁図鑑 100
▁こぎつけ 100
▁ナイロビ 100
▁読み取り 100
▁スロバキア 100
▁ルナ 100
▁前任 100
▁島津 100
シャレ 100
▁ハイレゾ 100
▁ハロウィーン 100
▁Su 100
▁放り 100
▁ルセフ 100
▁プランナー 100
▁引き締める 100
▁潟 100
コト 100
マム 100
▁散発 100
▁次節 100
▁預言 100
▁ベージュ 100
▁デメ 100
▁課徴 100
▁コマツ 100
▁格上げ 100
▁オシャレ 100
▁マザーズ 100
▁僅差 100
▁絵巻 100
▁貞治 100
▁ニュージャ 100
乃花 100
▁金城 100
▁防波 100
▁立ちはだ 100
▁絞り込む 100
▁ふさわしく 100
▁戴 100
▁もれ 100
▁主治 100
▁見過 100
ンドロ 100
▁エックス 100
▁カルシウム 100
ばな 100
コロ 100
▁圏外 100
▁明夫 100
▁産む 100
▁結核 100
▁離せ 100
▁あきれ 100
▁ミット 100
▁揺らし 100
▁据え置き 100
▁召し上がり 100
▁川井 100
▁略称 100
▁継ぐ 100
▁美和 100
永良部 100
▁ぶどう 100
▁イヌワシ 100
▁取り消さ 100
▁出撃 100
▁永平 100
▁テンション 100
▁締めくくり 100
グレ 100
▁参議 100
▁回廊 100
▁城北 100
▁得失 100
▁積載 100
▁高麗 100
ギョン 100
▁金持ち 100
▁ニュージャージー 100
▁南口 100
▁文中 100
▁旅先 100
▁海側 100
▁右投げ 100
▁ミシガン 100
▁かば 100
▁南国 100
▁実技 100
▁さばき 100
▁アドバン 100
SU 100
▁臣 100
▁コイ 100
▁コバ 100
▁ルガ 100
▁吉高 100
▁寄席 100
▁ミシュラン 100
ルフスブルク 100
▁ポスティング 100
▁即し 100
▁息災 100
▁戒告 100
▁整い 100
▁番地 100
▁ドック 100
▁分厚 100
▁散ら 100
▁糾弾 100
イッチ 100
▁パンク 100
▁ニュルン 100
▁遅らせる 100
▁庸 100
▁クビ 100
▁中朝 100
▁半球 100
▁苦渋 100
きゅう 100
▁きわめて 100
▁ちりばめ 100
▁ストラテ 100
▁ネックレス 100
▁市制 100
▁扮し 100
▁倒れる 100
▁試みる 100
▁ボスニア 100
▁町おこし 100
▁フォワード 100
▁タラ 100
▁互角 100
▁岩渕 100
▁Pro 100
▁サツマ 100
▁永平寺 100
ヤマ 100
▁ララ 100
▁伺い 100
▁生保 100
▁隆司 100
▁ココナ 100
▁アレッポ 100
▁モノレール 100
▁HT 100
▁かり 100
▁そそ 100
▁中露 100
▁特養 100
▁五所 100
▁児玉 100
▁都営 100
▁香取 100
▁かぶせ 100
▁語り合っ 100
▁読み聞かせ 100
▁半生 100
▁同型 100
▁見渡 100
詰める 100
▁ホリ 100
▁三つ 100
▁寛之 100
▁立教 100
▁粘着 100
こま 100
▁がい 100
▁金具 100
▁関門 100
▁居心地 100
▁セックス 100
▁ツインズ 100
▁奮い 100
▁法治 100
▁要綱 100
▁辞典 100
▁雅彦 100
▁サンリオ 100
▁インスピレーション 100
▁密売 100
▁岩石 100
▁本腰 100
▁開帳 100
▁隠滅 100
▁マンハ 100
▁出合っ 100
▁取り締まる 100
▁事象 100
▁安城 100
▁洋介 100
▁焼津 100
▁AII 100
▁ゆか 100
▁小銃 100
▁秋冬 100
▁競り負け 100
▁ローザンヌ 100
▁マンハッタン 100
びこ 100
▁幕下 100
▁花王 100
▁レイテ 100
▁南青山 100
▁嘉手納 100
▁ネピドー 100
▁Re 100
▁回ら 100
▁格子 100
▁逃さ 100
▁立ち止 100
▁思い込み 100
▁繰り上げ 100
▁ニュルンベルク 100
▁おせ 100
▁たき 100
▁川柳 100
▁鋼材 100
▁ABC 100
▁JCT 100
▁みゆき 100
▁エージェンシー 100
▁催涙 100
▁イライ 100
▁リモコン 100
▁一同 100
▁刺す 100
▁照合 100
▁通天 100
▁トランク 100
▁パンケーキ 100
HC 100
▁セグ 100
▁主因 100
▁憩い 100
▁旋回 100
デンティ 100
▁ブナ 100
▁節分 100
ティビティ 100
▁仙北 100
▁商法 100
▁広田 100
▁徳洲 100
▁無傷 100
▁老若 100
▁花壇 100
▁スカパー 100
▁請け負っ 100
▁ジャーナリズム 100
クリ 100
ヒル 100
▁バロ 100
▁後楽 100
▁空自 100
▁美肌 100
▁越谷 100
▁すむ 100
▁交戦 100
▁何百 100
▁公会 100
▁楽園 100
▁上向き 100
▁コンプレ 100
▁絞り込ん 100
▁ひなまつり 100
▁アンサンブル 100
▁フリーランス 100
▁擦 100
▁キジ 100
▁報わ 100
▁海抜 100
すまし 100
▁安曇野 100
▁延ばし 100
▁手洗い 100
▁青学大 100
▁食らい 100
▁逝 100
ゴス 100
▁おし 100
▁たず 100
▁請願 100
▁乗り継ぎ 100
▁五所川原 100
▁バイキング 100
▁大貴 100
▁完備 100
▁浸っ 100
▁深々 100
▁珠洲 100
▁顕在 100
▁とこ 100
▁毅然 100
▁沸き 100
▁理恵 100
▁通れ 100
▁オリコン 100
▁ケータイ 100
ハレ 100
▁ハク 100
▁リブ 100
▁勝る 100
▁古事 100
▁対価 100
▁無病 100
▁米山 100
▁慌ただ 100
▁連なる 100
▁暦 100
ビナ 100
▁ピリ 100
▁化け 100
▁忍耐 100
▁直方 100
▁ドロー 100
▁サバイバル 100
▁マシ 100
▁水原 100
▁緩ん 100
▁菜々 100
▁返さ 100
▁迫害 100
▁デブリ 100
▁執り行 100
▁等しい 100
▁逃れる 100
▁揺さぶり 100
▁下さ 100
▁文系 100
▁こまめ 100
▁擬 100
▁播磨 100
▁水木 100
▁致命 100
▁おせち 100
▁アンジェ 100
▁ウェスト 100
▁増やそう 100
キニ 100
▁吉見 100
▁発刊 100
▁着色 100
メイド 100
▁与謝野 100
▁富士吉田 100
NO 100
▁廉 100
▁ホウ 100
▁土田 100
▁服飾 100
▁毛布 100
▁役立っ 100
▁まとまり 100
▁両論 100
▁王朝 100
▁貫き 100
▁長井 100
▁スティ 100
▁バーク 100
かき 100
ずし 100
▁道州 100
ネスト 100
▁ともさ 100
▁長生き 100
▁エンタメ 100
ウイ 100
▁守屋 100
▁文教 100
▁横丁 100
▁サザエ 100
▁住之江 100
▁イニシア 100
▁一門 100
▁団子 100
▁州都 100
▁激変 100
▁背筋 100
ラント 100
▁ディオ 100
▁中津川 100
ノブ 100
▁加味 100
▁大々 100
▁珍島 100
▁手厚く 100
▁気さく 100
▁あれこれ 100
▁レーガン 100
▁切り開い 100
▁サビ 100
▁メラ 100
▁列挙 100
▁電圧 100
▁エクア 100
▁得失点 100
ライダー 100
▁Instagram 100
▁暢 100
▁信濃 100
▁譲る 100
ートー 100
▁おこう 100
▁マウン 100
▁締め付け 100
▁ルガンスク 100
▁添田 100
▁あんた 100
▁ポーチ 100
▁フェース 100
▁突き上げ 100
▁練り歩く 100
▁控室 100
▁青函 100
▁追いかける 100
▁峡 100
▁合算 100
▁堅実 100
▁曳山 100
▁つるし 100
▁エグゼ 100
▁踏ん張り 100
慣れ 100
▁倉本 100
▁炊飯 100
掛かっ 100
▁紙芝居 100
▁あんまり 100
▁いえよう 100
おか 100
▁カヤ 100
▁塗料 100
▁実勢 100
▁岩見 100
▁無実 100
▁発作 100
▁ポツ 100
▁亜大 100
▁今泉 100
▁再考 100
▁決裂 100
▁NSA 100
▁立ち上 100
▁線引き 100
▁DeNA 100
▁高めよう 100
▁南砺 100
▁山菜 100
▁領空 100
▁据える 100
▁稲刈り 100
▁ふんわり 100
▁箋 100
▁ずし 100
▁台帳 100
▁彼氏 100
▁派生 100
▁義母 100
▁バルト 100
▁オオカミ 100
▁粘り強い 100
▁ふっしょく 100
▁エレクトリック 100
しゅ 100
▁来客 100
▁かわり 100
▁そうめん 100
▁モテ 100
▁共栄 100
▁城内 100
▁麻也 100
ピット 100
▁続けれ 100
▁減らせる 100
▁バリケード 100
▁WA 100
▁学費 100
▁投信 100
▁穂高 100
▁覆し 100
▁惜しく 100
チャーズ 100
▁受け取ら 100
▁結びつける 100
▁洛 100
やま 100
▁やろ 100
▁ミラ 100
▁全量 100
▁公費 100
▁洗っ 100
▁ほのめ 100
▁早かっ 100
▁言い分 100
▁悔しかっ 100
高い 100
▁タル 100
▁ブイ 100
▁偽り 100
▁平ら 100
かそう 100
▁アバター 100
▁ヒラリー 100
▁結びつく 100
▁同書 100
▁引責 100
▁自生 100
▁セイコー 100
とく 100
▁中電 100
▁健司 100
▁生け 100
▁計り 100
▁なかろう 100
▁カレッジ 100
▁ゲレンデ 100
▁厳しかっ 100
▁揺るがす 100
▁エクアドル 100
▁ブライアン 100
▁姜 100
▁砺 100
▁待ち望 100
▁穴埋め 100
違え 100
▁辛島 100
▁したがっ 100
のけ 100
隠し 100
▁ゲル 100
▁積立 100
▁ジャイアント 100
探り 100
▁山鉾 100
▁自助 100
▁西新 100
▁遍路 100
▁風間 100
▁手探り 100
▁ハイビジョン 100
ソク 100
▁OG 100
▁坂上 100
▁小栗 100
▁山科 100
▁師走 100
▁正し 100
ショナ 100
▁さなか 100
▁ポリエ 100
こみ 100
ミラ 100
▁伝わら 100
▁癒やさ 100
▁ブレイク 100
▁書き込ま 100
▁クリスティ 100
ねい 100
▁均一 100
▁戦わ 100
▁沈静 100
▁ぐんま 100
▁先延ばし 100
▁インターフェース 100
▁内相 100
▁砺波 100
▁蒸留 100
プロス 100
▁IPC 100
▁イライラ 100
▁ビリ 100
▁盆栽 100
▁矛先 100
アーズ 100
▁海老蔵 100
▁深かっ 100
ワイガニ 100
▁切り抜け 100
▁見いだす 100
▁エンディング 100
ai 100
▁利率 100
▁北海 100
▁支度 100
▁つまず 100
▁曲がっ 100
▁言い放 100
▁ステルス 100
▁ワンダー 100
▁フィッシング 100
▁古書 100
▁報奨 100
▁席巻 100
▁気流 100
▁クレー 100
▁乗馬 100
▁光沢 100
▁微動 100
▁注が 100
▁陽介 100
▁オーラ 100
▁入り込み 100
▁投げつけ 100
ぺい 100
ナベ 100
▁アポ 100
▁佳菜子 100
▁パーキング 100
▁取りまとめる 100
▁レコーディング 100
解き 100
▁国賓 100
▁朋子 100
▁雄姿 100
▁そごう 100
▁冷ややか 100
▁思いつい 100
▁打ち込み 100
▁引き締まる 100
▁ウン 100
▁吹雪 100
▁敗因 100
▁東欧 100
▁蔵元 100
▁雅雄 100
ガルタ 100
▁バード 100
▁アジサイ 100
▁投げ込ん 100
▁山岡 100
▁社殿 100
▁裁定 100
工業 100
▁クモ 100
▁東灘 100
▁着弾 100
ソース 100
▁田野畑 100
▁イヤホン 100
li 100
ケ丘 100
▁まどか 100
▁ポルシェ 100
▁シャルリー 100
▁差し押さえ 100
あき 100
▁BC 100
▁壮絶 100
▁宇部 100
▁極上 100
▁源氏 100
▁無力 100
ナタ 100
▁こみ 100
▁略奪 100
▁イエス 100
▁打ち破 100
▁うかがい 100
▁レーベル 100
▁取り扱っ 100
▁エステティック 100
ox 100
▁日ロ 100
▁逆行 100
▁ピット 100
▁ホラー 100
▁オンブズ 100
▁キッカー 100
▁呼び込ん 100
▁打ち切っ 100
▁スタイリング 100
のく 100
ボタ 100
▁中元 100
▁江藤 100
▁痛烈 100
▁エキシ 100
▁ベートー 100
▁こた 100
▁原町 100
▁和博 100
▁噴射 100
▁拝殿 100
▁痛手 100
▁空路 100
▁セーラー 100
くう 100
▁ふき 100
▁キツ 100
▁焦っ 100
▁美寿 100
▁褒美 100
▁除け 100
▁落ち着か 100
▁点滴 100
▁途端 100
▁通わ 100
▁大林 100
▁捕球 100
▁荷台 100
▁養育 100
代わり 100
▁ティム 100
▁作付け 100
▁デュエット 100
▁インテリジェンス 100
▁ペリ 100
▁久野 100
▁伴わ 100
▁単勝 100
▁新茶 100
▁県側 100
▁エレガント 100
▁引き受ける 100
▁ぼん 100
▁下降 100
▁前代 100
▁増幅 100
▁折々 100
▁猛威 100
▁うたい 100
▁さりげ 100
▁深まり 100
ベントス 100
▁アントニオ 100
▁デメリット 100
▁詰め合わせ 100
▁停泊 100
▁巻く 100
▁期末 100
▁死守 100
▁甲州 100
▁示談 100
▁秘話 100
▁阿武 100
▁ホッキ 100
▁取り返し 100
▁ユベントス 100
▁大仁 100
▁宇和 100
▁寸断 100
▁強権 100
▁点字 100
▁被写 100
▁なんば 100
▁コアラ 100
▁サムライ 100
▁突き付け 100
▁ナビゲーション 100
ard 100
▁可動 100
▁家業 100
▁干支 100
▁悼ん 100
▁拓哉 100
ぞっ 100
▁当分 100
▁描け 100
▁施す 100
▁清浄 100
▁紀元 100
▁NHL 100
▁詞 100
▁VS 100
▁おご 100
▁イワ 100
▁赤羽 100
サンス 100
▁あがる 100
▁近づか 100
シャイン 100
▁ものすごい 100
▁ウニ 100
▁兵力 100
▁戦中 100
▁液状 100
▁JFE 100
▁メソッド 100
▁拙速 100
▁未聞 100
▁症例 100
▁着こ 100
▁精算 100
▁NEW 100
▁ベガルタ 100
▁幼なじみ 100
▁チェアマン 100
サク 100
▁多重 100
▁富樫 100
▁寺町 100
▁慣習 100
▁春先 100
▁育ん 100
▁装甲 100
▁トート 100
▁戻れる 100
▁預ける 100
▁マフラー 100
▁吹き替え 100
ろさ 100
▁撃破 100
▁昼夜 100
▁本意 100
▁陸地 100
求める 100
▁イーグ 100
▁恐れる 100
▁タケノコ 100
▁着こなし 100
▁ガム 100
▁作風 100
▁国策 100
▁完治 100
▁親切 100
ジェン 100
▁スキャ 100
▁ソル 100
▁山荘 100
▁滑っ 100
▁随分 100
▁奏でる 100
▁降り立っ 100
▁しっ 100
▁忍び 100
▁潤い 100
▁男役 100
▁あした 100
母神 100
▁公海 100
▁南端 100
▁宗派 100
▁迷走 100
▁気遣い 100
▁田母神 100
▁美代子 100
▁浮かべる 100
oc 100
おき 100
▁DE 100
▁ボブ 100
▁久光 100
▁内視 100
▁台座 100
▁望め 100
▁梅酒 100
▁ヘルタ 100
▁見知ら 100
シャール 100
ートニー 100
▁ミュラー 100
▁マッカートニー 100
▁リマ 100
▁小杉 100
▁美子 100
▁議定 100
▁軍備 100
▁高地 100
っとう 100
▁つまら 100
▁ノイズ 100
▁ミント 100
▁恐らく 100
▁レガシー 100
▁楽しもう 100
本荘 100
▁併記 100
▁時差 100
▁木工 100
▁節句 100
▁海沿い 100
▁由利本荘 100
▁SI 100
▁クセ 100
▁呼応 100
▁夕日 100
▁戦隊 100
▁頼久 100
▁のれん 100
▁偽物 100
▁実弾 100
▁関口 100
▁ネバダ 100
▁美寿々 100
▁もみ合い 100
▁エリック 100
▁ベネチア 100
▁アクシデント 100
▁キャンピング 100
▁余力 100
▁境遇 100
▁帰ら 100
▁美白 100
▁いとこ 100
▁クラレ 100
▁セリーナ 100
▁オリエンタル 100
ケ所 100
▁京丹 100
▁勝訴 100
▁マルコ 100
チル 100
▁マダ 100
▁余分 100
▁童謡 100
▁助かる 100
▁鉱工業 100
▁打ち切ら 100
▁ナシ 100
▁就農 100
▁採集 100
▁文具 100
▁書士 100
▁海鮮 100
▁筑豊 100
じゅう 100
▁おとし 100
▁驚かさ 100
▁少なから 100
▁アオリイカ 100
▁ゾン 100
▁俊輔 100
▁創意 100
▁水辺 100
▁細貝 100
▁不可解 100
▁寄り切っ 100
▁聞き入っ 100
▁イーグルス 100
▁ジャンパー 100
▁下野 100
▁反米 100
▁授乳 100
▁智恵 100
▁術後 100
▁除菌 100
▁電化 100
▁アブダ 100
▁海老名 100
▁マッカー 100
起き 100
▁償還 100
▁山井 100
▁放鳥 100
▁旨み 100
▁アセス 100
▁間取り 100
▁トレードマーク 100
ht 100
▁左飛 100
▁本宮 100
▁達人 100
▁六ケ所 100
▁綱引き 100
▁くっきり 100
▁落ち着く 100
▁きみ 100
▁公私 100
▁分岐 100
▁手頃 100
▁有給 100
▁老い 100
▁脳内 100
▁添える 100
▁オーロラ 100
▁大金 100
▁見逃さ 100
▁降り注 100
▁書き換え 100
▁ブダ 100
▁ロブ 100
▁克彦 100
▁別居 100
▁毛利 100
▁点差 100
ューズ 100
▁にじみ 100
▁ダラス 100
ニーニョ 100
▁ゼネコン 100
▁キャラメル 100
めく 100
▁IA 100
▁依願 100
▁公金 100
▁口実 100
▁善光 100
▁国保 100
▁盛大 100
▁社交 100
▁腕前 100
▁長屋 100
▁フクラ 100
▁うかがっ 100
▁プロバイダー 100
▁オト 100
▁余剰 100
▁入管 100
▁前置き 100
▁細長い 100
▁ヤマザキ 100
▁立ち会い 100
▁ディーラー 100
▁余念 100
▁元祖 100
▁創成 100
▁既婚 100
▁漢方 100
ラーゲン 100
▁書き込む 100
▁Be 100
▁がた 100
▁代償 100
▁目先 100
▁ワーズ 100
▁北の湖 100
▁掛かっ 100
▁見逃せ 100
▁かわいく 100
▁ブダペスト 100
▁サンシャイン 100
かご 100
の根 100
ラリ 100
▁付録 100
▁出光 100
▁大須 100
▁桜花 100
▁火葬 100
▁知財 100
▁終息 100
▁貴子 100
▁エイジング 100
▁ピッチング 100
pe 100
▁ヤヌ 100
▁山脈 100
▁果樹 100
▁知多 100
▁立国 100
▁覆面 100
▁黒板 100
▁COO 100
▁サンダル 100
▁岩波 100
▁徳永 100
▁新藤 100
デオロ 100
▁おむつ 100
▁ひたち 100
▁抱っこ 100
▁開き直 100
▁バレンティン 100
▁ケー 100
▁益田 100
▁睦 100
知れ 100
▁クチ 100
▁ハト 100
▁ルン 100
▁国庫 100
▁船団 100
▁カバン 100
▁戸建て 100
▁レディー 100
▁持ち掛け 100
ILE 100
▁一也 100
▁中教 100
▁勇人 100
▁川原 100
▁新顔 100
▁活路 100
▁皮脂 100
▁総称 100
▁ピュア 100
保里 100
▁全敗 100
▁再犯 100
▁惨状 100
▁栗東 100
▁疑っ 100
▁石黒 100
▁祭壇 100
▁見失 100
▁ドミニカ 100
▁フクラギ 100
▁差し入れ 100
▁欲しかっ 100
ヴォ 100
▁八田 100
▁幸一 100
▁桐谷 100
▁涼し 100
▁目印 100
▁ビキニ 100
▁ピラミ 100
▁すがすが 100
▁パノラマ 100
▁スーツケース 100
▁ブルーベリー 100
ベロ 100
▁ジカ 100
▁危な 100
▁大空 100
▁榎本 100
▁源流 100
▁球数 100
▁皆川 100
▁関取 100
▁ロリー 100
▁スタンダール 100
▁ふら 100
▁同部 100
▁奥深 100
▁樺太 100
▁江蘇 100
▁静香 100
▁どうせ 100
▁デルタ 100
▁戸惑う 100
▁エルニーニョ 100
▁健常 100
▁爆心 100
▁アロンソ 100
▁ピラミッド 100
▁EN 100
▁平太 100
▁理香子 100
ンダント 100
▁ウェザー 100
MI 100
こむ 100
持っ 100
▁彩色 100
▁レッテル 100
-------- 100
ケ浦 100
▁中里 100
▁水源 100
▁野中 100
▁取り組ま 100
▁生き延び 100
デュ 100
▁汽車 100
▁白菜 100
▁砂丘 100
▁砂川 100
▁ハーモニー 100
▁コックピット 100
▁パーキンソン 100
煌山 100
ERO 100
▁CH 100
▁プエ 100
▁国士 100
▁大家 100
▁平手 100
▁稚内 100
▁純米 100
▁たまご 100
▁クボタ 100
▁栃煌山 100
クティブ 100
▁にこやか 100
▁オペレーション 100
▁スーパースター 100
▁大道 100
▁急変 100
▁漆器 100
▁賞状 100
▁ポット 100
▁ルディ 100
▁ローラン 100
▁徴兵 100
▁青果 100
▁レディス 100
レコ 100
▁川俣 100
▁八千代 100
▁つらかっ 100
▁アブダビ 100
▁掛け合い 100
▁ロケーション 100
▁コントローラー 100
サラ 100
▁のう 100
▁岩場 100
▁秀喜 100
▁がんばり 100
▁ビーコン 100
▁和らげる 100
▁アーカイブ 100
yo 100
びき 100
▁始業 100
▁早良 100
▁花咲 100
▁シネマズ 100
▁メガホン 100
▁踏ん張っ 100
▁やみ 100
▁わり 100
▁サハ 100
▁ニン 100
▁仕え 100
▁佐田 100
▁将校 100
▁現物 100
りょう 100
▁セレッソ 100
▁ヒトラー 100
▁引きつけ 100
▁持ち帰る 100
▁あご 100
ガソン 100
▁みちのく 100
イグ 100
▁お腹 100
▁べし 100
▁吸う 100
▁歌わ 100
▁産後 100
▁頭脳 100
▁こぞっ 100
▁延ばす 100
▁過ごせ 100
▁ほど遠い 100
▁コラーゲン 100
▁シモ 100
▁偏り 100
▁前文 100
▁没頭 100
▁浜口 100
▁衝動 100
▁造語 100
アット 100
▁体当たり 100
▁フィルハー 100
▁つえ 100
▁他界 100
▁尾鷲 100
▁恥じ 100
▁無し 100
▁秀雄 100
わろう 100
▁おでん 100
▁ヒョウ 100
▁小刻み 100
▁無駄遣い 100
▁ストリーミング 100
▁効か 100
▁学べ 100
▁東村 100
▁植栽 100
▁観念 100
▁隆盛 100
▁美智子 100
▁耐える 100
▁ファーガソン 100
ストレーション 100
▁大儀 100
▁東陵 100
▁竹鶴 100
▁大井川 100
▁見知り 100
▁踏み込む 100
EI 100
▁きか 100
▁包む 100
▁吟醸 100
▁多分 100
▁敵失 100
▁計量 100
▁まずい 100
▁押し切っ 100
▁生きがい 100
▁伸行 100
▁欣也 100
▁減免 100
▁精製 100
▁カーニ 100
▁ポリシー 100
▁損ね 100
▁褒章 100
▁ほこり 100
▁ナショナ 100
▁どよ 100
▁串本 100
ウィン 100
▁あかり 100
▁エント 100
▁口永良部 100
▁思い込ん 100
▁振り回さ 100
▁進めよう 100
▁BP 100
▁一戦 100
▁光文 100
▁入隊 100
▁老衰 100
▁ビリー 100
▁コーラス 100
▁ボイラー 100
▁丸太 100
▁引率 100
▁敵陣 100
▁旦那 100
▁禁輸 100
▁BPO 100
▁沙保里 100
▁物語っ 100
▁オークラ 100
▁持ち上がっ 100
イリ 100
▁大倉 100
▁弾薬 100
▁稲作 100
▁しびれ 100
▁とこと 100
▁川沿い 100
▁要職 100
▁賢島 100
▁シャルケ 100
▁ナイター 100
稼ぎ 100
▁リミ 100
▁人前 100
▁脱い 100
▁良一 100
▁カレイ 100
▁レセプション 100
弁連 100
ity 100
▁西本 100
ザイク 100
▁ポテン 100
▁日弁連 100
▁フィジカル 100
てん 100
ラヤ 100
▁交易 100
▁北山 100
▁古河 100
▁復職 100
▁水沢 100
▁育ま 100
▁CDB 100
▁棚上げ 100
ェゴ 100
▁ED 100
▁厳戒 100
▁想起 100
▁LDK 100
▁劣る 100
ごたえ 100
▁歩み寄り 100
の親 100
ぶせ 100
▁凍ら 100
▁極限 100
▁突か 100
▁辛口 100
▁連名 100
ルーム 100
▁出回っ 100
▁敗れる 100
▁ウォルト 100
▁貸し切り 100
▁ナム 100
▁はじまり 100
▁映し出す 100
ミツ 100
▁ボリ 100
▁変貌 100
▁大隅 100
▁甘酸 100
▁英字 100
▁還暦 100
▁寄り付き 100
かつ 100
ぐろ 100
ヤル 100
▁かっ 100
▁ソバ 100
▁五感 100
▁場外 100
▁昌子 100
▁生殖 100
▁繁盛 100
▁web 100
▁アルゴ 100
フランク 100
張っ 100
▁まぶ 100
▁大神 100
▁戦績 100
▁次席 100
▁洋食 100
▁過言 100
▁重宝 100
▁雄太 100
ルドー 100
▁ミート 100
▁璃 100
ノワ 100
▁中級 100
▁作法 100
▁闘っ 100
▁まこと 100
▁ビーティー 100
▁アルファベット 100
ダス 100
▁前者 100
▁部内 100
▁はさん 100
▁ひねり 100
▁OSCE 100
▁折りたた 100
▁請け負う 100
▁リバプール 100
ミル 100
▁マジ 100
▁侵犯 100
▁去就 100
▁熱烈 100
▁重賞 100
▁雇い 100
んじる 100
クシィ 100
ッセイ 100
▁ずらし 100
グループ 100
▁レト 100
▁張本 100
▁謝礼 100
▁門真 100
▁ビューティ 100
▁限月 100
▁ATP 100
▁えり子 100
▁久米島 100
▁妨げる 100
▁ライオンズ 100
▁引き締まっ 100
▁裂 100
▁両側 100
▁光り 100
▁千賀 100
▁検体 100
▁疑似 100
▁皇子 100
▁花々 100
ブリッジ 100
▁ぬくもり 100
▁フィリーズ 100
▁オプ 100
▁尚弥 100
▁恭子 100
▁軍政 100
▁とことん 100
▁モノクロ 100
▁ウォルフスブルク 100
イチ 100
▁西岸 100
▁根ざし 100
▁すれ違い 100
▁藻 100
▁全開 100
▁改編 100
▁赤穂 100
▁ウエート 100
▁エクスペ 100
▁カブール 100
▁獄 100
▁ベロ 100
▁主眼 100
▁伸弥 100
▁意匠 100
▁決行 100
▁温水 100
▁県南 100
▁週内 100
リク 100
▁沢山 100
▁迷う 100
▁アラン 100
すけ 100
▁LC 100
▁うけ 100
▁ヨコ 100
▁江渡 100
▁ウラジオ 100
▁ベンダー 100
▁成り立つ 100
▁ウィーラー 100
▁丹後 100
▁名倉 100
▁夜行 100
▁襲来 100
▁しつけ 100
▁乗り切っ 100
▁ズワイガニ 100
▁ラミ 100
▁回遊 100
▁居室 100
▁正門 100
▁野良 100
▁飛車 100
瑠璃 100
▁扇動 100
▁東照 100
▁謹慎 100
▁つづく 100
▁浄瑠璃 100
▁振り込ま 100
▁焼きそば 100
KYO 100
▁かど 100
▁尾根 100
▁府内 100
▁改称 100
▁脊髄 100
▁裕二 100
▁降伏 100
▁韓日 100
▁出会え 100
▁阿弥陀 100
▁しあわせ 100
ツィ 100
▁ワル 100
▁伊予 100
▁促さ 100
▁傷み 100
▁割る 100
▁贈答 100
▁高熱 100
ストク 100
▁上がれ 100
▁付け根 100
▁キャリー 100
▁四条 100
▁木津 100
▁駐機 100
▁HIV 100
▁和やか 100
▁ペーニャ 100
▁ブレスレット 100
▁リアリティー 100
▁作新 100
▁失墜 100
▁斉唱 100
▁練る 100
▁通気 100
▁しげる 100
▁消し止め 100
▁追い打ち 100
▁アーネスト 100
▁ジョギング 100
▁スピリッツ 100
▁ゼロックス 100
▁スプラトリー 100
▁シス 100
▁信介 100
▁城東 100
▁患部 100
▁戦況 100
▁糸島 100
▁笑い声 100
▁誇らし 100
ベックス 100
▁パドレス 100
▁フォルラン 100
ケー 100
ワラ 100
▁北谷 100
▁布施 100
▁暴挙 100
▁桂宮 100
▁甘え 100
▁荒廃 100
▁貯水 100
▁かおり 100
ビション 100
▁クローゼ 100
▁ビックリ 100
▁なだ 100
▁原価 100
▁友里 100
▁曜日 100
▁柳井 100
▁なりすまし 100
▁ふつ 100
▁中畑 100
▁力量 100
▁富豪 100
▁触ら 100
▁中之島 100
▁推し進め 100
▁ウラジオストク 100
▁媒介 100
▁戸塚 100
▁旋風 100
▁智也 100
▁相方 100
▁短冊 100
▁館林 100
▁net 100
▁ガンバ 100
▁エッセンス 100
▁ジューシー 100
カレ 100
▁つと 100
▁法規 100
▁産科 100
▁腹腔 100
▁しょく 100
▁ソール 100
▁肉離れ 100
晴れ 100
▁いわく 100
▁オレゴン 100
▁ウォーカー 100
▁ボイコット 100
▁奥原 100
▁棋王 100
▁用水 100
▁オムニ 100
▁中山間 100
▁サンクス 100
LS 100
殺し 100
▁滑落 100
▁脱毛 100
▁アサリ 100
▁乗れる 100
▁イデオロ 100
▁プエルト 100
ソーシアム 100
▁イデオロギー 100
九郎 100
▁三池 100
▁待合 100
▁東都 100
▁聖域 100
▁遠山 100
▁パーム 100
▁地滑り 100
ie 100
▁カバ 100
▁際立た 100
▁けっこう 100
▁しゃべっ 100
ギョ 100
▁テー 100
▁全町 100
▁出羽 100
▁和久 100
▁腫れ 100
▁赤道 100
▁銀賞 100
▁駐輪 100
▁うつぶせ 100
▁ミズーリ 100
▁おど 100
▁ギュ 100
▁俳人 100
▁問責 100
▁小室 100
▁後輪 100
▁敏夫 100
▁盟友 100
プソン 100
ンジョン 100
▁ケンブリッジ 100
▁寧 100
▁くせ 100
▁壁紙 100
▁属し 100
▁癒着 100
▁ワーナー 100
▁植え付け 100
▁語り継ぐ 100
フランクフルト 100
▁エスカレーター 100
けつ 100
ーと 100
▁下座 100
コーン 100
▁しかる 100
▁らしき 100
▁徹夜 100
▁築城 100
▁スパー 100
▁ツツジ 100
▁ブルック 100
抜く 100
▁きい 100
▁リト 100
▁令状 100
▁嘱託 100
▁手堅 100
▁払戻 100
▁はるみ 100
▁カサゴ 100
▁チェロ 100
ゼーション 100
▁エヴァンゲリ 100
っ人 100
メラ 100
ure 100
▁喝采 100
▁在職 100
▁失職 100
インズ 100
▁ヨウ素 100
▁紀の川 100
▁ばらばら 100
▁ネクスト 100
▁感じ取っ 100
▁古道 100
▁渋川 100
▁あたた 100
▁シラス 100
▁守れる 100
▁折り紙 100
▁謎解き 100
▁グルジア 100
ビエーション 100
▁搾り 100
▁永住 100
▁高志 100
▁与那国 100
▁防げる 100
▁すぐさま 100
▁送り出す 100
▁パーソナリティー 100
▁俊足 100
▁自伝 100
▁ベント 100
▁動かさ 100
▁映える 100
▁生みの親 100
▁デービッド 100
▁オークランド 100
孫子 100
▁バウ 100
▁即席 100
▁急騰 100
▁栄一 100
▁糖度 100
▁AED 100
▁シャドー 100
▁フォート 100
▁思い立っ 100
▁競い合っ 100
▁俵 100
ぼし 100
▁芸大 100
▁西欧 100
タイプ 100
▁溶かし 100
▁プラズマ 100
▁バーレーン 100
▁Co 100
▁TC 100
▁一応 100
▁主事 100
▁井原 100
▁東寺 100
▁桃山 100
▁豊後 100
▁霊場 100
▁チルドレン 100
▁ウチ 100
▁学識 100
▁麻原 100
▁イワシ 100
▁和らい 100
▁プライス 100
ントラハト 100
▁アイントラハト 100
▁ずく 100
▁たれ 100
▁宮島 100
▁水陸 100
▁芳樹 100
▁ズーム 100
▁テンプ 100
▁働き手 100
▁売り手 100
▁アラスカ 100
▁スナップ 100
▁真新しい 100
▁アイデンティ 100
▁アヤ 100
▁勝人 100
▁無謀 100
▁アーノ 100
▁混ぜる 100
▁カーナビ 100
▁タンカー 100
エビ 100
志野 100
▁人情 100
▁入部 100
▁大月 100
▁水彩 100
▁JFL 100
▁草の根 100
▁見受け 100
▁ハーバー 100
ボロ 100
払っ 100
▁こわ 100
▁モト 100
▁寝具 100
▁振ら 100
▁空域 100
▁郡上 100
▁オスロ 100
▁習志野 100
▁スライス 100
へん 100
▁上期 100
▁五穀 100
▁嶋田 100
▁快諾 100
▁政情 100
▁日興 100
▁活況 100
▁西南 100
▁きらめ 100
▁スペック 100
▁ブルームバーグ 100
uk 100
▁佐村 100
▁弘子 100
▁退学 100
▁ひっそり 100
▁ものまね 100
▁レーサー 100
▁取り決め 100
▁サンドイッチ 100
▁ちゅ 100
▁ほっ 100
▁HDD 100
▁カラダ 100
▁果たさ 100
▁ビンソン 100
▁取りやめる 100
bps 100
▁含有 100
▁地殻 100
▁特番 100
▁スカル 100
▁モザイク 100
▁ハッキング 100
▁あだ 100
▁吟味 100
▁東出 100
▁気負 100
▁消失 100
▁満々 100
▁隣り 100
▁にじん 100
▁はなし 100
▁日の出 100
▁こっそり 100
▁申し合わせ 100
▁エキシビション 100
SD 100
▁テネ 100
▁リメ 100
▁丹念 100
▁井手 100
▁帰郷 100
▁節子 100
▁陰謀 100
ごとく 100
ナード 100
▁痛かっ 100
▁ことごとく 100
▁デモンストレーション 100
ッス 100
▁さよ 100
▁人吉 100
▁別館 100
▁弘行 100
▁額賀 100
ネーズ 100
▁あいつ 100
▁メード 100
▁草刈り 100
▁さよなら 100
▁一蹴 100
▁井川 100
▁活字 100
▁真空 100
▁良介 100
っぱい 100
▁キャロライン 100
▁談笑 100
▁ひとみ 100
▁飲み会 100
▁晴れやか 100
▁急死 100
▁殺菌 100
▁油井 100
▁請負 100
▁大騒ぎ 100
▁ブランコ 100
▁TOKYO 100
ぬき 100
▁地所 100
▁妙高 100
▁採れ 100
▁養蚕 100
左衛門 100
▁ヤヌコビッチ 100
ica 100
▁八女 100
▁離さ 100
セプト 100
違う 100
▁JO 100
▁小金 100
▁拭き 100
▁挺身 100
ジスト 100
▁コープ 100
▁サザン 100
▁ワット 100
▁ラケット 100
▁シミ 100
▁効く 100
▁半日 100
▁女房 100
▁私邸 100
▁一樹 100
▁千田 100
▁女将 100
▁温床 100
▁輿石 100
▁ラッセル 100
ex 100
みる 100
▁石岡 100
▁とがら 100
▁クラゲ 100
▁切り替 100
▁助っ人 100
▁クワ 100
▁断る 100
▁法曹 100
▁脳裏 100
ミール 100
▁国公立 100
▁広まり 100
▁あおむけ 100
▁ふっくら 100
▁取り除い 100
▁モラ 100
▁仮定 100
▁俊彦 100
▁公布 100
▁憤っ 100
▁片隅 100
▁粛清 100
▁谷内 100
▁金鐘 100
▁八幡西 100
▁揺らい 100
▁閉じる 100
▁トレイル 100
▁EXILE 100
▁オセアニア 100
理子 100
隠れ 100
▁ガガ 100
▁京急 100
▁初詣 100
▁城主 100
▁着信 100
▁矢口 100
▁篠山 100
アプリ 100
▁引越し 100
▁アビ 100
▁供用 100
▁撃っ 100
▁殊勲 100
▁浅間 100
▁溺れ 100
シャー 100
▁コナン 100
▁貴乃花 100
ツカ 100
▁区議 100
▁土壇 100
▁患い 100
▁ルーズ 100
▁固まり 100
▁コンソーシアム 100
▁唐突 100
▁威圧 100
▁宏樹 100
▁更地 100
▁環球 100
▁鼻血 100
サール 100
▁のめり 100
▁ヘッジ 100
▁マギー 100
▁見渡す 100
▁がっかり 100
▁ヤンキー 100
▁乗ら 100
▁すかさ 100
▁ハッシュ 100
▁切り取っ 100
▁カーニバル 100
▁エヴァンゲリオン 100
▁みこ 100
▁事柄 100
▁新調 100
▁竜馬 100
▁線香 100
ウルス 100
▁たいまつ 100
▁プッシュ 100
▁乗り切る 100
▁繰り出す 100
▁アビエーション 100
▁漠 100
郡山 100
▁カピ 100
▁塩尻 100
▁実録 100
▁赤松 100
▁高雄 100
▁キケン 100
▁右打ち 100
▁飲める 100
▁トリート 100
▁デコレーション 100
▁学ば 100
▁有吉 100
▁順大 100
飛ばし 100
ight 100
▁ISI 100
▁まんじゅう 100
▁ニー 100
▁清酒 100
▁軽食 100
▁センサ 100
▁思いや 100
▁決まれ 100
▁勝ち進ん 100
▁初号 100
▁大王 100
▁微増 100
▁払え 100
▁整う 100
▁確固 100
▁菩薩 100
▁いわて 100
▁しつよう 100
▁エントランス 100
▁メジ 100
▁平戸 100
▁投機 100
▁木原 100
▁船上 100
▁記号 100
▁着心地 100
▁ジョーク 100
▁ブータン 100
▁居合わせ 100
▁カスタマー 100
ov 100
▁手動 100
▁授受 100
▁CPI 100
▁彩香 100
▁繁忙 100
▁豊山 100
▁金塊 100
▁おまけ 100
▁生き埋め 100
▁インフォメーション 100
清水 100
▁うろ 100
▁らい 100
▁モス 100
▁客層 100
▁指南 100
▁リンカ 100
▁スクラム 100
▁ドロップ 100
モノ 100
塩原 100
▁ロッ 100
▁一橋 100
▁中将 100
▁中飛 100
▁係る 100
▁群生 100
がらせ 100
▁つかっ 100
▁恐ろし 100
▁身勝手 100
トリウム 100
▁通り過ぎ 100
スポ 100
割れ 100
▁ズレ 100
▁入間 100
▁加重 100
▁図柄 100
▁真っ暗 100
ティクス 100
▁すかさず 100
▁ヒマラヤ 100
▁読み取る 100
トレ 100
▁天正 100
▁欲求 100
▁気概 100
▁中押し 100
▁大和郡山 100
▁大漁 100
▁皆無 100
▁行程 100
チュウ 100
▁手向け 100
ハーゲン 100
▁借り上げ 100
▁炊き出し 100
▁スプリット 100
の具 100
▁入店 100
▁消波 100
▁粛々 100
▁貼る 100
▁銀色 100
サービス 100
▁ソラ 100
▁揃え 100
▁福本 100
▁零細 100
▁あゆみ 100
▁すき家 100
▁土壇場 100
▁ジャングル 100
▁渇 100
だか 100
ぶつ 100
▁ツキ 100
▁中庭 100
▁判別 100
▁受諾 100
▁ニッカ 100
▁絵の具 100
▁足かせ 100
▁つくれる 100
▁斑 100
▁るー 100
▁梅野 100
▁欠点 100
▁紫色 100
▁英訳 100
んなり 100
▁中越え 100
▁先取り 100
▁品揃え 100
▁カセット 100
▁ダイキン 100
▁バイデン 100
▁厚別 100
▁敬愛 100
▁由美 100
▁精巧 100
▁はみ出し 100
▁委任 100
▁撮ら 100
▁課せ 100
▁たたみ 100
▁コスモ 100
▁上向い 100
ッセルドルフ 100
ラブ 100
ark 100
▁劇作 100
▁奪回 100
▁安土 100
▁足腰 100
▁金井 100
▁骨髄 100
ステス 100
▁ポーク 100
▁分厚い 100
▁ペースト 100
▁ヒナ 100
▁一様 100
▁米露 100
▁美保 100
デンス 100
▁ルアー 100
▁胴上げ 100
▁ソンジュ 100
▁ルネサンス 100
▁とち 100
▁九重 100
▁税調 100
▁終点 100
ニスカ 100
▁おかみ 100
▁わし 100
▁ケミ 100
▁井伊 100
▁利根 100
▁嫌わ 100
▁田淵 100
▁航続 100
▁惜しみ 100
▁ジャガー 100
▁フィナーレ 100
▁モーション 100
▁オンブズマン 100
べい 100
ネイ 100
▁ダブ 100
▁本選 100
▁産物 100
▁良太 100
▁課さ 100
▁返せ 100
▁貸し付け 100
▁デュッセルドルフ 100
▁交信 100
▁桜木 100
▁潜ん 100
▁町立 100
▁腹痛 100
▁開口 100
ザニア 100
留める 100
▁ハイライト 100
▁みずみずしい 100
マキ 100
ADA 100
▁どり 100
▁正副 100
▁無用 100
▁相川 100
▁自賛 100
▁里菜 100
▁モーツ 100
▁付き添い 100
▁ボウリング 100
▁プエルトリコ 100
ピス 100
▁働け 100
▁初音 100
▁日下 100
▁東野 100
▁真人 100
▁つとめ 100
▁吹き抜け 100
▁リポーター 100
▁隈 100
▁信夫 100
▁幸三 100
▁新進 100
▁消去 100
▁球威 100
▁田町 100
▁まぐろ 100
▁エリー 100
▁振るう 100
▁アレクサ 100
▁ホステス 100
▁リソース 100
ーニ 100
▁卓也 100
▁廃校 100
▁指宿 100
▁沿う 100
▁球種 100
▁TBC 100
▁ビュ 100
▁厳密 100
▁康介 100
▁真価 100
ペテル 100
▁嫌がらせ 100
▁踏み入れ 100
▁ダボス 100
▁詰め込ん 100
▁易 100
▁民芸 100
▁縁組 100
▁遺志 100
▁駒沢 100
▁里帰り 100
▁インナー 100
▁ミニマム 100
▁巻き込み 100
▁クッキング 100
▁コンセント 100
サム 100
▁バネ 100
▁乾い 100
▁助産 100
▁右脚 100
▁大砲 100
▁延命 100
▁懲罰 100
▁来賓 100
▁自室 100
▁陥没 100
▁じわじ 100
▁植える 100
▁かなえる 100
▁じんたい 100
メロ 100
▁ゆい 100
▁オコ 100
▁大沼 100
▁洋風 100
ァルト 100
▁裏返し 100
▁じわじわ 100
▁利権 100
▁持久 100
▁水球 100
▁白髪 100
▁谷本 100
▁重し 100
ナール 100
▁ブリー 100
▁リヨン 100
▁宇和島 100
▁寄り切り 100
▁曹 100
なぎ 100
伏せ 100
▁丸森 100
▁大粒 100
▁政経 100
▁熟知 100
▁豆乳 100
▁透析 100
▁オックス 100
▁キプロス 100
ぽろ 100
▁聡子 100
▁ペルシャ 100
教組 100
▁下呂 100
たかも 100
サリン 100
ahoo 100
▁ハバナ 100
▁あたかも 100
良野 100
▁束ね 100
▁江南 100
▁随一 100
▁MVNO 100
▁きめ細か 100
▁スピース 100
▁リリーフ 100
▁言い聞かせ 100
▁ジャンクション 100
▁MX 100
▁ねぇ 100
▁ジラ 100
▁奈津 100
▁定置 100
▁道義 100
▁ケージ 100
▁縮まっ 100
▁ワーカー 100
▁駆けつける 100
▁フォークボール 100
of 100
登り 100
▁ひし 100
▁マケ 100
▁厨房 100
▁吉井 100
▁最良 100
▁査証 100
▁金丸 100
バックス 100
▁ストライキ 100
▁コラムニスト 100
▁菱 100
▁BD 100
▁OM 100
▁平尾 100
▁PDF 100
▁あてる 100
▁タモリ 100
▁引き離 100
▁照らさ 100
メーカー 100
▁スプレイ 100
▁突き進む 100
活用 100
▁抗体 100
▁流星 100
▁利活用 100
▁向かわ 100
▁計り知れ 100
▁ベーシック 100
ows 100
▁乱立 100
▁振込 100
▁瞬く 100
▁質量 100
▁トレンチ 100
こつ 100
サキ 100
▁フタ 100
▁一向 100
▁陽光 100
っぴん 100
▁はかる 100
▁親しく 100
▁アンドレ 100
▁スプーン 100
▁Store 100
▁ジェンダー 100
▁バレンシア 100
まか 100
▁ひさ 100
▁ナー 100
▁強敵 100
▁自費 100
▁象牙 100
▁郁夫 100
▁慣れる 100
▁竜太郎 100
▁ジーター 100
▁ユニオン 100
▁プロパガンダ 100
▁ポテンシャル 100
▁KI 100
▁佐倉 100
▁体幹 100
▁父島 100
▁設営 100
ェゴビナ 100
▁スコップ 100
▁触れ合う 100
▁締めくくる 100
配り 100
▁かぐ 100
▁ナナ 100
▁地雷 100
▁武家 100
▁軽度 100
▁部族 100
▁金谷 100
▁預払 100
▁アーキ 100
ヘルツェゴビナ 100
▁WH 100
▁のぶ 100
▁勝彦 100
▁植松 100
▁聴か 100
▁こけし 100
▁割れる 100
▁温かみ 100
▁満たせ 100
▁うるさい 100
▁ミニスカ 100
▁アルミニウム 100
▁コペンハーゲン 100
かわ 100
▁ツケ 100
▁漂着 100
▁エラー 100
▁ファイア 100
▁生き残る 100
さき 100
EOS 100
▁享受 100
▁八角 100
▁城跡 100
▁川田 100
▁所信 100
▁氷上 100
▁胸元 100
▁宗一郎 100
▁懸ける 100
▁ほほ笑ん 100
▁創る 100
▁店側 100
▁林道 100
▁浦添 100
▁義経 100
▁逃す 100
▁ムース 100
▁揺らぐ 100
▁泊まっ 100
▁震わせ 100
日曜 100
▁LA 100
▁平凡 100
▁末広 100
▁綿密 100
▁真理子 100
▁思い出さ 100
▁滴 100
▁パネ 100
▁TPC 100
▁エクサ 100
▁梅干し 100
▁頼れる 100
▁さかのぼっ 100
▁アミューズ 100
▁錬 100
▁オカ 100
▁南道 100
▁水島 100
▁洗面 100
▁重慶 100
▁高低 100
▁突き放 100
▁引き渡さ 100
▁ジョンイル 100
▁文枝 100
▁民国 100
▁涌井 100
▁竹林 100
▁チュウ 100
▁ストラテジスト 100
▁フィルハーモニー 100
FP 100
結び 100
▁加担 100
▁商高 100
▁荻野 100
▁隣人 100
▁ミニチュア 100
ミヤ 100
之内 100
知子 100
▁しぶ 100
▁ユズ 100
▁全高 100
▁取手 100
▁塗る 100
▁文子 100
▁真宗 100
▁言明 100
ルファ 100
▁ジーン 100
▁待ち構え 100
▁ナトリウム 100
▁然 100
▁IX 100
▁シチ 100
▁ルカ 100
▁売場 100
▁舌戦 100
▁追手 100
▁陶磁器 100
▁シロップ 100
▁ENEOS 100
▁アルゴリズム 100
▁エキスパート 100
▁そぐ 100
▁相生 100
▁窒素 100
▁長門 100
カーン 100
パード 100
▁裏切り 100
▁防ごう 100
ノブイリ 100
▁Wind 100
▁せんべい 100
▁バリュー 100
▁ドレッシング 100
▁元妻 100
▁白物 100
▁造反 100
▁トミー 100
▁細やか 100
ズナブル 100
▁くすぶる 100
▁スロープ 100
▁ハザード 100
▁飛び込む 100
▁スパイダー 100
▁チェルノブイリ 100
づる 100
▁仮説 100
▁善意 100
▁軽症 100
▁かつお 100
▁小ぶり 100
▁飛び散 100
▁BOOK 100
▁なぞらえ 100
▁成り立ち 100
▁積み立て 100
▁多国 100
▁履正 100
▁起工 100
▁遅刻 100
しかわ 100
▁夕暮れ 100
▁いしかわ 100
▁ホンジュ 100
▁リセット 100
▁ガードレール 100
▁ホンジュラス 100
▁ちん 100
▁つん 100
▁オピ 100
▁丸み 100
▁京成 100
▁軟骨 100
▁野茂 100
▁ケンカ 100
▁ダビド 100
▁アレックス 100
▁インターセプト 100
▁かむ 100
▁グッ 100
▁ワニ 100
▁もくろ 100
▁大きめ 100
▁日教組 100
▁築き上げ 100
▁飛び立っ 100
▁モーツァルト 100
▁LS 100
▁文豪 100
▁旗手 100
▁火薬 100
▁膨れ 100
▁触媒 100
▁馬身 100
▁黒瀬 100
ヒョン 100
▁アトム 100
▁タスク 100
▁出そう 100
▁真っ黒 100
▁デジカメ 100
▁マウンテン 100
BT 100
もや 100
▁みの 100
▁今江 100
▁品評 100
▁異国 100
▁神輿 100
▁長沼 100
▁MRI 100
▁ゆがみ 100
▁わざと 100
▁ブレイ 100
プリング 100
▁GPIF 100
▁クラブハウス 100
涌谷 100
▁イマ 100
▁商船 100
▁対比 100
▁強靱 100
▁有り 100
▁湖南 100
▁青梅 100
▁ミノル 100
▁出だし 100
▁大涌谷 100
▁浴衣姿 100
▁取り合っ 100
▁立ち去っ 100
▁踏み切り 100
▁全集 100
▁戦友 100
▁硬貨 100
▁貨幣 100
▁邦夫 100
▁駐韓 100
マリー 100
ランボ 100
▁みなす 100
▁インパ 100
▁シーク 100
▁真由美 100
▁しゃべる 100
▁よこ 100
▁体勢 100
▁備品 100
▁商機 100
▁弘成 100
▁心得 100
▁現有 100
▁砲弾 100
▁祭祀 100
▁設楽 100
▁逆境 100
▁遮水 100
▁鹿沼 100
▁ICC 100
▁ビーズ 100
▁人通り 100
富士 100
▁めし 100
▁変速 100
▁悼む 100
▁飲め 100
▁高見 100
泊まり 100
▁ミツバチ 100
▁奮い立た 100
▁Windows 100
▁失調 100
▁西島 100
▁ハディ 100
▁ハリス 100
▁ナレッジ 100
▁フォルム 100
▁引き返し 100
▁情けない 100
▁揺さぶる 100
▁スピーディー 100
▁中居 100
▁伝染 100
▁出費 100
▁演舞 100
▁牧師 100
▁破ら 100
ディーズ 100
▁城山 100
▁大和田 100
▁ぶつける 100
▁スパーク 100
▁ムンバイ 100
ヒア 100
ーノ 100
▁上地 100
▁吉松 100
▁実っ 100
▁幼虫 100
▁ムーブ 100
▁マヨネーズ 100
▁さだ 100
▁休め 100
▁気勢 100
▁漠然 100
▁試着 100
ッペ 100
▁kW 100
▁即売 100
▁大枠 100
▁安政 100
▁朝霞 100
▁野望 100
▁ネスレ 100
▁ハンズ 100
▁かがやき 100
▁まとまる 100
▁タニ 100
▁断水 100
▁玄米 100
▁ペリー 100
▁遊び場 100
▁ちらつか 100
▁ジェイン 100
▁デュアル 100
▁アーモンド 100
▁ウェールズ 100
▁スターバックス 100
▁倒木 100
▁市有 100
▁無難 100
▁碧山 100
▁絵図 100
▁縫っ 100
▁ウーマン 100
▁打ち切る 100
▁淵 100
ふつ 100
ish 100
▁一節 100
▁富市 100
▁拭い 100
▁決別 100
▁絶叫 100
▁義父 100
▁英敬 100
▁菅井 100
▁高徳 100
▁題する 100
▁プレイス 100
▁足がかり 100
▁スティーブン 100
財政 100
▁べん 100
▁エヌ 100
▁ラジ 100
▁三宮 100
▁公也 100
▁洗顔 100
▁浩之 100
▁福利 100
▁結衣 100
▁通さ 100
▁雅之 100
▁サーバ 100
▁行財政 100
▁うるおい 100
▁ウミガメ 100
▁ベジ 100
▁挟む 100
▁API 100
▁たくま 100
▁のどか 100
▁カワイ 100
▁サード 100
▁成り立っ 100
▁組み立てる 100
▁エイベックス 100
▁商議 100
▁東宮 100
▁松木 100
▁江川 100
がれる 100
モラス 100
▁TSU 100
▁ケイト 100
▁ジェー 100
▁様変わり 100
減り 100
▁とし 100
▁わな 100
▁名勝 100
▁憤る 100
▁正子 100
▁血痕 100
▁近況 100
▁逸材 100
▁しゅん 100
▁ダッカ 100
▁フェザー 100
▁ピカチュウ 100
▁エグゼクティブ 100
▁綬 100
▁人力 100
▁割い 100
▁台車 100
▁油種 100
▁西沙 100
▁親中 100
▁退き 100
▁ADR 100
▁カスタム 100
▁乱調 100
▁常習 100
▁愚か 100
▁楽屋 100
▁阿南 100
▁まとい 100
▁エスト 100
▁マルナカ 100
▁誉 100
▁HA 100
▁慣行 100
▁観世 100
レオン 100
▁アット 100
▁揺るぎ 100
▁こんにち 100
▁ランダム 100
▁梅雨入り 100
▁ビルディング 100
ビュ 100
▁上尾 100
▁五條 100
▁仙石 100
▁弱め 100
▁日誌 100
▁自閉 100
レンツ 100
▁FDA 100
▁飛ばさ 100
▁サハリン 100
▁喜ばしい 100
▁アスベスト 100
ンナ 100
定め 100
▁嘆き 100
▁多め 100
▁嫌う 100
▁末端 100
▁テレサ 100
▁EM 100
▁手薄 100
▁浩史 100
▁難解 100
▁ハッチ 100
▁にくかっ 100
▁インディアナ 100
プチ 100
▁リエ 100
▁公使 100
▁執着 100
▁日吉 100
▁阻む 100
▁Mac 100
▁制する 100
▁振り向 100
▁カテゴリ 100
▁トースト 100
▁滑り出し 100
嫌い 100
ber 100
▁三ケ 100
▁吾妻 100
▁県北 100
▁神々 100
▁筒井 100
▁題名 100
▁得よう 100
▁TOHO 100
▁キャサリン 100
▁ユーモラス 100
わび 100
▁主翼 100
▁登竜 100
▁脱落 100
▁違約 100
▁麻布 100
ドイツ 100
▁ニコン 100
▁盆踊り 100
▁エプロン 100
フィールド 100
▁コンプレックス 100
▁騰 100
咲き 100
▁向日 100
▁正之 100
▁歯車 100
▁高井 100
▁ライド 100
▁後回し 100
▁コミット 100
▁ファイブ 100
▁べつ 100
▁外形 100
▁平城 100
▁治虫 100
▁由布 100
▁詩集 100
▁遺留 100
▁黒く 100
▁黒煙 100
びやか 100
▁ドレッド 100
▁待ちわび 100
▁作り上げる 100
▁品々 100
▁素子 100
▁綾部 100
▁聖戦 100
▁解読 100
▁香料 100
▁のしか 100
▁煮込み 100
▁ノーマル 100
▁ブロガー 100
▁取り戻そう 100
▁たし 100
▁折っ 100
▁早実 100
▁木田 100
▁板野 100
▁欲し 100
▁熱田 100
▁物色 100
▁黄海 100
っぽん 100
▁アシュ 100
▁ゾンビ 100
▁思い知 100
▁見応え 100
▁ロマンチ 100
▁吸い込ま 100
▁サクランボ 100
▁アップロード 100
▁de 100
▁ちか 100
▁保温 100
▁奉行 100
▁山上 100
▁愉快 100
▁既得 100
▁江原 100
▁義足 100
▁豊前 100
▁陽平 100
▁いかだ 100
▁見え隠れ 100
▁当てはまる 100
やい 100
per 100
▁トピ 100
▁円満 100
▁勝浦 100
▁旧制 100
▁王女 100
▁見聞 100
▁鉱業 100
▁雪像 100
遂げる 100
▁ついで 100
▁ロビン 100
▁ささげる 100
▁ブエノス 100
▁生かそう 100
▁モノづくり 100
▁ユニフォーム 100
添え 100
▁伸長 100
▁和服 100
▁子規 100
▁準拠 100
▁神武 100
▁長江 100
▁開局 100
▁しがみ 100
▁風向き 100
▁ピエール 100
▁語り合い 100
▁イースター 100
▁仕組みづくり 100
ペア 100
▁塚田 100
▁微細 100
▁聖徳 100
▁EXP 100
▁ルーフ 100
▁さっぽろ 100
▁チャーム 100
▁織り込ん 100
▁連れ去ら 100
ul 100
▁VX 100
▁きく 100
▁ずる 100
▁りつ 100
▁合体 100
▁師範 100
▁本位 100
▁本棚 100
▁笠間 100
▁英治 100
▁適格 100
パーク 100
ワーズ 100
▁アワビ 100
▁京丹後 100
▁納める 100
▁ほんのり 100
▁敷き詰め 100
▁見下ろす 100
▁プロジェクター 100
▁会堂 100
▁割当 100
▁平気 100
▁廃線 100
▁成約 100
▁改名 100
▁敵視 100
▁頭蓋 100
ネージ 100
▁まみれ 100
▁やぐら 100
▁プレジ 100
▁引きずっ 100
▁生まれ変わる 100
ぱら 100
好み 100
▁復権 100
▁毛髪 100
▁興産 100
▁辞令 100
▁香里 100
当てる 100
▁小遣い 100
タリスト 100
▁アドバンテージ 100
ムラ 100
▁多面 100
▁祐介 100
▁祐子 100
▁胃腸 100
▁プリキュア 100
▁かれ 100
▁川本 100
▁拝礼 100
▁深川 100
▁焼夷 100
▁特段 100
▁稲沢 100
▁肉食 100
▁温まる 100
▁集まら 100
▁光州 100
▁樋渡 100
▁端子 100
▁荒天 100
▁薬科 100
イズド 100
▁ゆがめ 100
ベンダー 100
▁ほころば 100
突き 100
▁干潟 100
▁陽一 100
▁かかと 100
▁ドーン 100
▁封じ手 100
▁手ごろ 100
▁インテグ 100
▁マッカーサー 100
▁エマ 100
▁久志 100
▁叫ば 100
▁玉山 100
▁にゃん 100
▁マルティ 100
▁ネイティブ 100
住吉 100
▁だこ 100
▁予言 100
▁破局 100
▁礼子 100
▁米ロ 100
▁谷崎 100
▁Air 100
▁出入国 100
▁東住吉 100
▁レインボー 100
▁スタイリスト 100
伝え 100
伸び 100
初め 100
▁一過 100
▁成美 100
ダース 100
▁サンワ 100
▁ゴーグル 100
▁引きこもり 100
▁ファイナンス 100
▁グラフィックス 100
ry 100
▁優香 100
▁初等 100
▁右上 100
▁大引 100
▁汚い 100
▁温帯 100
▁穂積 100
▁羽島 100
▁アグリ 100
▁高跳び 100
▁せっけん 100
▁アンマン 100
▁ムーミン 100
int 100
▁ハプ 100
▁出先 100
▁学区 100
▁義郎 100
▁防寒 100
▁かざす 100
▁下ろす 100
▁スパート 100
▁バッター 100
▁押し付け 100
▁チューリヒ 100
タナ 100
▁不漁 100
▁催事 100
▁桃田 100
▁牧草 100
▁発走 100
▁駅名 100
▁温める 100
▁運び込ま 100
▁きめ細かく 100
ねぎ 100
▁カゴ 100
▁散り 100
▁旨味 100
▁眼下 100
▁眼科 100
▁移譲 100
▁つらく 100
▁手渡す 100
▁身動き 100
▁送り込ん 100
万里 100
▁キミ 100
▁新社 100
▁書家 100
▁目下 100
▁イース 100
▁伊万里 100
▁元売り 100
▁こなせる 100
▁ヒーター 100
ルツブルク 100
▁揮 100
▁槽 100
▁報い 100
▁後れ 100
▁アイオ 100
▁待ち受け 100
▁ピクチャーズ 100
▁フェアウエー 100
中学 100
反田 100
▁つね 100
▁政変 100
▁記帳 100
工大 100
▁ぼれ 100
▁保養 100
▁近接 100
▁高み 100
▁のっと 100
▁ポリス 100
▁チャイルド 100
▁トリートメント 100
▁わた 100
▁ラト 100
▁信行 100
▁動態 100
▁印鑑 100
▁太刀 100
▁寒く 100
▁悪性 100
▁本展 100
▁矢田 100
▁レイプ 100
▁害虫 100
▁山寺 100
▁川辺 100
▁配列 100
▁配球 100
▁VIP 100
▁二本松 100
▁助け合い 100
▁セレクション 100
テラ 100
ンズー 100
▁うかい 100
▁ノイ 100
▁伊調 100
▁品番 100
▁浮気 100
▁直販 100
▁石段 100
▁コンバ 100
▁ヒンズー 100
▁持ち越し 100
▁ちび 100
▁在特 100
▁知床 100
バイト 100
▁長引い 100
▁ステアリング 100
EA 100
▁学徒 100
▁極度 100
▁フォーマ 100
▁キャンバス 100
▁ナショナリズム 100
▁りく 100
▁コケ 100
▁ナル 100
▁前立 100
▁新星 100
▁金野 100
アイレス 100
▁いきいき 100
▁アダルト 100
▁ローラー 100
▁ベートーベン 100
▁vs 100
▁人為 100
▁制止 100
▁坪井 100
▁平面 100
▁弘道 100
▁等々 100
▁綱領 100
▁自画 100
▁過重 100
▁面々 100
エブド 100
▁ジュン 100
▁憧れる 100
▁ルクセン 100
▁リーズナブル 100
▁ロードスター 100
▁づき 100
▁分量 100
▁判例 100
▁大体 100
▁新品 100
▁腸内 100
▁苦闘 100
▁うっすら 100
▁カプコン 100
ステルダム 100
レンデール 100
━━━━━━━━ 100
▁アムステルダム 100
ヒン 100
▁An 100
▁代走 100
▁余市 100
▁品薄 100
▁手際 100
▁CPU 100
▁出向き 100
▁馴染み 100
▁アラート 100
▁追いつき 100
▁よみがえら 100
▁タレ 100
▁昇給 100
▁発券 100
▁義夫 100
フィス 100
レンマ 100
▁フリン 100
▁引っ張ら 100
▁食い違い 100
▁アイスランド 100
▁セーフティー 100
タリ 100
▁うめ 100
▁毛穴 100
▁氷河 100
▁長蛇 100
▁ふくい 100
▁ユニー 100
▁仲良し 100
▁卸売り 100
残っ 100
▁まゆ 100
▁切迫 100
▁断絶 100
▁有償 100
▁津久 100
▁白骨 100
▁群像 100
▁誤差 100
▁野間 100
▁たって 100
▁段取り 100
▁見合う 100
▁充填 100
▁八雲 100
▁国枝 100
ッシブ 100
▁広がら 100
▁風合い 100
▁スプリング 100
ガラ 100
▁ふし 100
▁ツヤ 100
▁仰ぐ 100
▁創始 100
▁村瀬 100
▁民政 100
▁酷似 100
▁隆史 100
ッサン 100
落ちる 100
▁くぐり 100
▁るーむ 100
▁ナイキ 100
▁苦しかっ 100
▁ブエノスアイレス 100
LO 100
▁密航 100
▁明細 100
▁親近 100
▁甘かっ 100
▁雪解け 100
▁使い捨て 100
▁むく 100
▁一二 100
▁宮脇 100
▁恵那 100
▁東横 100
▁欠員 100
人乗り 100
▁つづり 100
▁見合い 100
▁ワコール 100
▁足掛かり 100
▁Yahoo 100
▁プランニング 100
張る 100
▁元首 100
▁大造 100
▁江差 100
▁沙織 100
▁着想 100
▁等級 100
▁美化 100
▁鉄路 100
▁うめき 100
▁さらっ 100
▁コンゴ 100
▁ベータ 100
▁サイパン 100
▁那須塩原 100
▁マンホール 100
▁立てこもっ 100
すい 100
▁づら 100
▁主犯 100
▁縛り 100
▁辻元 100
▁通所 100
▁電王 100
[...]
