<unk>	0
<s>	0
</s>	0
▁t	-0
he	-1
▁a	-2
in	-3
er	-4
▁the	-5
on	-6
re	-7
▁s	-8
ed	-9
▁o	-10
nd	-11
▁w	-12
at	-13
or	-14
en	-15
is	-16
it	-17
ar	-18
es	-19
▁f	-20
▁c	-21
an	-22
al	-23
▁in	-24
▁of	-25
▁b	-26
as	-27
ing	-28
▁p	-29
▁and	-30
ic	-31
ro	-32
▁m	-33
ion	-34
▁T	-35
▁to	-36
▁d	-37
le	-38
ou	-39
▁h	-40
▁S	-41
▁A	-42
il	-43
▁1	-44
▁C	-45
▁re	-46
ent	-47
st	-48
am	-49
el	-50
▁M	-51
om	-52
▁The	-53
▁l	-54
▁n	-55
ac	-56
▁was	-57
▁e	-58
▁B	-59
▁on	-60
▁th	-61
▁2	-62
ol	-63
ad	-64
▁I	-65
ec	-66
et	-67
ur	-68
ig	-69
id	-70
▁(	-71
ly	-72
iv	-73
▁for	-74
▁H	-75
ir	-76
us	-77
ter	-78
ot	-79
▁P	-80
▁is	-81
▁g	-82
im	-83
▁as	-84
ay	-85
ow	-86
ation	-87
▁R	-88
ut	-89
▁D	-90
ith	-91
▁st	-92
▁F	-93
em	-94
▁by	-95
ers	-96
▁W	-97
▁N	-98
▁with	-99
th	-100
▁20	-101
un	-102
▁L	-103
her	-104
▁be	-105
▁19	-106
ch	-107
ce	-108
▁"	-109
▁G	-110
um	-111
ct	-112
▁al	-113
ver	-114
ul	-115
ra	-116
▁at	-117
▁J	-118
rom	-119
os	-120
▁wh	-121
▁an	-122
▁E	-123
and	-124
▁it	-125
▁con	-126
ist	-127
est	-128
ag	-129
▁O	-130
▁v	-131
▁that	-132
od	-133
av	-134
▁from	-135
ri	-136
ain	-137
ber	-138
res	-139
▁com	-140
op	-141
oc	-142
igh	-143
if	-144
▁he	-145
▁@	-146
ill	-147
ies	-148
▁In	-149
▁pro	-150
▁r	-151
▁U	-152
ate	-153
ud	-154
all	-155
art	-156
ard	-157
▁are	-158
ong	-159
ore	-160
ort	-161
▁–	-162
up	-163
ich	-164
▁or	-165
▁de	-166
▁se	-167
ated	-168
ew	-169
▁K	-170
ak	-171
▁St	-172
ear	-173
ap	-174
ip	-175
ity	-176
ab	-177
ant	-178
qu	-179
ld	-180
▁his	-181
▁200	-182
ive	-183
▁pl	-184
ere	-185
▁ch	-186
▁ex	-187
ug	-188
ub	-189
ame	-190
ast	-191
ect	-192
our	-193
ge	-194
ia	-195
red	-196
▁were	-197
ack	-198
se	-199
ov	-200
▁201	-201
ord	-202
▁k	-203
▁sh	-204
ine	-205
▁sp	-206
ess	-207
ary	-208
▁3	-209
cl	-210
ian	-211
nt	-212
und	-213
▁which	-214
ell	-215
▁Ch	-216
ical	-217
ial	-218
ost	-219
ust	-220
ment	-221
00	-222
ight	-223
so	-224
ther	-225
▁V	-226
uc	-227
pp	-228
▁le	-229
ide	-230
.@	-231
▁@.@	-232
ave	-233
▁It	-234
▁not	-235
▁ro	-236
orm	-237
irst	-238
▁has	-239
ep	-240
▁comp	-241
og	-242
te	-243
ass	-244
▁y	-245
rit	-246
ish	-247
▁its	-248
ue	-249
ign	-250
ions	-251
wo	-252
▁4	-253
ran	-254
▁also	-255
mer	-256
▁us	-257
ure	-258
▁first	-259
ff	-260
▁un	-261
ous	-262
own	-263
ond	-264
▁had	-265
▁5	-266
fter	-267
ie	-268
ember	-269
ork	-270
▁He	-271
▁cl	-272
▁whe	-273
ry	-274
ok	-275
clud	-276
hed	-277
▁cont	-278
ire	-279
,@	-280
▁@,@	-281
▁ad	-282
▁Al	-283
▁have	-284
ree	-285
ater	-286
▁18	-287
▁Th	-288
▁ar	-289
age	-290
▁per	-291
▁ser	-292
ome	-293
▁Un	-294
out	-295
ric	-296
▁includ	-297
▁(1	-298
low	-299
ark	-300
land	-301
▁two	-302
per	-303
ally	-304
▁been	-305
▁res	-306
ition	-307
▁but	-308
ased	-309
▁int	-310
ted	-311
),	-312
uct	-313
▁Y	-314
ound	-315
▁one	-316
uring	-317
ount	-318
).	-319
▁rec	-320
ach	-321
iz	-322
port	-323
ime	-324
pl	-325
ugh	-326
▁part	-327
ace	-328
▁te	-329
▁their	-330
cc	-331
ates	-332
▁app	-333
ice	-334
ile	-335
▁play	-336
▁sc	-337
▁ab	-338
ke	-339
ib	-340
ens	-341
ations	-342
act	-343
ward	-344
ited	-345
are	-346
ng	-347
ence	-348
amp	-349
gh	-350
ult	-351
▁des	-352
ph	-353
▁her	-354
tern	-355
way	-356
▁6	-357
▁rele	-358
we	-359
ely	-360
ory	-361
ilm	-362
ase	-363
▁other	-364
man	-365
▁year	-366
ance	-367
▁dis	-368
ress	-369
▁co	-370
▁On	-371
one	-372
ould	-373
▁who	-374
ite	-375
▁after	-376
old	-377
lect	-378
▁7	-379
uch	-380
▁j	-381
fer	-382
▁bec	-383
vel	-384
rop	-385
ough	-386
ix	-387
pt	-388
eat	-389
ade	-390
ational	-391
▁199	-392
form	-393
ason	-394
▁over	-395
▁en	-396
▁pre	-397
ang	-398
als	-399
ind	-400
ied	-401
able	-402
▁song	-403
wn	-404
▁this	-405
orth	-406
les	-407
ild	-408
orn	-409
▁9	-410
▁man	-411
▁tr	-412
urn	-413
oy	-414
▁ag	-415
▁8	-416
ents	-417
▁up	-418
▁we	-419
▁comm	-420
▁Mar	-421
ors	-422
▁num	-423
▁film	-424
ood	-425
ey	-426
▁into	-427
ail	-428
".	-429
rough	-430
▁im	-431
end	-432
▁can	-433
▁Ar	-434
▁ev	-435
▁As	-436
ts	-437
ubl	-438
▁prod	-439
▁off	-440
▁New	-441
ings	-442
outh	-443
aw	-444
▁/	-445
orld	-446
▁bet	-447
▁sec	-448
iss	-449
▁during	-450
inal	-451
▁out	-452
meric	-453
▁time	-454
ick	-455
ob	-456
rib	-457
▁all	-458
ons	-459
▁Le	-460
ever	-461
ved	-462
oin	-463
ollow	-464
▁gro	-465
ween	-466
ans	-467
▁(2	-468
▁spec	-469
hip	-470
ool	-471
oth	-472
▁three	-473
vi	-474
ton	-475
▁kn	-476
ames	-477
io	-478
▁they	-479
hn	-480
gan	-481
▁used	-482
▁cons	-483
▁Americ	-484
▁season	-485
▁loc	-486
ve	-487
▁she	-488
ces	-489
▁between	-490
ft	-491
▁most	-492
▁col	-493
bum	-494
▁work	-495
▁rem	-496
aus	-497
over	-498
▁number	-499
ron	-500
▁United	-501
▁sy	-502
ins	-503
▁only	-504
under	-505
▁high	-506
▁more	-507
ake	-508
ral	-509
ose	-510
ath	-511
▁ear	-512
▁when	-513
▁released	-514
uary	-515
▁game	-516
▁act	-517
ters	-518
▁than	-519
▁0	-520
hes	-521
ered	-522
reat	-523
▁bu	-524
▁second	-525
▁ra	-526
",	-527
ook	-528
fore	-529
ten	-530
br	-531
▁00	-532
▁mus	-533
▁ep	-534
▁form	-535
▁through	-536
ren	-537
▁four	-538
ics	-539
▁pr	-540
att	-541
ived	-542
▁cent	-543
▁follow	-544
▁Com	-545
▁record	-546
ivers	-547
▁new	-548
▁team	-549
ex	-550
ished	-551
▁Sp	-552
▁tra	-553
▁10	-554
▁fl	-555
ros	-556
iel	-557
ock	-558
▁under	-559
ode	-560
ular	-561
▁album	-562
ener	-563
▁ind	-564
▁where	-565
▁Re	-566
▁Jo	-567
▁sub	-568
ific	-569
ict	-570
round	-571
▁sing	-572
ram	-573
▁Sh	-574
ision	-575
▁ret	-576
chool	-577
▁reg	-578
▁pe	-579
▁ac	-580
▁would	-581
▁att	-582
▁ass	-583
▁This	-584
▁198	-585
ating	-586
ll	-587
▁such	-588
▁An	-589
▁epis	-590
▁end	-591
▁later	-592
▁dec	-593
▁(19	-594
ince	-595
▁acc	-596
▁000	-597
▁about	-598
ute	-599
str	-600
▁publ	-601
its	-602
ept	-603
ced	-604
ober	-605
▁ent	-606
aj	-607
▁qu	-608
▁while	-609
▁me	-610
oun	-611
▁feat	-612
▁rel	-613
ann	-614
ures	-615
uction	-616
rans	-617
ily	-618
▁lar	-619
son	-620
ank	-621
▁17	-622
ek	-623
▁years	-624
▁mov	-625
▁inter	-626
▁sup	-627
▁known	-628
irect	-629
▁12	-630
ident	-631
ual	-632
ike	-633
▁made	-634
inn	-635
ury	-636
▁pos	-637
▁again	-638
▁rece	-639
▁char	-640
▁orig	-641
▁before	-642
▁mill	-643
ah	-644
▁am	-645
▁writ	-646
▁including	-647
pr	-648
hen	-649
▁Sc	-650
."	-651
▁found	-652
ari	-653
▁sur	-654
▁War	-655
▁194	-656
▁inc	-657
1,	-658
cess	-659
oot	-660
▁At	-661
▁Col	-662
▁add	-663
▁States	-664
▁him	-665
▁pres	-666
erm	-667
▁perform	-668
velop	-669
▁Cl	-670
▁them	-671
▁sever	-672
▁series	-673
ines	-674
▁some	-675
▁day	-676
olog	-677
▁design	-678
▁She	-679
5,	-680
tain	-681
ane	-682
ball	-683
ale	-684
ier	-685
▁met	-686
▁stud	-687
▁def	-688
ird	-689
stem	-690
ired	-691
ley	-692
▁set	-693
ife	-694
une	-695
▁197	-696
▁World	-697
pen	-698
▁Ind	-699
▁Con	-700
ven	-701
ium	-702
▁Eng	-703
az	-704
▁main	-705
▁may	-706
▁there	-707
▁being	-708
4,	-709
▁str	-710
▁well	-711
▁Bl	-712
▁episode	-713
▁May	-714
▁bl	-715
▁dist	-716
▁both	-717
ement	-718
▁American	-719
ars	-720
air	-721
ield	-722
▁cre	-723
▁16	-724
3,	-725
▁John	-726
ouse	-727
tend	-728
ik	-729
▁so	-730
amed	-731
▁min	-732
eptember	-733
▁196	-734
▁All	-735
▁mon	-736
oci	-737
uit	-738
▁show	-739
iver	-740
yp	-741
owever	-742
any	-743
▁bro	-744
▁million	-745
▁dep	-746
ities	-747
▁September	-748
ative	-749
0,	-750
ash	-751
▁develop	-752
aid	-753
ugust	-754
▁ship	-755
other	-756
▁Wh	-757
▁call	-758
▁long	-759
▁US	-760
ject	-761
▁inv	-762
▁several	-763
▁Ju	-764
▁August	-765
▁direct	-766
▁became	-767
▁sign	-768
▁back	-769
▁Nov	-770
▁produc	-771
▁no	-772
▁then	-773
▁ph	-774
▁music	-775
▁trans	-776
▁15	-777
iam	-778
▁ann	-779
ross	-780
▁lead	-781
▁After	-782
enn	-783
ower	-784
▁serv	-785
▁rep	-786
2,	-787
▁air	-788
ax	-789
▁sm	-790
▁state	-791
▁km	-792
▁Brit	-793
ists	-794
ctober	-795
▁exp	-796
ty	-797
emb	-798
▁ed	-799
▁cap	-800
ropical	-801
ise	-802
▁car	-803
ause	-804
ern	-805
▁Aust	-806
▁do	-807
▁dif	-808
der	-809
▁Is	-810
▁near	-811
▁Pl	-812
▁Z	-813
imes	-814
▁$	-815
til	-816
▁October	-817
▁comple	-818
▁11	-819
wards	-820
ared	-821
very	-822
▁along	-823
▁run	-824
▁pol	-825
6,	-826
▁system	-827
led	-828
▁Ad	-829
ually	-830
▁vers	-831
▁July	-832
▁Br	-833
ox	-834
▁De	-835
▁mod	-836
▁November	-837
▁June	-838
ys	-839
osed	-840
▁species	-841
▁many	-842
▁193	-843
▁pop	-844
▁count	-845
▁single	-846
anc	-847
erv	-848
eed	-849
▁open	-850
eng	-851
9,	-852
ather	-853
▁appear	-854
▁Dec	-855
▁art	-856
▁North	-857
▁prov	-858
▁until	-859
▁name	-860
▁mat	-861
though	-862
▁following	-863
ting	-864
▁north	-865
ina	-866
ional	-867
▁area	-868
▁Jan	-869
iversity	-870
▁191	-871
▁gener	-872
▁York	-873
ured	-874
ange	-875
ague	-876
ized	-877
▁195	-878
▁fam	-879
▁against	-880
▁Ed	-881
ople	-882
▁occ	-883
▁Pro	-884
sh	-885
8,	-886
▁ob	-887
▁received	-888
▁charac	-889
ised	-890
idge	-891
ajor	-892
ially	-893
overn	-894
pril	-895
▁est	-896
▁—	-897
▁For	-898
erson	-899
▁desc	-900
▁track	-901
my	-902
▁offic	-903
▁Can	-904
7,	-905
▁April	-906
ilt	-907
▁March	-908
erman	-909
▁oper	-910
▁mil	-911
▁Car	-912
▁use	-913
▁med	-914
eg	-915
▁remain	-916
▁elect	-917
▁Q	-918
▁sim	-919
▁named	-920
▁13	-921
ism	-922
▁early	-923
ection	-924
oad	-925
oard	-926
▁vari	-927
▁school	-928
ants	-929
ets	-930
view	-931
▁Fran	-932
-1	-933
▁December	-934
vent	-935
▁pass	-936
ible	-937
▁week	-938
aking	-939
ull	-940
▁Ph	-941
▁list	-942
ideo	-943
▁group	-944
▁Mus	-945
ove	-946
▁go	-947
elf	-948
▁since	-949
▁vi	-950
▁contin	-951
▁January	-952
▁imp	-953
▁same	-954
▁National	-955
▁played	-956
▁Chr	-957
▁resp	-958
ically	-959
▁Austral	-960
▁won	-961
▁each	-962
▁inf	-963
sp	-964
▁six	-965
▁gr	-966
mp	-967
▁small	-968
ments	-969
▁bel	-970
▁dr	-971
lev	-972
ffect	-973
▁King	-974
▁called	-975
▁Count	-976
▁Fe	-977
▁hist	-978
ling	-979
ean	-980
▁14	-981
▁war	-982
▁partic	-983
▁these	-984
▁disc	-985
ful	-986
ues	-987
aced	-988
▁&	-989
▁ext	-990
▁South	-991
▁prog	-992
▁start	-993
▁cur	-994
▁Or	-995
gest	-996
▁any	-997
▁around	-998
▁five	-999
yl	-1000
▁mar	-1001
uss	-1002
ored	-1003
ink	-1004
ural	-1005
▁describ	-1006
hest	-1007
▁fin	-1008
▁build	-1009
urch	-1010
ided	-1011
▁class	-1012
▁own	-1013
ording	-1014
▁Fl	-1015
ified	-1016
▁included	-1017
▁Be	-1018
ives	-1019
to	-1020
ued	-1021
eter	-1022
ford	-1023
▁storm	-1024
▁192	-1025
▁began	-1026
by	-1027
els	-1028
▁Ge	-1029
▁Eu	-1030
rent	-1031
▁suc	-1032
▁report	-1033
the	-1034
▁Pr	-1035
5.	-1036
▁em	-1037
▁people	-1038
0.	-1039
▁return	-1040
let	-1041
▁voc	-1042
ission	-1043
ital	-1044
2.	-1045
▁city	-1046
▁south	-1047
raph	-1048
▁differ	-1049
▁II	-1050
omin	-1051
ility	-1052
▁British	-1053
▁Se	-1054
aster	-1055
ution	-1056
ried	-1057
reen	-1058
bruary	-1059
ides	-1060
▁University	-1061
cent	-1062
▁land	-1063
oss	-1064
▁German	-1065
▁did	-1066
omet	-1067
1.	-1068
▁release	-1069
▁major	-1070
▁down	-1071
ined	-1072
▁red	-1073
ony	-1074
ales	-1075
ne	-1076
▁include	-1077
▁br	-1078
▁book	-1079
▁built	-1080
▁February	-1081
▁will	-1082
4.	-1083
▁'	-1084
ately	-1085
▁High	-1086
avy	-1087
ient	-1088
▁due	-1089
▁(200	-1090
▁Comm	-1091
▁event	-1092
▁prom	-1093
▁Will	-1094
3.	-1095
rand	-1096
▁poin	-1097
▁Har	-1098
▁video	-1099
▁world	-1100
▁Air	-1101
tal	-1102
6.	-1103
▁child	-1104
tle	-1105
▁They	-1106
rod	-1107
ively	-1108
The	-1109
▁eng	-1110
ner	-1111
▁addition	-1112
raft	-1113
side	-1114
ternational	-1115
▁tropical	-1116
▁third	-1117
▁contain	-1118
lish	-1119
ister	-1120
ampions	-1121
▁There	-1122
▁organ	-1123
iving	-1124
orp	-1125
ene	-1126
ung	-1127
▁public	-1128
▁County	-1129
▁highway	-1130
▁However	-1131
▁tit	-1132
9.	-1133
▁version	-1134
vious	-1135
ott	-1136
cy	-1137
ple	-1138
cept	-1139
▁crit	-1140
▁term	-1141
line	-1142
▁short	-1143
▁written	-1144
ret	-1145
▁head	-1146
ootball	-1147
▁original	-1148
▁Cent	-1149
▁line	-1150
▁City	-1151
ck	-1152
ger	-1153
▁family	-1154
▁large	-1155
▁common	-1156
ages	-1157
ble	-1158
ety	-1159
ats	-1160
uted	-1161
▁said	-1162
▁rest	-1163
▁Park	-1164
▁Mich	-1165
▁consid	-1166
▁Rec	-1167
▁home	-1168
▁deb	-1169
▁Cal	-1170
▁govern	-1171
uth	-1172
aving	-1173
▁100	-1174
apan	-1175
▁you	-1176
▁Bro	-1177
▁Europ	-1178
ilar	-1179
▁Mc	-1180
▁band	-1181
▁cr	-1182
▁water	-1183
▁fe	-1184
▁Christ	-1185
▁final	-1186
stit	-1187
▁place	-1188
uck	-1189
▁success	-1190
ature	-1191
▁Am	-1192
▁games	-1193
▁former	-1194
▁appro	-1195
▁character	-1196
med	-1197
▁West	-1198
ays	-1199
▁last	-1200
ival	-1201
7.	-1202
uff	-1203
ai	-1204
▁within	-1205
ior	-1206
tended	-1207
inc	-1208
▁support	-1209
▁Co	-1210
▁top	-1211
ert	-1212
▁route	-1213
get	-1214
▁based	-1215
▁located	-1216
▁century	-1217
▁chart	-1218
▁care	-1219
▁because	-1220
▁previous	-1221
▁Canad	-1222
▁Gu	-1223
▁His	-1224
ison	-1225
▁par	-1226
▁Japan	-1227
01	-1228
▁2008	-1229
ently	-1230
embers	-1231
▁League	-1232
▁typ	-1233
▁took	-1234
▁program	-1235
ont	-1236
row	-1237
ody	-1238
▁result	-1239
▁port	-1240
ring	-1241
▁-	-1242
▁compet	-1243
▁30	-1244
▁During	-1245
▁view	-1246
ones	-1247
▁mark	-1248
▁held	-1249
▁Par	-1250
▁total	-1251
ched	-1252
▁X	-1253
▁Ex	-1254
▁could	-1255
▁published	-1256
ae	-1257
▁Geor	-1258
▁State	-1259
augh	-1260
▁sl	-1261
▁origin	-1262
omen	-1263
▁announ	-1264
rew	-1265
▁25	-1266
▁Tr	-1267
▁described	-1268
ged	-1269
attle	-1270
ham	-1271
▁cond	-1272
aken	-1273
▁Bar	-1274
▁Man	-1275
▁av	-1276
▁And	-1277
▁det	-1278
estern	-1279
rest	-1280
work	-1281
itions	-1282
af	-1283
alf	-1284
▁death	-1285
ience	-1286
ract	-1287
ler	-1288
iod	-1289
▁though	-1290
ected	-1291
iven	-1292
ices	-1293
▁ref	-1294
ampionship	-1295
▁produced	-1296
▁wind	-1297
ology	-1298
▁You	-1299
▁cy	-1300
▁El	-1301
levision	-1302
▁tw	-1303
▁similar	-1304
resent	-1305
ograph	-1306
▁Her	-1307
▁po	-1308
au	-1309
ians	-1310
me	-1311
▁sold	-1312
▁local	-1313
▁present	-1314
▁repl	-1315
▁School	-1316
▁hel	-1317
▁members	-1318
▁west	-1319
ights	-1320
ech	-1321
▁station	-1322
▁different	-1323
ney	-1324
▁bas	-1325
▁incre	-1326
▁east	-1327
▁cover	-1328
▁No	-1329
ator	-1330
▁road	-1331
▁often	-1332
▁camp	-1333
ulation	-1334
▁month	-1335
▁requ	-1336
ondon	-1337
▁By	-1338
▁allow	-1339
▁gu	-1340
ious	-1341
▁bre	-1342
▁club	-1343
alk	-1344
urric	-1345
isc	-1346
rol	-1347
ning	-1348
oman	-1349
bs	-1350
oon	-1351
▁vocals	-1352
arm	-1353
▁prot	-1354
akes	-1355
ivision	-1356
▁low	-1357
ument	-1358
▁served	-1359
ression	-1360
▁William	-1361
▁Dav	-1362
▁mid	-1363
vers	-1364
▁caus	-1365
▁life	-1366
▁constr	-1367
▁late	-1368
▁tem	-1369
▁turn	-1370
cast	-1371
▁refer	-1372
▁old	-1373
▁conf	-1374
▁current	-1375
lege	-1376
▁dam	-1377
ille	-1378
▁performed	-1379
oll	-1380
▁beg	-1381
▁stand	-1382
▁London	-1383
▁iss	-1384
utes	-1385
inning	-1386
com	-1387
▁effect	-1388
▁those	-1389
▁190	-1390
▁production	-1391
ining	-1392
▁moved	-1393
▁post	-1394
▁hig	-1395
▁nort	-1396
▁English	-1397
▁Ste	-1398
▁join	-1399
▁fre	-1400
▁ft	-1401
▁vis	-1402
ries	-1403
▁(3	-1404
▁town	-1405
▁occur	-1406
▁sk	-1407
▁Sw	-1408
▁America	-1409
reet	-1410
ences	-1411
ington	-1412
ached	-1413
▁poss	-1414
que	-1415
▁Roy	-1416
ness	-1417
▁En	-1418
aul	-1419
ances	-1420
▁Best	-1421
▁like	-1422
▁rad	-1423
▁One	-1424
▁now	-1425
▁inst	-1426
▁equ	-1427
▁cour	-1428
▁days	-1429
board	-1430
▁best	-1431
esp	-1432
ases	-1433
min	-1434
▁[	-1435
▁River	-1436
ext	-1437
▁Sy	-1438
uitar	-1439
▁Gr	-1440
▁national	-1441
ches	-1442
▁just	-1443
▁Te	-1444
▁period	-1445
▁service	-1446
▁England	-1447
irc	-1448
eth	-1449
▁21	-1450
▁announced	-1451
▁Ass	-1452
▁review	-1453
ped	-1454
▁conc	-1455
▁left	-1456
▁reported	-1457
outher	-1458
▁died	-1459
sc	-1460
▁fore	-1461
▁although	-1462
▁another	-1463
▁collect	-1464
▁Ang	-1465
atic	-1466
urricane	-1467
▁Char	-1468
dom	-1469
▁recorded	-1470
▁features	-1471
unct	-1472
day	-1473
▁still	-1474
aur	-1475
▁player	-1476
▁189	-1477
▁hum	-1478
outhern	-1479
▁among	-1480
rench	-1481
▁Med	-1482
▁power	-1483
aim	-1484
ards	-1485
lu	-1486
aun	-1487
▁person	-1488
lands	-1489
▁Acc	-1490
▁ele	-1491
ata	-1492
astern	-1493
▁side	-1494
itary	-1495
▁These	-1496
▁24	-1497
▁house	-1498
▁television	-1499
ords	-1500
▁times	-1501
ald	-1502
▁We	-1503
▁Road	-1504
▁Award	-1505
hern	-1506
ps	-1507
ves	-1508
▁Sup	-1509
▁Bill	-1510
▁much	-1511
-2	-1512
ula	-1513
▁When	-1514
▁very	-1515
▁level	-1516
▁government	-1517
▁sound	-1518
▁appe	-1519
ize	-1520
▁trad	-1521
▁career	-1522
▁represent	-1523
gy	-1524
ering	-1525
▁entire	-1526
▁building	-1527
par	-1528
▁Reg	-1529
▁mag	-1530
▁manag	-1531
▁few	-1532
▁born	-1533
osp	-1534
▁Gl	-1535
▁ste	-1536
ms	-1537
▁children	-1538
▁broad	-1539
ese	-1540
▁bus	-1541
▁considered	-1542
▁prof	-1543
▁songs	-1544
▁lit	-1545
tr	-1546
ots	-1547
ummer	-1548
con	-1549
▁Pol	-1550
▁Ab	-1551
ael	-1552
▁22	-1553
▁win	-1554
▁given	-1555
▁if	-1556
▁ant	-1557
▁adv	-1558
ray	-1559
▁init	-1560
▁award	-1561
▁men	-1562
▁Act	-1563
echn	-1564
▁pat	-1565
ories	-1566
uced	-1567
▁French	-1568
rict	-1569
▁mix	-1570
reg	-1571
▁estab	-1572
ucted	-1573
▁adap	-1574
▁commun	-1575
▁ten	-1576
▁leg	-1577
▁tri	-1578
▁guitar	-1579
▁ne	-1580
▁aver	-1581
▁engine	-1582
▁Af	-1583
▁eight	-1584
ery	-1585
itive	-1586
▁Stud	-1587
ef	-1588
ours	-1589
riend	-1590
▁Cam	-1591
▁Australia	-1592
▁dem	-1593
▁exper	-1594
ote	-1595
▁peak	-1596
yle	-1597
ges	-1598
hel	-1599
▁Cup	-1600
west	-1601
▁rank	-1602
▁miles	-1603
▁Rou	-1604
▁wat	-1605
▁make	-1606
▁(199	-1607
off	-1608
▁however	-1609
8.	-1610
ense	-1611
▁developed	-1612
..	-1613
▁race	-1614
▁history	-1615
▁el	-1616
▁opp	-1617
▁gen	-1618
rick	-1619
read	-1620
▁Rep	-1621
▁football	-1622
▁role	-1623
iness	-1624
ole	-1625
▁using	-1626
▁conn	-1627
▁prop	-1628
gr	-1629
▁next	-1630
▁match	-1631
▁Min	-1632
▁father	-1633
▁sw	-1634
▁Ear	-1635
atter	-1636
▁expl	-1637
▁various	-1638
▁Sing	-1639
hem	-1640
ained	-1641
iforn	-1642
urther	-1643
▁Music	-1644
▁member	-1645
▁lim	-1646
▁hand	-1647
▁attack	-1648
▁non	-1649
▁squ	-1650
▁sol	-1651
▁prim	-1652
na	-1653
imately	-1654
urb	-1655
▁stre	-1656
aces	-1657
▁story	-1658
▁Sm	-1659
iet	-1660
reek	-1661
uce	-1662
iron	-1663
▁Royal	-1664
▁del	-1665
▁originally	-1666
▁age	-1667
▁invol	-1668
▁DV	-1669
play	-1670
▁Californ	-1671
gen	-1672
▁50	-1673
app	-1674
50	-1675
▁import	-1676
▁Although	-1677
ino	-1678
▁Play	-1679
▁nomin	-1680
▁Sim	-1681
▁led	-1682
▁site	-1683
▁stat	-1684
▁areas	-1685
▁company	-1686
▁plan	-1687
▁According	-1688
ief	-1689
▁International	-1690
▁23	-1691
ape	-1692
ids	-1693
▁2010	-1694
▁gun	-1695
▁cycl	-1696
gin	-1697
▁having	-1698
▁select	-1699
▁California	-1700
ront	-1701
▁half	-1702
▁surv	-1703
▁featured	-1704
▁beh	-1705
▁Comp	-1706
▁dra	-1707
umb	-1708
▁official	-1709
ample	-1710
ublic	-1711
▁become	-1712
▁sug	-1713
▁(201	-1714
ana	-1715
▁°	-1716
▁cop	-1717
▁kill	-1718
eder	-1719
▁less	-1720
▁vol	-1721
▁field	-1722
alt	-1723
▁gl	-1724
▁Mon	-1725
▁avail	-1726
▁anim	-1727
▁Awards	-1728
field	-1729
aly	-1730
iment	-1731
▁Route	-1732
ament	-1733
ush	-1734
▁Phil	-1735
▁comb	-1736
▁Championship	-1737
▁law	-1738
▁Sec	-1739
▁particip	-1740
▁Pres	-1741
▁DVD	-1742
▁(4	-1743
BC	-1744
craft	-1745
uk	-1746
▁Nor	-1747
sequ	-1748
▁struct	-1749
▁country	-1750
▁star	-1751
igned	-1752
rote	-1753
▁East	-1754
▁Jack	-1755
▁Per	-1756
▁command	-1757
▁special	-1758
yn	-1759
alth	-1760
▁came	-1761
aff	-1762
▁er	-1763
▁range	-1764
▁2012	-1765
▁formed	-1766
▁Bo	-1767
uthor	-1768
▁associ	-1769
▁Street	-1770
ength	-1771
▁chang	-1772
▁what	-1773
▁grow	-1774
ios	-1775
▁27	-1776
▁My	-1777
▁James	-1778
ploy	-1779
ico	-1780
▁feet	-1781
oms	-1782
ster	-1783
▁young	-1784
▁cer	-1785
▁40	-1786
▁Me	-1787
▁While	-1788
▁son	-1789
▁2011	-1790
etwork	-1791
▁order	-1792
ivid	-1793
ither	-1794
mit	-1795
▁David	-1796
bur	-1797
oph	-1798
▁project	-1799
▁188	-1800
▁even	-1801
ention	-1802
▁press	-1803
▁2007	-1804
▁Hall	-1805
▁dest	-1806
▁mm	-1807
odes	-1808
▁Kingdom	-1809
▁available	-1810
▁park	-1811
▁cor	-1812
▁Ne	-1813
ript	-1814
▁Ser	-1815
ountain	-1816
▁Year	-1817
▁seven	-1818
ara	-1819
▁crew	-1820
▁title	-1821
omb	-1822
▁appeared	-1823
▁created	-1824
of	-1825
▁z	-1826
▁events	-1827
▁development	-1828
bridge	-1829
co	-1830
▁2009	-1831
▁base	-1832
▁George	-1833
▁Vir	-1834
▁signific	-1835
▁popular	-1836
back	-1837
▁fact	-1838
ask	-1839
lant	-1840
year	-1841
▁every	-1842
▁across	-1843
▁suggest	-1844
▁average	-1845
▁throughout	-1846
▁players	-1847
ops	-1848
less	-1849
isted	-1850
int	-1851
▁Sch	-1852
lic	-1853
por	-1854
▁sit	-1855
▁lost	-1856
▁Hol	-1857
▁real	-1858
▁position	-1859
▁arch	-1860
▁light	-1861
now	-1862
▁strong	-1863
▁activ	-1864
▁hy	-1865
eum	-1866
▁making	-1867
idd	-1868
▁Ox	-1869
▁ground	-1870
ising	-1871
▁With	-1872
▁coast	-1873
▁my	-1874
▁hon	-1875
▁Indian	-1876
ounc	-1877
▁Thom	-1878
▁histor	-1879
▁28	-1880
▁live	-1881
▁mult	-1882
lymp	-1883
▁notes	-1884
▁val	-1885
▁wrote	-1886
ensive	-1887
ope	-1888
ecut	-1889
▁Rober	-1890
▁ident	-1891
▁Olymp	-1892
ization	-1893
▁Paul	-1894
▁Black	-1895
▁Afric	-1896
▁influ	-1897
St	-1898
▁Australian	-1899
▁Michael	-1900
▁Canada	-1901
▁seen	-1902
ett	-1903
irl	-1904
▁Navy	-1905
▁cross	-1906
ead	-1907
▁nov	-1908
▁indic	-1909
▁Red	-1910
▁great	-1911
▁introd	-1912
▁attem	-1913
▁without	-1914
▁fr	-1915
igan	-1916
▁House	-1917
▁San	-1918
wood	-1919
▁Wash	-1920
▁26	-1921
esc	-1922
adem	-1923
▁Gener	-1924
▁opened	-1925
▁Port	-1926
iner	-1927
heast	-1928
face	-1929
▁ships	-1930
ming	-1931
▁returned	-1932
▁circ	-1933
unk	-1934
▁186	-1935
▁particular	-1936
▁tour	-1937
▁Oxford	-1938
rem	-1939
▁Some	-1940
▁cast	-1941
ze	-1942
lex	-1943
ells	-1944
aign	-1945
angu	-1946
▁further	-1947
▁Army	-1948
▁Division	-1949
most	-1950
▁process	-1951
▁Rich	-1952
▁grad	-1953
▁claim	-1954
▁point	-1955
▁Song	-1956
▁UK	-1957
cer	-1958
▁Dr	-1959
▁Mor	-1960
ville	-1961
▁Hist	-1962
▁pred	-1963
▁continued	-1964
ama	-1965
▁Russ	-1966
ellow	-1967
▁went	-1968
▁Qu	-1969
▁performance	-1970
ffic	-1971
ago	-1972
▁2006	-1973
ably	-1974
▁profess	-1975
▁includes	-1976
ogn	-1977
▁take	-1978
ination	-1979
▁Washington	-1980
▁example	-1981
▁playing	-1982
▁round	-1983
▁military	-1984
▁Ac	-1985
▁never	-1986
▁cult	-1987
▁mi	-1988
▁pain	-1989
▁rock	-1990
ishing	-1991
rap	-1992
epend	-1993
▁somet	-1994
▁significant	-1995
▁fac	-1996
▁Part	-1997
▁aircraft	-1998
roy	-1999
▁reached	-2000
▁months	-2001
elling	-2002
▁Other	-2003
▁Em	-2004
▁black	-2005
fall	-2006
▁married	-2007
nder	-2008
track	-2009
▁taken	-2010
▁College	-2011
...	-2012
SB	-2013
ien	-2014
▁Hot	-2015
▁2013	-2016
▁ins	-2017
▁fif	-2018
▁sour	-2019
▁arm	-2020
arent	-2021
▁host	-2022
ned	-2023
▁Tour	-2024
▁vict	-2025
▁test	-2026
▁sent	-2027
▁wife	-2028
ores	-2029
▁noted	-2030
ipp	-2031
rior	-2032
▁population	-2033
ica	-2034
▁polit	-2035
ee	-2036
▁belie	-2037
▁Atlant	-2038
oice	-2039
ouncil	-2040
▁Associ	-2041
ological	-2042
▁hurricane	-2043
▁started	-2044
▁generally	-2045
lear	-2046
▁points	-2047
2)	-2048
▁NY	-2049
idence	-2050
lished	-2051
ration	-2052
▁length	-2053
▁women	-2054
▁individ	-2055
▁region	-2056
▁completed	-2057
▁Ag	-2058
▁European	-2059
arter	-2060
▁control	-2061
▁fourth	-2062
▁contains	-2063
key	-2064
▁bo	-2065
▁obs	-2066
▁sym	-2067
earch	-2068
go	-2069
▁Gold	-2070
▁designed	-2071
ateg	-2072
▁signed	-2073
▁ren	-2074
▁estim	-2075
▁highest	-2076
▁Pe	-2077
oor	-2078
▁caused	-2079
▁$1	-2080
▁Sk	-2081
▁France	-2082
▁general	-2083
bor	-2084
▁Dep	-2085
ailed	-2086
▁Great	-2087
▁pur	-2088
▁modern	-2089
redits	-2090
emor	-2091
here	-2092
▁remained	-2093
▁Gro	-2094
▁mph	-2095
▁Highway	-2096
▁way	-2097
▁least	-2098
ators	-2099
▁earl	-2100
▁hold	-2101
▁northern	-2102
▁percent	-2103
▁broadcast	-2104
iber	-2105
▁First	-2106
▁aud	-2107
▁full	-2108
ida	-2109
omm	-2110
▁body	-2111
▁La	-2112
self	-2113
▁Virgin	-2114
▁rail	-2115
▁promot	-2116
▁Bel	-2117
orpor	-2118
▁Mary	-2119
▁Two	-2120
ream	-2121
▁White	-2122
▁respect	-2123
▁interest	-2124
atin	-2125
▁Cour	-2126
▁2010,	-2127
▁Squ	-2128
▁key	-2129
▁Pac	-2130
▁Hen	-2131
▁does	-2132
▁minutes	-2133
▁southern	-2134
▁mot	-2135
▁need	-2136
ements	-2137
▁brother	-2138
▁187	-2139
▁prem	-2140
▁right	-2141
orts	-2142
▁Mal	-2143
ills	-2144
▁31	-2145
amb	-2146
▁Val	-2147
▁2014	-2148
ximately	-2149
▁tradition	-2150
hib	-2151
aged	-2152
▁rain	-2153
▁depression	-2154
writ	-2155
▁Mex	-2156
▁instr	-2157
▁composed	-2158
▁runs	-2159
rag	-2160
artment	-2161
ris	-2162
▁author	-2163
iting	-2164
▁directed	-2165
▁’	-2166
▁Most	-2167
inct	-2168
▁techn	-2169
unction	-2170
ground	-2171
▁important	-2172
▁Europe	-2173
ality	-2174
▁cost	-2175
▁Up	-2176
yr	-2177
erous	-2178
▁phot	-2179
▁established	-2180
▁(18	-2181
▁Res	-2182
▁impro	-2183
▁opening	-2184
ius	-2185
NA	-2186
▁Art	-2187
ivil	-2188
▁laun	-2189
▁bar	-2190
▁mater	-2191
▁works	-2192
▁largest	-2193
▁cat	-2194
▁der	-2195
rain	-2196
ma	-2197
▁fav	-2198
▁construction	-2199
▁damage	-2200
pped	-2201
▁debut	-2202
▁daugh	-2203
▁General	-2204
▁div	-2205
▁adapted	-2206
▁followed	-2207
▁white	-2208
▁listed	-2209
unn	-2210
▁Its	-2211
azine	-2212
▁read	-2213
▁suff	-2214
ociety	-2215
▁Film	-2216
▁Mil	-2217
oo	-2218
▁2011,	-2219
▁appearance	-2220
head	-2221
▁names	-2222
ump	-2223
▁Dan	-2224
ects	-2225
▁becom	-2226
ecutive	-2227
val	-2228
▁tre	-2229
igital	-2230
arch	-2231
▁Que	-2232
abor	-2233
▁Bay	-2234
SBN	-2235
rian	-2236
used	-2237
5)	-2238
▁2012,	-2239
▁Mart	-2240
▁ter	-2241
▁Church	-2242
ification	-2243
lin	-2244
▁proper	-2245
▁President	-2246
▁additional	-2247
▁Lou	-2248
▁mean	-2249
▁Island	-2250
▁Cap	-2251
▁teams	-2252
elt	-2253
▁Mag	-2254
▁Angel	-2255
▁mass	-2256
ways	-2257
▁section	-2258
▁discover	-2259
▁Ber	-2260
▁Rock	-2261
▁friend	-2262
▁Billboard	-2263
▁good	-2264
▁pract	-2265
like	-2266
▁stated	-2267
▁added	-2268
▁separ	-2269
▁treat	-2270
▁29	-2271
▁Ant	-2272
ify	-2273
vert	-2274
▁meas	-2275
▁either	-2276
▁weeks	-2277
▁training	-2278
▁Mad	-2279
▁front	-2280
leet	-2281
▁vill	-2282
sen	-2283
▁producer	-2284
olution	-2285
▁Robert	-2286
30	-2287
ume	-2288
▁scored	-2289
▁usually	-2290
▁replaced	-2291
▁500	-2292
sk	-2293
▁campaign	-2294
uel	-2295
aves	-2296
▁temper	-2297
▁business	-2298
▁inj	-2299
▁ISBN	-2300
▁Pacific	-2301
iter	-2302
▁Pat	-2303
▁recogn	-2304
▁approximately	-2305
oint	-2306
▁clos	-2307
gether	-2308
▁together	-2309
eh	-2310
▁Mark	-2311
ibr	-2312
aval	-2313
ference	-2314
▁coll	-2315
▁wood	-2316
che	-2317
▁Club	-2318
▁goal	-2319
▁worked	-2320
▁successful	-2321
▁battle	-2322
▁placed	-2323
▁island	-2324
▁tro	-2325
▁compos	-2326
▁surface	-2327
4)	-2328
▁material	-2329
▁Cambridge	-2330
▁coach	-2331
▁Association	-2332
mon	-2333
▁free	-2334
▁critics	-2335
▁should	-2336
▁international	-2337
rey	-2338
▁fem	-2339
ander	-2340
▁3:	-2341
bert	-2342
▁how	-2343
leg	-2344
cher	-2345
born	-2346
▁contract	-2347
▁viewers	-2348
pted	-2349
atural	-2350
▁provided	-2351
▁Star	-2352
▁capt	-2353
▁Green	-2354
▁offer	-2355
▁Met	-2356
men	-2357
▁central	-2358
3)	-2359
itor	-2360
fic	-2361
time	-2362
▁Flor	-2363
▁2009,	-2364
▁attempt	-2365
▁network	-2366
for	-2367
▁characters	-2368
▁diss	-2369
acy	-2370
omp	-2371
▁gave	-2372
van	-2373
vin	-2374
▁Virginia	-2375
aper	-2376
aries	-2377
▁Game	-2378
▁away	-2379
▁2013,	-2380
▁others	-2381
60	-2382
▁human	-2383
kn	-2384
ude	-2385
conom	-2386
▁inform	-2387
▁fig	-2388
▁subsequ	-2389
enes	-2390
▁Jos	-2391
1)	-2392
iec	-2393
▁Grand	-2394
▁contrib	-2395
ule	-2396
▁overall	-2397
▁Chic	-2398
▁loss	-2399
▁above	-2400
▁novel	-2401
▁sequ	-2402
▁invest	-2403
uter	-2404
▁Pal	-2405
▁wid	-2406
▁langu	-2407
hy	-2408
▁di	-2409
▁Don	-2410
▁1,	-2411
roll	-2412
▁Tra	-2413
arily	-2414
▁Michigan	-2415
20	-2416
ams	-2417
▁India	-2418
ss	-2419
ography	-2420
▁Sl	-2421
▁fire	-2422
▁regular	-2423
▁winds	-2424
▁except	-2425
▁fall	-2426
▁Day	-2427
▁tracks	-2428
anted	-2429
ressed	-2430
merc	-2431
▁2008,	-2432
▁ce	-2433
▁aut	-2434
▁2015	-2435
▁batt	-2436
▁exist	-2437
▁Follow	-2438
aut	-2439
▁arr	-2440
▁Court	-2441
▁style	-2442
iction	-2443
▁Ham	-2444
▁speed	-2445
▁case	-2446
▁help	-2447
rab	-2448
▁phys	-2449
▁joined	-2450
▁(5	-2451
▁students	-2452
▁Thomas	-2453
▁groups	-2454
▁To	-2455
ocial	-2456
▁frequ	-2457
▁study	-2458
▁Mo	-2459
▁educ	-2460
▁positive	-2461
FA	-2462
ounds	-2463
▁upon	-2464
▁Scott	-2465
▁mother	-2466
▁Bur	-2467
▁once	-2468
▁church	-2469
▁recording	-2470
ades	-2471
▁bass	-2472
▁Chicago	-2473
▁Ke	-2474
▁ly	-2475
▁Following	-2476
▁Mac	-2477
▁Since	-2478
▁Inter	-2479
erve	-2480
▁cut	-2481
▁Christian	-2482
▁employ	-2483
xt	-2484
▁Tex	-2485
eck	-2486
mar	-2487
▁bur	-2488
eated	-2489
class	-2490
▁distrib	-2491
▁Japanese	-2492
▁night	-2493
ston	-2494
▁multip	-2495
iff	-2496
chie	-2497
▁mer	-2498
▁episodes	-2499
-4	-2500
78	-2501
▁("	-2502
▁edition	-2503
▁Brown	-2504
▁office	-2505
▁relations	-2506
▁eventually	-2507
▁From	-2508
▁find	-2509
▁access	-2510
▁travel	-2511
▁Frank	-2512
ena	-2513
▁food	-2514
iers	-2515
ules	-2516
▁stri	-2517
▁western	-2518
icle	-2519
load	-2520
▁sea	-2521
▁eastern	-2522
lor	-2523
▁2005	-2524
▁Alex	-2525
▁close	-2526
aps	-2527
eal	-2528
▁Tom	-2529
ums	-2530
ought	-2531
▁Peter	-2532
wh	-2533
▁Cr	-2534
▁decl	-2535
▁foc	-2536
ourn	-2537
▁radio	-2538
▁hit	-2539
atory	-2540
▁SR	-2541
ranch	-2542
▁studio	-2543
▁ord	-2544
▁Rob	-2545
anding	-2546
▁Sam	-2547
▁deg	-2548
▁score	-2549
▁Studios	-2550
▁indust	-2551
6)	-2552
▁community	-2553
erved	-2554
istic	-2555
▁Company	-2556
imum	-2557
▁Town	-2558
▁assist	-2559
▁killed	-2560
▁fund	-2561
▁parts	-2562
estival	-2563
oul	-2564
etic	-2565
itch	-2566
▁lik	-2567
iding	-2568
▁films	-2569
▁cyclone	-2570
▁insp	-2571
▁Center	-2572
ks	-2573
▁ide	-2574
otes	-2575
▁2004	-2576
▁reach	-2577
▁forces	-2578
aker	-2579
down	-2580
ential	-2581
▁Florida	-2582
▁Republic	-2583
▁remov	-2584
▁estimated	-2585
uis	-2586
▁Wil	-2587
lying	-2588
▁(198	-2589
▁Lake	-2590
▁2014,	-2591
▁spent	-2592
▁designated	-2593
be	-2594
▁feature	-2595
▁App	-2596
▁dou	-2597
anish	-2598
▁heavy	-2599
oney	-2600
▁Bra	-2601
▁2015,	-2602
▁Texas	-2603
▁pot	-2604
▁2007,	-2605
▁China	-2606
asing	-2607
▁Battle	-2608
▁countries	-2609
▁Kn	-2610
▁destroy	-2611
wer	-2612
hester	-2613
▁+	-2614
ened	-2615
▁enc	-2616
▁Rail	-2617
▁bi	-2618
iqu	-2619
▁(6	-2620
▁Union	-2621
thlet	-2622
▁maintain	-2623
ha	-2624
uz	-2625
▁i	-2626
itz	-2627
rought	-2628
▁finished	-2629
▁35	-2630
▁Henry	-2631
▁comment	-2632
▁let	-2633
known	-2634
▁Atlantic	-2635
▁product	-2636
▁debuted	-2637
ems	-2638
▁Dist	-2639
▁Games	-2640
▁meet	-2641
▁ill	-2642
ceed	-2643
▁behind	-2644
▁possible	-2645
")	-2646
▁60	-2647
ique	-2648
▁Serv	-2649
▁transfer	-2650
▁Roman	-2651
▁God	-2652
9)	-2653
▁himself	-2654
▁previously	-2655
▁Mill	-2656
▁priv	-2657
▁via	-2658
▁Force	-2659
han	-2660
rown	-2661
▁dev	-2662
ency	-2663
▁hous	-2664
▁peaked	-2665
▁commerc	-2666
▁Football	-2667
▁doc	-2668
▁Rad	-2669
▁ball	-2670
uf	-2671
clus	-2672
▁Vict	-2673
▁Germany	-2674
▁hours	-2675
▁Sen	-2676
▁Richard	-2677
▁liner	-2678
ows	-2679
▁reviews	-2680
-3	-2681
▁sil	-2682
▁daughter	-2683
▁Los	-2684
▁professional	-2685
▁2000	-2686
▁Charles	-2687
▁pra	-2688
▁Canadian	-2689
▁Trans	-2690
▁awarded	-2691
▁units	-2692
▁services	-2693
▁miss	-2694
▁lower	-2695
▁working	-2696
ulf	-2697
▁league	-2698
de	-2699
▁rather	-2700
▁must	-2701
▁saw	-2702
ability	-2703
▁center	-2704
▁minor	-2705
▁shown	-2706
▁Sun	-2707
▁sometimes	-2708
▁Mer	-2709
▁director	-2710
rated	-2711
▁gold	-2712
.,	-2713
ij	-2714
▁president	-2715
CA	-2716
orse	-2717
▁rev	-2718
▁arran	-2719
lo	-2720
▁Law	-2721
imate	-2722
▁conv	-2723
medi	-2724
▁hom	-2725
▁below	-2726
70	-2727
▁Academ	-2728
▁affect	-2729
ado	-2730
▁type	-2731
▁econom	-2732
▁Central	-2733
▁get	-2734
▁Smith	-2735
▁proble	-2736
part	-2737
,"	-2738
▁associated	-2739
arn	-2740
▁Council	-2741
▁extended	-2742
asy	-2743
onn	-2744
▁CD	-2745
▁nine	-2746
▁Love	-2747
▁hard	-2748
▁attended	-2749
▁Im	-2750
▁lo	-2751
aled	-2752
▁Ter	-2753
stitute	-2754
aying	-2755
▁termin	-2756
▁leading	-2757
▁Hill	-2758
▁commission	-2759
tt	-2760
▁cal	-2761
▁involved	-2762
▁plann	-2763
ving	-2764
▁past	-2765
▁Govern	-2766
▁Mexico	-2767
▁action	-2768
▁ke	-2769
itte	-2770
teen	-2771
cean	-2772
▁Old	-2773
rics	-2774
▁wall	-2775
▁bill	-2776
▁date	-2777
▁shows	-2778
acing	-2779
asion	-2780
▁nominated	-2781
▁Super	-2782
▁instead	-2783
7)	-2784
▁Jim	-2785
aint	-2786
▁critic	-2787
▁inters	-2788
▁flow	-2789
▁copies	-2790
▁states	-2791
▁structure	-2792
ship	-2793
▁spe	-2794
▁premi	-2795
▁account	-2796
cle	-2797
enty	-2798
ites	-2799
enth	-2800
▁far	-2801
▁ranked	-2802
▁respons	-2803
edy	-2804
▁lack	-2805
▁Records	-2806
▁related	-2807
▁flag	-2808
▁bridge	-2809
umn	-2810
▁Camp	-2811
▁Museum	-2812
restling	-2813
▁put	-2814
stant	-2815
▁summer	-2816
▁Ir	-2817
uated	-2818
▁little	-2819
▁earlier	-2820
▁pressure	-2821
odies	-2822
viron	-2823
▁altern	-2824
▁Team	-2825
▁aired	-2826
▁almost	-2827
▁location	-2828
▁Enter	-2829
▁kil	-2830
▁Fort	-2831
▁Jackson	-2832
▁thought	-2833
can	-2834
icles	-2835
▁Credits	-2836
▁soundtrack	-2837
irth	-2838
▁McC	-2839
umber	-2840
rd	-2841
▁2,	-2842
▁appears	-2843
ption	-2844
▁creat	-2845
oys	-2846
bers	-2847
▁che	-2848
▁elements	-2849
▁currently	-2850
enced	-2851
▁according	-2852
▁ever	-2853
▁size	-2854
▁Do	-2855
▁active	-2856
▁outside	-2857
40	-2858
adium	-2859
▁wide	-2860
▁change	-2861
▁Sea	-2862
▁Cross	-2863
ibility	-2864
▁larger	-2865
▁beginning	-2866
ospital	-2867
▁rat	-2868
▁2006,	-2869
abit	-2870
uture	-2871
▁streng	-2872
▁limited	-2873
▁kg	-2874
▁Ben	-2875
▁Just	-2876
▁Western	-2877
iano	-2878
▁able	-2879
asc	-2880
▁Out	-2881
▁train	-2882
▁research	-2883
AS	-2884
▁Earth	-2885
▁surround	-2886
▁stage	-2887
▁increased	-2888
80	-2889
▁2012.	-2890
tainment	-2891
reed	-2892
▁2003	-2893
▁bird	-2894
▁Second	-2895
▁market	-2896
▁parent	-2897
8)	-2898
burg	-2899
▁Desp	-2900
wide	-2901
▁forest	-2902
▁relationship	-2903
den	-2904
▁Sal	-2905
▁box	-2906
▁intens	-2907
era	-2908
isk	-2909
▁complex	-2910
ift	-2911
▁Histor	-2912
▁annual	-2913
▁magazine	-2914
▁cm	-2915
▁guns	-2916
▁selected	-2917
rie	-2918
▁Cont	-2919
▁reve	-2920
▁word	-2921
ibrary	-2922
▁(9	-2923
▁Big	-2924
minist	-2925
▁itself	-2926
iles	-2927
ficult	-2928
▁Africa	-2929
▁cou	-2930
elled	-2931
▁Go	-2932
▁achie	-2933
-0	-2934
▁viol	-2935
▁quarter	-2936
▁initially	-2937
ointed	-2938
▁respectively	-2939
▁32	-2940
▁Group	-2941
▁slow	-2942
ilities	-2943
▁assigned	-2944
▁Fox	-2945
ecially	-2946
berg	-2947
▁2010.	-2948
▁4:	-2949
oring	-2950
▁remains	-2951
rel	-2952
▁mixed	-2953
olk	-2954
▁arg	-2955
▁Over	-2956
▁meth	-2957
oid	-2958
oke	-2959
▁eff	-2960
▁prior	-2961
▁difficult	-2962
eph	-2963
▁Class	-2964
▁entered	-2965
▁meaning	-2966
▁introduced	-2967
ples	-2968
isher	-2969
▁writing	-2970
▁<	-2971
▁tourn	-2972
▁mostly	-2973
▁political	-2974
▁Carol	-2975
omer	-2976
▁dise	-2977
ension	-2978
▁determ	-2979
▁effects	-2980
especially	-2981
anks	-2982
▁Bow	-2983
aches	-2984
▁breed	-2985
▁higher	-2986
▁Academy	-2987
ona	-2988
order	-2989
▁earned	-2990
▁see	-2991
▁Wood	-2992
ani	-2993
▁lab	-2994
▁victory	-2995
het	-2996
▁abs	-2997
▁model	-2998
bury	-2999
▁tons	-3000
▁independ	-3001
▁Penn	-3002
10	-3003
ils	-3004
▁Bet	-3005
▁Sever	-3006
▁Victor	-3007
ended	-3008
▁commercial	-3009
ady	-3010
▁fifth	-3011
atively	-3012
▁object	-3013
▁(7	-3014
▁36	-3015
▁Miss	-3016
▁force	-3017
▁amount	-3018
▁primary	-3019
▁sem	-3020
porary	-3021
▁ended	-3022
▁believed	-3023
ederal	-3024
▁Under	-3025
▁social	-3026
▁towards	-3027
inese	-3028
▁allowed	-3029
▁45	-3030
▁complete	-3031
▁ox	-3032
ste	-3033
▁Tor	-3034
▁theat	-3035
▁referred	-3036
unt	-3037
uled	-3038
▁pen	-3039
▁Despite	-3040
▁fort	-3041
▁Society	-3042
▁Tw	-3043
▁reb	-3044
▁Kore	-3045
▁Del	-3046
▁Line	-3047
upt	-3048
iest	-3049
▁variety	-3050
ype	-3051
▁subject	-3052
▁evidence	-3053
bit	-3054
alled	-3055
ournal	-3056
▁board	-3057
▁Nort	-3058
ecess	-3059
▁look	-3060
▁norm	-3061
▁2011.	-3062
▁Angeles	-3063
▁Greek	-3064
airs	-3065
▁Many	-3066
▁roll	-3067
▁quick	-3068
formula	-3069
▁college	-3070
▁required	-3071
rat	-3072
▁decided	-3073
▁Arch	-3074
▁brought	-3075
▁information	-3076
▁particularly	-3077
inent	-3078
itect	-3079
ership	-3080
ounter	-3081
▁provide	-3082
▁distinct	-3083
oe	-3084
▁Je	-3085
itation	-3086
hold	-3087
house	-3088
▁webs	-3089
ili	-3090
itors	-3091
▁natural	-3092
arian	-3093
▁Louis	-3094
▁turned	-3095
▁running	-3096
ux	-3097
hood	-3098
▁Pet	-3099
▁nar	-3100
ita	-3101
▁Book	-3102
▁launched	-3103
▁touch	-3104
▁connect	-3105
▁collection	-3106
▁lyrics	-3107
ittee	-3108
▁occup	-3109
▁passeng	-3110
▁numerous	-3111
▁especially	-3112
▁aff	-3113
uments	-3114
▁Department	-3115
sy	-3116
▁49	-3117
inner	-3118
right	-3119
▁Scot	-3120
etball	-3121
▁cause	-3122
▁screen	-3123
vironment	-3124
urs	-3125
▁Des	-3126
▁Martin	-3127
▁prob	-3128
▁vocal	-3129
▁rights	-3130
▁185	-3131
▁text	-3132
▁dro	-3133
venue	-3134
▁Latin	-3135
▁becoming	-3136
▁80	-3137
▁Ann	-3138
▁anal	-3139
ending	-3140
▁lines	-3141
▁planet	-3142
rief	-3143
▁uses	-3144
▁3,	-3145
ider	-3146
▁max	-3147
▁vir	-3148
▁buildings	-3149
ingu	-3150
▁winning	-3151
emorial	-3152
bol	-3153
idents	-3154
▁fight	-3155
▁attend	-3156
▁regard	-3157
▁follows	-3158
▁Off	-3159
▁Cast	-3160
▁piec	-3161
ires	-3162
▁Prod	-3163
▁Album	-3164
▁numbers	-3165
▁village	-3166
▁document	-3167
TV	-3168
lebr	-3169
▁threat	-3170
▁schools	-3171
ye	-3172
olf	-3173
▁qual	-3174
atives	-3175
▁reason	-3176
▁trib	-3177
▁ran	-3178
▁Chart	-3179
▁court	-3180
▁private	-3181
well	-3182
▁pil	-3183
▁artist	-3184
▁Spanish	-3185
▁Georg	-3186
▁singer	-3187
▁TV	-3188
▁Bob	-3189
▁super	-3190
▁awards	-3191
▁Ev	-3192
▁esc	-3193
▁Dem	-3194
▁deep	-3195
▁plant	-3196
▁constructed	-3197
▁Both	-3198
▁inches	-3199
▁90	-3200
adron	-3201
▁means	-3202
▁relig	-3203
bre	-3204
▁4,	-3205
▁scene	-3206
aily	-3207
▁categ	-3208
▁sales	-3209
▁background	-3210
rac	-3211
▁Hel	-3212
▁2002	-3213
▁Fore	-3214
▁table	-3215
▁complet	-3216
oma	-3217
ayer	-3218
▁sex	-3219
▁goals	-3220
▁commonly	-3221
ains	-3222
▁und	-3223
▁rare	-3224
▁2009.	-3225
▁70	-3226
▁flood	-3227
▁space	-3228
band	-3229
▁anc	-3230
▁media	-3231
ware	-3232
▁individual	-3233
ears	-3234
▁BBC	-3235
▁neg	-3236
▁veh	-3237
▁1990	-3238
ada	-3239
incip	-3240
▁manager	-3241
bon	-3242
▁Sil	-3243
mpire	-3244
▁log	-3245
▁Matt	-3246
▁king	-3247
wing	-3248
▁Spec	-3249
▁Franc	-3250
▁Direct	-3251
▁specific	-3252
▁discovered	-3253
yard	-3254
▁300	-3255
▁Ital	-3256
▁drums	-3257
▁taking	-3258
▁standard	-3259
ror	-3260
▁34	-3261
iled	-3262
mark	-3263
▁carried	-3264
▁consists	-3265
▁transport	-3266
▁competition	-3267
-9	-3268
▁Mont	-3269
▁chap	-3270
eather	-3271
▁block	-3272
▁party	-3273
▁metres	-3274
imet	-3275
▁Britain	-3276
ulated	-3277
▁musical	-3278
oud	-3279
ises	-3280
▁Mel	-3281
▁too	-3282
▁Chris	-3283
▁sister	-3284
▁acqu	-3285
▁stars	-3286
▁Several	-3287
▁Kent	-3288
-8	-3289
ette	-3290
▁2008.	-3291
▁purch	-3292
▁Chinese	-3293
▁download	-3294
rial	-3295
▁Haw	-3296
bo	-3297
▁Add	-3298
▁featuring	-3299
):	-3300
MS	-3301
▁sch	-3302
▁whom	-3303
ply	-3304
ctor	-3305
isl	-3306
liam	-3307
▁iron	-3308
▁guest	-3309
▁issue	-3310
enc	-3311
rama	-3312
▁rap	-3313
▁deal	-3314
change	-3315
▁river	-3316
nel	-3317
▁Press	-3318
▁interview	-3319
▁health	-3320
▁retired	-3321
▁Ill	-3322
▁2001	-3323
▁Another	-3324
enant	-3325
onstr	-3326
▁2013.	-3327
▁But	-3328
▁Sat	-3329
▁issued	-3330
ria	-3331
▁whose	-3332
bed	-3333
▁33	-3334
ergy	-3335
▁brief	-3336
▁operated	-3337
liament	-3338
▁centre	-3339
▁method	-3340
▁founded	-3341
unic	-3342
shire	-3343
▁Service	-3344
▁Tim	-3345
▁Win	-3346
▁hot	-3347
▁certain	-3348
▁continu	-3349
uke	-3350
▁prevent	-3351
▁Wales	-3352
ya	-3353
sel	-3354
▁Ro	-3355
▁smaller	-3356
▁passed	-3357
▁District	-3358
fl	-3359
ken	-3360
▁2014.	-3361
▁course	-3362
▁square	-3363
▁multiple	-3364
annel	-3365
▁keep	-3366
▁participated	-3367
▁(8	-3368
▁Gi	-3369
bour	-3370
▁2007.	-3371
▁consist	-3372
▁Zeal	-3373
▁Young	-3374
▁enter	-3375
▁System	-3376
▁changed	-3377
▁appointed	-3378
▁Sol	-3379
▁Women	-3380
▁longer	-3381
▁produce	-3382
II	-3383
apore	-3384
▁grand	-3385
▁covered	-3386
ube	-3387
ties	-3388
▁Like	-3389
▁confir	-3390
▁stations	-3391
▁den	-3392
▁equip	-3393
▁forms	-3394
▁react	-3395
▁slight	-3396
▁twenty	-3397
▁Ol	-3398
uals	-3399
mitted	-3400
▁Party	-3401
▁Rev	-3402
reater	-3403
▁Sport	-3404
▁adult	-3405
▁cerem	-3406
▁championship	-3407
reme	-3408
▁proposed	-3409
imin	-3410
onse	-3411
orps	-3412
▁removed	-3413
▁conditions	-3414
ym	-3415
▁1980	-3416
▁move	-3417
▁III	-3418
▁Midd	-3419
▁theme	-3420
rid	-3421
atch	-3422
▁disp	-3423
▁shot	-3424
▁raised	-3425
▁rating	-3426
▁traditional	-3427
▁investig	-3428
oir	-3429
▁Mic	-3430
▁exc	-3431
▁ride	-3432
▁changes	-3433
▁architect	-3434
dle	-3435
▁(0	-3436
▁don	-3437
▁gra	-3438
▁Swed	-3439
▁nearly	-3440
▁status	-3441
use	-3442
edic	-3443
▁sched	-3444
▁female	-3445
-19	-3446
hing	-3447
ether	-3448
▁increase	-3449
▁majority	-3450
▁£	-3451
▁Cor	-3452
▁Vol	-3453
echan	-3454
▁enough	-3455
▁marked	-3456
▁Tropical	-3457
▁Cong	-3458
▁Cons	-3459
▁Zealand	-3460
▁Olympics	-3461
▁Bu	-3462
▁Sur	-3463
alion	-3464
▁titled	-3465
▁focus	-3466
▁future	-3467
▁website	-3468
▁language	-3469
bl	-3470
ero	-3471
▁ge	-3472
ittle	-3473
▁Creek	-3474
▁cases	-3475
pass	-3476
istics	-3477
▁weaken	-3478
standing	-3479
▁Mountain	-3480
▁tournament	-3481
kins	-3482
▁Way	-3483
▁jud	-3484
▁sus	-3485
ersey	-3486
awn	-3487
ota	-3488
▁unit	-3489
▁Summer	-3490
▁sevent	-3491
ervation	-3492
▁That	-3493
▁poor	-3494
reland	-3495
-5	-3496
▁likely	-3497
▁records	-3498
▁1970	-3499
▁farm	-3500
▁genus	-3501
▁better	-3502
▁mention	-3503
▁movement	-3504
▁education	-3505
▁tax	-3506
iders	-3507
▁cann	-3508
▁link	-3509
▁Columb	-3510
▁closed	-3511
ras	-3512
oses	-3513
▁pers	-3514
▁accomp	-3515
▁Entertainment	-3516
▁Rh	-3517
▁Bus	-3518
▁latter	-3519
▁display	-3520
room	-3521
▁Sar	-3522
▁dom	-3523
▁Sound	-3524
▁75	-3525
▁Live	-3526
▁compared	-3527
▁Series	-3528
▁Os	-3529
based	-3530
▁come	-3531
▁Times	-3532
▁thick	-3533
▁portion	-3534
▁rainfall	-3535
agn	-3536
▁Jones	-3537
▁quest	-3538
▁living	-3539
▁kilomet	-3540
▁184	-3541
ockey	-3542
▁source	-3543
▁primarily	-3544
-6	-3545
oted	-3546
▁Dou	-3547
▁imm	-3548
▁exhib	-3549
▁elected	-3550
mas	-3551
agon	-3552
▁fans	-3553
▁foot	-3554
▁know	-3555
▁immedi	-3556
▁systems	-3557
hi	-3558
▁Dis	-3559
▁Inf	-3560
▁exam	-3561
BA	-3562
▁41	-3563
▁love	-3564
▁Tur	-3565
▁digital	-3566
gl	-3567
een	-3568
▁Valley	-3569
▁Airport	-3570
▁electric	-3571
▁Mass	-3572
▁Queen	-3573
▁scenes	-3574
▁division	-3575
ands	-3576
▁trains	-3577
ieut	-3578
▁Max	-3579
▁staff	-3580
▁upper	-3581
▁waters	-3582
▁Johnson	-3583
▁seconds	-3584
▁response	-3585
▁#	-3586
erry	-3587
antry	-3588
▁Wind	-3589
▁transl	-3590
▁Rem	-3591
▁dissip	-3592
▁mountain	-3593
ocr	-3594
▁Edward	-3595
▁Southern	-3596
cel	-3597
▁$2	-3598
▁civil	-3599
aded	-3600
▁Batt	-3601
▁disease	-3602
▁Cur	-3603
overs	-3604
▁(197	-3605
▁levels	-3606
▁occurred	-3607
dro	-3608
ked	-3609
▁liter	-3610
▁Festival	-3611
▁Time	-3612
▁celebr	-3613
za	-3614
onic	-3615
itude	-3616
▁issues	-3617
▁Ireland	-3618
▁initial	-3619
▁Hurricane	-3620
▁Top	-3621
▁writer	-3622
▁Gar	-3623
▁Pan	-3624
▁Mike	-3625
▁heav	-3626
▁create	-3627
▁adop	-3628
▁prec	-3629
▁represented	-3630
▁sat	-3631
▁applic	-3632
ously	-3633
▁thus	-3634
▁Major	-3635
ieutenant	-3636
▁subsequently	-3637
ishop	-3638
ufact	-3639
▁chem	-3640
▁books	-3641
▁How	-3642
▁Each	-3643
▁cell	-3644
▁feed	-3645
▁gross	-3646
▁county	-3647
▁intern	-3648
▁ver	-3649
level	-3650
▁begins	-3651
▁Long	-3652
▁defeat	-3653
▁defeated	-3654
▁officially	-3655
mond	-3656
▁Tri	-3657
rison	-3658
▁Order	-3659
▁blood	-3660
▁remaining	-3661
US	-3662
rast	-3663
▁Fred	-3664
▁desp	-3665
▁prote	-3666
▁Olympic	-3667
▁If	-3668
aped	-3669
olic	-3670
▁Pri	-3671
▁blue	-3672
▁terms	-3673
anes	-3674
▁Four	-3675
▁stop	-3676
ka	-3677
inem	-3678
▁Mur	-3679
▁Lord	-3680
▁BC	-3681
rying	-3682
▁thir	-3683
▁compan	-3684
▁tar	-3685
▁Russian	-3686
▁discuss	-3687
▁songwrit	-3688
▁northeast	-3689
▁share	-3690
▁bodies	-3691
▁ang	-3692
▁self	-3693
▁Three	-3694
▁degree	-3695
▁39	-3696
▁sen	-3697
aught	-3698
▁matches	-3699
▁provides	-3700
pe	-3701
▁scient	-3702
▁Singapore	-3703
▁55	-3704
▁Hy	-3705
ails	-3706
illa	-3707
▁Fin	-3708
▁metal	-3709
▁voice	-3710
▁environment	-3711
ii	-3712
▁Oh	-3713
▁sal	-3714
▁green	-3715
▁37	-3716
ready	-3717
▁district	-3718
uries	-3719
▁seasons	-3720
▁Bec	-3721
▁nuc	-3722
▁birth	-3723
▁Italian	-3724
▁5,	-3725
▁fruit	-3726
▁piano	-3727
▁sports	-3728
aring	-3729
▁1960	-3730
▁plays	-3731
▁Empire	-3732
▁failed	-3733
▁concern	-3734
▁2015.	-3735
▁Ma	-3736
ylvan	-3737
▁owned	-3738
▁symbol	-3739
▁appearances	-3740
state	-3741
▁Wall	-3742
▁break	-3743
unity	-3744
utions	-3745
▁honor	-3746
▁energy	-3747
stitution	-3748
▁versions	-3749
light	-3750
▁Bridge	-3751
▁nearby	-3752
▁election	-3753
▁Us	-3754
▁mach	-3755
▁yards	-3756
▁double	-3757
▁nature	-3758
▁maximum	-3759
road	-3760
▁10,	-3761
▁Pop	-3762
▁pit	-3763
▁clear	-3764
▁planned	-3765
▁treatment	-3766
phy	-3767
ault	-3768
▁Cro	-3769
▁Mix	-3770
▁mainly	-3771
▁unknown	-3772
▁worldwide	-3773
Ch	-3774
umed	-3775
▁Not	-3776
▁sum	-3777
▁moving	-3778
▁temperature	-3779
ares	-3780
utch	-3781
ysis	-3782
▁Den	-3783
▁More	-3784
▁army	-3785
▁data	-3786
▁2005,	-3787
▁athlet	-3788
▁helped	-3789
);	-3790
oper	-3791
▁Step	-3792
▁quickly	-3793
▁experience	-3794
▁give	-3795
▁favor	-3796
▁Williams	-3797
▁Tro	-3798
iences	-3799
▁typically	-3800
▁Orig	-3801
▁Songs	-3802
▁industry	-3803
rical	-3804
▁consider	-3805
▁*	-3806
▁acid	-3807
▁Night	-3808
▁takes	-3809
▁Scotland	-3810
▁Def	-3811
▁fit	-3812
▁sout	-3813
▁bomb	-3814
▁activity	-3815
▁WW	-3816
ections	-3817
▁baseball	-3818
udd	-3819
▁op	-3820
ogue	-3821
AA	-3822
ips	-3823
▁FI	-3824
▁backing	-3825
▁sources	-3826
▁practice	-3827
▁Sir	-3828
ighter	-3829
▁science	-3830
▁separate	-3831
eath	-3832
ully	-3833
istry	-3834
▁emer	-3835
▁girl	-3836
▁risk	-3837
▁neigh	-3838
▁remix	-3839
▁leaving	-3840
ican	-3841
▁14,	-3842
▁cred	-3843
osition	-3844
▁police	-3845
▁student	-3846
▁reference	-3847
▁Jon	-3848
▁1930	-3849
ging	-3850
▁fir	-3851
▁path	-3852
ala	-3853
ees	-3854
osing	-3855
▁fleet	-3856
▁habit	-3857
ylvania	-3858
▁already	-3859
▁traffic	-3860
▁Institute	-3861
▁42	-3862
▁Jeff	-3863
▁pick	-3864
▁Saint	-3865
▁transferred	-3866
gian	-3867
▁rate	-3868
▁revealed	-3869
urity	-3870
▁soon	-3871
▁makes	-3872
▁serve	-3873
▁Sov	-3874
ector	-3875
▁fung	-3876
▁Their	-3877
ella	-3878
▁dark	-3879
iation	-3880
▁bound	-3881
▁newsp	-3882
▁Univers	-3883
icy	-3884
▁Er	-3885
arden	-3886
▁color	-3887
▁starting	-3888
ims	-3889
osen	-3890
▁Lee	-3891
▁Form	-3892
▁Record	-3893
▁mission	-3894
▁suggested	-3895
ato	-3896
▁Joseph	-3897
▁mechan	-3898
▁nation	-3899
▁operations	-3900
▁schol	-3901
▁38	-3902
▁Ha	-3903
▁Che	-3904
▁Sub	-3905
▁Life	-3906
▁Radio	-3907
▁plants	-3908
▁Ap	-3909
▁Mov	-3910
▁cells	-3911
ola	-3912
▁Prem	-3913
▁conver	-3914
▁engineer	-3915
▁intended	-3916
itan	-3917
ampion	-3918
▁Ram	-3919
▁bask	-3920
▁dead	-3921
▁lived	-3922
▁room	-3923
▁weight	-3924
▁Addition	-3925
▁directly	-3926
▁Gra	-3927
▁ens	-3928
osaur	-3929
▁flight	-3930
▁function	-3931
▁supported	-3932
▁Wal	-3933
▁Oper	-3934
▁trees	-3935
ulations	-3936
▁claimed	-3937
▁183	-3938
▁rapid	-3939
▁Georgia	-3940
▁personal	-3941
▁15,	-3942
▁fish	-3943
▁Ocean	-3944
▁reflect	-3945
▁whether	-3946
▁terminus	-3947
▁So	-3948
cend	-3949
▁Final	-3950
▁albums	-3951
osis	-3952
ordin	-3953
▁Carl	-3954
▁territ	-3955
▁concert	-3956
▁43	-3957
anna	-3958
icted	-3959
▁done	-3960
▁Corps	-3961
▁ordered	-3962
▁observed	-3963
ban	-3964
pro	-3965
win	-3966
▁12,	-3967
▁purp	-3968
▁Cath	-3969
▁fast	-3970
▁susp	-3971
emporary	-3972
▁ult	-3973
▁2016	-3974
▁Elect	-3975
▁7,	-3976
▁cand	-3977
▁railway	-3978
▁problems	-3979
apt	-3980
▁Mod	-3981
▁Tod	-3982
▁Penns	-3983
▁yellow	-3984
▁contest	-3985
▁property	-3986
▁180	-3987
▁big	-3988
▁colon	-3989
▁Carolina	-3990
▁11,	-3991
▁saying	-3992
▁animals	-3993
ignment	-3994
▁require	-3995
▁8,	-3996
hers	-3997
hips	-3998
▁Ret	-3999
lines	-4000
antasy	-4001
▁African	-4002
yan	-4003
▁Mr	-4004
▁Hon	-4005
▁despite	-4006
▁probably	-4007
▁Pre	-4008
▁ending	-4009
▁obtain	-4010
▁praised	-4011
▁manufact	-4012
alle	-4013
▁pay	-4014
verse	-4015
▁Girl	-4016
▁Manc	-4017
▁divided	-4018
▁administ	-4019
▁Home	-4020
▁Colon	-4021
▁capac	-4022
▁recomm	-4023
ivity	-4024
▁Fame	-4025
▁felt	-4026
▁laid	-4027
▁woman	-4028
hat	-4029
see	-4030
▁Pen	-4031
riage	-4032
▁Because	-4033
▁magn	-4034
Americ	-4035
▁Arab	-4036
▁Show	-4037
▁cities	-4038
▁relatively	-4039
rect	-4040
▁nin	-4041
▁pow	-4042
▁plat	-4043
▁Light	-4044
▁words	-4045
kend	-4046
anded	-4047
▁Coast	-4048
▁battles	-4049
eld	-4050
pson	-4051
▁13,	-4052
▁saf	-4053
▁Middle	-4054
▁recent	-4055
▁results	-4056
▁presence	-4057
▁touchdown	-4058
▁Pennsylvania	-4059
ables	-4060
uation	-4061
▁Steve	-4062
0)	-4063
▁6,	-4064
▁181	-4065
▁lif	-4066
▁mur	-4067
▁seg	-4068
ulted	-4069
▁Care	-4070
▁Race	-4071
▁Avenue	-4072
▁middle	-4073
▁Congress	-4074
igade	-4075
▁Boat	-4076
▁singles	-4077
▁Northern	-4078
▁sn	-4079
ighth	-4080
undred	-4081
▁prison	-4082
▁offered	-4083
▁intersection	-4084
▁Found	-4085
▁leader	-4086
▁slightly	-4087
ronic	-4088
▁incorpor	-4089
ibly	-4090
▁Bre	-4091
▁instrument	-4092
▁Ell	-4093
aging	-4094
isions	-4095
▁Storm	-4096
▁Cy	-4097
▁walk	-4098
▁plans	-4099
▁Little	-4100
▁48	-4101
gely	-4102
▁18,	-4103
▁Ohio	-4104
▁Square	-4105
omy	-4106
▁47	-4107
▁400	-4108
▁inn	-4109
inson	-4110
▁Blue	-4111
▁Conn	-4112
▁synt	-4113
ession	-4114
vement	-4115
▁rough	-4116
▁Prince	-4117
uty	-4118
▁Stan	-4119
▁fail	-4120
▁Civil	-4121
▁going	-4122
▁designation	-4123
▁Italy	-4124
▁houses	-4125
▁attract	-4126
▁weather	-4127
▁inspired	-4128
▁Men	-4129
▁hour	-4130
▁shoot	-4131
▁widely	-4132
▁northwest	-4133
▁commissioned	-4134
▁dog	-4135
▁watch	-4136
resh	-4137
▁978	-4138
▁Boy	-4139
▁wanted	-4140
▁suffered	-4141
imens	-4142
rance	-4143
uting	-4144
▁male	-4145
▁dedic	-4146
▁heart	-4147
▁money	-4148
▁identified	-4149
▁du	-4150
▁20,	-4151
▁Asia	-4152
▁movie	-4153
▁occurs	-4154
▁recover	-4155
gs	-4156
▁46	-4157
amin	-4158
▁21,	-4159
▁Exp	-4160
▁medal	-4161
▁Singles	-4162
▁princip	-4163
then	-4164
▁1998	-4165
▁shark	-4166
▁museum	-4167
alo	-4168
itt	-4169
stein	-4170
▁2006.	-4171
▁reduced	-4172
▁studies	-4173
stone	-4174
▁draw	-4175
▁sixth	-4176
▁distance	-4177
▁25,	-4178
▁News	-4179
▁2004,	-4180
Station	-4181
met	-4182
▁confirmed	-4183
▁Of	-4184
▁types	-4185
▁Wrestling	-4186
iana	-4187
unior	-4188
▁beat	-4189
▁Later	-4190
raw	-4191
▁Eliz	-4192
▁Sant	-4193
▁bank	-4194
▁sett	-4195
▁Andrew	-4196
▁Before	-4197
▁Islands	-4198
azz	-4199
▁Dam	-4200
▁Tay	-4201
▁Soviet	-4202
▁direction	-4203
FL	-4204
aug	-4205
ental	-4206
eds	-4207
lam	-4208
sych	-4209
uate	-4210
▁gas	-4211
▁airport	-4212
▁approach	-4213
▁Recording	-4214
▁vo	-4215
▁bow	-4216
▁master	-4217
▁decision	-4218
▁continues	-4219
▁basketball	-4220
▁PlayStation	-4221
▁16,	-4222
▁Due	-4223
▁cust	-4224
▁diam	-4225
▁forced	-4226
▁largely	-4227
ba	-4228
▁Mir	-4229
▁Tre	-4230
arters	-4231
▁troops	-4232
▁concept	-4233
▁17,	-4234
▁Jes	-4235
▁tur	-4236
astic	-4237
▁older	-4238
iral	-4239
▁serving	-4240
▁establish	-4241
▁Manchester	-4242
-7	-4243
ih	-4244
adel	-4245
▁2016,	-4246
▁assistant	-4247
och	-4248
itiz	-4249
▁mic	-4250
abeth	-4251
itled	-4252
selves	-4253
▁impact	-4254
▁themselves	-4255
▁2:	-4256
▁bene	-4257
ective	-4258
▁Jersey	-4259
▁ability	-4260
▁parents	-4261
uro	-4262
long	-4263
▁Corn	-4264
▁Charl	-4265
▁earth	-4266
▁campus	-4267
▁ap	-4268
▁27,	-4269
▁Bat	-4270
▁Ten	-4271
▁Van	-4272
▁rang	-4273
▁dance	-4274
▁serves	-4275
▁operation	-4276
▁Head	-4277
▁anti	-4278
isation	-4279
▁resulted	-4280
ayed	-4281
estic	-4282
▁tree	-4283
▁sides	-4284
col	-4285
ekend	-4286
▁vess	-4287
▁wild	-4288
▁adapt	-4289
▁depart	-4290
▁Special	-4291
▁content	-4292
▁presented	-4293
▁dropped	-4294
▁pattern	-4295
▁Commission	-4296
▁university	-4297
▁organization	-4298
ini	-4299
rier	-4300
▁Gal	-4301
▁oil	-4302
▁Kenn	-4303
▁Post	-4304
▁horse	-4305
ias	-4306
▁Nin	-4307
▁flu	-4308
▁expected	-4309
▁keyboard	-4310
▁platform	-4311
▁Battalion	-4312
▁alongside	-4313
▁responsible	-4314
BS	-4315
ua	-4316
eway	-4317
▁whole	-4318
▁financ	-4319
war	-4320
▁lb	-4321
▁28,	-4322
▁Jud	-4323
inois	-4324
▁Upon	-4325
▁idea	-4326
▁always	-4327
▁figures	-4328
hew	-4329
ancy	-4330
▁mel	-4331
▁sust	-4332
▁Irish	-4333
▁today	-4334
▁Public	-4335
▁billion	-4336
▁Committee	-4337
▁Arm	-4338
omers	-4339
▁chor	-4340
▁Water	-4341
▁combined	-4342
onents	-4343
▁Engine	-4344
▁settle	-4345
ky	-4346
imal	-4347
▁stories	-4348
▁distingu	-4349
HL	-4350
ugg	-4351
isco	-4352
obile	-4353
▁Bost	-4354
▁corn	-4355
▁face	-4356
▁mush	-4357
▁Squadron	-4358
▁Conference	-4359
aved	-4360
range	-4361
▁9,	-4362
▁Blu	-4363
▁19,	-4364
▁Mot	-4365
▁job	-4366
▁1999	-4367
▁Wild	-4368
▁tend	-4369
lement	-4370
▁greater	-4371
▁independent	-4372
▁Lew	-4373
regon	-4374
▁spring	-4375
▁Illinois	-4376
usic	-4377
▁extend	-4378
▁element	-4379
▁Christmas	-4380
▁increasing	-4381
▁.	-4382
▁26,	-4383
▁Ray	-4384
▁bul	-4385
▁Nick	-4386
▁Stephen	-4387
▁=	-4388
▁(196	-4389
▁legal	-4390
▁Daniel	-4391
nam	-4392
acter	-4393
rolled	-4394
▁Digital	-4395
▁captain	-4396
▁portray	-4397
▁contained	-4398
illy	-4399
▁Good	-4400
▁online	-4401
▁theory	-4402
▁Library	-4403
▁influence	-4404
▁individuals	-4405
In	-4406
▁Jr	-4407
▁buried	-4408
▁highly	-4409
▁officer	-4410
▁179	-4411
▁Cat	-4412
▁asp	-4413
▁Main	-4414
▁sand	-4415
▁Heart	-4416
▁tower	-4417
▁candid	-4418
▁native	-4419
▁Railway	-4420
▁Jul	-4421
▁Work	-4422
▁Writ	-4423
▁fell	-4424
▁household	-4425
box	-4426
worth	-4427
▁Only	-4428
▁steel	-4429
▁trail	-4430
irit	-4431
▁soft	-4432
▁twice	-4433
ription	-4434
ny	-4435
bro	-4436
hol	-4437
nes	-4438
▁Jew	-4439
▁Gram	-4440
▁52	-4441
▁53	-4442
rael	-4443
▁22,	-4444
▁yet	-4445
▁label	-4446
▁kilometres	-4447
outs	-4448
illed	-4449
▁bring	-4450
▁federal	-4451
▁destroyed	-4452
onna	-4453
▁roy	-4454
▁arms	-4455
▁Liber	-4456
imb	-4457
aven	-4458
▁Chap	-4459
perial	-4460
▁trade	-4461
▁Oregon	-4462
▁Maryland	-4463
▁Victoria	-4464
▁24,	-4465
▁30,	-4466
▁Dev	-4467
▁Fer	-4468
▁Kr	-4469
acks	-4470
▁Mid	-4471
▁Rog	-4472
▁uns	-4473
▁Pict	-4474
▁stone	-4475
▁Golden	-4476
▁Sports	-4477
▁la	-4478
ping	-4479
▁wave	-4480
▁might	-4481
▁Secret	-4482
▁affected	-4483
▁51	-4484
ients	-4485
▁ends	-4486
▁pair	-4487
vention	-4488
▁defined	-4489
▁Columbia	-4490
▁Regiment	-4491
▁potential	-4492
da	-4493
zil	-4494
gend	-4495
resp	-4496
izing	-4497
onent	-4498
▁arrang	-4499
▁frequently	-4500
▁hill	-4501
atures	-4502
▁2003,	-4503
▁birds	-4504
▁border	-4505
▁journal	-4506
▁univers	-4507
▁officers	-4508
la	-4509
iger	-4510
chest	-4511
ource	-4512
urban	-4513
▁Field	-4514
▁Person	-4515
▁medical	-4516
gar	-4517
▁MD	-4518
pper	-4519
ryst	-4520
ening	-4521
▁audio	-4522
▁captured	-4523
▁54	-4524
▁Av	-4525
▁spl	-4526
orning	-4527
▁senior	-4528
▁programs	-4529
▁activities	-4530
ki	-4531
▁Rod	-4532
▁Sand	-4533
▁damaged	-4534
▁Minister	-4535
▁capacity	-4536
▁immediately	-4537
ta	-4538
edo	-4539
ario	-4540
▁Det	-4541
▁Mat	-4542
▁adj	-4543
▁lic	-4544
▁Spain	-4545
▁Premier	-4546
▁formation	-4547
▁premiered	-4548
▁Ver	-4549
ograp	-4550
▁Paris	-4551
▁hydro	-4552
uration	-4553
▁forward	-4554
▁passing	-4555
▁Pot	-4556
ilies	-4557
inger	-4558
▁batter	-4559
▁ratings	-4560
▁physical	-4561
▁resulting	-4562
zy	-4563
emy	-4564
▁Joe	-4565
lection	-4566
▁illust	-4567
▁Captain	-4568
▁notable	-4569
▁locations	-4570
▁classified	-4571
▁performances	-4572
ads	-4573
▁64	-4574
▁Sa	-4575
▁legisl	-4576
Th	-4577
oned	-4578
aming	-4579
water	-4580
▁1997	-4581
▁Taylor	-4582
▁Base	-4583
▁Mount	-4584
▁moder	-4585
▁Boston	-4586
▁growth	-4587
▁culture	-4588
▁companies	-4589
▁conducted	-4590
ests	-4591
itage	-4592
▁inte	-4593
▁prep	-4594
▁domin	-4595
century	-4596
▁History	-4597
▁competed	-4598
▁Elizabeth	-4599
▁Are	-4600
▁sport	-4601
▁search	-4602
▁Gre	-4603
▁ast	-4604
▁row	-4605
▁reaching	-4606
ura	-4607
▁Bowl	-4608
▁Fleet	-4609
▁Philipp	-4610
▁residents	-4611
uns	-4612
▁paper	-4613
▁Eastern	-4614
▁capital	-4615
▁weekend	-4616
▁consecutive	-4617
yph	-4618
umes	-4619
▁23,	-4620
▁Bor	-4621
▁Die	-4622
▁Bach	-4623
▁drug	-4624
iot	-4625
oura	-4626
athan	-4627
▁1920	-4628
ifying	-4629
oration	-4630
▁Office	-4631
▁injury	-4632
▁DE	-4633
▁Bul	-4634
▁Ros	-4635
▁Six	-4636
burgh	-4637
▁swim	-4638
▁animal	-4639
▁Government	-4640
▁maintained	-4641
90	-4642
yes	-4643
▁44	-4644
prod	-4645
▁Mah	-4646
▁syn	-4647
▁cert	-4648
▁pric	-4649
▁2016.	-4650
▁Clark	-4651
▁Stone	-4652
acement	-4653
▁winter	-4654
▁Parliament	-4655
▁engineering	-4656
iced	-4657
onia	-4658
▁Dar	-4659
▁hol	-4660
▁opt	-4661
▁Gall	-4662
▁pilot	-4663
▁meeting	-4664
▁strength	-4665
▁executive	-4666
▁mentioned	-4667
▁surrounding	-4668
▁distribution	-4669
fit	-4670
▁Hum	-4671
▁Lar	-4672
▁Norm	-4673
cepted	-4674
ocated	-4675
▁Brian	-4676
▁Chief	-4677
▁Historic	-4678
▁58	-4679
elve	-4680
eman	-4681
▁Ash	-4682
▁Str	-4683
thing	-4684
▁hall	-4685
▁Medal	-4686
▁Israel	-4687
▁Station	-4688
▁hundred	-4689
▁measure	-4690
▁condition	-4691
eral	-4692
izes	-4693
▁150	-4694
▁lay	-4695
▁pal	-4696
▁Key	-4697
▁plot	-4698
▁prin	-4699
▁Alexander	-4700
▁management	-4701
▁Po	-4702
with	-4703
▁mor	-4704
mouth	-4705
▁drop	-4706
▁floor	-4707
▁advert	-4708
▁regions	-4709
▁collabor	-4710
ager	-4711
istan	-4712
▁normal	-4713
uer	-4714
▁ring	-4715
▁meters	-4716
▁1996	-4717
▁Beat	-4718
▁critical	-4719
iny	-4720
usc	-4721
more	-4722
rich	-4723
▁Bad	-4724
▁Tem	-4725
▁ice	-4726
▁2000,	-4727
▁Brazil	-4728
▁necess	-4729
▁severe	-4730
mile	-4731
wich	-4732
ading	-4733
▁Minn	-4734
ricket	-4735
▁asked	-4736
▁concent	-4737
▁acquired	-4738
▁ceremony	-4739
▁Transport	-4740
▁religious	-4741
▁scheduled	-4742
aga	-4743
▁wear	-4744
mission	-4745
▁branch	-4746
gers	-4747
▁Far	-4748
▁Jer	-4749
▁ven	-4750
▁told	-4751
rovers	-4752
▁Holly	-4753
▁conclud	-4754
▁Scottish	-4755
▁attention	-4756
▁har	-4757
▁2005.	-4758
▁sites	-4759
▁artists	-4760
▁56	-4761
omot	-4762
▁Wat	-4763
ester	-4764
iance	-4765
psons	-4766
▁1950	-4767
▁exclus	-4768
▁derived	-4769
▁declared	-4770
▁prominent	-4771
▁selection	-4772
▁^	-4773
riz	-4774
▁FA	-4775
▁Dun	-4776
▁sle	-4777
▁cold	-4778
▁drama	-4779
▁Ok	-4780
▁Bell	-4781
ansion	-4782
leased	-4783
▁behav	-4784
▁draft	-4785
▁foreign	-4786
▁occasion	-4787
▁promoted	-4788
▁Ul	-4789
▁Hard	-4790
▁royal	-4791
▁passes	-4792
▁synthes	-4793
)"	-4794
▁graph	-4795
▁academ	-4796
▁couple	-4797
▁managed	-4798
aka	-4799
vis	-4800
▁Ly	-4801
▁cas	-4802
olved	-4803
▁shortly	-4804
▁Simpsons	-4805
▁accident	-4806
▁Inc	-4807
▁calc	-4808
istered	-4809
▁mixing	-4810
▁spread	-4811
▁target	-4812
▁watched	-4813
▁Lieutenant	-4814
no	-4815
uls	-4816
▁65	-4817
▁giving	-4818
▁inside	-4819
▁roller	-4820
▁script	-4821
▁Catholic	-4822
lan	-4823
▁600	-4824
▁cam	-4825
anced	-4826
▁Arts	-4827
▁Techn	-4828
▁figure	-4829
▁restaur	-4830
▁collected	-4831
▁organized	-4832
▁−	-4833
▁Luc	-4834
▁Brad	-4835
▁Burn	-4836
▁weap	-4837
▁chall	-4838
quarters	-4839
▁hospital	-4840
▁Fre	-4841
gency	-4842
▁Video	-4843
ressive	-4844
oust	-4845
▁Ott	-4846
oured	-4847
▁Kong	-4848
adelph	-4849
▁daily	-4850
▁think	-4851
▁islands	-4852
▁scoring	-4853
▁Bas	-4854
▁Land	-4855
▁rules	-4856
▁squad	-4857
▁Norway	-4858
▁Spring	-4859
▁dissipated	-4860
thur	-4861
▁god	-4862
▁elev	-4863
▁vehicles	-4864
joy	-4865
▁Greg	-4866
▁lives	-4867
▁quality	-4868
19	-4869
ima	-4870
▁height	-4871
▁Fantasy	-4872
obal	-4873
▁Band	-4874
▁Sund	-4875
asters	-4876
season	-4877
▁chosen	-4878
▁showed	-4879
▁arrived	-4880
▁subsequent	-4881
iant	-4882
opes	-4883
▁fan	-4884
inary	-4885
▁feel	-4886
▁stra	-4887
▁Dutch	-4888
▁Power	-4889
▁Castle	-4890
▁oldest	-4891
▁winner	-4892
iversary	-4893
rm	-4894
book	-4895
▁Kel	-4896
ottom	-4897
▁pack	-4898
western	-4899
▁Indiana	-4900
▁dedicated	-4901
▁Lo	-4902
▁Leg	-4903
▁defin	-4904
▁value	-4905
▁×	-4906
ocal	-4907
▁29,	-4908
▁Anth	-4909
▁southwest	-4910
▁containing	-4911
rad	-4912
▁reports	-4913
▁poll	-4914
▁thous	-4915
ographic	-4916
▁defense	-4917
▁seventh	-4918
▁allowing	-4919
▁structures	-4920
awa	-4921
ender	-4922
▁Your	-4923
▁grew	-4924
▁Lewis	-4925
▁Colonel	-4926
ora	-4927
▁Bab	-4928
▁rhy	-4929
eller	-4930
iring	-4931
▁Publ	-4932
▁actor	-4933
▁comes	-4934
▁withd	-4935
▁letter	-4936
▁consisted	-4937
inch	-4938
iform	-4939
▁Tech	-4940
unicip	-4941
▁Board	-4942
▁ancient	-4943
▁demonstr	-4944
▁Philadelph	-4945
▁historical	-4946
put	-4947
onds	-4948
▁soldiers	-4949
lers	-4950
ownt	-4951
vest	-4952
▁inh	-4953
▁rot	-4954
▁Walk	-4955
▁dates	-4956
▁Network	-4957
▁audience	-4958
TC	-4959
ker	-4960
etts	-4961
▁Cop	-4962
▁1995	-4963
▁Korea	-4964
▁mount	-4965
▁secret	-4966
▁disturb	-4967
▁studied	-4968
▁controvers	-4969
ira	-4970
onus	-4971
▁Kar	-4972
▁hyp	-4973
▁upgr	-4974
▁funct	-4975
▁constit	-4976
▁accompan	-4977
▁Ep	-4978
king	-4979
akers	-4980
inity	-4981
▁fresh	-4982
▁paralle	-4983
anda	-4984
fess	-4985
▁End	-4986
▁cle	-4987
orses	-4988
▁citiz	-4989
▁charts	-4990
▁observ	-4991
▁marriage	-4992
amm	-4993
▁hun	-4994
▁thr	-4995
orter	-4996
▁People	-4997
▁routes	-4998
▁unique	-4999
▁Kh	-5000
weet	-5001
ronze	-5002
▁displ	-5003
▁Centre	-5004
▁famous	-5005
▁protected	-5006
▁secondary	-5007
.)	-5008
va	-5009
gent	-5010
wick	-5011
▁Fam	-5012
marine	-5013
▁castle	-5014
▁SS	-5015
▁Cub	-5016
ansas	-5017
isters	-5018
usband	-5019
▁Common	-5020
▁cancer	-5021
▁adopted	-5022
▁62	-5023
▁ir	-5024
olec	-5025
▁Run	-5026
istol	-5027
▁sets	-5028
▁reign	-5029
▁Doctor	-5030
▁economic	-5031
▁passengers	-5032
▁contemporary	-5033
"),	-5034
▁ur	-5035
▁Bah	-5036
▁fat	-5037
inners	-5038
▁chief	-5039
▁steam	-5040
▁Democr	-5041
▁becomes	-5042
▁ut	-5043
▁Sus	-5044
itter	-5045
▁Hind	-5046
▁tall	-5047
rative	-5048
▁Brook	-5049
▁sympt	-5050
aki	-5051
▁1.	-5052
▁AC	-5053
foot	-5054
▁(10	-5055
▁Oak	-5056
▁Bart	-5057
insula	-5058
▁Broad	-5059
▁Master	-5060
▁column	-5061
▁positions	-5062
▁southeast	-5063
▁Philadelphia	-5064
kes	-5065
▁eg	-5066
▁Tam	-5067
achus	-5068
▁Card	-5069
▁heat	-5070
▁here	-5071
▁kept	-5072
ilding	-5073
▁extra	-5074
▁Through	-5075
▁weakened	-5076
▁intensity	-5077
bar	-5078
rif	-5079
lock	-5080
▁182	-5081
▁1940	-5082
▁Wilson	-5083
▁completely	-5084
RA	-5085
apers	-5086
wegian	-5087
ultural	-5088
▁interp	-5089
▁receive	-5090
add	-5091
▁wa	-5092
fect	-5093
▁appl	-5094
▁2002,	-5095
▁Though	-5096
▁refers	-5097
▁57	-5098
▁Bank	-5099
▁Pers	-5100
▁vert	-5101
ilation	-5102
▁needed	-5103
▁accepted	-5104
▁influenced	-5105
▁alternative	-5106
eget	-5107
▁Ball	-5108
▁filmed	-5109
▁newspaper	-5110
▁Ken	-5111
▁Ven	-5112
▁Prov	-5113
▁growing	-5114
▁effective	-5115
▁85	-5116
▁et	-5117
▁unc	-5118
unnel	-5119
▁Prog	-5120
▁laws	-5121
ceeded	-5122
emeter	-5123
ulture	-5124
▁Dream	-5125
▁Marsh	-5126
▁compar	-5127
gn	-5128
set	-5129
▁Ca	-5130
▁Gulf	-5131
▁2001,	-5132
▁silver	-5133
▁renamed	-5134
▁interact	-5135
▁survived	-5136
▁equipment	-5137
Sp	-5138
▁Di	-5139
▁Duke	-5140
▁kind	-5141
▁spons	-5142
▁resemb	-5143
▁continue	-5144
▁Bal	-5145
usion	-5146
▁1992	-5147
▁Pass	-5148
▁basis	-5149
▁youth	-5150
▁Disney	-5151
▁coaster	-5152
▁Hospital	-5153
▁category	-5154
▁bud	-5155
▁load	-5156
▁Kevin	-5157
achusetts	-5158
▁landfall	-5159
▁connected	-5160
life	-5161
weight	-5162
▁Among	-5163
▁lists	-5164
ja	-5165
▁x	-5166
▁74	-5167
▁eas	-5168
▁fun	-5169
▁mig	-5170
▁Prin	-5171
▁medic	-5172
▁Albums	-5173
▁titles	-5174
▁twelve	-5175
▁Massachusetts	-5176
ais	-5177
ipe	-5178
rupt	-5179
▁HMS	-5180
▁poet	-5181
▁cruis	-5182
▁allows	-5183
▁storms	-5184
▁families	-5185
▁converted	-5186
▁facilities	-5187
▁suit	-5188
▁comic	-5189
▁pieces	-5190
American	-5191
▁analysis	-5192
▁contrast	-5193
▁Bern	-5194
▁spot	-5195
▁talk	-5196
▁Feder	-5197
owntown	-5198
▁causing	-5199
▁Infantry	-5200
▁scholars	-5201
gypt	-5202
▁Crit	-5203
▁boat	-5204
▁poem	-5205
▁spect	-5206
▁reserve	-5207
▁financial	-5208
rec	-5209
wall	-5210
▁vote	-5211
hedral	-5212
▁causes	-5213
▁volume	-5214
▁brothers	-5215
oes	-5216
owa	-5217
▁Cape	-5218
▁solo	-5219
▁effort	-5220
▁Stadium	-5221
rig	-5222
▁(16	-5223
▁Lab	-5224
▁era	-5225
aling	-5226
▁Iron	-5227
▁Guard	-5228
▁cannot	-5229
▁carbon	-5230
▁efforts	-5231
▁friends	-5232
▁athletes	-5233
▁purchased	-5234
▁Mu	-5235
▁(12	-5236
▁Rom	-5237
▁fellow	-5238
▁indicate	-5239
▁premiere	-5240
án	-5241
Don	-5242
▁got	-5243
▁agre	-5244
orship	-5245
▁decre	-5246
▁image	-5247
▁Albert	-5248
▁Player	-5249
▁humans	-5250
▁leaves	-5251
▁question	-5252
uan	-5253
▁59	-5254
rate	-5255
▁WWE	-5256
claim	-5257
ishes	-5258
▁Moon	-5259
▁fair	-5260
▁rule	-5261
▁fungus	-5262
▁possibly	-5263
atus	-5264
▁trial	-5265
▁Winter	-5266
▁climate	-5267
▁finally	-5268
▁Memorial	-5269
▁domestic	-5270
▁entirely	-5271
▁strengthen	-5272
12	-5273
erc	-5274
acher	-5275
amber	-5276
▁Drag	-5277
▁phil	-5278
racted	-5279
▁brown	-5280
istance	-5281
▁Nether	-5282
ifically	-5283
▁chemical	-5284
orporation	-5285
▁Championships	-5286
▁su	-5287
ucky	-5288
▁mem	-5289
yphoon	-5290
▁Egypt	-5291
▁deploy	-5292
▁opport	-5293
▁recognized	-5294
ev	-5295
▁mo	-5296
unes	-5297
▁card	-5298
▁compl	-5299
▁fully	-5300
▁suppl	-5301
▁Science	-5302
▁roughly	-5303
hens	-5304
▁paid	-5305
▁agreed	-5306
▁combat	-5307
▁deaths	-5308
▁cultural	-5309
ying	-5310
▁Fair	-5311
▁Sher	-5312
▁Homer	-5313
▁sequel	-5314
▁closely	-5315
▁corresp	-5316
▁Francisco	-5317
AT	-5318
edd	-5319
mosp	-5320
onto	-5321
▁eth	-5322
anning	-5323
▁counter	-5324
▁society	-5325
▁Director	-5326
ns	-5327
char	-5328
cles	-5329
▁dig	-5330
▁Dark	-5331
aining	-5332
ranean	-5333
▁Harry	-5334
▁walls	-5335
▁launch	-5336
▁conduct	-5337
▁products	-5338
▁Ur	-5339
cuss	-5340
ogen	-5341
▁Gil	-5342
▁NBA	-5343
▁Also	-5344
▁Down	-5345
▁onto	-5346
▁Child	-5347
▁Early	-5348
▁leave	-5349
▁motor	-5350
emetery	-5351
▁minute	-5352
▁Perform	-5353
▁request	-5354
oh	-5355
▁Syd	-5356
▁ess	-5357
▁Tenn	-5358
▁crow	-5359
▁disapp	-5360
sey	-5361
wise	-5362
▁vac	-5363
▁news	-5364
▁Point	-5365
▁council	-5366
▁Harrison	-5367
▁sequence	-5368
▁receiving	-5369
15	-5370
LC	-5371
oli	-5372
itis	-5373
▁Jay	-5374
▁pan	-5375
▁firm	-5376
▁lear	-5377
▁attrib	-5378
izations	-5379
▁promote	-5380
▁programming	-5381
ski	-5382
thm	-5383
tra	-5384
▁$3	-5385
▁pict	-5386
▁purs	-5387
▁roof	-5388
▁Short	-5389
▁places	-5390
▁husband	-5391
▁selling	-5392
▁Independ	-5393
▁flooding	-5394
ols	-5395
▁76	-5396
▁Dal	-5397
peror	-5398
▁Turn	-5399
▁entitled	-5400
▁recently	-5401
▁ultimately	-5402
isms	-5403
▁1994	-5404
▁Lady	-5405
orpedo	-5406
▁therefore	-5407
ibb	-5408
▁bad	-5409
ieval	-5410
▁Circ	-5411
▁Offic	-5412
▁Supreme	-5413
▁briefly	-5414
▁Vi	-5415
▁(15	-5416
▁Wel	-5417
▁Today	-5418
▁aband	-5419
▁roles	-5420
▁editor	-5421
▁offers	-5422
▁extensive	-5423
rence	-5424
▁hosted	-5425
▁younger	-5426
▁attempts	-5427
▁languages	-5428
▁distributed	-5429
Sh	-5430
ca	-5431
ocy	-5432
▁Jac	-5433
▁bat	-5434
▁Week	-5435
▁burn	-5436
▁cars	-5437
▁Knight	-5438
▁credits	-5439
▁Governor	-5440
75	-5441
▁95	-5442
▁mut	-5443
▁coal	-5444
▁meant	-5445
▁Channel	-5446
▁keyboards	-5447
It	-5448
▁Az	-5449
▁Mos	-5450
▁Fall	-5451
▁semi	-5452
▁Carey	-5453
ologist	-5454
▁arrest	-5455
▁belong	-5456
▁volcan	-5457
▁describes	-5458
isa	-5459
▁hor	-5460
▁our	-5461
▁Hong	-5462
▁tick	-5463
heastern	-5464
▁commented	-5465
▁amb	-5466
ellig	-5467
ulate	-5468
▁Niel	-5469
▁Tony	-5470
▁Russia	-5471
▁hockey	-5472
▁models	-5473
▁achieved	-5474
▁annually	-5475
tendo	-5476
▁Balt	-5477
▁Hung	-5478
▁cool	-5479
▁Moore	-5480
▁decor	-5481
wan	-5482
▁Ak	-5483
▁Ta	-5484
anga	-5485
miral	-5486
▁seat	-5487
▁sens	-5488
oustic	-5489
▁agent	-5490
▁holds	-5491
▁naval	-5492
▁roads	-5493
▁unable	-5494
▁composer	-5495
▁neighbor	-5496
▁sections	-5497
▁Foundation	-5498
▁Revolution	-5499
AC	-5500
▁Rand	-5501
▁unus	-5502
▁enjoy	-5503
▁wrest	-5504
▁perman	-5505
▁Imperial	-5506
▁actually	-5507
▁regional	-5508
urt	-5509
alty	-5510
olis	-5511
rett	-5512
▁MTV	-5513
▁boy	-5514
▁Barb	-5515
▁Coll	-5516
▁says	-5517
▁Wright	-5518
▁commit	-5519
▁gained	-5520
▁stadium	-5521
▁returning	-5522
mann	-5523
pool	-5524
▁800	-5525
▁Int	-5526
▁pet	-5527
▁sons	-5528
▁Silver	-5529
▁machine	-5530
▁Military	-5531
▁Nintendo	-5532
▁resident	-5533
▁symptoms	-5534
▁Hollywood	-5535
▁documentary	-5536
uzz	-5537
hess	-5538
▁Note	-5539
▁overl	-5540
▁coming	-5541
SP	-5542
ati	-5543
▁Kir	-5544
▁dyn	-5545
ordan	-5546
▁step	-5547
▁weak	-5548
▁contact	-5549
▁locomot	-5550
▁earliest	-5551
▁powerful	-5552
▁expansion	-5553
▁operating	-5554
sex	-5555
iated	-5556
▁Remix	-5557
▁setting	-5558
▁parallel	-5559
▁alignment	-5560
▁determined	-5561
ava	-5562
▁178	-5563
▁NFL	-5564
bound	-5565
inder	-5566
▁sail	-5567
▁Forest	-5568
▁operates	-5569
▁Norwegian	-5570
▁officials	-5571
▁Interstate	-5572
▁nomination	-5573
▁Netherlands	-5574
fort	-5575
▁dry	-5576
ledge	-5577
▁1991	-5578
▁Blues	-5579
▁Theat	-5580
▁accompanied	-5581
▁HD	-5582
▁FIFA	-5583
▁kick	-5584
▁shape	-5585
▁franch	-5586
▁suggests	-5587
▁properties	-5588
▁instruments	-5589
AF	-5590
▁Alf	-5591
▁Fire	-5592
▁Jean	-5593
▁Davis	-5594
▁knots	-5595
▁split	-5596
▁flying	-5597
▁street	-5598
▁viewed	-5599
▁serious	-5600
iterranean	-5601
▁defensive	-5602
▁association	-5603
▁Rol	-5604
▁alt	-5605
▁Test	-5606
▁store	-5607
▁Television	-5608
▁73	-5609
▁99	-5610
omic	-5611
star	-5612
▁Kep	-5613
▁Back	-5614
ivalent	-5615
▁Arthur	-5616
▁Senate	-5617
▁broken	-5618
▁charge	-5619
▁consum	-5620
2).	-5621
cop	-5622
aith	-5623
uses	-5624
▁Ryan	-5625
▁mess	-5626
stream	-5627
▁Intern	-5628
▁budget	-5629
▁survey	-5630
▁descend	-5631
▁contributed	-5632
bell	-5633
▁agg	-5634
▁pounds	-5635
▁Nielsen	-5636
▁Project	-5637
▁experiment	-5638
nce	-5639
▁5:	-5640
ocks	-5641
▁Dave	-5642
▁Wars	-5643
▁claims	-5644
▁Indones	-5645
▁Toronto	-5646
▁composition	-5647
cell	-5648
onym	-5649
▁Plan	-5650
▁glass	-5651
▁homes	-5652
▁molec	-5653
▁Source	-5654
▁colour	-5655
▁expressed	-5656
▁63	-5657
lane	-5658
ician	-5659
pping	-5660
▁Whit	-5661
▁newly	-5662
▁accept	-5663
▁memorial	-5664
▁Mediterranean	-5665
bu	-5666
ru	-5667
aph	-5668
▁72	-5669
▁ec	-5670
spec	-5671
▁Ast	-5672
▁Prot	-5673
▁doub	-5674
▁gives	-5675
▁personnel	-5676
▁temperatures	-5677
lete	-5678
▁Age	-5679
▁Bol	-5680
cussion	-5681
▁prepar	-5682
▁Bristol	-5683
▁fighting	-5684
car	-5685
issue	-5686
opher	-5687
▁harm	-5688
▁Media	-5689
▁drive	-5690
▁rural	-5691
▁Athlet	-5692
▁torpedo	-5693
▁providing	-5694
▁performing	-5695
▁(13	-5696
▁1993	-5697
▁Gill	-5698
▁fict	-5699
chestra	-5700
▁Sydney	-5701
▁horses	-5702
ensus	-5703
▁Viet	-5704
▁2004.	-5705
▁Prior	-5706
▁adults	-5707
▁atmosp	-5708
▁matter	-5709
▁narrow	-5710
▁simple	-5711
▁improved	-5712
eor	-5713
iro	-5714
miss	-5715
▁2003.	-5716
▁Justice	-5717
▁fiction	-5718
▁forests	-5719
▁protect	-5720
▁singing	-5721
▁indicates	-5722
zant	-5723
▁Iowa	-5724
▁snow	-5725
▁entrance	-5726
▁millimet	-5727
bec	-5728
ogy	-5729
▁61	-5730
▁177	-5731
▁Bond	-5732
▁Conf	-5733
icient	-5734
▁Beach	-5735
▁Naval	-5736
▁diagn	-5737
▁Kepler	-5738
▁retire	-5739
▁article	-5740
▁battery	-5741
▁communic	-5742
▁computer	-5743
▁passenger	-5744
▁developing	-5745
▁UE	-5746
▁Rel	-5747
▁pri	-5748
embly	-5749
▁Born	-5750
▁Gord	-5751
▁brand	-5752
▁riders	-5753
▁publication	-5754
ugby	-5755
▁orb	-5756
minute	-5757
▁mouth	-5758
▁favour	-5759
▁Between	-5760
har	-5761
Best	-5762
▁Abb	-5763
▁Pit	-5764
▁ben	-5765
idges	-5766
▁Hart	-5767
▁prey	-5768
▁Color	-5769
▁Domin	-5770
▁psych	-5771
▁Sweden	-5772
▁struck	-5773
anth	-5774
umin	-5775
▁gar	-5776
break	-5777
▁exact	-5778
▁bottom	-5779
▁greatest	-5780
▁moderate	-5781
▁66	-5782
▁EP	-5783
asty	-5784
▁Bey	-5785
▁Ron	-5786
▁seek	-5787
▁Hawai	-5788
▁bonus	-5789
▁dated	-5790
▁motion	-5791
▁engines	-5792
▁obtained	-5793
▁anniversary	-5794
▁Fr	-5795
▁Ont	-5796
▁Raj	-5797
▁sam	-5798
airman	-5799
▁broke	-5800
▁urban	-5801
▁Anderson	-5802
▁2.	-5803
▁120	-5804
▁Ross	-5805
▁Giants	-5806
▁murder	-5807
▁attacks	-5808
▁heavily	-5809
▁promotion	-5810
▁Ra	-5811
▁hop	-5812
▁1999,	-5813
▁items	-5814
cluding	-5815
▁Ut	-5816
friend	-5817
▁shell	-5818
▁veget	-5819
▁depend	-5820
▁combination	-5821
bra	-5822
▁PA	-5823
▁(17	-5824
▁Hou	-5825
▁NBC	-5826
▁eye	-5827
▁piece	-5828
▁elimin	-5829
▁format	-5830
▁stands	-5831
▁express	-5832
▁Research	-5833
▁incident	-5834
Le	-5835
ancing	-5836
▁Walter	-5837
▁library	-5838
▁problem	-5839
▁Production	-5840
▁adaptation	-5841
Al	-5842
ko	-5843
").	-5844
▁Pak	-5845
achel	-5846
anger	-5847
▁Disc	-5848
▁Harv	-5849
▁lake	-5850
▁outer	-5851
ée	-5852
▁77	-5853
▁Vill	-5854
▁subt	-5855
illery	-5856
▁comedy	-5857
▁nuclear	-5858
▁stating	-5859
▁Ger	-5860
▁Who	-5861
▁joint	-5862
▁orbit	-5863
▁creation	-5864
▁mushroom	-5865
▁correspond	-5866
RI	-5867
▁Id	-5868
▁List	-5869
ushing	-5870
▁Simon	-5871
▁Advent	-5872
▁Indust	-5873
▁valley	-5874
▁Theatre	-5875
▁actions	-5876
▁compounds	-5877
Cl	-5878
2),	-5879
aya	-5880
▁fil	-5881
ectic	-5882
▁remn	-5883
ounded	-5884
ources	-5885
▁Brigade	-5886
▁circulation	-5887
FC	-5888
lict	-5889
▁31,	-5890
▁Les	-5891
▁hair	-5892
▁tail	-5893
▁wing	-5894
▁Space	-5895
▁write	-5896
agement	-5897
leveland	-5898
▁existed	-5899
▁rapidly	-5900
▁commander	-5901
▁existence	-5902
arp	-5903
agle	-5904
rell	-5905
▁Cra	-5906
after	-5907
inals	-5908
▁UEFA	-5909
▁Apple	-5910
▁Jordan	-5911
▁extension	-5912
▁arrangement	-5913
▁Kat	-5914
▁bor	-5915
▁About	-5916
▁partn	-5917
▁visit	-5918
igation	-5919
▁install	-5920
▁Lind	-5921
▁nick	-5922
▁torn	-5923
▁true	-5924
▁Maria	-5925
▁Byzant	-5926
▁stages	-5927
▁applied	-5928
lar	-5929
oyd	-5930
▁$5	-5931
olds	-5932
▁ham	-5933
▁zone	-5934
▁Grammy	-5935
▁estate	-5936
▁fields	-5937
▁morning	-5938
▁visited	-5939
▁Cleveland	-5940
kin	-5941
obe	-5942
aria	-5943
▁(11	-5944
▁Hay	-5945
osure	-5946
▁auth	-5947
▁dial	-5948
iments	-5949
▁dating	-5950
▁apparent	-5951
▁bra	-5952
▁doll	-5953
▁rear	-5954
▁vary	-5955
▁autom	-5956
▁carry	-5957
▁guard	-5958
▁painting	-5959
▁wrestling	-5960
SR	-5961
po	-5962
idi	-5963
uing	-5964
▁Nic	-5965
▁begin	-5966
▁entry	-5967
▁lands	-5968
▁policy	-5969
▁centuries	-5970
▁fictional	-5971
▁characteristics	-5972
oz	-5973
ece	-5974
ione	-5975
▁Bir	-5976
▁Hor	-5977
▁bey	-5978
hemat	-5979
senal	-5980
▁materials	-5981
▁Corporation	-5982
▁μ	-5983
▁09	-5984
also	-5985
▁Pow	-5986
▁Ontario	-5987
▁coastal	-5988
▁injured	-5989
▁workers	-5990
▁encounter	-5991
ags	-5992
olph	-5993
▁Sav	-5994
▁foss	-5995
▁scale	-5996
▁beyond	-5997
▁temple	-5998
▁correct	-5999
▁improve	-6000
▁attempted	-6001
▁conference	-6002
rik	-6003
▁AD	-6004
fish	-6005
▁arc	-6006
▁Alab	-6007
inking	-6008
▁1998,	-6009
▁alone	-6010
▁Korean	-6011
▁reduce	-6012
▁Command	-6013
▁failure	-6014
▁projects	-6015
▁indicated	-6016
▁percussion	-6017
▁scientific	-6018
▁introduction	-6019
We	-6020
iley	-6021
▁700	-6022
▁Sky	-6023
▁bal	-6024
▁lot	-6025
▁dens	-6026
▁want	-6027
▁ahead	-6028
▁merch	-6029
▁teach	-6030
▁extrem	-6031
ES	-6032
osa	-6033
unc	-6034
▁IV	-6035
agan	-6036
iate	-6037
night	-6038
▁emph	-6039
▁scul	-6040
jected	-6041
▁const	-6042
▁commemor	-6043
ooth	-6044
▁Alb	-6045
▁fix	-6046
▁pul	-6047
ilton	-6048
▁Story	-6049
▁absor	-6050
▁acres	-6051
▁thirty	-6052
▁writers	-6053
ji	-6054
ami	-6055
yer	-6056
host	-6057
ygen	-6058
▁Der	-6059
▁Sel	-6060
▁Jenn	-6061
▁supp	-6062
▁1997,	-6063
viation	-6064
▁defend	-6065
▁eighth	-6066
▁images	-6067
▁themes	-6068
▁Magazine	-6069
▁arranged	-6070
▁downtown	-6071
▁expanded	-6072
▁medieval	-6073
▁negative	-6074
▁something	-6075
mes	-6076
gate	-6077
▁Hug	-6078
▁rul	-6079
iques	-6080
▁subs	-6081
rieved	-6082
▁Grant	-6083
▁avoid	-6084
▁occas	-6085
▁phase	-6086
▁festival	-6087
▁graduated	-6088
ga	-6089
lyn	-6090
▁Educ	-6091
▁Open	-6092
▁Polish	-6093
▁Unlike	-6094
▁stable	-6095
▁Alabama	-6096
▁invasion	-6097
▁franchise	-6098
▁occasionally	-6099
You	-6100
idae	-6101
▁Lim	-6102
ennis	-6103
ented	-6104
▁Last	-6105
▁paint	-6106
▁calling	-6107
▁historic	-6108
▁Americans	-6109
▁installed	-6110
▁sustained	-6111
wa	-6112
oln	-6113
unte	-6114
▁Once	-6115
▁acts	-6116
▁lies	-6117
▁slowly	-6118
▁artwork	-6119
▁respond	-6120
▁segment	-6121
▁regarded	-6122
erts	-6123
▁NHL	-6124
▁sac	-6125
ucing	-6126
▁Adam	-6127
▁creating	-6128
▁Additionally	-6129
25	-6130
ela	-6131
burn	-6132
amine	-6133
▁Euro	-6134
ashion	-6135
inally	-6136
▁Develop	-6137
▁coordin	-6138
▁conflict	-6139
▁vertical	-6140
▁technology	-6141
▁significantly	-6142
aks	-6143
▁Mit	-6144
▁Row	-6145
iller	-6146
▁trunk	-6147
▁starts	-6148
▁Mexican	-6149
▁credited	-6150
▁distinguished	-6151
▁Jup	-6152
▁cab	-6153
▁map	-6154
▁Dean	-6155
▁edge	-6156
▁trav	-6157
olitan	-6158
▁Gordon	-6159
▁Anthony	-6160
▁Patrick	-6161
3).	-6162
onc	-6163
uda	-6164
uts	-6165
▁Hun	-6166
▁1900	-6167
▁note	-6168
▁Again	-6169
▁Jesus	-6170
▁grass	-6171
▁towns	-6172
▁Minnes	-6173
▁acting	-6174
▁visual	-6175
▁longest	-6176
ader	-6177
tered	-6178
▁Croat	-6179
▁tried	-6180
▁philos	-6181
▁classes	-6182
▁planets	-6183
▁typical	-6184
▁producers	-6185
▁06	-6186
cing	-6187
▁Nel	-6188
▁cho	-6189
▁Free	-6190
▁Here	-6191
▁Marc	-6192
▁task	-6193
▁posted	-6194
▁capture	-6195
▁champion	-6196
▁interchange	-6197
BI	-6198
ez	-6199
▁”	-6200
lah	-6201
keep	-6202
ifies	-6203
▁flat	-6204
▁myth	-6205
▁resc	-6206
▁depth	-6207
▁really	-6208
▁releases	-6209
▁songwriter	-6210
▁representing	-6211
lim	-6212
▁78	-6213
ador	-6214
▁Budd	-6215
▁2001.	-6216
▁Adams	-6217
▁Bruce	-6218
▁Organ	-6219
▁limit	-6220
▁caught	-6221
▁strugg	-6222
▁Arsenal	-6223
▁advanced	-6224
▁citizens	-6225
▁progress	-6226
▁portrayed	-6227
▁consisting	-6228
▁98	-6229
▁Att	-6230
▁sun	-6231
▁Alan	-6232
▁Earl	-6233
▁chose	-6234
▁sexual	-6235
▁deliver	-6236
▁facility	-6237
▁restaurant	-6238
rup	-6239
cont	-6240
icks	-6241
iful	-6242
rant	-6243
▁mom	-6244
▁van	-6245
place	-6246
uties	-6247
▁Eric	-6248
▁cloud	-6249
iration	-6250
▁Health	-6251
▁bacter	-6252
▁prefer	-6253
▁Minnesota	-6254
▁programme	-6255
heim	-6256
roke	-6257
essed	-6258
▁crowd	-6259
▁rival	-6260
▁simply	-6261
▁highways	-6262
▁territory	-6263
storm	-6264
▁diet	-6265
▁poly	-6266
▁safety	-6267
▁Jupiter	-6268
▁employed	-6269
▁transform	-6270
▁classification	-6271
igg	-6272
▁96	-6273
▁Ba	-6274
▁MS	-6275
▁Od	-6276
omew	-6277
▁rob	-6278
iling	-6279
▁stem	-6280
▁propos	-6281
▁Further	-6282
▁Houston	-6283
▁details	-6284
▁protein	-6285
▁Kentucky	-6286
▁photograph	-6287
▁settlement	-6288
▁specifically	-6289
gu	-6290
ali	-6291
ito	-6292
rum	-6293
▁Nap	-6294
▁pup	-6295
chers	-6296
rooms	-6297
▁Ford	-6298
▁Know	-6299
▁isol	-6300
itness	-6301
▁Books	-6302
▁clubs	-6303
▁wides	-6304
clusion	-6305
▁Freder	-6306
▁Review	-6307
▁actors	-6308
▁acoustic	-6309
▁movements	-6310
▁nominations	-6311
RT	-6312
-10	-6313
rob	-6314
zen	-6315
aked	-6316
▁Jam	-6317
▁bands	-6318
▁labor	-6319
▁corner	-6320
▁governor	-6321
▁protection	-6322
MI	-6323
oen	-6324
pha	-6325
hire	-6326
▁Gen	-6327
▁ski	-6328
▁Linc	-6329
▁soil	-6330
▁warm	-6331
bourne	-6332
shaped	-6333
▁sense	-6334
▁extrat	-6335
▁strike	-6336
▁Princess	-6337
▁approved	-6338
▁experien	-6339
▁straight	-6340
▁Community	-6341
▁concluded	-6342
▁connection	-6343
▁compilation	-6344
▁extratropical	-6345
lets	-6346
▁Hal	-6347
itzer	-6348
ivals	-6349
▁Ever	-6350
▁Mars	-6351
▁shop	-6352
active	-6353
ecticut	-6354
▁Admiral	-6355
▁Program	-6356
▁advance	-6357
▁compete	-6358
▁objects	-6359
▁turning	-6360
▁cyclones	-6361
▁existing	-6362
▁historian	-6363
▁Connecticut	-6364
lee	-6365
▁67	-6366
▁UN	-6367
agen	-6368
rees	-6369
rome	-6370
▁Joh	-6371
▁mis	-6372
▁shr	-6373
onder	-6374
▁cant	-6375
▁rebu	-6376
teenth	-6377
▁seats	-6378
▁Sunday	-6379
▁households	-6380
▁ple	-6381
▁tim	-6382
alymp	-6383
ardens	-6384
▁Honor	-6385
▁pitch	-6386
▁shared	-6387
▁Business	-6388
▁attacked	-6389
▁recommended	-6390
DS	-6391
MA	-6392
sec	-6393
▁ri	-6394
uous	-6395
▁Pur	-6396
▁emb	-6397
eline	-6398
ensis	-6399
uerto	-6400
▁Ariz	-6401
▁Conc	-6402
▁Sony	-6403
▁cycle	-6404
▁heard	-6405
▁bronze	-6406
▁casual	-6407
▁finish	-6408
▁supply	-6409
▁Country	-6410
▁Express	-6411
▁constant	-6412
▁modified	-6413
▁Secretary	-6414
▁exception	-6415
▁headquarters	-6416
aza	-6417
▁92	-6418
▁Da	-6419
▁Guy	-6420
▁eat	-6421
acent	-6422
▁Poland	-6423
▁chapter	-6424
▁municip	-6425
▁visible	-6426
▁crossing	-6427
osh	-6428
▁Aut	-6429
ideos	-6430
oting	-6431
▁Vers	-6432
▁parish	-6433
▁Swedish	-6434
▁letters	-6435
▁Baseball	-6436
▁industrial	-6437
▁Performance	-6438
rane	-6439
▁USA	-6440
aware	-6441
eries	-6442
▁basic	-6443
▁moves	-6444
▁quant	-6445
▁Puerto	-6446
▁eleven	-6447
▁Lincoln	-6448
▁Register	-6449
▁security	-6450
▁songwriting	-6451
aska	-6452
eler	-6453
▁Kim	-6454
▁dip	-6455
▁000.	-6456
▁exec	-6457
▁Asian	-6458
▁hands	-6459
▁Police	-6460
▁Arizona	-6461
▁Federal	-6462
▁channel	-6463
▁Paralymp	-6464
▁occupied	-6465
▁abandoned	-6466
▁Publishing	-6467
CO	-6468
iva	-6469
uster	-6470
▁Gate	-6471
▁Init	-6472
▁send	-6473
▁Stand	-6474
▁Trust	-6475
▁owner	-6476
▁rated	-6477
▁shall	-6478
▁Kansas	-6479
▁Norman	-6480
▁Warner	-6481
▁medals	-6482
▁precip	-6483
▁reprod	-6484
rete	-6485
▁(14	-6486
▁Aud	-6487
▁Ian	-6488
ushed	-6489
▁(195	-6490
▁canc	-6491
▁evac	-6492
▁rise	-6493
▁sculpt	-6494
▁DNA	-6495
▁Fem	-6496
▁Tal	-6497
▁aim	-6498
appen	-6499
▁tele	-6500
▁Liver	-6501
▁heads	-6502
▁peace	-6503
▁emphas	-6504
▁Profess	-6505
▁surviving	-6506
▁communities	-6507
▁populations	-6508
osl	-6509
ropri	-6510
which	-6511
▁Andy	-6512
▁Anim	-6513
▁Stew	-6514
▁skin	-6515
▁Miller	-6516
▁reform	-6517
▁freeway	-6518
▁habitat	-6519
▁Peninsula	-6520
▁finishing	-6521
▁retirement	-6522
hum	-6523
disc	-6524
iami	-6525
igen	-6526
reck	-6527
▁Naz	-6528
music	-6529
▁alle	-6530
▁belt	-6531
▁core	-6532
▁gall	-6533
lahoma	-6534
▁agric	-6535
▁astron	-6536
▁animated	-6537
▁Cz	-6538
chell	-6539
idden	-6540
stead	-6541
▁Seat	-6542
▁sole	-6543
▁spok	-6544
▁Roger	-6545
▁equal	-6546
essions	-6547
issance	-6548
▁covers	-6549
▁sought	-6550
▁Journal	-6551
▁repeated	-6552
▁Universal	-6553
▁Collection	-6554
rh	-6555
gal	-6556
▁79	-6557
apes	-6558
acted	-6559
▁(194	-6560
▁Xbox	-6561
antage	-6562
ourney	-6563
▁shear	-6564
▁votes	-6565
▁oxygen	-6566
▁purpose	-6567
▁showing	-6568
▁Colorado	-6569
▁Oklahoma	-6570
▁architecture	-6571
III	-6572
elle	-6573
▁upd	-6574
▁Rome	-6575
▁code	-6576
▁liqu	-6577
▁seem	-6578
▁hired	-6579
▁Argent	-6580
▁methods	-6581
▁vessels	-6582
▁junction	-6583
▁Philippines	-6584
OT	-6585
▁05	-6586
orst	-6587
oster	-6588
▁Third	-6589
▁Treat	-6590
▁Portug	-6591
";	-6592
oral	-6593
▁Rick	-6594
▁Miami	-6595
▁ocean	-6596
▁junior	-6597
▁rhythm	-6598
▁speech	-6599
▁missing	-6600
▁challeng	-6601
▁exchange	-6602
▁agreement	-6603
▁literature	-6604
▁participate	-6605
HS	-6606
▁89	-6607
vens	-6608
▁175	-6609
pread	-6610
atinum	-6611
▁exped	-6612
▁rooms	-6613
▁solid	-6614
▁lowest	-6615
▁reasons	-6616
▁Recorded	-6617
▁situated	-6618
▁regularly	-6619
▁Democratic	-6620
▁completion	-6621
▁equivalent	-6622
irt	-6623
▁87	-6624
▁Es	-6625
aret	-6626
▁250	-6627
▁Let	-6628
▁say	-6629
▁1988	-6630
▁Scout	-6631
▁crime	-6632
▁races	-6633
▁solar	-6634
▁turns	-6635
▁Bishop	-6636
▁ancest	-6637
▁losing	-6638
▁weapons	-6639
▁Operation	-6640
▁implement	-6641
3),	-6642
isp	-6643
▁PC	-6644
▁McG	-6645
▁Now	-6646
encies	-6647
uccess	-6648
▁Daily	-6649
▁Prime	-6650
▁Malays	-6651
▁granted	-6652
▁grounds	-6653
▁uniform	-6654
▁unusual	-6655
▁academic	-6656
▁shooting	-6657
ifications	-6658
oto	-6659
▁97	-6660
▁pig	-6661
oming	-6662
prise	-6663
▁Cook	-6664
▁armor	-6665
▁ninth	-6666
▁suppor	-6667
▁trials	-6668
▁operate	-6669
rons	-6670
▁Edd	-6671
▁Sab	-6672
▁loop	-6673
▁Allen	-6674
▁Hills	-6675
▁brain	-6676
released	-6677
▁Matthew	-6678
▁flights	-6679
▁visitors	-6680
▁candidate	-6681
▁supporting	-6682
Ar	-6683
▁Su	-6684
▁160	-6685
▁Marg	-6686
avalry	-6687
▁Santa	-6688
▁Stock	-6689
▁hotel	-6690
▁fought	-6691
▁lasted	-6692
▁spirit	-6693
▁capable	-6694
▁cricket	-6695
▁authority	-6696
▁remainder	-6697
iac	-6698
acon	-6699
aver	-6700
fted	-6701
real	-6702
▁tom	-6703
▁Wing	-6704
▁hero	-6705
▁hits	-6706
▁shut	-6707
▁2002.	-6708
▁stret	-6709
▁patrol	-6710
▁fishing	-6711
▁diameter	-6712
▁disturbance	-6713
▁organizations	-6714
1).	-6715
ano	-6716
ega	-6717
ila	-6718
aine	-6719
gery	-6720
▁gal	-6721
▁Hamp	-6722
▁What	-6723
▁aged	-6724
▁tank	-6725
▁armed	-6726
related	-6727
▁headed	-6728
▁instit	-6729
▁factors	-6730
▁focused	-6731
▁tornado	-6732
▁renumber	-6733
▁Outstanding	-6734
otic	-6735
▁Nar	-6736
▁Rap	-6737
▁frag	-6738
▁Never	-6739
▁cited	-6740
▁exerc	-6741
▁Tennes	-6742
▁Township	-6743
▁environmental	-6744
equ	-6745
gon	-6746
ibl	-6747
▁Ho	-6748
▁Web	-6749
▁mode	-6750
▁shel	-6751
▁Along	-6752
▁nucle	-6753
▁Somers	-6754
▁preced	-6755
▁Windows	-6756
▁airline	-6757
▁functions	-6758
▁predecess	-6759
▁department	-6760
▁registered	-6761
ón	-6762
rix	-6763
▁$4	-6764
▁Ob	-6765
▁RNA	-6766
▁Five	-6767
▁Jane	-6768
▁synd	-6769
▁wins	-6770
▁Jason	-6771
▁Sarah	-6772
▁cinem	-6773
▁Studio	-6774
▁global	-6775
▁actress	-6776
▁leaders	-6777
▁Thompson	-6778
▁substant	-6779
▁necessary	-6780
▁′	-6781
law	-6782
lew	-6783
▁68	-6784
anny	-6785
oles	-6786
▁Vis	-6787
▁von	-6788
▁Pear	-6789
▁Dougl	-6790
▁leads	-6791
▁worth	-6792
alities	-6793
tenance	-6794
uctions	-6795
▁Family	-6796
▁things	-6797
▁Mississ	-6798
▁Original	-6799
▁Personnel	-6800
▁Republican	-6801
uge	-6802
▁08	-6803
ello	-6804
idia	-6805
▁Ele	-6806
▁Ira	-6807
▁fly	-6808
otype	-6809
▁1987	-6810
▁Leon	-6811
▁enemy	-6812
▁voted	-6813
▁satell	-6814
▁Francis	-6815
▁vehicle	-6816
▁evolution	-6817
16	-6818
aste	-6819
heme	-6820
▁Arn	-6821
▁Est	-6822
▁USD	-6823
▁cart	-6824
▁rein	-6825
ibbean	-6826
▁Armen	-6827
▁Jewish	-6828
▁Marine	-6829
▁Queens	-6830
▁Season	-6831
▁equipped	-6832
▁normally	-6833
▁relative	-6834
▁certified	-6835
▁otherwise	-6836
▁producing	-6837
▁criticized	-6838
don	-6839
una	-6840
▁84	-6841
mill	-6842
▁Mas	-6843
aired	-6844
orney	-6845
▁nest	-6846
▁Kelly	-6847
▁Nelson	-6848
▁concur	-6849
▁novels	-6850
elligence	-6851
▁formerly	-6852
▁prepared	-6853
▁Tennessee	-6854
▁permanent	-6855
▁CE	-6856
grad	-6857
irds	-6858
▁ABC	-6859
▁Hit	-6860
▁Tok	-6861
chang	-6862
▁deck	-6863
▁opin	-6864
cement	-6865
▁chain	-6866
▁easily	-6867
▁proved	-6868
ographer	-6869
▁Administ	-6870
▁examples	-6871
▁Liverpool	-6872
▁regarding	-6873
▁widespread	-6874
rot	-6875
ophy	-6876
▁Bon	-6877
▁Low	-6878
▁tox	-6879
▁duty	-6880
nament	-6881
▁Islam	-6882
▁Dragon	-6883
▁advent	-6884
▁choice	-6885
▁Brother	-6886
▁decades	-6887
▁filming	-6888
▁duration	-6889
▁Retrieved	-6890
▁determine	-6891
▁principal	-6892
▁administration	-6893
▁Du	-6894
eton	-6895
uits	-6896
▁1984	-6897
father	-6898
▁recur	-6899
▁Thames	-6900
▁Warren	-6901
▁believe	-6902
▁underst	-6903
▁behavior	-6904
▁Champions	-6905
▁musicians	-6906
▁resistance	-6907
▁transition	-6908
rog	-6909
▁07	-6910
▁82	-6911
▁Bh	-6912
roit	-6913
▁elig	-6914
othing	-6915
▁cryst	-6916
▁stock	-6917
autiful	-6918
▁Garden	-6919
▁decade	-6920
▁toward	-6921
▁Nations	-6922
▁extremely	-6923
▁Transportation	-6924
My	-6925
PA	-6926
oga	-6927
▁83	-6928
▁Wy	-6929
ippi	-6930
rets	-6931
rows	-6932
▁aid	-6933
ribed	-6934
▁1989	-6935
▁eggs	-6936
▁folk	-6937
▁mile	-6938
▁vent	-6939
iminal	-6940
▁grows	-6941
▁Morgan	-6942
▁chorus	-6943
▁Players	-6944
▁charted	-6945
▁forming	-6946
▁connecting	-6947
▁quarterback	-6948
14	-6949
jo	-6950
5).	-6951
run	-6952
▁ha	-6953
▁vs	-6954
▁Tag	-6955
▁Well	-6956
▁mind	-6957
▁antib	-6958
▁bought	-6959
▁Edition	-6960
▁Roberts	-6961
▁leadership	-6962
▁opposition	-6963
18	-6964
iy	-6965
nic	-6966
▁86	-6967
ollo	-6968
enses	-6969
othes	-6970
▁Finn	-6971
▁Nich	-6972
▁Dance	-6973
agonist	-6974
▁address	-6975
▁Heritage	-6976
▁attached	-6977
▁monument	-6978
▁requires	-6979
erg	-6980
▁Ty	-6981
Star	-6982
roph	-6983
ucks	-6984
▁Get	-6985
▁Josh	-6986
▁ment	-6987
▁1996,	-6988
▁destr	-6989
resents	-6990
▁powers	-6991
▁wooden	-6992
▁restored	-6993
▁Caribbean	-6994
▁specimens	-6995
13	-6996
TA	-6997
wen	-6998
▁69	-6999
▁DC	-7000
▁Om	-7001
enge	-7002
▁Myc	-7003
▁nickn	-7004
▁bright	-7005
▁divers	-7006
▁duties	-7007
▁penalty	-7008
▁periods	-7009
ropolitan	-7010
▁reaction	-7011
▁offensive	-7012
▁reception	-7013
▁recognition	-7014
appy	-7015
game	-7016
inet	-7017
▁Aff	-7018
▁Dra	-7019
▁Rain	-7020
▁cook	-7021
▁impl	-7022
▁your	-7023
▁Czech	-7024
▁Death	-7025
▁crews	-7026
▁Howard	-7027
▁spores	-7028
▁encoura	-7029
▁Ministry	-7030
▁depending	-7031
▁photography	-7032
▁neighborhood	-7033
He	-7034
OS	-7035
term	-7036
anned	-7037
▁Prim	-7038
▁978-0	-7039
▁Harris	-7040
▁escape	-7041
▁Detroit	-7042
▁Seattle	-7043
▁convers	-7044
▁Cemetery	-7045
▁Mississippi	-7046
▁Kl	-7047
▁Nob	-7048
▁Tel	-7049
▁Tot	-7050
▁nit	-7051
▁Hann	-7052
▁Crown	-7053
▁check	-7054
▁Palace	-7055
▁fitted	-7056
▁extinct	-7057
▁minimum	-7058
▁partner	-7059
▁ranking	-7060
▁refused	-7061
▁Somerset	-7062
▁forecast	-7063
▁standing	-7064
▁Byzantine	-7065
▁references	-7066
▁1:	-7067
▁88	-7068
▁94	-7069
▁AT	-7070
odge	-7071
▁Bou	-7072
▁Dor	-7073
▁Fle	-7074
organ	-7075
▁Cole	-7076
▁funds	-7077
▁recip	-7078
▁Comple	-7079
▁degrees	-7080
▁offices	-7081
▁planning	-7082
▁represents	-7083
▁applications	-7084
▁Ot	-7085
dale	-7086
▁Han	-7087
▁(1):	-7088
▁clim	-7089
▁imag	-7090
illing	-7091
▁videos	-7092
▁northward	-7093
boat	-7094
list	-7095
▁Beg	-7096
▁Wol	-7097
▁Belg	-7098
▁Even	-7099
▁sale	-7100
ucture	-7101
▁Anton	-7102
▁calls	-7103
▁Modern	-7104
▁formal	-7105
▁integr	-7106
▁typhoon	-7107
▁regiment	-7108
▁alternate	-7109
▁committee	-7110
sea	-7111
▁MP	-7112
abil	-7113
yles	-7114
▁(20	-7115
▁Tar	-7116
found	-7117
▁1942	-7118
▁jump	-7119
▁spur	-7120
ternal	-7121
▁liber	-7122
uscript	-7123
▁Morris	-7124
▁driving	-7125
▁footage	-7126
▁painted	-7127
▁replace	-7128
▁Confeder	-7129
▁Robinson	-7130
▁Education	-7131
▁daughters	-7132
▁replacement	-7133
eing	-7134
izon	-7135
aceae	-7136
icial	-7137
leton	-7138
▁Lane	-7139
▁Diego	-7140
▁Guide	-7141
▁Prize	-7142
▁plane	-7143
▁holding	-7144
▁landing	-7145
▁Portland	-7146
▁entering	-7147
▁inducted	-7148
▁injuries	-7149
▁explained	-7150
No	-7151
ubb	-7152
mate	-7153
▁ban	-7154
▁tow	-7155
point	-7156
▁Type	-7157
▁arts	-7158
▁drum	-7159
▁mist	-7160
▁depos	-7161
▁Atlanta	-7162
▁testing	-7163
▁breeding	-7164
▁outbreak	-7165
▁discovery	-7166
▁succeeded	-7167
▁surrounded	-7168
mad	-7169
▁Ka	-7170
▁sq	-7171
ache	-7172
▁nav	-7173
▁fuel	-7174
▁gate	-7175
orders	-7176
▁Greece	-7177
▁depict	-7178
▁internal	-7179
▁differences	-7180
▁900	-7181
▁Dub	-7182
▁flo	-7183
ijing	-7184
▁drew	-7185
▁1999.	-7186
▁Front	-7187
▁Movie	-7188
▁compr	-7189
▁overs	-7190
olished	-7191
▁Alfred	-7192
▁Hockey	-7193
▁Champion	-7194
▁knowledge	-7195
▁controlled	-7196
pan	-7197
atur	-7198
rist	-7199
Tunes	-7200
opter	-7201
▁1986	-7202
▁Bros	-7203
▁Call	-7204
▁Late	-7205
▁loan	-7206
thlete	-7207
▁crash	-7208
▁faced	-7209
▁actual	-7210
▁argued	-7211
▁stream	-7212
▁Douglas	-7213
▁killing	-7214
struction	-7215
▁westward	-7216
▁appearing	-7217
▁gradually	-7218
pet	-7219
pop	-7220
▁Ll	-7221
▁lat	-7222
▁Banks	-7223
▁inaug	-7224
▁Author	-7225
▁Design	-7226
▁explos	-7227
entially	-7228
▁authors	-7229
▁opponents	-7230
▁attendance	-7231
▁Christopher	-7232
▁ML	-7233
adow	-7234
haps	-7235
roid	-7236
▁Son	-7237
arked	-7238
ommod	-7239
▁1964	-7240
▁Comb	-7241
▁ways	-7242
ennium	-7243
ivered	-7244
▁quite	-7245
▁Samuel	-7246
▁factor	-7247
▁arrival	-7248
▁invited	-7249
▁attributed	-7250
▁percentage	-7251
▁precipitation	-7252
▁representative	-7253
%.	-7254
aby	-7255
▁Lt	-7256
inus	-7257
▁ble	-7258
inton	-7259
orage	-7260
▁1944	-7261
▁Vari	-7262
▁eyes	-7263
▁chlor	-7264
▁effic	-7265
▁grossed	-7266
▁Children	-7267
▁Internet	-7268
▁Originally	-7269
▁techniques	-7270
▁experienced	-7271
▁investigation	-7272
Man	-7273
▁Tig	-7274
uther	-7275
wealth	-7276
▁2000.	-7277
▁advis	-7278
▁doing	-7279
▁shore	-7280
▁rarely	-7281
▁thunder	-7282
▁swimming	-7283
▁Additional	-7284
▁categories	-7285
athy	-7286
▁Lov	-7287
▁bed	-7288
▁pun	-7289
▁Bang	-7290
▁Boys	-7291
▁Hans	-7292
▁Steven	-7293
▁circum	-7294
ervative	-7295
issioned	-7296
▁Ottoman	-7297
▁armored	-7298
▁peaking	-7299
▁measured	-7300
▁upgraded	-7301
▁threatened	-7302
▁authorities	-7303
▁maintenance	-7304
ho	-7305
▁Lu	-7306
Tube	-7307
hous	-7308
▁Dur	-7309
▁wet	-7310
aints	-7311
going	-7312
nings	-7313
orous	-7314
▁pool	-7315
▁costs	-7316
vements	-7317
▁Trophy	-7318
▁superv	-7319
▁therap	-7320
▁Denmark	-7321
▁insects	-7322
uccessful	-7323
▁theaters	-7324
▁instrumental	-7325
11	-7326
ods	-7327
▁Bi	-7328
mers	-7329
▁Kal	-7330
antly	-7331
eenth	-7332
▁Dick	-7333
▁Oslo	-7334
▁wars	-7335
▁Actor	-7336
▁males	-7337
▁happen	-7338
▁iTunes	-7339
▁undert	-7340
▁females	-7341
▁lengths	-7342
▁opposed	-7343
▁preserved	-7344
Bl	-7345
CAA	-7346
ucc	-7347
offs	-7348
ouri	-7349
▁Cyr	-7350
atern	-7351
ureau	-7352
▁Trib	-7353
▁Turk	-7354
▁turb	-7355
rapped	-7356
▁Phill	-7357
▁catch	-7358
▁price	-7359
▁YouTube	-7360
▁mathemat	-7361
▁purposes	-7362
▁software	-7363
▁advantage	-7364
▁application	-7365
EC	-7366
yo	-7367
▁Spe	-7368
▁aer	-7369
eless	-7370
scape	-7371
▁Cart	-7372
▁Mach	-7373
▁gain	-7374
ecraft	-7375
▁deleg	-7376
▁somew	-7377
▁wheel	-7378
▁serial	-7379
▁taught	-7380
▁useful	-7381
▁Vietnam	-7382
▁identity	-7383
▁interior	-7384
▁involving	-7385
▁difference	-7386
eo	-7387
4).	-7388
zer	-7389
▁3.	-7390
orph	-7391
▁Hem	-7392
▁Ren	-7393
▁Sum	-7394
▁Sym	-7395
▁nob	-7396
▁tot	-7397
▁drawn	-7398
▁manga	-7399
▁surre	-7400
▁measures	-7401
▁retained	-7402
▁delivered	-7403
!"	-7404
Sc	-7405
▁Ts	-7406
▁176	-7407
▁Lam	-7408
▁Obs	-7409
▁Emmy	-7410
▁Horn	-7411
▁rose	-7412
ceived	-7413
▁Hotel	-7414
▁tells	-7415
▁views	-7416
rations	-7417
▁Parker	-7418
▁Picture	-7419
▁depicted	-7420
▁province	-7421
▁commentary	-7422
▁successfully	-7423
▁CO	-7424
▁Bry	-7425
▁Dog	-7426
▁Ker	-7427
▁hem	-7428
osite	-7429
▁sung	-7430
▁sunk	-7431
istant	-7432
▁Blood	-7433
▁Kings	-7434
▁Notes	-7435
▁tests	-7436
▁verse	-7437
ategory	-7438
utation	-7439
▁garden	-7440
▁liquid	-7441
▁Beijing	-7442
▁Similar	-7443
▁crossed	-7444
▁earthqu	-7445
▁classical	-7446
17	-7447
▁“	-7448
1),	-7449
aren	-7450
uble	-7451
▁Hud	-7452
▁ago	-7453
▁nor	-7454
▁Lenn	-7455
▁Snow	-7456
▁coat	-7457
▁isot	-7458
▁meat	-7459
▁spin	-7460
▁virt	-7461
▁Jacob	-7462
▁Staff	-7463
▁boats	-7464
▁paved	-7465
▁trust	-7466
▁Within	-7467
▁archae	-7468
▁warning	-7469
▁cancelled	-7470
▁situation	-7471
▁Development	-7472
▁03	-7473
hand	-7474
▁Roc	-7475
▁rac	-7476
▁Pier	-7477
▁insc	-7478
▁neut	-7479
▁Human	-7480
▁inner	-7481
▁legend	-7482
▁Emperor	-7483
▁fashion	-7484
▁volunte	-7485
▁Delaware	-7486
▁religion	-7487
▁Louisiana	-7488
▁popularity	-7489
9).	-7490
▁Hu	-7491
▁iP	-7492
come	-7493
▁Imp	-7494
▁Rey	-7495
abled	-7496
etime	-7497
▁Anna	-7498
▁Cold	-7499
▁Stra	-7500
▁hull	-7501
▁tied	-7502
exp	-7503
▁Sn	-7504
olar	-7505
udes	-7506
▁hip	-7507
▁Benn	-7508
▁Rose	-7509
ricted	-7510
▁Grade	-7511
▁orders	-7512
▁Actress	-7513
▁herself	-7514
▁mounted	-7515
▁Jonathan	-7516
▁declined	-7517
▁exposure	-7518
▁importance	-7519
FI	-7520
sm	-7521
▁Gib	-7522
▁sed	-7523
▁Nash	-7524
▁Stat	-7525
▁Wolf	-7526
▁crop	-7527
▁goes	-7528
▁ones	-7529
▁forty	-7530
▁teeth	-7531
osaurus	-7532
▁Junior	-7533
▁Region	-7534
▁session	-7535
▁recovered	-7536
▁parliament	-7537
▁incorporated	-7538
CI	-7539
avia	-7540
ighed	-7541
▁Holy	-7542
▁none	-7543
▁Heavy	-7544
▁accur	-7545
▁liver	-7546
▁Apollo	-7547
▁scheme	-7548
▁Medical	-7549
▁innings	-7550
▁volumes	-7551
▁boundary	-7552
▁deployed	-7553
▁frequent	-7554
▁separated	-7555
not	-7556
hour	-7557
eties	-7558
imore	-7559
▁Anne	-7560
▁Hell	-7561
▁Iraq	-7562
▁sank	-7563
▁soci	-7564
▁1997.	-7565
▁Chron	-7566
▁Girls	-7567
▁Satur	-7568
▁analy	-7569
▁dress	-7570
▁settled	-7571
▁accommod	-7572
▁elections	-7573
▁Depression	-7574
▁Throughout	-7575
6).	-7576
All	-7577
iege	-7578
rine	-7579
▁170	-7580
▁Cer	-7581
▁Whe	-7582
▁fer	-7583
acros	-7584
▁Diam	-7585
▁surf	-7586
▁1994,	-7587
▁Years	-7588
▁benef	-7589
▁plate	-7590
▁belief	-7591
▁resear	-7592
▁Belgium	-7593
▁Stanley	-7594
▁ceremon	-7595
▁wounded	-7596
▁Pakistan	-7597
▁carrying	-7598
lig	-7599
from	-7600
iday	-7601
▁var	-7602
▁Real	-7603
▁1998.	-7604
▁judge	-7605
▁print	-7606
▁ruled	-7607
▁losses	-7608
angerous	-7609
▁designs	-7610
▁genetic	-7611
▁weighed	-7612
▁Allmusic	-7613
▁Building	-7614
▁compound	-7615
▁commanded	-7616
▁distinctive	-7617
boy	-7618
▁93	-7619
ogan	-7620
▁dub	-7621
▁try	-7622
▁Dead	-7623
stances	-7624
▁Boeing	-7625
▁trough	-7626
ologists	-7627
▁Stewart	-7628
▁aspects	-7629
▁consequ	-7630
▁surgery	-7631
▁Hamilton	-7632
▁accompany	-7633
7),	-7634
amps	-7635
▁Ern	-7636
▁Benj	-7637
▁stay	-7638
▁Brand	-7639
▁Draft	-7640
▁revol	-7641
▁Carter	-7642
▁Friend	-7643
▁amounts	-7644
▁submarine	-7645
▁thousands	-7646
▁Commonwealth	-7647
IV	-7648
7).	-7649
▁ax	-7650
avor	-7651
ifer	-7652
ucer	-7653
▁Lev	-7654
▁Nik	-7655
▁UTC	-7656
▁nom	-7657
▁1979	-7658
▁Cost	-7659
▁mamm	-7660
▁Laure	-7661
▁Track	-7662
▁abund	-7663
▁inhib	-7664
▁recre	-7665
▁users	-7666
▁retail	-7667
▁economy	-7668
▁kingdom	-7669
▁Mitchell	-7670
▁Federation	-7671
▁residential	-7672
▁AP	-7673
chen	-7674
oncé	-7675
▁NAS	-7676
▁kid	-7677
▁Ward	-7678
▁dram	-7679
▁spac	-7680
▁Welsh	-7681
▁giant	-7682
▁layer	-7683
inental	-7684
▁Cooper	-7685
▁Michel	-7686
▁Temple	-7687
▁smooth	-7688
▁routing	-7689
▁Category	-7690
▁employees	-7691
▁casualties	-7692
▁manuscript	-7693
-18	-7694
▁Li	-7695
▁od	-7696
icon	-7697
tery	-7698
▁Tan	-7699
▁Bath	-7700
▁Mort	-7701
▁caps	-7702
▁rend	-7703
▁ster	-7704
action	-7705
uitars	-7706
▁Jimmy	-7707
▁sleep	-7708
utional	-7709
▁Choice	-7710
▁Hawaii	-7711
▁honour	-7712
▁trying	-7713
▁parties	-7714
▁Airlines	-7715
▁watching	-7716
▁electronic	-7717
▁opportunity	-7718
▁02	-7719
soft	-7720
urer	-7721
▁Box	-7722
▁Serb	-7723
▁Stef	-7724
▁colle	-7725
▁erupt	-7726
▁fifty	-7727
▁negot	-7728
▁expect	-7729
▁memory	-7730
including	-7731
▁Athletic	-7732
▁temporary	-7733
▁characterized	-7734
cin	-7735
inf	-7736
rams	-7737
▁Hop	-7738
ateur	-7739
enter	-7740
▁1939	-7741
▁Rang	-7742
▁Sign	-7743
▁clin	-7744
▁fine	-7745
▁Horse	-7746
▁Wayne	-7747
▁hyper	-7748
borough	-7749
ception	-7750
▁Batman	-7751
▁ironcl	-7752
▁poison	-7753
▁weekly	-7754
▁circuit	-7755
▁cruiser	-7756
▁Campaign	-7757
▁Marshall	-7758
▁minister	-7759
▁expedition	-7760
ić	-7761
▁ru	-7762
aser	-7763
icts	-7764
omes	-7765
pine	-7766
▁Cla	-7767
▁Mun	-7768
▁Tai	-7769
▁hal	-7770
▁why	-7771
agues	-7772
▁Magn	-7773
▁Side	-7774
▁bulk	-7775
▁scrap	-7776
▁tunnel	-7777
▁wearing	-7778
▁adjacent	-7779
▁Mountains	-7780
▁trunkline	-7781
▁promotional	-7782
▁Constitution	-7783
▁strengthened	-7784
hr	-7785
aja	-7786
two	-7787
▁04	-7788
ashed	-7789
ilers	-7790
▁1983	-7791
▁Lisa	-7792
▁bran	-7793
▁teen	-7794
▁trip	-7795
▁util	-7796
▁1995,	-7797
▁rates	-7798
▁veter	-7799
▁Around	-7800
▁vessel	-7801
▁Beyoncé	-7802
▁listing	-7803
▁proceed	-7804
▁reading	-7805
▁travels	-7806
▁Missouri	-7807
▁Melbourne	-7808
dr	-7809
5),	-7810
▁Cow	-7811
▁Hur	-7812
▁Sig	-7813
▁Stu	-7814
▁cup	-7815
▁tal	-7816
▁unf	-7817
▁(193	-7818
▁alco	-7819
▁bear	-7820
▁pron	-7821
▁Micro	-7822
▁Tower	-7823
▁freed	-7824
▁girls	-7825
▁Simpson	-7826
▁accounts	-7827
▁Baltimore	-7828
▁battleships	-7829
▁thunderstorm	-7830
▁unsuccessful	-7831
hu	-7832
ls	-7833
uma	-7834
▁kW	-7835
▁18-	-7836
▁Mes	-7837
▁Ton	-7838
▁tie	-7839
▁vel	-7840
▁1941	-7841
▁Days	-7842
▁Hero	-7843
▁Maur	-7844
▁hybr	-7845
▁neck	-7846
apolis	-7847
▁tenth	-7848
▁counties	-7849
▁Frederick	-7850
▁childhood	-7851
▁component	-7852
▁py	-7853
▁McK	-7854
urches	-7855
▁Phoen	-7856
▁apart	-7857
▁pages	-7858
▁therm	-7859
▁yield	-7860
▁relief	-7861
▁Russell	-7862
▁appoint	-7863
▁falling	-7864
▁Benjamin	-7865
▁produces	-7866
▁paintings	-7867
▁atmosphere	-7868
rin	-7869
tic	-7870
▁CS	-7871
town	-7872
▁Nad	-7873
▁Yan	-7874
▁bot	-7875
icide	-7876
power	-7877
▁Rico	-7878
▁gray	-7879
▁Seven	-7880
▁Bureau	-7881
▁affili	-7882
▁sample	-7883
▁monarch	-7884
▁isolated	-7885
▁Represent	-7886
?"	-7887
WA	-7888
occ	-7889
uki	-7890
fare	-7891
fers	-7892
▁Ark	-7893
▁cod	-7894
▁lob	-7895
sters	-7896
▁Mean	-7897
▁mart	-7898
▁oxid	-7899
▁phen	-7900
▁Places	-7901
▁adding	-7902
▁linked	-7903
▁Madonna	-7904
▁Shortly	-7905
▁electron	-7906
▁$6	-7907
▁Non	-7908
▁Wag	-7909
▁Beck	-7910
▁Wells	-7911
▁clean	-7912
▁milit	-7913
▁Flight	-7914
▁joining	-7915
▁massive	-7916
▁Assembly	-7917
▁Franklin	-7918
▁Lawrence	-7919
▁covering	-7920
▁hydrogen	-7921
▁artillery	-7922
uil	-7923
▁Iv	-7924
aron	-7925
uces	-7926
▁Cas	-7927
▁Ult	-7928
▁Hand	-7929
▁save	-7930
writer	-7931
▁ideas	-7932
▁Walker	-7933
▁appeal	-7934
▁hunting	-7935
▁minimal	-7936
▁passage	-7937
▁purchase	-7938
▁rejected	-7939
▁remnants	-7940
▁assistance	-7941
▁interested	-7942
bel	-7943
oly	-7944
ori	-7945
▁Dw	-7946
▁OC	-7947
▁ju	-7948
hist	-7949
▁rom	-7950
icity	-7951
▁Cycl	-7952
▁logo	-7953
▁multi	-7954
ighters	-7955
▁Orange	-7956
▁device	-7957
▁Kennedy	-7958
▁monitor	-7959
▁supports	-7960
▁intensified	-7961
fly	-7962
ante	-7963
arks	-7964
flow	-7965
iper	-7966
▁aqu	-7967
▁Buff	-7968
▁Edin	-7969
ivated	-7970
▁1993,	-7971
▁Bobby	-7972
▁Marie	-7973
attered	-7974
▁strateg	-7975
▁theatre	-7976
▁describe	-7977
▁graduate	-7978
▁highlight	-7979
▁successor	-7980
▁destruction	-7981
ML	-7982
lie	-7983
▁Op	-7984
inea	-7985
▁Ent	-7986
▁Gab	-7987
▁Gri	-7988
▁Maj	-7989
▁Nev	-7990
▁ash	-7991
style	-7992
▁1985	-7993
▁Merc	-7994
lected	-7995
▁Freed	-7996
▁union	-7997
▁Forces	-7998
▁excess	-7999
▁racing	-8000
▁stayed	-8001
▁density	-8002
▁engaged	-8003
▁roadway	-8004
▁articles	-8005
▁opposite	-8006
▁proteins	-8007
▁frequency	-8008
▁standards	-8009
▁controversy	-8010
23	-8011
ioc	-8012
utt	-8013
-200	-8014
arsh	-8015
helm	-8016
▁Vin	-8017
force	-8018
▁1910	-8019
▁1982	-8020
▁Bask	-8021
▁Meth	-8022
▁epit	-8023
▁cargo	-8024
▁gradu	-8025
▁inher	-8026
▁Legend	-8027
▁nations	-8028
▁arrested	-8029
▁chairman	-8030
▁Commander	-8031
SA	-8032
izer	-8033
ture	-8034
▁Cab	-8035
▁Deb	-8036
▁USS	-8037
angle	-8038
ensed	-8039
occer	-8040
orial	-8041
▁1945	-8042
▁Area	-8043
▁Bush	-8044
▁Vice	-8045
▁mort	-8046
▁Tamil	-8047
▁virus	-8048
▁wings	-8049
▁Fisher	-8050
▁reserv	-8051
▁Indians	-8052
▁fifteen	-8053
▁treated	-8054
▁championships	-8055
body	-8056
▁ped	-8057
iable	-8058
▁1943	-8059
▁tack	-8060
▁vice	-8061
rowing	-8062
▁crown	-8063
▁hosts	-8064
▁paras	-8065
▁ratio	-8066
▁option	-8067
▁admitted	-8068
▁squadron	-8069
▁attracted	-8070
▁criticism	-8071
▁restoration	-8072
alog	-8073
▁Gun	-8074
attan	-8075
▁Farm	-8076
▁Glen	-8077
▁gene	-8078
estyle	-8079
icular	-8080
▁begun	-8081
▁roots	-8082
▁rower	-8083
ogether	-8084
▁bypass	-8085
▁chance	-8086
▁credit	-8087
▁assumed	-8088
▁charged	-8089
▁signing	-8090
▁Training	-8091
▁Edinburgh	-8092
▁exhibition	-8093
▁contributions	-8094
acre	-8095
▁Hip	-8096
▁bit	-8097
▁phr	-8098
▁tub	-8099
allas	-8100
north	-8101
while	-8102
▁Thor	-8103
▁soul	-8104
▁choir	-8105
▁rivers	-8106
▁Charlie	-8107
▁portions	-8108
▁predomin	-8109
▁thereafter	-8110
Un	-8111
acc	-8112
isf	-8113
ses	-8114
▁Si	-8115
acts	-8116
iece	-8117
▁Isa	-8118
▁Poll	-8119
▁copy	-8120
▁page	-8121
▁repr	-8122
▁shif	-8123
itable	-8124
▁Baker	-8125
▁Billy	-8126
▁Cinem	-8127
▁needs	-8128
verseas	-8129
▁copper	-8130
▁filled	-8131
▁charity	-8132
▁ranging	-8133
▁witness	-8134
▁publisher	-8135
▁technical	-8136
▁originated	-8137
▁description	-8138
▁responsibility	-8139
uj	-8140
▁AI	-8141
▁SH	-8142
olas	-8143
▁fal	-8144
▁pure	-8145
listed	-8146
▁Flags	-8147
certain	-8148
▁Guitar	-8149
▁Justin	-8150
▁Philip	-8151
▁decomm	-8152
▁complic	-8153
▁crosses	-8154
▁funeral	-8155
▁guitars	-8156
▁looking	-8157
formation	-8158
▁bringing	-8159
▁universe	-8160
▁Cathedral	-8161
▁convection	-8162
▁Construction	-8163
▁Ald	-8164
asure	-8165
venth	-8166
▁Ring	-8167
ingham	-8168
▁Every	-8169
▁Works	-8170
▁conqu	-8171
▁Marvel	-8172
▁medium	-8173
▁formally	-8174
▁emergency	-8175
▁generation	-8176
▁possibility	-8177
lik	-8178
rice	-8179
ulty	-8180
warf	-8181
▁Bed	-8182
▁Cle	-8183
▁Sin	-8184
▁TNA	-8185
▁mob	-8186
▁1973	-8187
▁lift	-8188
▁Graham	-8189
▁Johnny	-8190
▁output	-8191
▁fastest	-8192
▁founder	-8193
▁funding	-8194
▁Constant	-8195
▁politics	-8196
▁Management	-8197
▁Technology	-8198
▁foundation	-8199
▁collections	-8200
▁participants	-8201
li	-8202
AAF	-8203
▁71	-8204
▁Ple	-8205
antic	-8206
▁NCAA	-8207
▁Phys	-8208
▁Roll	-8209
▁Surv	-8210
ewhere	-8211
ultane	-8212
▁Drive	-8213
▁faith	-8214
▁rugby	-8215
▁Berlin	-8216
▁demand	-8217
▁Support	-8218
▁closing	-8219
▁Saturday	-8220
▁appropri	-8221
▁replacing	-8222
▁influences	-8223
▁inspiration	-8224
cor	-8225
def	-8226
▁Dyn	-8227
Music	-8228
▁Iran	-8229
▁Lost	-8230
▁ille	-8231
▁Trail	-8232
▁drugs	-8233
▁grade	-8234
▁seems	-8235
▁strip	-8236
onymous	-8237
▁debate	-8238
▁driver	-8239
▁enjoyed	-8240
▁opinion	-8241
▁samples	-8242
▁worship	-8243
▁definition	-8244
▁encountered	-8245
▁exclusively	-8246
tha	-8247
▁ve	-8248
aman	-8249
▁jur	-8250
ested	-8251
▁Ship	-8252
▁immig	-8253
▁Canter	-8254
▁Saturn	-8255
▁camera	-8256
▁courts	-8257
▁biggest	-8258
▁devices	-8259
▁proport	-8260
▁stopped	-8261
▁streets	-8262
▁instance	-8263
▁patterns	-8264
▁somewhat	-8265
▁partially	-8266
▁eliminated	-8267
▁Independent	-8268
cho	-8269
▁Ni	-8270
▁Cob	-8271
▁Lad	-8272
▁kit	-8273
▁unn	-8274
hetic	-8275
mates	-8276
reens	-8277
rings	-8278
▁1976	-8279
▁beam	-8280
▁didn	-8281
▁filed	-8282
▁renov	-8283
▁Allied	-8284
▁Spears	-8285
▁Treaty	-8286
▁airing	-8287
▁owners	-8288
▁decline	-8289
▁notably	-8290
▁teacher	-8291
▁victims	-8292
▁reconstr	-8293
▁terminal	-8294
▁theatrical	-8295
'.	-8296
vo	-8297
-13	-8298
mod	-8299
ilst	-8300
▁san	-8301
▁Half	-8302
▁Hend	-8303
▁Khan	-8304
▁Thus	-8305
▁impr	-8306
▁maps	-8307
▁1996.	-8308
▁venue	-8309
acrosse	-8310
plement	-8311
▁underw	-8312
▁values	-8313
▁feeding	-8314
▁parking	-8315
▁whereas	-8316
▁spending	-8317
▁generated	-8318
▁marketing	-8319
▁Administration	-8320
zo	-8321
bus	-8322
▁81	-8323
icit	-8324
▁cro	-8325
arius	-8326
esign	-8327
onnes	-8328
▁Amaz	-8329
▁Fish	-8330
▁Malt	-8331
▁grav	-8332
estone	-8333
▁waves	-8334
▁Flying	-8335
▁margin	-8336
▁mobile	-8337
▁rowing	-8338
▁stores	-8339
▁traded	-8340
inations	-8341
▁nothing	-8342
▁returns	-8343
▁trained	-8344
itzerland	-8345
▁connects	-8346
▁favorite	-8347
▁musician	-8348
▁villages	-8349
8).	-8350
tes	-8351
eron	-8352
rang	-8353
▁Kan	-8354
▁Lat	-8355
▁Mik	-8356
adesh	-8357
inter	-8358
▁Gary	-8359
▁Grey	-8360
▁Lead	-8361
▁sort	-8362
▁Quest	-8363
▁Small	-8364
▁learn	-8365
selling	-8366
▁Scient	-8367
▁sounds	-8368
▁Rolling	-8369
▁brigade	-8370
▁defence	-8371
▁storage	-8372
▁Campbell	-8373
▁assisted	-8374
▁restricted	-8375
axy	-8376
obi	-8377
ampa	-8378
▁horn	-8379
▁mand	-8380
uctive	-8381
▁Andre	-8382
▁Canal	-8383
▁deriv	-8384
▁fired	-8385
lington	-8386
▁Hudson	-8387
▁Murray	-8388
▁Social	-8389
▁Tigers	-8390
▁manner	-8391
ometimes	-8392
▁Clinton	-8393
▁Reserve	-8394
▁assists	-8395
▁carries	-8396
▁delayed	-8397
▁getting	-8398
▁possess	-8399
▁reaches	-8400
▁infantry	-8401
▁medicine	-8402
▁Indonesia	-8403
▁occasions	-8404
PC	-8405
▁Ah	-8406
▁Hugh	-8407
▁thin	-8408
earing	-8409
edding	-8410
ounced	-8411
urance	-8412
▁Fried	-8413
▁chapel	-8414
▁bridges	-8415
▁exposed	-8416
▁inhabit	-8417
▁journey	-8418
▁Services	-8419
▁constitu	-8420
ographical	-8421
▁competing	-8422
▁Canterbury	-8423
▁Millennium	-8424
9),	-8425
sts	-8426
ugu	-8427
▁Py	-8428
▁Ban	-8429
▁Tak	-8430
leans	-8431
▁Frid	-8432
▁Slov	-8433
▁legs	-8434
▁Territ	-8435
▁edited	-8436
▁string	-8437
▁Bernard	-8438
▁Phoenix	-8439
▁starred	-8440
▁Microsoft	-8441
▁identical	-8442
▁satellite	-8443
▁reportedly	-8444
▁translation	-8445
21	-8446
erk	-8447
ois	-8448
▁4.	-8449
▁Ku	-8450
▁Na	-8451
four	-8452
ompl	-8453
▁Mem	-8454
▁cul	-8455
▁dogs	-8456
▁hang	-8457
▁tell	-8458
▁Youth	-8459
▁flash	-8460
▁prohib	-8461
▁bacteria	-8462
▁Initially	-8463
▁discussed	-8464
▁historically	-8465
PS	-8466
mn	-8467
This	-8468
▁CBS	-8469
▁Got	-8470
▁Lyn	-8471
▁cyl	-8472
▁rub	-8473
ategy	-8474
layer	-8475
ocked	-8476
rator	-8477
▁1948	-8478
▁1981	-8479
▁OCLC	-8480
▁door	-8481
▁zero	-8482
▁Steel	-8483
▁Usher	-8484
▁fluor	-8485
▁pregn	-8486
claimed	-8487
species	-8488
▁fisher	-8489
▁finding	-8490
▁editions	-8491
▁platforms	-8492
▁recordings	-8493
▁subtropical	-8494
▁ca	-8495
elta	-8496
annon	-8497
rient	-8498
▁sell	-8499
▁Norse	-8500
▁genre	-8501
▁grant	-8502
▁mayor	-8503
▁spend	-8504
▁Critics	-8505
▁Orleans	-8506
▁convent	-8507
ationally	-8508
▁Basketball	-8509
▁01	-8510
▁Ga	-8511
edar	-8512
hill	-8513
▁110	-8514
▁Anc	-8515
▁Wii	-8516
ouver	-8517
▁Manh	-8518
▁Anglo	-8519
▁Upper	-8520
▁Indies	-8521
▁Nature	-8522
▁charges	-8523
▁perfect	-8524
▁picture	-8525
▁Sciences	-8526
▁sessions	-8527
▁thousand	-8528
▁approached	-8529
▁mechanical	-8530
▁sufficient	-8531
▁decommissioned	-8532
fe	-8533
sw	-8534
-20	-8535
imp	-8536
oyal	-8537
▁Neil	-8538
aments	-8539
▁Hindu	-8540
▁Weekly	-8541
▁extent	-8542
▁proced	-8543
▁Stevens	-8544
▁housing	-8545
▁detailed	-8546
▁patients	-8547
▁mastering	-8548
▁components	-8549
▁journalist	-8550
▁Engineering	-8551
▁Switzerland	-8552
CN	-8553
ür	-8554
imm	-8555
▁Jun	-8556
iency	-8557
bishop	-8558
icians	-8559
rently	-8560
▁1995.	-8561
▁Evans	-8562
▁escort	-8563
▁orange	-8564
▁rounds	-8565
ancouver	-8566
▁evening	-8567
▁focuses	-8568
▁reality	-8569
▁exclusive	-8570
▁simultane	-8571
▁Queensland	-8572
▁continuing	-8573
▁electrical	-8574
▁locomotives	-8575
4),	-8576
iat	-8577
rep	-8578
ricts	-8579
white	-8580
▁Buck	-8581
▁Lion	-8582
▁fest	-8583
coming	-8584
▁Labor	-8585
▁Place	-8586
▁Plant	-8587
▁brick	-8588
▁finds	-8589
▁moment	-8590
▁Natural	-8591
▁classic	-8592
▁dismiss	-8593
▁markets	-8594
▁Pictures	-8595
▁designer	-8596
▁learning	-8597
▁resources	-8598
▁recognised	-8599
opp	-8600
osm	-8601
▁wr	-8602
east	-8603
unny	-8604
▁Nav	-8605
▁nut	-8606
▁Utah	-8607
▁rich	-8608
▁1992,	-8609
▁Pitts	-8610
▁bases	-8611
▁divor	-8612
▁trend	-8613
▁Comedy	-8614
▁finale	-8615
▁marine	-8616
▁recept	-8617
▁locally	-8618
▁printed	-8619
▁rushing	-8620
▁trailer	-8621
▁gameplay	-8622
▁thirteen	-8623
▁Vancouver	-8624
▁Tournament	-8625
GN	-8626
aws	-8627
enh	-8628
ika	-8629
apse	-8630
emic	-8631
pton	-8632
▁Ale	-8633
▁Dod	-8634
▁Fel	-8635
▁Tob	-8636
ugosl	-8637
▁Beng	-8638
▁Nord	-8639
▁anth	-8640
eneral	-8641
▁Metro	-8642
▁basin	-8643
▁Taiwan	-8644
▁fossil	-8645
▁shield	-8646
▁Instead	-8647
▁consult	-8648
▁donated	-8649
▁evolved	-8650
▁survive	-8651
▁Malaysia	-8652
▁branches	-8653
▁concerts	-8654
▁missions	-8655
▁displayed	-8656
▁residence	-8657
BO	-8658
6),	-8659
agu	-8660
mat	-8661
sky	-8662
▁5%	-8663
oker	-8664
▁Chen	-8665
▁Gray	-8666
▁bone	-8667
▁lung	-8668
ampton	-8669
▁Lloyd	-8670
▁coinc	-8671
anguage	-8672
▁discip	-8673
▁Classic	-8674
▁benefit	-8675
▁attained	-8676
▁criminal	-8677
▁syndrome	-8678
▁molecules	-8679
▁qualified	-8680
▁recommend	-8681
▁Historical	-8682
▁institutions	-8683
▁observations	-8684
▁characteristic	-8685
ea	-8686
uv	-8687
yd	-8688
wat	-8689
▁5-	-8690
▁pp	-8691
irts	-8692
type	-8693
▁174	-8694
▁Ltd	-8695
▁Meg	-8696
▁Mand	-8697
▁Stre	-8698
▁Stri	-8699
▁wreck	-8700
▁missed	-8701
▁refere	-8702
▁Harvard	-8703
▁accompl	-8704
▁alleged	-8705
▁drafted	-8706
▁perhaps	-8707
▁professor	-8708
▁statement	-8709
▁earthquake	-8710
▁expression	-8711
▁involvement	-8712
8),	-8713
imen	-8714
odox	-8715
▁Adv	-8716
▁Bos	-8717
▁Rub	-8718
▁die	-8719
anton	-8720
ching	-8721
▁1971	-8722
▁Gard	-8723
▁Zone	-8724
▁ages	-8725
▁cong	-8726
▁Abbey	-8727
▁aware	-8728
▁stood	-8729
▁Alaska	-8730
▁enters	-8731
▁Alexand	-8732
▁erected	-8733
▁factory	-8734
▁gardens	-8735
▁questions	-8736
▁photographs	-8737
▁competitions	-8738
▁independence	-8739
',	-8740
22	-8741
CS	-8742
chi	-8743
▁da	-8744
amas	-8745
team	-8746
▁Sac	-8747
▁Lanc	-8748
▁Mack	-8749
▁Much	-8750
▁Soul	-8751
▁wore	-8752
roscop	-8753
▁Mario	-8754
▁raise	-8755
ologies	-8756
▁Chamber	-8757
▁alcohol	-8758
▁extends	-8759
▁extreme	-8760
▁sisters	-8761
northwest	-8762
urricanes	-8763
▁concerns	-8764
▁youngest	-8765
▁Manhattan	-8766
▁supporters	-8767
▁electricity	-8768
-11	-8769
door	-8770
▁(30	-8771
▁10.	-8772
▁130	-8773
▁Lex	-8774
▁Pil	-8775
eland	-8776
▁1974	-8777
▁gust	-8778
hammad	-8779
▁1990,	-8780
▁Stars	-8781
▁poems	-8782
▁polar	-8783
quarter	-8784
▁Native	-8785
▁Rhodes	-8786
▁Single	-8787
▁agency	-8788
▁assemb	-8789
▁detail	-8790
▁Montana	-8791
▁Twitter	-8792
▁teaching	-8793
▁predators	-8794
▁describing	-8795
▁membership	-8796
▁reputation	-8797
▁experiences	-8798
spe	-8799
▁91	-8800
▁Pa	-8801
ghan	-8802
neum	-8803
sole	-8804
▁Ral	-8805
▁See	-8806
▁ign	-8807
shore	-8808
▁Pink	-8809
▁Pros	-8810
▁sulf	-8811
apping	-8812
keeper	-8813
▁1941,	-8814
▁chess	-8815
▁falls	-8816
ificial	-8817
▁Spirit	-8818
▁Yugosl	-8819
▁poetry	-8820
▁powered	-8821
▁Margaret	-8822
▁churches	-8823
▁segments	-8824
▁champions	-8825
▁touchdowns	-8826
▁translated	-8827
▁predecessor	-8828
je	-8829
bal	-8830
xim	-8831
amic	-8832
ners	-8833
ques	-8834
▁Fly	-8835
anium	-8836
borne	-8837
illes	-8838
▁1890	-8839
▁Bass	-8840
▁Cand	-8841
▁Cuba	-8842
▁Dest	-8843
▁Hope	-8844
▁Kirk	-8845
▁grown	-8846
▁signs	-8847
▁Female	-8848
▁sharks	-8849
▁triple	-8850
▁wealth	-8851
▁window	-8852
▁Gallery	-8853
▁earning	-8854
▁message	-8855
▁variant	-8856
▁involves	-8857
▁literary	-8858
▁Authority	-8859
ds	-8860
lon	-8861
pir	-8862
▁5.	-8863
rena	-8864
such	-8865
▁bom	-8866
▁tex	-8867
three	-8868
▁mine	-8869
▁span	-8870
▁shots	-8871
achelor	-8872
▁doctor	-8873
▁income	-8874
outheast	-8875
▁athlete	-8876
▁carrier	-8877
▁pitched	-8878
▁Industry	-8879
▁compiled	-8880
▁fourteen	-8881
▁platinum	-8882
▁Hampshire	-8883
▁committed	-8884
▁demolished	-8885
▁presidential	-8886
Mar	-8887
▁DS	-8888
icip	-8889
▁Ice	-8890
leted	-8891
rency	-8892
reted	-8893
▁mini	-8894
▁1991,	-8895
▁Solar	-8896
▁Yanke	-8897
▁cards	-8898
▁renew	-8899
▁Chapel	-8900
▁Stuart	-8901
▁exists	-8902
▁extens	-8903
▁rebuilt	-8904
▁uncertain	-8905
▁afterwards	-8906
▁conservation	-8907
AR	-8908
▁Rud	-8909
▁mac	-8910
enger	-8911
erted	-8912
▁Pope	-8913
celand	-8914
▁Cyrus	-8915
▁Jerry	-8916
▁diver	-8917
▁guide	-8918
▁Muslim	-8919
▁statue	-8920
▁writes	-8921
▁Turkish	-8922
▁absence	-8923
▁Brothers	-8924
▁overseas	-8925
▁starring	-8926
▁strategy	-8927
▁operational	-8928
▁relationships	-8929
AN	-8930
One	-8931
▁6:	-8932
olid	-8933
orus	-8934
▁101	-8935
▁Cad	-8936
▁Thr	-8937
▁Halo	-8938
▁Mall	-8939
▁wick	-8940
▁banks	-8941
▁beats	-8942
▁morph	-8943
▁rains	-8944
▁Market	-8945
▁Quebec	-8946
▁Austria	-8947
▁Regional	-8948
▁heritage	-8949
▁scrapped	-8950
▁strongly	-8951
▁divisions	-8952
▁competitive	-8953
▁protagonist	-8954
▁considerable	-8955
cha	-8956
soon	-8957
▁Haz	-8958
▁Rat	-8959
▁cad	-8960
▁els	-8961
▁web	-8962
▁1972	-8963
▁boys	-8964
▁Store	-8965
▁fract	-8966
▁prime	-8967
aughter	-8968
endment	-8969
▁Dallas	-8970
▁tonnes	-8971
ellation	-8972
▁Beatles	-8973
▁Buffalo	-8974
▁Freedom	-8975
▁illness	-8976
▁organic	-8977
▁founding	-8978
▁elsewhere	-8979
▁infection	-8980
▁interpret	-8981
▁ownership	-8982
▁variations	-8983
▁partnership	-8984
▁territories	-8985
▁collaboration	-8986
95	-8987
Ne	-8988
▁"[	-8989
▁CR	-8990
abet	-8991
osph	-8992
▁Set	-8993
▁lun	-8994
icate	-8995
▁Carn	-8996
▁emot	-8997
▁grey	-8998
▁jazz	-8999
master	-9000
▁Princ	-9001
▁excav	-9002
▁flows	-9003
▁sailed	-9004
▁Rangers	-9005
▁acceler	-9006
▁coverage	-9007
▁numbered	-9008
▁violence	-9009
▁suspended	-9010
▁millimeters	-9011
hus	-9012
isd	-9013
top	-9014
lett	-9015
orig	-9016
▁Las	-9017
hered	-9018
▁1969	-9019
▁1977	-9020
▁Laur	-9021
▁pole	-9022
▁Perry	-9023
▁Vocal	-9024
▁chrom	-9025
▁simpl	-9026
ulating	-9027
▁Friday	-9028
▁Mobile	-9029
▁Motion	-9030
▁Potter	-9031
▁export	-9032
▁styles	-9033
▁unlike	-9034
▁Edwards	-9035
▁coaches	-9036
▁dynasty	-9037
▁armament	-9038
▁hundreds	-9039
▁Princeton	-9040
▁displaced	-9041
▁processes	-9042
▁responded	-9043
▁storyline	-9044
▁convention	-9045
▁publications	-9046
▁entertainment	-9047
24	-9048
AL	-9049
asp	-9050
cut	-9051
uez	-9052
vet	-9053
▁pm	-9054
egas	-9055
▁vul	-9056
opran	-9057
▁1966	-9058
▁1968	-9059
▁Fact	-9060
▁Lang	-9061
▁Then	-9062
▁garn	-9063
inding	-9064
▁polic	-9065
theless	-9066
▁corpor	-9067
▁resign	-9068
▁stress	-9069
▁tissue	-9070
▁voices	-9071
▁Iceland	-9072
▁Princip	-9073
▁Village	-9074
▁colonial	-9075
▁departure	-9076
▁dominated	-9077
▁intention	-9078
▁spacecraft	-9079
▁substitute	-9080
▁grandfather	-9081
▁establishment	-9082
PD	-9083
five	-9084
seud	-9085
▁Dom	-9086
▁Juan	-9087
▁euro	-9088
▁lect	-9089
irates	-9090
strong	-9091
▁metab	-9092
▁Burton	-9093
▁behavi	-9094
▁amongst	-9095
▁advertis	-9096
▁mountains	-9097
▁practices	-9098
▁intelligence	-9099
▁administrative	-9100
cr	-9101
las	-9102
uto	-9103
▁2-	-9104
atab	-9105
fire	-9106
half	-9107
▁125	-9108
▁165	-9109
▁Amb	-9110
▁Eth	-9111
▁rum	-9112
ocity	-9113
ridge	-9114
▁Chel	-9115
▁cous	-9116
▁exit	-9117
▁rent	-9118
uilera	-9119
▁Barry	-9120
▁Tokyo	-9121
▁ridge	-9122
▁Harbor	-9123
▁skills	-9124
▁windows	-9125
▁Aguilera	-9126
▁dangerous	-9127
▁₹	-9128
rav	-9129
ser	-9130
ardo	-9131
hard	-9132
▁Ran	-9133
▁rit	-9134
▁vit	-9135
where	-9136
▁1975	-9137
▁Bull	-9138
▁glac	-9139
Donald	-9140
▁Mayor	-9141
▁moist	-9142
▁parks	-9143
▁Greater	-9144
▁neither	-9145
▁Electric	-9146
▁Province	-9147
▁Railroad	-9148
▁breaking	-9149
▁restrict	-9150
▁warnings	-9151
onnaissance	-9152
▁attraction	-9153
▁qualifying	-9154
▁subspecies	-9155
▁consumption	-9156
ova	-9157
raf	-9158
▁3-	-9159
▁VI	-9160
oria	-9161
uper	-9162
▁173	-9163
▁Kap	-9164
▁Var	-9165
▁vic	-9166
owned	-9167
▁1936	-9168
▁Delta	-9169
▁Drama	-9170
mingham	-9171
uations	-9172
▁picked	-9173
▁Defence	-9174
▁Studies	-9175
▁achieve	-9176
▁flowers	-9177
▁friendly	-9178
▁elevation	-9179
▁businesses	-9180
▁conclusion	-9181
▁historians	-9182
▁accompanying	-9183
gow	-9184
ogs	-9185
rak	-9186
asts	-9187
riel	-9188
▁140	-9189
rastr	-9190
rogen	-9191
▁1919	-9192
▁Baby	-9193
▁Near	-9194
▁Nine	-9195
▁Than	-9196
▁pros	-9197
▁Polit	-9198
▁Spart	-9199
▁alleg	-9200
▁cable	-9201
▁curve	-9202
▁dream	-9203
▁ninet	-9204
▁rings	-9205
▁denied	-9206
atically	-9207
▁Foreign	-9208
▁fighter	-9209
▁proposal	-9210
▁railroad	-9211
▁supposed	-9212
▁volcanic	-9213
▁immediate	-9214
▁lieutenant	-9215
▁architectural	-9216
▁controversial	-9217
mi	-9218
ti	-9219
axon	-9220
orer	-9221
▁IGN	-9222
onium	-9223
▁Full	-9224
▁Glas	-9225
▁Mult	-9226
▁Pete	-9227
▁Terry	-9228
▁fewer	-9229
winning	-9230
▁Austin	-9231
▁Mycena	-9232
▁blocks	-9233
▁Croatia	-9234
▁Primary	-9235
▁helping	-9236
▁winners	-9237
▁traveled	-9238
▁Orchestra	-9239
▁Yorkshire	-9240
▁suffering	-9241
▁weakening	-9242
▁($	-9243
cons	-9244
high	-9245
ulus	-9246
arest	-9247
brown	-9248
onsin	-9249
▁Berm	-9250
▁Face	-9251
▁pale	-9252
▁beach	-9253
▁chron	-9254
▁opera	-9255
igenous	-9256
instein	-9257
▁Former	-9258
▁Meteor	-9259
▁Palest	-9260
▁facing	-9261
▁radius	-9262
▁repair	-9263
▁theore	-9264
▁freedom	-9265
▁horizon	-9266
▁scholar	-9267
▁anything	-9268
▁chapters	-9269
▁specimen	-9270
▁orchestra	-9271
▁radiation	-9272
▁reduction	-9273
▁biological	-9274
▁documented	-9275
▁scientists	-9276
▁advertising	-9277
sl	-9278
Big	-9279
oda	-9280
pty	-9281
▁Ec	-9282
ando	-9283
idel	-9284
ruit	-9285
▁Nag	-9286
▁fur	-9287
▁net	-9288
▁sax	-9289
▁tag	-9290
▁tel	-9291
child	-9292
▁Cass	-9293
▁Fund	-9294
▁Nazi	-9295
▁conj	-9296
▁dipl	-9297
▁hope	-9298
▁rect	-9299
ecting	-9300
imeter	-9301
ooking	-9302
▁Lower	-9303
▁Total	-9304
▁oxide	-9305
▁Afghan	-9306
▁naming	-9307
▁Ancient	-9308
▁Wilhelm	-9309
▁Winners	-9310
▁accused	-9311
▁courses	-9312
▁graphics	-9313
▁reviewer	-9314
▁districts	-9315
▁favorable	-9316
▁watershed	-9317
▁difficulty	-9318
▁newspapers	-9319
▁renumbering	-9320
On	-9321
-17	-9322
bow	-9323
osy	-9324
dess	-9325
enic	-9326
idal	-9327
irty	-9328
urst	-9329
▁Kit	-9330
▁Sox	-9331
▁oak	-9332
▁unp	-9333
andal	-9334
ingle	-9335
▁mild	-9336
▁user	-9337
▁ferry	-9338
▁sight	-9339
▁spoke	-9340
▁worst	-9341
▁butter	-9342
▁ensure	-9343
▁ethnic	-9344
▁papers	-9345
▁tribes	-9346
▁amateur	-9347
▁indirect	-9348
▁Argentina	-9349
▁organisms	-9350
▁submitted	-9351
▁technique	-9352
▁battleship	-9353
▁comparison	-9354
▁occupation	-9355
DA	-9356
iko	-9357
urg	-9358
case	-9359
▁Loc	-9360
▁Unt	-9361
▁lie	-9362
▁Shel	-9363
▁Round	-9364
▁hills	-9365
▁meets	-9366
▁weigh	-9367
ossible	-9368
▁Nevada	-9369
▁Rivers	-9370
isconsin	-9371
strument	-9372
▁Finland	-9373
▁Thunder	-9374
▁assault	-9375
▁batting	-9376
▁theater	-9377
▁tickets	-9378
sequently	-9379
▁Aviation	-9380
▁changing	-9381
▁concrete	-9382
▁occurring	-9383
▁prisoners	-9384
rastructure	-9385
▁illustrated	-9386
▁underground	-9387
▁southeastern	-9388
ME	-9389
New	-9390
RNA	-9391
ugs	-9392
▁AA	-9393
▁DJ	-9394
▁Ry	-9395
▁Raw	-9396
▁buy	-9397
▁1965	-9398
▁Sean	-9399
▁seed	-9400
▁1989,	-9401
▁Woman	-9402
▁imped	-9403
▁Altern	-9404
▁Turner	-9405
▁ranges	-9406
▁ticket	-9407
▁Barbara	-9408
▁cantata	-9409
▁greatly	-9410
▁flagship	-9411
▁mainland	-9412
▁schedule	-9413
▁Broadcast	-9414
▁animation	-9415
▁sponsored	-9416
▁interviews	-9417
▁substantial	-9418
CD	-9419
SS	-9420
dy	-9421
aha	-9422
aux	-9423
who	-9424
umni	-9425
▁Fal	-9426
▁Gor	-9427
▁duo	-9428
rants	-9429
▁1914	-9430
▁1967	-9431
▁Talk	-9432
▁jury	-9433
▁plus	-9434
▁Cryst	-9435
▁clock	-9436
▁inhab	-9437
▁ports	-9438
▁tenor	-9439
▁intense	-9440
▁shorter	-9441
▁Official	-9442
▁remaster	-9443
▁supplies	-9444
▁mushrooms	-9445
▁boundaries	-9446
35	-9447
Be	-9448
▁Æ	-9449
asa	-9450
bie	-9451
sor	-9452
ctic	-9453
▁164	-9454
▁Div	-9455
▁Rab	-9456
▁VHS	-9457
udden	-9458
▁1938	-9459
▁Brig	-9460
itudes	-9461
ophone	-9462
▁Grove	-9463
▁Madag	-9464
▁Ralph	-9465
▁admin	-9466
▁climb	-9467
▁goods	-9468
▁resid	-9469
pective	-9470
redited	-9471
▁Johann	-9472
▁colony	-9473
▁runner	-9474
▁whilst	-9475
restrial	-9476
▁Cricket	-9477
▁Version	-9478
▁suicide	-9479
▁Muhammad	-9480
▁educated	-9481
▁Brazilian	-9482
▁Wisconsin	-9483
▁candidates	-9484
▁Confederate	-9485
▁announcement	-9486
▁increasingly	-9487
si	-9488
fam	-9489
net	-9490
rim	-9491
core	-9492
iens	-9493
ithm	-9494
▁(25	-9495
▁Ins	-9496
▁Inv	-9497
▁rib	-9498
▁tip	-9499
▁ump	-9500
▁Dart	-9501
▁Gran	-9502
▁Such	-9503
▁salt	-9504
omical	-9505
overed	-9506
▁Guild	-9507
▁Isaac	-9508
▁Krist	-9509
▁Parks	-9510
▁Ridge	-9511
▁deter	-9512
▁Danish	-9513
▁Hughes	-9514
▁behalf	-9515
▁secure	-9516
▁screens	-9517
▁resigned	-9518
▁decorated	-9519
▁measuring	-9520
▁travelled	-9521
85	-9522
adi	-9523
▁6.	-9524
▁FM	-9525
▁Ext	-9526
▁Mul	-9527
▁Wes	-9528
▁hat	-9529
ingly	-9530
▁Curt	-9531
▁Mans	-9532
▁Prom	-9533
▁twin	-9534
enesis	-9535
▁1992.	-9536
▁1994.	-9537
▁prize	-9538
changed	-9539
▁Donald	-9540
▁Nathan	-9541
▁Peters	-9542
▁ballad	-9543
▁exceed	-9544
▁inland	-9545
▁Antonio	-9546
▁Diamond	-9547
▁sustain	-9548
▁Alliance	-9549
▁Armenian	-9550
▁documents	-9551
▁increases	-9552
▁scattered	-9553
▁agricultural	-9554
▁communication	-9555
26	-9556
],	-9557
ema	-9558
iti	-9559
▁Il	-9560
What	-9561
asia	-9562
emed	-9563
icus	-9564
illo	-9565
lake	-9566
othy	-9567
oves	-9568
uese	-9569
▁Ped	-9570
▁mal	-9571
▁oct	-9572
▁vin	-9573
backs	-9574
▁1962	-9575
▁Bent	-9576
▁1942,	-9577
▁pairs	-9578
▁pneum	-9579
▁ranks	-9580
▁usual	-9581
▁armour	-9582
▁census	-9583
▁mental	-9584
▁learned	-9585
▁opponent	-9586
▁Adventure	-9587
▁magnitude	-9588
▁predicted	-9589
▁reactions	-9590
▁relocated	-9591
▁artificial	-9592
▁graduating	-9593
Re	-9594
hl	-9595
kh	-9596
nik	-9597
six	-9598
edia	-9599
mont	-9600
▁Fif	-9601
▁Has	-9602
ascar	-9603
overe	-9604
▁Fern	-9605
▁Less	-9606
▁1940,	-9607
▁Craig	-9608
▁Larry	-9609
▁Pearl	-9610
▁angle	-9611
▁carri	-9612
inosaur	-9613
▁Ground	-9614
▁Number	-9615
▁faster	-9616
▁guests	-9617
▁housed	-9618
▁partly	-9619
▁promin	-9620
▁Century	-9621
▁Senator	-9622
▁sitting	-9623
▁networks	-9624
▁remember	-9625
▁solution	-9626
▁Executive	-9627
▁campaigns	-9628
▁transportation	-9629
bi	-9630
ni	-9631
oa	-9632
ivan	-9633
ocol	-9634
▁12-	-9635
▁Sem	-9636
▁1917	-9637
▁Gene	-9638
▁prel	-9639
omatic	-9640
terior	-9641
ussian	-9642
▁(2010	-9643
▁Keith	-9644
▁Obama	-9645
▁acids	-9646
▁adopt	-9647
▁drink	-9648
▁marks	-9649
▁taste	-9650
legiate	-9651
▁Hearts	-9652
▁Napole	-9653
▁Oliver	-9654
▁closer	-9655
▁parody	-9656
▁rescue	-9657
▁roster	-9658
▁signal	-9659
▁Coaster	-9660
▁coaching	-9661
▁directors	-9662
▁millimetres	-9663
▁organisation	-9664
cat	-9665
pat	-9666
arth	-9667
inth	-9668
ista	-9669
mund	-9670
rage	-9671
text	-9672
▁(24	-9673
venge	-9674
▁1947	-9675
▁toll	-9676
artney	-9677
▁Griff	-9678
▁stick	-9679
▁tanks	-9680
▁thing	-9681
▁tours	-9682
landers	-9683
minster	-9684
▁Econom	-9685
▁Labour	-9686
▁aboard	-9687
▁matrix	-9688
▁melody	-9689
graduate	-9690
riptions	-9691
▁Affairs	-9692
▁Collins	-9693
▁Mission	-9694
▁Overall	-9695
▁closest	-9696
▁creator	-9697
▁diverse	-9698
▁emerged	-9699
▁persons	-9700
▁revenue	-9701
▁Austrian	-9702
▁garnered	-9703
▁habitats	-9704
▁hypothes	-9705
▁identify	-9706
▁withdraw	-9707
▁destroyer	-9708
▁neighbour	-9709
▁Birmingham	-9710
▁Pittsburgh	-9711
▁respective	-9712
An	-9713
MC	-9714
erb	-9715
oca	-9716
▁Lin	-9717
▁Pad	-9718
▁Seb	-9719
▁fro	-9720
asaki	-9721
eared	-9722
emble	-9723
otton	-9724
▁1000	-9725
▁1946	-9726
▁Prix	-9727
▁leaf	-9728
▁subd	-9729
incial	-9730
▁1945,	-9731
▁nerve	-9732
▁speak	-9733
▁assess	-9734
▁custom	-9735
▁desert	-9736
▁hybrid	-9737
▁limits	-9738
▁Officer	-9739
▁charter	-9740
▁dischar	-9741
▁discont	-9742
▁circular	-9743
▁enlisted	-9744
▁Professor	-9745
▁manufactured	-9746
Hop	-9747
ilty	-9748
ylan	-9749
▁Inn	-9750
▁mir	-9751
emies	-9752
ersed	-9753
itals	-9754
izers	-9755
tical	-9756
▁000,	-9757
▁1953	-9758
▁1955	-9759
▁Room	-9760
▁dust	-9761
ffield	-9762
vision	-9763
▁Clare	-9764
iveness	-9765
▁Action	-9766
▁Comics	-9767
▁Lennon	-9768
▁assass	-9769
▁cancel	-9770
▁gather	-9771
▁praise	-9772
▁viewing	-9773
▁Guardian	-9774
▁Newfound	-9775
▁honorary	-9776
▁phenomen	-9777
▁particles	-9778
▁dissipating	-9779
▁Conservation	-9780
▁Metropolitan	-9781
▁simultaneously	-9782
86	-9783
IN	-9784
SO	-9785
ST	-9786
▁7.	-9787
olly	-9788
otyp	-9789
▁Saf	-9790
▁Vel	-9791
▁ing	-9792
stage	-9793
uzzle	-9794
▁Cher	-9795
▁Luke	-9796
▁Nova	-9797
▁worn	-9798
former	-9799
rehens	-9800
▁1988,	-9801
▁Alice	-9802
▁Based	-9803
▁Swift	-9804
▁Swiss	-9805
▁Tampa	-9806
▁alter	-9807
▁crest	-9808
▁dense	-9809
▁(2008)	-9810
▁Volume	-9811
▁jurisd	-9812
▁merged	-9813
▁tempor	-9814
▁boilers	-9815
▁centers	-9816
▁strings	-9817
▁absorbed	-9818
▁chloride	-9819
▁diseases	-9820
▁merchant	-9821
▁opportun	-9822
▁attending	-9823
▁everything	-9824
▁concentration	-9825
mun	-9826
▁tu	-9827
ilis	-9828
rock	-9829
▁Abd	-9830
▁Dak	-9831
about	-9832
angel	-9833
fully	-9834
heric	-9835
▁1918	-9836
▁Karl	-9837
▁encl	-9838
escope	-9839
▁Arena	-9840
▁Leeds	-9841
▁Lucas	-9842
▁Where	-9843
▁fixed	-9844
▁siege	-9845
▁Agency	-9846
▁excell	-9847
▁repeat	-9848
▁spaces	-9849
▁Section	-9850
▁Stefani	-9851
▁faculty	-9852
▁prevented	-9853
▁governments	-9854
▁influential	-9855
▁Newfoundland	-9856
Te	-9857
acht	-9858
enti	-9859
ivia	-9860
usal	-9861
▁Heb	-9862
▁Mrs	-9863
▁Pul	-9864
▁etc	-9865
▁jet	-9866
final	-9867
odore	-9868
▁(189	-9869
▁1870	-9870
▁1915	-9871
▁1937	-9872
▁NASA	-9873
▁Trek	-9874
▁quad	-9875
▁sang	-9876
▁sees	-9877
athing	-9878
▁Alpha	-9879
▁Eight	-9880
▁Films	-9881
▁Malay	-9882
▁Speed	-9883
▁elder	-9884
▁panel	-9885
▁usage	-9886
angular	-9887
▁Method	-9888
▁Report	-9889
▁autumn	-9890
▁scores	-9891
▁weapon	-9892
▁Bermuda	-9893
▁Glasgow	-9894
▁predict	-9895
▁someone	-9896
▁tribute	-9897
▁external	-9898
▁completing	-9899
▁structural	-9900
▁requirements	-9901
-16	-9902
cal	-9903
rov	-9904
▁Fa	-9905
▁Wa	-9906
acle	-9907
avil	-9908
enna	-9909
etta	-9910
mith	-9911
oids	-9912
omys	-9913
▁105	-9914
scale	-9915
▁1978	-9916
▁Chad	-9917
▁Rush	-9918
▁tomb	-9919
▁unve	-9920
▁1987,	-9921
▁Ghost	-9922
▁Malta	-9923
▁Wings	-9924
▁accum	-9925
▁dwarf	-9926
writing	-9927
▁Having	-9928
▁Return	-9929
▁Senior	-9930
▁colors	-9931
▁desire	-9932
▁intent	-9933
▁Members	-9934
▁bombard	-9935
▁placing	-9936
▁argument	-9937
▁magnetic	-9938
▁shoulder	-9939
▁Madagascar	-9940
▁demographic	-9941
ht	-9942
sa	-9943
jan	-9944
amer	-9945
know	-9946
▁Joy	-9947
▁sor	-9948
speed	-9949
▁1956	-9950
▁Shah	-9951
▁doct	-9952
▁fron	-9953
▁moon	-9954
▁Symph	-9955
▁consc	-9956
▁sanct	-9957
▁tribe	-9958
▁Colomb	-9959
▁breast	-9960
▁invers	-9961
▁Borough	-9962
▁Written	-9963
▁chronic	-9964
▁depicts	-9965
▁heading	-9966
▁wedding	-9967
▁velocity	-9968
▁Sheffield	-9969
▁Victorian	-9970
▁inaugural	-9971
▁accessible	-9972
▁investment	-9973
▁preparation	-9974
▁experimental	-9975
Jo	-9976
do	-9977
DOT	-9978
▁LP	-9979
Love	-9980
abad	-9981
appa	-9982
ixon	-9983
ulum	-9984
▁360	-9985
▁Saw	-9986
▁Vik	-9987
anche	-9988
iliar	-9989
▁1958	-9990
▁Salt	-9991
▁danc	-9992
▁furn	-9993
▁thor	-9994
▁Geoff	-9995
▁Sweet	-9996
▁Vegas	-9997
▁toler	-9998
mediate	-9999
ruption	-10000
▁Murphy	-10001
▁Wolver	-10002
▁poorly	-10003
▁Israeli	-10004
▁deleted	-10005
▁retreat	-10006
▁Security	-10007
▁detected	-10008
▁dialogue	-10009
▁eastward	-10010
▁Meanwhile	-10011
▁supplement	-10012
▁Continental	-10013
▁Paralympics	-10014
-15	-10015
uin	-10016
▁2)	-10017
ipes	-10018
noon	-10019
▁(29	-10020
▁Eug	-10021
▁dim	-10022
▁mes	-10023
lived	-10024
▁Ches	-10025
▁Shak	-10026
▁jobs	-10027
▁wine	-10028
astery	-10029
castle	-10030
orious	-10031
rupted	-10032
▁1985,	-10033
▁Eddie	-10034
▁Magic	-10035
▁innov	-10036
▁radar	-10037
achment	-10038
compass	-10039
itative	-10040
ivation	-10041
ometric	-10042
▁topped	-10043
▁voiced	-10044
hetamine	-10045
ustrated	-10046
▁collaps	-10047
▁honours	-10048
▁controll	-10049
▁subjects	-10050
▁challenge	-10051
▁mechanism	-10052
▁preferred	-10053
▁celebrated	-10054
▁effectively	-10055
gor	-10056
uman	-10057
▁Bes	-10058
▁Sug	-10059
▁ion	-10060
meter	-10061
readn	-10062
▁Bald	-10063
▁Jama	-10064
▁Lock	-10065
▁Mess	-10066
▁easy	-10067
▁safe	-10068
▁1964,	-10069
▁Range	-10070
▁acute	-10071
▁Mother	-10072
▁filter	-10073
▁honors	-10074
▁mature	-10075
▁voting	-10076
atherine	-10077
▁Germans	-10078
▁Quarter	-10079
▁dollars	-10080
▁drawing	-10081
▁survival	-10082
▁McCartney	-10083
▁estimates	-10084
▁interests	-10085
▁apparently	-10086
▁statistics	-10087
MP	-10088
aco	-10089
ige	-10090
uly	-10091
▁NO	-10092
auty	-10093
otte	-10094
rina	-10095
▁10-	-10096
▁Aqu	-10097
▁cir	-10098
▁fee	-10099
▁pel	-10100
berry	-10101
chair	-10102
izard	-10103
phone	-10104
riors	-10105
rises	-10106
▁reef	-10107
▁rout	-10108
annels	-10109
▁Medic	-10110
▁Peace	-10111
▁explo	-10112
▁trump	-10113
▁Mixing	-10114
▁Shield	-10115
▁bishop	-10116
▁noting	-10117
▁silent	-10118
▁stroke	-10119
▁tennis	-10120
▁Vincent	-10121
▁explain	-10122
▁origins	-10123
▁walking	-10124
▁disorder	-10125
▁battalion	-10126
▁referring	-10127
▁traveling	-10128
▁profession	-10129
▁researchers	-10130
Con	-10131
gun	-10132
▁Hi	-10133
cour	-10134
gets	-10135
omal	-10136
rium	-10137
yler	-10138
▁202	-10139
▁Kon	-10140
▁err	-10141
ieber	-10142
trans	-10143
▁1957	-10144
▁Celt	-10145
▁Prop	-10146
▁masc	-10147
▁root	-10148
▁trig	-10149
ihanna	-10150
second	-10151
▁1939,	-10152
▁Alban	-10153
▁Danny	-10154
▁Exper	-10155
▁canal	-10156
▁links	-10157
regular	-10158
▁suburb	-10159
▁tested	-10160
▁extract	-10161
▁colonies	-10162
▁superior	-10163
▁cathedral	-10164
▁construct	-10165
▁requested	-10166
▁hurricanes	-10167
▁appointment	-10168
36	-10169
ED	-10170
uri	-10171
▁1%	-10172
▁9.	-10173
West	-10174
▁115	-10175
▁McL	-10176
istle	-10177
usted	-10178
▁golf	-10179
icated	-10180
stidia	-10181
▁Robin	-10182
▁femin	-10183
▁steep	-10184
▁steps	-10185
▁Future	-10186
▁Rights	-10187
▁choose	-10188
▁dubbed	-10189
▁stones	-10190
▁switch	-10191
▁varied	-10192
▁diamond	-10193
▁partial	-10194
▁claiming	-10195
▁licensed	-10196
▁nickname	-10197
▁recovery	-10198
▁encompass	-10199
▁expensive	-10200
▁attempting	-10201
▁locomotive	-10202
▁legislation	-10203
▁traditionally	-10204
▁internationally	-10205
CR	-10206
fix	-10207
iar	-10208
ieg	-10209
▁Ce	-10210
thel	-10211
umps	-10212
▁ESP	-10213
▁Hom	-10214
▁Lem	-10215
▁gone	-10216
azines	-10217
person	-10218
▁1943,	-10219
▁1991.	-10220
▁Burke	-10221
▁Devil	-10222
▁Prest	-10223
▁Tales	-10224
▁alien	-10225
▁recru	-10226
▁texts	-10227
▁verte	-10228
ounters	-10229
▁Dayton	-10230
▁Planet	-10231
▁spoken	-10232
▁Belgian	-10233
▁Persian	-10234
▁formats	-10235
▁mammals	-10236
▁reinfor	-10237
▁sixteen	-10238
▁Communic	-10239
▁relation	-10240
▁Northwest	-10241
▁comprises	-10242
▁Indonesian	-10243
▁appropriate	-10244
▁constellation	-10245
yt	-10246
oft	-10247
pin	-10248
beat	-10249
iler	-10250
okes	-10251
roat	-10252
▁$10	-10253
▁Lud	-10254
▁Pay	-10255
▁Tol	-10256
▁lem	-10257
arium	-10258
inned	-10259
▁Salv	-10260
▁Walt	-10261
▁eval	-10262
▁Chand	-10263
▁Judge	-10264
▁anime	-10265
▁gills	-10266
▁Online	-10267
▁breeds	-10268
▁decomp	-10269
▁edible	-10270
esignated	-10271
▁disaster	-10272
▁reducing	-10273
▁suitable	-10274
▁Beginning	-10275
▁sequences	-10276
▁encouraged	-10277
▁Springfield	-10278
▁Organization	-10279
▁arrangements	-10280
ju	-10281
haw	-10282
cott	-10283
esty	-10284
ilit	-10285
▁172	-10286
▁ATP	-10287
▁Tit	-10288
▁tap	-10289
using	-10290
▁1880	-10291
▁Bomb	-10292
▁Ener	-10293
▁Rena	-10294
▁dual	-10295
▁earn	-10296
▁pink	-10297
▁Falls	-10298
▁Grace	-10299
▁aimed	-10300
▁enfor	-10301
▁Living	-10302
▁Turkey	-10303
▁Wonder	-10304
▁config	-10305
▁orbits	-10306
▁tenure	-10307
▁nearest	-10308
▁unclear	-10309
▁meetings	-10310
▁offering	-10311
▁supplied	-10312
▁discontin	-10313
▁ceremonies	-10314
▁competitors	-10315
▁improvements	-10316
▁southwestern	-10317
▁participation	-10318
▁Representatives	-10319
Tr	-10320
Ind	-10321
UCN	-10322
▁CA	-10323
anne	-10324
arts	-10325
wald	-10326
▁Fil	-10327
▁Nat	-10328
▁Ric	-10329
▁Wor	-10330
▁cry	-10331
▁mit	-10332
▁tun	-10333
▁1952	-10334
▁Clay	-10335
▁Lith	-10336
▁clar	-10337
▁dies	-10338
▁gaug	-10339
▁mask	-10340
▁tone	-10341
alysis	-10342
▁Psych	-10343
▁sheep	-10344
▁wrong	-10345
General	-10346
▁(2004)	-10347
▁(2009)	-10348
▁(2012)	-10349
▁Artist	-10350
▁Father	-10351
▁Invest	-10352
▁Nation	-10353
▁atomic	-10354
▁cousin	-10355
▁eating	-10356
▁prices	-10357
▁Rihanna	-10358
▁cavalry	-10359
▁freight	-10360
▁therapy	-10361
▁tourist	-10362
▁abundant	-10363
▁controls	-10364
▁decrease	-10365
▁mentions	-10366
▁playable	-10367
▁visiting	-10368
▁sculpture	-10369
▁variation	-10370
▁continuous	-10371
▁functional	-10372
▁mainstream	-10373
▁corresponding	-10374
ER	-10375
If	-10376
agg	-10377
igs	-10378
▁FC	-10379
▁Mi	-10380
arus	-10381
folk	-10382
isis	-10383
pled	-10384
rose	-10385
xide	-10386
▁168	-10387
▁Ali	-10388
▁Cre	-10389
▁Kam	-10390
▁Neg	-10391
▁Pap	-10392
▁Sle	-10393
▁adm	-10394
agers	-10395
ringe	-10396
uctor	-10397
utter	-10398
▁Arms	-10399
▁Carp	-10400
▁Enix	-10401
▁Mong	-10402
▁reun	-10403
oprano	-10404
▁1914,	-10405
▁1990.	-10406
▁Globe	-10407
▁cream	-10408
▁telev	-10409
atabase	-10410
▁Dwight	-10411
▁Guinea	-10412
▁absent	-10413
▁agents	-10414
▁burial	-10415
▁palace	-10416
aturally	-10417
▁Fighter	-10418
▁surpass	-10419
▁Montreal	-10420
▁Together	-10421
▁displays	-10422
▁executed	-10423
▁freshman	-10424
▁studying	-10425
ologically	-10426
▁possession	-10427
▁publishing	-10428
▁suggesting	-10429
▁Universities	-10430
▁circumstances	-10431
HC	-10432
din	-10433
dra	-10434
▁Ay	-10435
▁Gh	-10436
▁Vo	-10437
avel	-10438
▁Jar	-10439
▁Pic	-10440
▁RAF	-10441
▁sky	-10442
▁tum	-10443
odium	-10444
oking	-10445
olars	-10446
▁Bend	-10447
▁Jess	-10448
▁Shin	-10449
▁gang	-10450
▁knew	-10451
akespe	-10452
enberg	-10453
ioneer	-10454
verted	-10455
▁1993.	-10456
▁Bears	-10457
▁Chall	-10458
▁Stein	-10459
▁Those	-10460
▁aster	-10461
▁spawn	-10462
▁Harper	-10463
▁accord	-10464
▁explan	-10465
▁remove	-10466
ublished	-10467
▁Yankees	-10468
▁console	-10469
▁pitcher	-10470
▁soldier	-10471
abilities	-10472
▁diagnosis	-10473
▁horizontal	-10474
.;	-10475
ía	-10476
▁Ax	-10477
lesh	-10478
▁Kid	-10479
▁Tow	-10480
▁bes	-10481
▁mos	-10482
arant	-10483
enson	-10484
ospel	-10485
▁1963	-10486
▁Shan	-10487
▁Soft	-10488
▁hear	-10489
stance	-10490
▁Local	-10491
▁bones	-10492
▁micro	-10493
▁ready	-10494
▁uncle	-10495
hemical	-10496
ullivan	-10497
▁Athens	-10498
▁Clarke	-10499
▁Travel	-10500
▁ceased	-10501
▁dimens	-10502
▁phrase	-10503
▁surviv	-10504
▁varies	-10505
▁Theater	-10506
▁anticip	-10507
▁exhibit	-10508
▁goddess	-10509
▁handled	-10510
▁ongoing	-10511
▁secured	-10512
▁turrets	-10513
akespeare	-10514
▁channels	-10515
▁clothing	-10516
▁theories	-10517
▁withdrew	-10518
▁concerned	-10519
▁essential	-10520
▁evacuated	-10521
▁promoting	-10522
▁signature	-10523
▁Convention	-10524
▁Portuguese	-10525
▁revolution	-10526
▁distinguish	-10527
▁scholarship	-10528
▁Independence	-10529
38	-10530
Am	-10531
ubs	-10532
▁Uk	-10533
ashi	-10534
held	-10535
olia	-10536
▁12.	-10537
▁Eld	-10538
▁Ted	-10539
▁Tun	-10540
▁rod	-10541
▁ske	-10542
oints	-10543
raine	-10544
world	-10545
▁Pars	-10546
▁nerv	-10547
achers	-10548
alling	-10549
encing	-10550
hanced	-10551
▁1918,	-10552
▁1945.	-10553
▁1972,	-10554
▁Cedar	-10555
▁Flore	-10556
▁Glass	-10557
▁Mixed	-10558
▁sweet	-10559
▁Yellow	-10560
▁gender	-10561
▁layers	-10562
▁sudden	-10563
▁Gilbert	-10564
▁balance	-10565
▁removal	-10566
▁tracked	-10567
▁AllMusic	-10568
▁Nicholas	-10569
▁approval	-10570
▁cruisers	-10571
▁fortress	-10572
▁extending	-10573
▁transmission	-10574
▁infrastructure	-10575
39	-10576
45	-10577
ré	-10578
uka	-10579
▁EU	-10580
▁ho	-10581
best	-10582
gans	-10583
olen	-10584
romb	-10585
▁350	-10586
▁Fat	-10587
▁Lag	-10588
ellar	-10589
uable	-10590
uters	-10591
▁1911	-10592
▁Emer	-10593
▁Mond	-10594
▁bapt	-10595
▁grid	-10596
amount	-10597
▁Colin	-10598
▁advoc	-10599
▁sings	-10600
adition	-10601
▁Observ	-10602
▁cattle	-10603
▁hamlet	-10604
▁skiing	-10605
▁Hungary	-10606
▁Islamic	-10607
▁Trinity	-10608
▁auction	-10609
▁colours	-10610
▁compens	-10611
▁fratern	-10612
▁neutral	-10613
▁posthum	-10614
▁subsidi	-10615
▁touring	-10616
▁Greatest	-10617
▁civilian	-10618
▁eligible	-10619
▁receives	-10620
▁wrestler	-10621
▁inhabitants	-10622
▁commercially	-10623
▁significance	-10624
▁predominantly	-10625
abe	-10626
bes	-10627
umi	-10628
▁8.	-10629
hall	-10630
page	-10631
▁Bot	-10632
▁Hat	-10633
▁Map	-10634
▁Sor	-10635
▁lin	-10636
▁lyr	-10637
agles	-10638
grade	-10639
▁100,	-10640
▁1949	-10641
▁Bird	-10642
▁Goth	-10643
▁Make	-10644
▁Rest	-10645
▁ants	-10646
usters	-10647
▁Tommy	-10648
▁juven	-10649
▁reson	-10650
▁tries	-10651
ishment	-10652
▁Leslie	-10653
▁Screen	-10654
▁cannon	-10655
▁hidden	-10656
▁unless	-10657
▁Chester	-10658
▁Masters	-10659
▁license	-10660
▁physics	-10661
▁sailing	-10662
▁Brooklyn	-10663
▁benefits	-10664
▁guitarist	-10665
▁relatives	-10666
▁philosophy	-10667
Ad	-10668
DT	-10669
IT	-10670
ín	-10671
cow	-10672
mel	-10673
▁$7	-10674
▁AS	-10675
owed	-10676
▁Leo	-10677
▁Our	-10678
▁Yam	-10679
endar	-10680
itime	-10681
▁1916	-10682
▁1935	-10683
▁Evil	-10684
▁José	-10685
▁Leaf	-10686
▁lose	-10687
▁1986,	-10688
▁Burns	-10689
▁Mason	-10690
▁Serge	-10691
▁initi	-10692
▁queen	-10693
▁relie	-10694
▁tools	-10695
autical	-10696
▁Albany	-10697
▁Ernest	-10698
▁Hitler	-10699
▁Rogers	-10700
▁Spider	-10701
▁fallen	-10702
▁landed	-10703
▁metric	-10704
▁Alberta	-10705
▁Cameron	-10706
▁Friends	-10707
▁Raymond	-10708
▁Various	-10709
▁descent	-10710
▁enemies	-10711
▁heavier	-10712
▁transit	-10713
▁updated	-10714
▁Columbus	-10715
▁publicly	-10716
▁teammate	-10717
▁recurring	-10718
▁underwent	-10719
▁Shakespeare	-10720
▁northwestern	-10721
▁participating	-10722
%,	-10723
Wh	-10724
-14	-10725
ben	-10726
iph	-10727
vex	-10728
▁Ko	-10729
oirs	-10730
▁(22	-10731
▁(23	-10732
▁bid	-10733
icken	-10734
▁(190	-10735
▁1954	-10736
▁Chin	-10737
▁Deep	-10738
▁Gott	-10739
▁Soon	-10740
▁jack	-10741
▁nurs	-10742
alions	-10743
banded	-10744
common	-10745
levard	-10746
profit	-10747
▁Hardy	-10748
▁photo	-10749
▁tubes	-10750
▁Herman	-10751
▁crisis	-10752
▁metall	-10753
▁Crystal	-10754
▁Defense	-10755
▁Limited	-10756
▁exactly	-10757
▁illegal	-10758
▁Portugal	-10759
▁Railways	-10760
▁creative	-10761
▁exercise	-10762
▁mythology	-10763
▁similarly	-10764
▁stationed	-10765
▁strongest	-10766
▁politician	-10767
▁opportunities	-10768
As	-10769
▁⁄	-10770
gro	-10771
iga	-10772
sub	-10773
vol	-10774
▁Um	-10775
▁ol	-10776
Hung	-10777
norm	-10778
olin	-10779
ooks	-10780
▁Lib	-10781
▁Mak	-10782
anner	-10783
story	-10784
▁1912	-10785
▁Brun	-10786
▁Unit	-10787
▁pull	-10788
▁raid	-10789
▁tact	-10790
▁1944,	-10791
▁Dylan	-10792
▁Fight	-10793
▁Joint	-10794
▁Lodge	-10795
▁bears	-10796
▁false	-10797
▁toxic	-10798
▁(2005)	-10799
▁Arnold	-10800
▁Harold	-10801
▁Inside	-10802
▁aggreg	-10803
▁cataly	-10804
▁deemed	-10805
▁looked	-10806
▁Gregory	-10807
▁Stories	-10808
▁columns	-10809
▁offense	-10810
▁stretch	-10811
▁wrestlers	-10812
▁indicating	-10813
▁tournaments	-10814
Fe	-10815
LA	-10816
upp	-10817
uxe	-10818
zym	-10819
atra	-10820
atsu	-10821
nant	-10822
ouch	-10823
rien	-10824
zyme	-10825
▁49-	-10826
▁ERA	-10827
▁Gon	-10828
▁Rio	-10829
adier	-10830
isons	-10831
south	-10832
▁100.	-10833
▁Data	-10834
▁Jews	-10835
▁blow	-10836
▁frig	-10837
incinn	-10838
itched	-10839
▁(2010)	-10840
▁Branch	-10841
▁Fourth	-10842
▁tables	-10843
▁Chelsea	-10844
▁keeping	-10845
▁monsoon	-10846
▁protest	-10847
▁recruit	-10848
▁happened	-10849
▁pictures	-10850
▁maintains	-10851
▁employment	-10852
▁Environment	-10853
▁difficulties	-10854
▁universities	-10855
IA	-10856
lay	-10857
▁Pi	-10858
atas	-10859
dest	-10860
rene	-10861
▁Equ	-10862
▁Fur	-10863
▁Occ	-10864
▁Osc	-10865
▁dys	-10866
▁sap	-10867
acker	-10868
inian	-10869
ocene	-10870
olith	-10871
raham	-10872
▁1800	-10873
▁1961	-10874
▁Expl	-10875
▁Food	-10876
▁gran	-10877
called	-10878
▁1979,	-10879
▁Sonic	-10880
▁helic	-10881
▁kings	-10882
▁skull	-10883
▁valid	-10884
nerable	-10885
▁endors	-10886
▁sector	-10887
▁symmet	-10888
language	-10889
▁Newport	-10890
▁Richmond	-10891
▁arriving	-10892
▁continuo	-10893
▁prototype	-10894
▁spiritual	-10895
▁connections	-10896
▁improvement	-10897
ET	-10898
El	-10899
-21	-10900
Far	-10901
alls	-10902
dish	-10903
post	-10904
quir	-10905
utor	-10906
zing	-10907
▁155	-10908
▁Kil	-10909
▁Mig	-10910
▁Sak	-10911
▁bay	-10912
▁pap	-10913
aniel	-10914
ipped	-10915
onica	-10916
otten	-10917
ultan	-10918
▁ESPN	-10919
▁Hold	-10920
▁Jake	-10921
▁Past	-10922
▁Rams	-10923
▁Term	-10924
▁Verm	-10925
evelop	-10926
▁1939.	-10927
▁Bible	-10928
▁Eagle	-10929
▁Motor	-10930
▁mines	-10931
▁prosp	-10932
▁releg	-10933
written	-10934
▁(2006)	-10935
▁(2007)	-10936
▁Carlos	-10937
▁Dennis	-10938
▁Energy	-10939
▁Jeremy	-10940
▁Ronald	-10941
▁alumin	-10942
▁finals	-10943
▁stored	-10944
▁verses	-10945
▁Cincinn	-10946
▁Liberal	-10947
▁altered	-10948
▁dressed	-10949
▁Cornwall	-10950
▁Cultural	-10951
▁delivery	-10952
▁afternoon	-10953
▁inherited	-10954
▁narrative	-10955
▁vegetation	-10956
▁reconnaissance	-10957
TS	-10958
agh	-10959
tem	-10960
udi	-10961
arry	-10962
comm	-10963
ders	-10964
elli	-10965
onge	-10966
only	-10967
pres	-10968
▁109	-10969
▁Blo	-10970
▁MLB	-10971
▁Mab	-10972
▁Pun	-10973
eight	-10974
ettes	-10975
later	-10976
month	-10977
works	-10978
▁1933	-10979
▁Canc	-10980
▁Site	-10981
▁Todd	-10982
▁amph	-10983
▁aria	-10984
▁evil	-10985
▁knee	-10986
▁1941.	-10987
▁Adult	-10988
▁Coach	-10989
▁Patri	-10990
▁digit	-10991
▁seeds	-10992
▁spans	-10993
assador	-10994
itively	-10995
▁Bright	-10996
▁Member	-10997
▁driven	-10998
▁ingred	-10999
▁invent	-11000
▁layout	-11001
▁tribut	-11002
▁turret	-11003
▁worker	-11004
▁Leonard	-11005
▁hearing	-11006
▁terrain	-11007
▁Complete	-11008
▁collapse	-11009
▁dominant	-11010
▁elevated	-11011
▁isotopes	-11012
▁Boulevard	-11013
▁Technical	-11014
▁dismissed	-11015
▁magazines	-11016
▁signifies	-11017
▁synthesis	-11018
▁traditions	-11019
▁educational	-11020
▁demonstrated	-11021
▁northeastern	-11022
79	-11023
Se	-11024
VP	-11025
ibu	-11026
ido	-11027
was	-11028
yll	-11029
▁MC	-11030
▁Ze	-11031
away	-11032
inis	-11033
urop	-11034
week	-11035
▁Cov	-11036
▁Sri	-11037
▁VII	-11038
ephew	-11039
eston	-11040
▁Mend	-11041
▁bowl	-11042
▁else	-11043
▁mans	-11044
▁tube	-11045
ailand	-11046
▁Aaron	-11047
isphere	-11048
▁Harvey	-11049
▁circle	-11050
▁funded	-11051
▁genera	-11052
▁metals	-11053
▁negoti	-11054
▁rising	-11055
▁Manager	-11056
▁Norwich	-11057
▁beneath	-11058
▁calcium	-11059
▁context	-11060
▁dancing	-11061
▁Broadway	-11062
▁Monument	-11063
▁Ultimate	-11064
▁birthday	-11065
▁deposits	-11066
▁Supporting	-11067
IS	-11068
gie	-11069
hop	-11070
ayan	-11071
oked	-11072
oshi	-11073
otus	-11074
rait	-11075
stop	-11076
uded	-11077
▁112	-11078
▁18.	-11079
▁McM	-11080
▁Ref	-11081
▁Sha	-11082
▁ecl	-11083
▁rer	-11084
eness	-11085
sized	-11086
▁RAAF	-11087
▁Tree	-11088
▁anch	-11089
▁fear	-11090
▁styl	-11091
caster	-11092
▁Month	-11093
▁Reich	-11094
▁decay	-11095
▁lanes	-11096
▁Circle	-11097
▁Legisl	-11098
▁mining	-11099
▁propag	-11100
▁retain	-11101
▁speeds	-11102
▁transc	-11103
▁whales	-11104
▁Machine	-11105
▁compact	-11106
▁seeking	-11107
▁lifetime	-11108
▁Dartmouth	-11109
▁Cincinnati	-11110
▁proportion	-11111
▁Heavyweight	-11112
▁celebration	-11113
▁representation	-11114
65	-11115
irm	-11116
cycl	-11117
iman	-11118
made	-11119
uise	-11120
▁104	-11121
▁Esc	-11122
▁Lan	-11123
▁cub	-11124
▁gay	-11125
▁mud	-11126
▁rig	-11127
stery	-11128
▁(188	-11129
▁Eyes	-11130
▁Ivan	-11131
▁fram	-11132
ampire	-11133
handed	-11134
▁1919,	-11135
▁1940.	-11136
▁flank	-11137
▁rocks	-11138
▁(2011)	-11139
▁Moscow	-11140
▁banned	-11141
▁crimes	-11142
▁revers	-11143
▁totals	-11144
▁chamber	-11145
▁closure	-11146
▁derives	-11147
▁holiday	-11148
sometimes	-11149
▁drinking	-11150
▁midfield	-11151
▁depicting	-11152
▁kilometers	-11153
▁Contemporary	-11154
%)	-11155
zz	-11156
mal	-11157
oro	-11158
roe	-11159
▁Mk	-11160
blem	-11161
free	-11162
holm	-11163
▁Arc	-11164
▁Aub	-11165
▁Pel	-11166
▁Say	-11167
▁sel	-11168
ivate	-11169
ocket	-11170
▁Code	-11171
▁bell	-11172
▁gram	-11173
▁pine	-11174
▁stim	-11175
uccane	-11176
▁Ellis	-11177
▁Urban	-11178
▁canon	-11179
▁plain	-11180
▁saved	-11181
▁vinyl	-11182
▁wider	-11183
▁Celtic	-11184
▁Wagner	-11185
▁anyone	-11186
▁lawyer	-11187
▁movies	-11188
▁phosph	-11189
▁pupils	-11190
▁throne	-11191
▁Morning	-11192
▁beating	-11193
▁profile	-11194
▁Junction	-11195
▁altitude	-11196
▁believes	-11197
▁confused	-11198
▁retiring	-11199
▁Newcastle	-11200
▁permitted	-11201
CAP	-11202
asi	-11203
eta	-11204
igo	-11205
née	-11206
edge	-11207
horn	-11208
imer	-11209
oric	-11210
song	-11211
uras	-11212
▁102	-11213
▁106	-11214
▁15.	-11215
▁Kin	-11216
▁Sey	-11217
▁avo	-11218
gener	-11219
oyage	-11220
▁1959	-11221
▁Kurt	-11222
▁Mick	-11223
▁Wool	-11224
▁rand	-11225
length	-11226
monton	-11227
orient	-11228
▁Chile	-11229
▁Minor	-11230
▁Right	-11231
▁chest	-11232
▁eagle	-11233
▁fungi	-11234
▁moral	-11235
▁opens	-11236
▁param	-11237
iminary	-11238
rossing	-11239
▁analog	-11240
▁backed	-11241
▁elabor	-11242
▁handed	-11243
▁judges	-11244
▁poster	-11245
▁substr	-11246
▁violin	-11247
ominated	-11248
▁Cavalry	-11249
▁Typhoon	-11250
▁mineral	-11251
▁viruses	-11252
▁lacrosse	-11253
▁unveiled	-11254
▁vocalist	-11255
▁waterline	-11256
▁criticised	-11257
▁dimensions	-11258
▁screenplay	-11259
▁Afghanistan	-11260
▁settlements	-11261
but	-11262
fin	-11263
lus	-11264
rys	-11265
ymn	-11266
▁$8	-11267
girl	-11268
inae	-11269
▁Nak	-11270
▁haz	-11271
▁lap	-11272
antle	-11273
ierra	-11274
ulous	-11275
▁Berg	-11276
▁Lamb	-11277
▁Maya	-11278
▁Next	-11279
▁Pant	-11280
▁ampl	-11281
▁cruc	-11282
▁gift	-11283
▁summ	-11284
cester	-11285
lation	-11286
▁Event	-11287
▁Lions	-11288
▁Miles	-11289
▁Recre	-11290
▁acted	-11291
▁crops	-11292
ication	-11293
▁Arabic	-11294
▁Brooks	-11295
▁Desert	-11296
▁Foster	-11297
▁Heaven	-11298
▁Moving	-11299
▁acknow	-11300
▁muscle	-11301
▁riding	-11302
▁soccer	-11303
▁supern	-11304
▁Barrett	-11305
▁Buccane	-11306
▁Minogue	-11307
▁cutting	-11308
▁thermal	-11309
▁averaged	-11310
▁departed	-11311
▁Hungarian	-11312
▁behaviour	-11313
▁efficient	-11314
▁festivals	-11315
▁migration	-11316
▁provision	-11317
▁victories	-11318
▁Paralympic	-11319
▁contribute	-11320
▁intersects	-11321
▁laboratory	-11322
▁Information	-11323
▁contribution	-11324
28	-11325
Do	-11326
RO	-11327
di	-11328
eli	-11329
emen	-11330
▁Had	-11331
▁Pam	-11332
▁WWF	-11333
▁bin	-11334
▁pla	-11335
▁sin	-11336
▁swe	-11337
count	-11338
ioned	-11339
isode	-11340
▁Erik	-11341
▁Kath	-11342
▁Tong	-11343
▁boot	-11344
▁cock	-11345
▁milk	-11346
formed	-11347
▁978-1	-11348
▁Blake	-11349
▁Rugby	-11350
▁frame	-11351
▁helps	-11352
▁tempo	-11353
▁threw	-11354
▁waste	-11355
▁(2001)	-11356
▁Commun	-11357
▁Rachel	-11358
▁Sussex	-11359
▁fairly	-11360
▁satisf	-11361
▁towers	-11362
▁Individ	-11363
▁Liberty	-11364
▁chorale	-11365
▁shifted	-11366
rehensive	-11367
▁artistic	-11368
▁imprison	-11369
▁nitrogen	-11370
▁relating	-11371
▁Similarly	-11372
▁landscape	-11373
▁naturally	-11374
▁organised	-11375
▁Soundtrack	-11376
▁conversion	-11377
▁legislature	-11378
▁multiplayer	-11379
▁potentially	-11380
▁incorporates	-11381
▁representatives	-11382
Ex	-11383
WC	-11384
eu	-11385
lia	-11386
rez	-11387
oons	-11388
ride	-11389
▁(28	-11390
▁Any	-11391
▁Fab	-11392
▁Mut	-11393
▁RBI	-11394
▁cox	-11395
▁tor	-11396
asant	-11397
cliff	-11398
gence	-11399
icing	-11400
lease	-11401
pring	-11402
▁1928	-11403
▁Jazz	-11404
▁Linn	-11405
▁Mind	-11406
▁Suff	-11407
▁bore	-11408
▁coff	-11409
▁prev	-11410
agonal	-11411
▁Leban	-11412
▁Nancy	-11413
▁holes	-11414
▁sharp	-11415
▁synth	-11416
▁tight	-11417
entieth	-11418
▁Baltic	-11419
▁Effect	-11420
▁Saints	-11421
▁Twenty	-11422
▁Watson	-11423
▁aerial	-11424
▁binary	-11425
▁guilty	-11426
▁notice	-11427
▁tender	-11428
official	-11429
▁defended	-11430
▁enrolled	-11431
▁policies	-11432
▁variable	-11433
production	-11434
▁Armstrong	-11435
▁delegation	-11436
▁discussion	-11437
▁restaurants	-11438
▁presentation	-11439
NY	-11440
Let	-11441
hin	-11442
iki	-11443
rus	-11444
she	-11445
ulu	-11446
▁7:	-11447
feld	-11448
harm	-11449
odon	-11450
phal	-11451
▁Pok	-11452
▁spr	-11453
amics	-11454
green	-11455
▁Away	-11456
▁Link	-11457
▁Want	-11458
▁hosp	-11459
▁soph	-11460
arting	-11461
lights	-11462
rating	-11463
ulates	-11464
unnels	-11465
▁Until	-11466
▁phone	-11467
▁tooth	-11468
▁flower	-11469
▁patron	-11470
▁random	-11471
▁Cyclone	-11472
▁Weather	-11473
▁dispute	-11474
▁Attorney	-11475
▁Edmonton	-11476
▁Symphony	-11477
▁collapsed	-11478
▁customers	-11479
▁reflected	-11480
▁standings	-11481
▁permission	-11482
▁jurisdiction	-11483
▁undergraduate	-11484
▁archaeological	-11485
▁instrumentation	-11486
48	-11487
71	-11488
aku	-11489
lot	-11490
pow	-11491
sur	-11492
vae	-11493
John	-11494
colm	-11495
gary	-11496
iden	-11497
oved	-11498
sburg	-11499
▁1904	-11500
▁1913	-11501
▁1926	-11502
▁1927	-11503
▁Jose	-11504
▁Must	-11505
▁blog	-11506
▁bull	-11507
▁rice	-11508
aptist	-11509
unners	-11510
▁1987.	-11511
▁Trade	-11512
▁Voice	-11513
▁artif	-11514
▁ideal	-11515
▁motif	-11516
▁stops	-11517
▁width	-11518
ocation	-11519
▁Amazon	-11520
▁Astron	-11521
▁Bulgar	-11522
▁Denver	-11523
▁Double	-11524
▁Global	-11525
▁Luther	-11526
▁backup	-11527
▁convoy	-11528
▁exclud	-11529
▁seeing	-11530
▁strict	-11531
▁Federer	-11532
▁borough	-11533
▁justice	-11534
▁mixture	-11535
▁patient	-11536
▁Stanford	-11537
▁prompted	-11538
▁shipping	-11539
▁attacking	-11540
▁corporate	-11541
▁irregular	-11542
▁understand	-11543
▁continental	-11544
▁distinction	-11545
.).	-11546
anim	-11547
oven	-11548
▁Hav	-11549
▁Kri	-11550
etary	-11551
ubble	-11552
▁1860	-11553
▁1901	-11554
▁1905	-11555
▁cere	-11556
▁merc	-11557
▁navy	-11558
▁plas	-11559
▁salv	-11560
▁yard	-11561
ambers	-11562
stable	-11563
▁1974,	-11564
▁1984,	-11565
▁1989.	-11566
▁Johns	-11567
▁noble	-11568
▁sixty	-11569
▁spore	-11570
▁Holmes	-11571
▁aspect	-11572
▁kidney	-11573
▁Cardiff	-11574
▁Control	-11575
▁emperor	-11576
▁options	-11577
▁reverse	-11578
▁spotted	-11579
▁informed	-11580
▁presumed	-11581
▁register	-11582
▁writings	-11583
▁Assistant	-11584
▁apartment	-11585
▁chemistry	-11586
▁downloads	-11587
▁impedance	-11588
▁reviewers	-11589
▁approaching	-11590
32	-11591
76	-11592
Hg	-11593
VA	-11594
pa	-11595
Eng	-11596
For	-11597
cos	-11598
irs	-11599
▁PS	-11600
atty	-11601
irus	-11602
omon	-11603
▁Alt	-11604
▁Esp	-11605
▁les	-11606
▁por	-11607
astro	-11608
front	-11609
onnie	-11610
stock	-11611
ucker	-11612
▁1921	-11613
▁Cris	-11614
▁Doll	-11615
▁Gaga	-11616
▁Otto	-11617
▁Rice	-11618
▁bond	-11619
thodox	-11620
▁Metal	-11621
▁Titan	-11622
▁surge	-11623
▁(2013)	-11624
▁Butler	-11625
▁Ottawa	-11626
▁batted	-11627
▁lights	-11628
▁shares	-11629
▁Mercury	-11630
▁Springs	-11631
▁Writing	-11632
▁lawsuit	-11633
▁marking	-11634
ighthouse	-11635
▁Croatian	-11636
▁comments	-11637
▁presents	-11638
▁Engineers	-11639
▁defeating	-11640
▁footballer	-11641
▁nationally	-11642
▁counterpart	-11643
▁eligibility	-11644
▁institution	-11645
▁interaction	-11646
▁interpreted	-11647
▁mathematics	-11648
▁temporarily	-11649
▁Professional	-11650
▁compositions	-11651
▁intermediate	-11652
49	-11653
bb	-11654
és	-11655
eps	-11656
▁mg	-11657
-201	-11658
atar	-11659
eria	-11660
▁11.	-11661
▁128	-11662
▁Gay	-11663
▁Jag	-11664
▁Pas	-11665
▁Rah	-11666
▁fib	-11667
cruis	-11668
immer	-11669
press	-11670
ridor	-11671
▁1922	-11672
▁Beth	-11673
▁Luis	-11674
▁Shar	-11675
▁clip	-11676
▁flex	-11677
▁ramp	-11678
finals	-11679
ometer	-11680
▁Floyd	-11681
▁Spect	-11682
▁array	-11683
▁crust	-11684
▁gauge	-11685
ometown	-11686
▁Timber	-11687
▁apprec	-11688
▁beaten	-11689
▁cinema	-11690
▁citing	-11691
▁conven	-11692
▁extant	-11693
▁golden	-11694
▁treaty	-11695
▁Against	-11696
▁Malcolm	-11697
▁damages	-11698
▁athletic	-11699
▁cultures	-11700
▁ironclad	-11701
▁machines	-11702
▁settlers	-11703
▁speaking	-11704
obiography	-11705
strumental	-11706
▁peninsula	-11707
▁battalions	-11708
▁indigenous	-11709
▁resolution	-11710
FM	-11711
HA	-11712
200	-11713
cia	-11714
iaz	-11715
iem	-11716
▁1)	-11717
▁Ye	-11718
care	-11719
iser	-11720
▁(21	-11721
▁108	-11722
▁16.	-11723
▁Beh	-11724
▁asc	-11725
▁nam	-11726
▁ray	-11727
ilogy	-11728
owski	-11729
plete	-11730
▁Aman	-11731
▁Brid	-11732
▁Cany	-11733
▁Sans	-11734
▁scar	-11735
▁vast	-11736
aneous	-11737
ellect	-11738
ennial	-11739
icking	-11740
iggins	-11741
istent	-11742
likely	-11743
▁Liter	-11744
▁Marge	-11745
▁whale	-11746
viously	-11747
▁Annual	-11748
▁Dakota	-11749
▁Sebast	-11750
▁detect	-11751
▁fruits	-11752
▁Abraham	-11753
▁facilit	-11754
▁feeling	-11755
▁shallow	-11756
▁Napoleon	-11757
▁cemetery	-11758
▁dinosaur	-11759
▁garrison	-11760
▁nautical	-11761
▁Southeast	-11762
▁tornadoes	-11763
▁Adventures	-11764
▁Furthermore	-11765
▁productions	-11766
▁concentrated	-11767
▁similarities	-11768
▁manufacturing	-11769
3-	-11770
▁É	-11771
cap	-11772
iop	-11773
oka	-11774
bird	-11775
orpe	-11776
race	-11777
that	-11778
▁(26	-11779
▁10%	-11780
▁Eve	-11781
▁Put	-11782
encer	-11783
▁Aber	-11784
▁Hull	-11785
▁Ober	-11786
▁beds	-11787
▁hole	-11788
▁1960,	-11789
▁cliff	-11790
▁creek	-11791
▁eaten	-11792
▁Duncan	-11793
▁Hannah	-11794
▁shells	-11795
▁venues	-11796
▁bearing	-11797
▁outdoor	-11798
▁Standard	-11799
▁eruption	-11800
▁rankings	-11801
▁romantic	-11802
▁audiences	-11803
▁oxidation	-11804
▁Archbishop	-11805
▁aggressive	-11806
▁progressed	-11807
▁undertaken	-11808
▁Productions	-11809
▁Broadcasting	-11810
▁Christianity	-11811
▁administered	-11812
4-	-11813
RC	-11814
Old	-11815
akh	-11816
pur	-11817
▁0.	-11818
▁Tu	-11819
andy	-11820
arin	-11821
ifts	-11822
quin	-11823
▁19.	-11824
▁CEO	-11825
▁Num	-11826
▁wel	-11827
acked	-11828
stand	-11829
umble	-11830
▁Drum	-11831
▁Insp	-11832
▁Made	-11833
▁Winc	-11834
▁phyl	-11835
▁punk	-11836
▁tram	-11837
usalem	-11838
utnant	-11839
▁1950,	-11840
▁1980,	-11841
▁Price	-11842
▁Singh	-11843
▁apply	-11844
▁atoms	-11845
▁blind	-11846
▁coins	-11847
▁hoped	-11848
▁truck	-11849
▁uncon	-11850
olition	-11851
taining	-11852
▁Adrian	-11853
▁Bengal	-11854
▁Julian	-11855
▁contem	-11856
▁curved	-11857
▁medley	-11858
▁prefix	-11859
▁ruling	-11860
▁shaped	-11861
▁affairs	-11862
▁electro	-11863
▁surrend	-11864
▁withdra	-11865
▁attorney	-11866
▁dropping	-11867
▁Chronicle	-11868
▁Nashville	-11869
▁monastery	-11870
▁preceding	-11871
▁recipient	-11872
▁surrender	-11873
▁Buccaneers	-11874
▁horsepower	-11875
▁conjunction	-11876
▁maintaining	-11877
▁perspective	-11878
▁terrestrial	-11879
▁thunderstorms	-11880
bot	-11881
irk	-11882
▁2%	-11883
▁AU	-11884
▁Ib	-11885
ilia	-11886
isle	-11887
rews	-11888
tage	-11889
wind	-11890
▁Daw	-11891
▁Hob	-11892
▁mim	-11893
▁tet	-11894
heads	-11895
plant	-11896
pound	-11897
▁1931	-11898
▁Fitz	-11899
▁Idol	-11900
▁Need	-11901
▁Phot	-11902
▁bats	-11903
▁dock	-11904
▁stan	-11905
aching	-11906
chestr	-11907
tender	-11908
▁(2000	-11909
▁Tyler	-11910
▁Watch	-11911
▁amino	-11912
▁enzym	-11913
▁quiet	-11914
imetime	-11915
▁enthus	-11916
▁pulled	-11917
▁summit	-11918
▁Bahamas	-11919
▁Bennett	-11920
▁Hopkins	-11921
▁catalog	-11922
▁fossils	-11923
▁preserve	-11924
▁accommodate	-11925
▁agriculture	-11926
▁constitution	-11927
46	-11928
56	-11929
▁→	-11930
cod	-11931
isb	-11932
▁NA	-11933
▁aw	-11934
anti	-11935
atem	-11936
awak	-11937
bris	-11938
vern	-11939
▁13.	-11940
▁163	-11941
▁BCE	-11942
▁Bud	-11943
▁Nan	-11944
▁Rus	-11945
▁abd	-11946
actic	-11947
aiden	-11948
iffer	-11949
▁Tuls	-11950
▁bold	-11951
▁cats	-11952
▁fame	-11953
▁syll	-11954
idency	-11955
onnell	-11956
▁Bryan	-11957
▁Chang	-11958
▁Costa	-11959
▁Drake	-11960
▁Fruit	-11961
▁Susan	-11962
▁ruler	-11963
▁sugar	-11964
▁Archae	-11965
▁Combat	-11966
▁Leices	-11967
▁Rovers	-11968
▁confer	-11969
▁diving	-11970
▁domain	-11971
▁meteor	-11972
▁Holland	-11973
▁Municip	-11974
▁honored	-11975
▁metabol	-11976
▁militia	-11977
▁Thailand	-11978
▁canceled	-11979
▁consolid	-11980
▁deterior	-11981
▁familiar	-11982
▁hometown	-11983
▁contested	-11984
▁diagnosed	-11985
▁screening	-11986
▁synthesizer	-11987
▁constituency	-11988
hm	-11989
ui	-11990
apy	-11991
cul	-11992
vik	-11993
▁7%	-11994
▁Ig	-11995
▁ow	-11996
ania	-11997
arta	-11998
issa	-11999
▁169	-12000
▁Cou	-12001
▁Pix	-12002
▁Rav	-12003
aters	-12004
first	-12005
keley	-12006
oving	-12007
▁Brew	-12008
▁Brod	-12009
▁Edge	-12010
▁Hood	-12011
▁Nept	-12012
▁gets	-12013
▁memb	-12014
▁seas	-12015
▁stom	-12016
▁ward	-12017
garian	-12018
wright	-12019
▁1966,	-12020
▁1970,	-12021
▁agree	-12022
▁camps	-12023
▁drain	-12024
▁fluid	-12025
▁infer	-12026
▁pseud	-12027
▁smoke	-12028
▁subsc	-12029
▁Hunter	-12030
▁Newton	-12031
▁clouds	-12032
▁debris	-12033
▁manage	-12034
▁phases	-12035
▁pursue	-12036
▁vision	-12037
▁doubles	-12038
▁epithet	-12039
▁lighter	-12040
▁revised	-12041
umberland	-12042
▁Egyptian	-12043
▁Sullivan	-12044
▁accurate	-12045
▁disabled	-12046
▁merchand	-12047
▁sentence	-12048
▁Therefore	-12049
▁diversity	-12050
▁intercept	-12051
▁saxophone	-12052
▁Philippine	-12053
▁approaches	-12054
▁Nevertheless	-12055
47	-12056
RS	-12057
Can	-12058
chy	-12059
izz	-12060
nia	-12061
▁6-	-12062
Brit	-12063
amma	-12064
ipse	-12065
orne	-12066
▁Hig	-12067
▁fab	-12068
acles	-12069
adian	-12070
▁1924	-12071
▁1951	-12072
▁Clif	-12073
▁Doug	-12074
▁Owen	-12075
▁bath	-12076
▁clay	-12077
▁owns	-12078
▁spar	-12079
▁1942.	-12080
▁1967,	-12081
▁1969,	-12082
▁Chuck	-12083
▁Perth	-12084
▁anthe	-12085
▁botan	-12086
▁error	-12087
▁foods	-12088
▁hence	-12089
▁taxon	-12090
▁Edmund	-12091
▁Strong	-12092
▁pushed	-12093
▁scales	-12094
grossing	-12095
▁clearly	-12096
▁formula	-12097
▁graphic	-12098
▁imagery	-12099
inguished	-12100
▁Arkansas	-12101
▁Superman	-12102
▁grossing	-12103
▁playoffs	-12104
▁recalled	-12105
▁Amendment	-12106
▁Jerusalem	-12107
▁Territory	-12108
▁associate	-12109
▁secretary	-12110
▁complement	-12111
▁fatalities	-12112
▁remastered	-12113
▁subsidiary	-12114
▁volunteers	-12115
▁experiments	-12116
▁legislative	-12117
▁necessarily	-12118
▁regulations	-12119
▁installation	-12120
29	-12121
Is	-12122
-40	-12123
And	-12124
raz	-12125
▁3%	-12126
▁fo	-12127
enza	-12128
▁(27	-12129
▁(40	-12130
▁Amy	-12131
▁Bri	-12132
▁Sax	-12133
▁enh	-12134
eding	-12135
inted	-12136
oxide	-12137
▁$100	-12138
▁1923	-12139
▁Holt	-12140
▁Peng	-12141
▁tent	-12142
▁tort	-12143
▁1984.	-12144
▁Appro	-12145
▁Lakes	-12146
▁Rhode	-12147
▁Villa	-12148
▁disag	-12149
▁humid	-12150
▁rider	-12151
▁sting	-12152
▁Canyon	-12153
▁Monroe	-12154
▁ascend	-12155
▁eldest	-12156
▁vector	-12157
▁Calgary	-12158
▁Chapman	-12159
▁Schools	-12160
▁readers	-12161
▁Universe	-12162
▁ensemble	-12163
▁rotation	-12164
▁striking	-12165
▁vicinity	-12166
▁Primetime	-12167
▁pneumonia	-12168
▁resembles	-12169
▁strategic	-12170
▁occasional	-12171
▁separately	-12172
▁personality	-12173
▁Conservative	-12174
▁understanding	-12175
▁€	-12176
dam	-12177
▁Dj	-12178
lend	-12179
rift	-12180
▁Dig	-12181
▁cav	-12182
▁lip	-12183
Japan	-12184
entle	-12185
merce	-12186
ublin	-12187
▁1906	-12188
▁1934	-12189
▁Bark	-12190
▁Bron	-12191
▁Dawn	-12192
▁Folk	-12193
▁Pine	-12194
▁beer	-12195
▁flew	-12196
▁tune	-12197
family	-12198
issued	-12199
mother	-12200
▁1917,	-12201
▁1983,	-12202
▁abuse	-12203
▁happy	-12204
▁input	-12205
▁lakes	-12206
▁memor	-12207
amental	-12208
▁(2000)	-12209
▁Bergen	-12210
▁Survey	-12211
▁Chapter	-12212
▁Dynasty	-12213
▁Frances	-12214
▁Wallace	-12215
▁bombing	-12216
▁failing	-12217
▁hitting	-12218
▁mansion	-12219
▁varying	-12220
▁Highness	-12221
▁McDonald	-12222
▁clinical	-12223
▁offshore	-12224
▁shipyard	-12225
▁Dominican	-12226
▁connector	-12227
▁extensively	-12228
▁observation	-12229
▁manufacturer	-12230
GM	-12231
fr	-12232
ör	-12233
▁ˈ	-12234
ATO	-12235
aze	-12236
egs	-12237
▁XI	-12238
▁£1	-12239
Down	-12240
olve	-12241
ovic	-12242
▁166	-12243
▁Kur	-12244
▁Ply	-12245
▁Tab	-12246
▁Vic	-12247
▁emp	-12248
▁gap	-12249
▁que	-12250
lings	-12251
▁Case	-12252
▁Cool	-12253
▁Cort	-12254
▁Pack	-12255
▁Trin	-12256
▁alto	-12257
▁cash	-12258
▁hect	-12259
▁herb	-12260
aceous	-12261
achute	-12262
alties	-12263
brates	-12264
entine	-12265
erness	-12266
igious	-12267
ischer	-12268
▁Index	-12269
▁Model	-12270
▁blues	-12271
▁faces	-12272
▁spots	-12273
▁woods	-12274
angered	-12275
▁Sierra	-12276
▁burned	-12277
▁cooper	-12278
▁plates	-12279
▁prompt	-12280
▁proxim	-12281
▁remark	-12282
▁terror	-12283
ographed	-12284
original	-12285
▁acclaim	-12286
▁jumping	-12287
▁playoff	-12288
▁soprano	-12289
▁waiting	-12290
▁armoured	-12291
▁assembly	-12292
▁surfaces	-12293
▁unlikely	-12294
▁Charlotte	-12295
▁execution	-12296
▁municipal	-12297
▁proposals	-12298
▁calculated	-12299
▁consistent	-12300
▁highlighted	-12301
▁measurements	-12302
▁recreational	-12303
aro	-12304
gom	-12305
gus	-12306
imi	-12307
wig	-12308
onal	-12309
▁Abu	-12310
▁Nam	-12311
▁Sud	-12312
▁Yak	-12313
▁[19	-12314
brook	-12315
notes	-12316
otted	-12317
racks	-12318
rates	-12319
▁1903	-12320
▁1909	-12321
▁Baja	-12322
▁Bert	-12323
▁Body	-12324
▁Kate	-12325
▁Male	-12326
▁huge	-12327
▁sick	-12328
itting	-12329
ulsion	-12330
▁1971,	-12331
▁Delhi	-12332
▁chair	-12333
▁fault	-12334
▁fever	-12335
▁gates	-12336
▁scout	-12337
▁surpr	-12338
▁(2014)	-12339
▁Curtis	-12340
▁Fringe	-12341
▁alumni	-12342
▁culmin	-12343
▁expand	-12344
▁insuff	-12345
▁lifted	-12346
▁trails	-12347
▁Article	-12348
▁Writers	-12349
▁gallery	-12350
▁lasting	-12351
▁qualify	-12352
▁remnant	-12353
▁rivalry	-12354
▁Engineer	-12355
▁Florence	-12356
▁Johnston	-12357
▁assessed	-12358
▁charting	-12359
▁exterior	-12360
▁screened	-12361
▁commenced	-12362
▁disbanded	-12363
▁varieties	-12364
▁accounting	-12365
▁infections	-12366
GA	-12367
ét	-12368
▁♭	-12369
Bob	-12370
iob	-12371
ogg	-12372
▁AM	-12373
ding	-12374
enos	-12375
stad	-12376
▁(50	-12377
▁117	-12378
▁240	-12379
▁Fro	-12380
▁Voc	-12381
▁egg	-12382
▁nan	-12383
aders	-12384
aston	-12385
lando	-12386
stown	-12387
▁Mann	-12388
▁symp	-12389
▁zinc	-12390
itated	-12391
▁1916,	-12392
▁1976,	-12393
▁1981,	-12394
▁Chase	-12395
▁chore	-12396
▁edges	-12397
▁maneu	-12398
▁noise	-12399
▁semif	-12400
▁Bronze	-12401
▁Flames	-12402
▁arcade	-12403
▁masses	-12404
▁nephew	-12405
▁rapper	-12406
▁Bahrain	-12407
▁Norfolk	-12408
▁Oakland	-12409
▁citizen	-12410
▁crashed	-12411
▁leagues	-12412
▁remixes	-12413
▁sinking	-12414
▁succeed	-12415
▁targets	-12416
▁unnamed	-12417
▁Berkeley	-12418
▁consumed	-12419
▁dramatic	-12420
▁eighteen	-12421
▁stronger	-12422
readnought	-12423
▁Carpenter	-12424
▁Henderson	-12425
▁excellent	-12426
▁limestone	-12427
▁practical	-12428
▁proximity	-12429
▁compliment	-12430
▁integrated	-12431
▁Revolutionary	-12432
Me	-12433
NS	-12434
].	-12435
eca	-12436
enz	-12437
iah	-12438
oba	-12439
▁Eg	-12440
When	-12441
avan	-12442
ilda	-12443
inee	-12444
orey	-12445
psil	-12446
rays	-12447
vant	-12448
▁23.	-12449
▁25.	-12450
▁Bea	-12451
▁Cox	-12452
▁Kle	-12453
▁Sid	-12454
▁Tas	-12455
▁alk	-12456
▁vow	-12457
otion	-12458
overy	-12459
▁1929	-12460
▁Anat	-12461
▁Feat	-12462
▁coin	-12463
aunton	-12464
finger	-12465
▁1937,	-12466
▁1983.	-12467
▁Agric	-12468
▁Comic	-12469
▁Oscar	-12470
▁Plaza	-12471
▁prove	-12472
▁stead	-12473
iblings	-12474
▁(2003)	-12475
▁Guatem	-12476
▁Prison	-12477
▁Willie	-12478
▁enzyme	-12479
▁talent	-12480
chestral	-12481
▁Contest	-12482
▁Fleming	-12483
▁Musical	-12484
▁Without	-12485
▁crystal	-12486
▁depends	-12487
▁entries	-12488
▁violent	-12489
▁clusters	-12490
▁sporting	-12491
▁abilities	-12492
▁adventure	-12493
▁celebrate	-12494
▁defending	-12495
▁travelling	-12496
▁vulnerable	-12497
▁conventional	-12498
▁Meteorological	-12499
Pr	-12500
uy	-12501
én	-12502
ibn	-12503
nut	-12504
▁4%	-12505
▁IC	-12506
asis	-12507
itol	-12508
ribe	-12509
▁15-	-12510
▁Kot	-12511
▁Mom	-12512
▁Wed	-12513
▁cra	-12514
▁1907	-12515
▁1932	-12516
▁Exam	-12517
▁bare	-12518
▁pier	-12519
making	-12520
▁Apart	-12521
▁Derby	-12522
▁Faith	-12523
▁buses	-12524
▁coral	-12525
▁delay	-12526
▁doors	-12527
▁navig	-12528
▁truth	-12529
estrian	-12530
▁(1994)	-12531
▁Pierre	-12532
▁immune	-12533
▁intact	-12534
▁larvae	-12535
▁pilots	-12536
▁suffix	-12537
produced	-12538
sterious	-12539
▁Bradley	-12540
▁Kenneth	-12541
▁Maxwell	-12542
▁Orlando	-12543
▁Parsons	-12544
▁blocked	-12545
▁coached	-12546
▁denotes	-12547
▁fantasy	-12548
▁undergo	-12549
▁Flanders	-12550
▁landmark	-12551
▁rebounds	-12552
▁reviewed	-12553
▁shopping	-12554
▁Methodist	-12555
▁companion	-12556
▁considers	-12557
▁convicted	-12558
▁teammates	-12559
▁twentieth	-12560
▁progression	-12561
▁mathematical	-12562
▁qualification	-12563
41	-12564
ðr	-12565
aba	-12566
▁Kö	-12567
Live	-12568
affe	-12569
anka	-12570
iang	-12571
idad	-12572
▁30-	-12573
▁Chi	-12574
Brien	-12575
Files	-12576
eters	-12577
flies	-12578
ostic	-12579
▁Edda	-12580
▁Flow	-12581
▁Foot	-12582
▁Mile	-12583
▁Ruth	-12584
▁fare	-12585
▁wire	-12586
houser	-12587
▁1964.	-12588
▁Chess	-12589
▁Crime	-12590
▁Still	-12591
▁proof	-12592
▁shift	-12593
▁(2002)	-12594
▁Davies	-12595
▁Norton	-12596
▁Powell	-12597
▁Rodrig	-12598
▁Romney	-12599
▁Slovak	-12600
▁comics	-12601
▁devast	-12602
▁horror	-12603
▁insect	-12604
▁namely	-12605
▁rivals	-12606
producer	-12607
▁Herbert	-12608
▁enzymes	-12609
▁involve	-12610
▁lyrical	-12611
▁matters	-12612
▁monthly	-12613
▁organis	-12614
▁readily	-12615
▁resumed	-12616
▁Plymouth	-12617
▁fragment	-12618
▁Jefferson	-12619
▁releasing	-12620
▁impossible	-12621
▁navigation	-12622
▁atmospheric	-12623
▁considering	-12624
▁preliminary	-12625
▁conservative	-12626
La	-12627
err	-12628
zig	-12629
ère	-12630
▁8-	-12631
bach	-12632
hent	-12633
lies	-12634
opus	-12635
rank	-12636
umar	-12637
▁Hok	-12638
▁Ori	-12639
ashes	-12640
eling	-12641
heart	-12642
itory	-12643
onian	-12644
▁Dame	-12645
▁Gone	-12646
▁Hits	-12647
▁Hugo	-12648
▁Mine	-12649
▁Ride	-12650
▁Soph	-12651
▁Stop	-12652
▁Vick	-12653
▁[...	-12654
▁carb	-12655
▁inHg	-12656
▁oral	-12657
illard	-12658
▁1986.	-12659
▁Train	-12660
▁blend	-12661
▁coron	-12662
▁flesh	-12663
▁genes	-12664
▁honey	-12665
▁kilog	-12666
▁oblig	-12667
October	-12668
chester	-12669
country	-12670
▁Deputy	-12671
▁Torres	-12672
▁abroad	-12673
▁genres	-12674
▁organs	-12675
▁strand	-12676
▁trophy	-12677
expected	-12678
▁Circuit	-12679
▁cartoon	-12680
▁ceiling	-12681
▁editing	-12682
▁overlap	-12683
▁prepare	-12684
▁raising	-12685
▁substit	-12686
▁volcano	-12687
▁Bulgaria	-12688
▁calendar	-12689
▁enhanced	-12690
▁orchestr	-12691
▁petition	-12692
▁developer	-12693
▁impressed	-12694
▁inclusion	-12695
▁thickness	-12696
▁engagement	-12697
▁processing	-12698
▁provincial	-12699
▁disappeared	-12700
▁surrendered	-12701
▁Headquarters	-12702
▁northwestward	-12703
Qu	-12704
-30	-12705
RIA	-12706
oux	-12707
▁4-	-12708
▁XX	-12709
aire	-12710
auna	-12711
idan	-12712
itic	-12713
math	-12714
nort	-12715
onda	-12716
▁Sad	-12717
▁Was	-12718
▁bio	-12719
ellor	-12720
eping	-12721
gment	-12722
tland	-12723
▁(100	-12724
▁1902	-12725
▁Bour	-12726
▁Crew	-12727
▁Hein	-12728
▁Joel	-12729
▁Name	-12730
▁Pick	-12731
▁Poké	-12732
▁Scar	-12733
▁Wong	-12734
▁bars	-12735
▁cuts	-12736
▁demo	-12737
▁dish	-12738
▁fled	-12739
▁fold	-12740
▁mang	-12741
assium	-12742
screen	-12743
▁Exped	-12744
▁deals	-12745
▁flags	-12746
▁trunc	-12747
osystem	-12748
▁Browns	-12749
▁Dublin	-12750
▁Fellow	-12751
▁dishes	-12752
▁rebell	-12753
▁topics	-12754
▁Formula	-12755
▁Pradesh	-12756
▁comfort	-12757
▁confirm	-12758
▁guarant	-12759
▁Caroline	-12760
▁Einstein	-12761
▁Released	-12762
▁alliance	-12763
▁exhibits	-12764
▁lighting	-12765
▁woodland	-12766
▁Tradition	-12767
▁coastline	-12768
▁explosion	-12769
▁favourite	-12770
▁intellect	-12771
▁Laboratory	-12772
▁Illustrated	-12773
AM	-12774
OC	-12775
gi	-12776
ded	-12777
kil	-12778
pes	-12779
ulk	-12780
via	-12781
▁8%	-12782
▁oz	-12783
amba	-12784
artz	-12785
atum	-12786
main	-12787
▁(1)	-12788
▁17.	-12789
▁Cec	-12790
▁Cel	-12791
▁Cry	-12792
▁Ely	-12793
▁Net	-12794
▁Spy	-12795
▁pin	-12796
amped	-12797
ilocy	-12798
piece	-12799
▁Bran	-12800
▁Fant	-12801
▁Held	-12802
▁Hunt	-12803
▁Kill	-12804
▁Kiss	-12805
▁Lact	-12806
▁Ster	-12807
▁Winn	-12808
▁gear	-12809
▁happ	-12810
▁hook	-12811
▁prol	-12812
gomery	-12813
ishers	-12814
issues	-12815
▁Achie	-12816
▁Below	-12817
▁Bruns	-12818
▁Given	-12819
▁Henri	-12820
▁Thurs	-12821
▁Woods	-12822
▁absol	-12823
▁cameo	-12824
▁persu	-12825
▁reads	-12826
▁sheet	-12827
▁stair	-12828
▁throw	-12829
ivorous	-12830
jection	-12831
playing	-12832
through	-12833
▁Damage	-12834
▁Scouts	-12835
▁Serbia	-12836
▁Triple	-12837
▁advice	-12838
▁condem	-12839
▁engage	-12840
▁execut	-12841
▁extras	-12842
▁sovere	-12843
▁Baptist	-12844
▁Cartoon	-12845
▁Jamaica	-12846
▁Middles	-12847
▁heating	-12848
▁repairs	-12849
▁streams	-12850
▁symbols	-12851
▁wrought	-12852
▁agencies	-12853
▁centimet	-12854
▁fighters	-12855
▁humanity	-12856
▁minority	-12857
▁operator	-12858
▁biography	-12859
▁captivity	-12860
▁molecular	-12861
▁telescope	-12862
▁Montgomery	-12863
▁Richardson	-12864
▁graduation	-12865
▁underlying	-12866
▁Songwriting	-12867
▁inscription	-12868
▁transported	-12869
▁considerably	-12870
▁independently	-12871
!,	-12872
zi	-12873
ASP	-12874
Men	-12875
lad	-12876
olo	-12877
▁MW	-12878
▁Ps	-12879
etch	-12880
ikes	-12881
inqu	-12882
otta	-12883
rise	-12884
▁111	-12885
▁HIV	-12886
▁Hil	-12887
▁Kor	-12888
▁Sex	-12889
▁Toy	-12890
▁dio	-12891
▁sav	-12892
hurst	-12893
iners	-12894
urers	-12895
▁100-	-12896
▁Boll	-12897
▁Flag	-12898
▁IUCN	-12899
▁Isle	-12900
▁Pont	-12901
▁Sold	-12902
▁clan	-12903
▁loud	-12904
ailing	-12905
▁1930,	-12906
▁1946,	-12907
▁1968,	-12908
▁1982.	-12909
▁Maine	-12910
▁Niger	-12911
▁Nobel	-12912
▁Steam	-12913
▁Sword	-12914
▁Truth	-12915
▁dolph	-12916
▁talks	-12917
ativity	-12918
avilion	-12919
▁Marina	-12920
▁Newark	-12921
▁anthem	-12922
▁curves	-12923
▁cylind	-12924
▁handle	-12925
▁preval	-12926
▁visits	-12927
▁Besides	-12928
▁Capital	-12929
▁Knights	-12930
▁Knowles	-12931
▁Notable	-12932
▁Spaniel	-12933
▁Upanish	-12934
▁dancers	-12935
▁drivers	-12936
▁Medicine	-12937
▁Students	-12938
▁everyone	-12939
vironments	-12940
▁Leicester	-12941
▁decreased	-12942
▁objective	-12943
▁recruited	-12944
▁reporting	-12945
▁concerning	-12946
▁nineteenth	-12947
▁principles	-12948
▁situations	-12949
▁Westminster	-12950
▁examination	-12951
▁interesting	-12952
▁outstanding	-12953
▁Distinguished	-12954
At	-12955
pre	-12956
▁JG	-12957
▁ov	-12958
bank	-12959
feat	-12960
ichi	-12961
oded	-12962
stan	-12963
▁14.	-12964
▁153	-12965
▁24-	-12966
▁Jak	-12967
▁McD	-12968
▁Suz	-12969
▁cow	-12970
aline	-12971
▁1893	-12972
▁Hous	-12973
▁NATO	-12974
▁Raid	-12975
▁atop	-12976
▁fill	-12977
▁hind	-12978
▁sure	-12979
▁tape	-12980
▁weld	-12981
isting	-12982
ivided	-12983
ogical	-12984
tracks	-12985
▁1944.	-12986
▁Badge	-12987
▁Break	-12988
▁Cloud	-12989
▁Isles	-12990
▁flour	-12991
▁flown	-12992
▁minim	-12993
▁viral	-12994
rington	-12995
▁Campus	-12996
▁streak	-12997
▁Marines	-12998
▁Pokémon	-12999
▁reddish	-13000
▁studios	-13001
▁tourism	-13002
▁eleventh	-13003
▁reflects	-13004
▁smallest	-13005
▁acknowled	-13006
▁sentenced	-13007
▁Statistics	-13008
▁Wellington	-13009
▁Winchester	-13010
▁performers	-13011
▁pronounced	-13012
▁nationality	-13013
▁environments	-13014
▁constitutional	-13015
Mr	-13016
NT	-13017
had	-13018
nan	-13019
oko	-13020
pit	-13021
yre	-13022
▁6%	-13023
rels	-13024
▁113	-13025
▁152	-13026
▁Aer	-13027
▁Emp	-13028
▁Fac	-13029
▁Kay	-13030
▁Kom	-13031
▁Lun	-13032
▁fra	-13033
▁gly	-13034
cover	-13035
ework	-13036
mount	-13037
▁Ages	-13038
▁Barn	-13039
▁Cant	-13040
▁Kend	-13041
▁Loop	-13042
▁Shaw	-13043
▁baby	-13044
▁cuis	-13045
▁gods	-13046
▁keys	-13047
▁nose	-13048
▁rows	-13049
▁wasn	-13050
cyclop	-13051
tailed	-13052
▁1979.	-13053
▁1982,	-13054
▁Built	-13055
▁Giant	-13056
▁Kappa	-13057
▁Laura	-13058
▁Rocky	-13059
▁Verde	-13060
▁[...]	-13061
▁comed	-13062
▁manif	-13063
▁spell	-13064
ordered	-13065
▁Anders	-13066
▁Better	-13067
▁Census	-13068
▁Herald	-13069
▁Tracks	-13070
▁Waters	-13071
▁lesser	-13072
▁linear	-13073
▁solely	-13074
▁Genesis	-13075
▁Madison	-13076
▁Parkway	-13077
▁decides	-13078
▁devoted	-13079
▁singers	-13080
▁Scouting	-13081
▁focusing	-13082
▁siblings	-13083
▁triangle	-13084
▁variants	-13085
▁Artillery	-13086
▁initiated	-13087
▁insurance	-13088
▁physician	-13089
▁survivors	-13090
▁Thanhouser	-13091
▁commanding	-13092
▁renumbered	-13093
▁requirement	-13094
▁specialized	-13095
Int	-13096
kee	-13097
lla	-13098
opy	-13099
uli	-13100
var	-13101
▁"(	-13102
▁XV	-13103
mitt	-13104
pike	-13105
roft	-13106
▁118	-13107
▁131	-13108
▁Aur	-13109
▁Rac	-13110
▁Too	-13111
▁aux	-13112
▁reh	-13113
▁rif	-13114
adows	-13115
erver	-13116
osion	-13117
▁1908	-13118
▁Pred	-13119
▁View	-13120
▁drag	-13121
▁mood	-13122
▁offs	-13123
ainted	-13124
▁1910,	-13125
▁1962,	-13126
▁1965,	-13127
▁Ellen	-13128
▁Emily	-13129
▁cubic	-13130
▁lunar	-13131
▁overt	-13132
▁rocky	-13133
▁walks	-13134
▁wants	-13135
itarian	-13136
▁Tunnel	-13137
▁compat	-13138
▁digest	-13139
▁easier	-13140
▁lacked	-13141
▁remote	-13142
▁tackle	-13143
▁Effects	-13144
▁advised	-13145
▁borders	-13146
▁casting	-13147
▁deliber	-13148
▁signals	-13149
▁speaker	-13150
▁wickets	-13151
northeast	-13152
unciation	-13153
▁internet	-13154
▁tourists	-13155
▁Brunswick	-13156
▁Christina	-13157
▁engineers	-13158
▁exhibited	-13159
▁ironclads	-13160
▁perceived	-13161
▁repeatedly	-13162
▁discontinued	-13163
DI	-13164
SU	-13165
mo	-13166
Out	-13167
chw	-13168
sis	-13169
ups	-13170
ught	-13171
▁(33	-13172
▁167	-13173
▁Len	-13174
▁neu	-13175
built	-13176
fried	-13177
ipher	-13178
iston	-13179
lined	-13180
pling	-13181
seven	-13182
▁(185	-13183
▁Fast	-13184
▁Mull	-13185
▁Qual	-13186
▁Take	-13187
▁asks	-13188
▁perf	-13189
▁phon	-13190
enburg	-13191
otilla	-13192
▁1975,	-13193
▁Edwin	-13194
▁Gross	-13195
▁Mills	-13196
▁alive	-13197
▁camer	-13198
▁drove	-13199
▁enlar	-13200
▁lacks	-13201
▁lying	-13202
▁relay	-13203
▁tract	-13204
clusive	-13205
▁Munich	-13206
▁Reagan	-13207
▁Sultan	-13208
▁Visual	-13209
▁gravel	-13210
children	-13211
leutnant	-13212
munition	-13213
▁Tonight	-13214
▁shipped	-13215
▁telling	-13216
▁upgrade	-13217
▁Warriors	-13218
▁database	-13219
▁estimate	-13220
▁explicit	-13221
▁handling	-13222
▁imported	-13223
▁partners	-13224
▁Sebastian	-13225
▁decisions	-13226
▁economics	-13227
▁freestyle	-13228
▁suspected	-13229
▁withdrawn	-13230
▁Expedition	-13231
▁Recreation	-13232
▁specialist	-13233
▁battlecruis	-13234
▁Presidential	-13235
▁contributing	-13236
▁municipality	-13237
Up	-13238
än	-13239
-28	-13240
Day	-13241
gae	-13242
hot	-13243
▁MI	-13244
achi	-13245
aeus	-13246
agar	-13247
base	-13248
bing	-13249
bred	-13250
krit	-13251
swer	-13252
▁135	-13253
▁24.	-13254
▁750	-13255
▁Bav	-13256
▁Cha	-13257
▁Nig	-13258
agger	-13259
phant	-13260
ramid	-13261
▁Chan	-13262
▁Dock	-13263
▁Dram	-13264
▁Dund	-13265
▁Heat	-13266
▁Howe	-13267
▁Poly	-13268
▁Sche	-13269
▁cosm	-13270
▁lion	-13271
▁noun	-13272
ilight	-13273
opened	-13274
▁1914.	-13275
▁1915,	-13276
▁1920.	-13277
▁1971.	-13278
▁1972.	-13279
▁1988.	-13280
▁Chrys	-13281
▁Helen	-13282
▁Minne	-13283
▁Shawn	-13284
▁Using	-13285
▁bench	-13286
▁conif	-13287
▁gases	-13288
▁shock	-13289
lectric	-13290
ourable	-13291
▁Austro	-13292
▁Eagles	-13293
▁Racing	-13294
▁Shadow	-13295
▁convey	-13296
▁eighty	-13297
▁grants	-13298
▁listen	-13299
▁purple	-13300
▁stolen	-13301
▁timber	-13302
▁Advance	-13303
▁Britney	-13304
▁Sarawak	-13305
▁Victory	-13306
▁booklet	-13307
▁dealing	-13308
▁degener	-13309
▁equator	-13310
▁reissue	-13311
▁Bradford	-13312
▁Chairman	-13313
▁Orthodox	-13314
▁coasters	-13315
▁emphasis	-13316
▁managing	-13317
▁resemble	-13318
▁seasonal	-13319
▁thinking	-13320
▁Cardinals	-13321
▁beautiful	-13322
▁distances	-13323
▁electoral	-13324
▁Christians	-13325
▁Protection	-13326
▁succession	-13327
▁establishing	-13328
▁illustrations	-13329
DE	-13330
cur	-13331
his	-13332
hou	-13333
osc	-13334
rut	-13335
▁MT	-13336
▁ic	-13337
▁id	-13338
comp	-13339
ipel	-13340
join	-13341
orge	-13342
rhiz	-13343
▁21.	-13344
▁450	-13345
▁Ble	-13346
▁Cod	-13347
▁Jen	-13348
▁Lon	-13349
▁NWA	-13350
▁Und	-13351
▁Ved	-13352
▁jew	-13353
names	-13354
▁Coal	-13355
▁Crow	-13356
▁Mini	-13357
▁Pent	-13358
▁Schw	-13359
▁Swan	-13360
▁cass	-13361
▁cort	-13362
▁exha	-13363
▁rook	-13364
▁sits	-13365
▁tool	-13366
▁wake	-13367
elfare	-13368
iliary	-13369
omorph	-13370
otypes	-13371
yright	-13372
▁1973,	-13373
▁Basin	-13374
▁Essex	-13375
▁Janet	-13376
▁Phant	-13377
▁gusts	-13378
▁stern	-13379
▁(1998)	-13380
▁Bieber	-13381
▁Louise	-13382
▁photos	-13383
speaking	-13384
▁Spencer	-13385
▁forcing	-13386
▁gaining	-13387
▁precurs	-13388
▁spawned	-13389
▁talking	-13390
▁divorced	-13391
▁motorway	-13392
▁severely	-13393
▁Stockholm	-13394
▁comprised	-13395
▁interface	-13396
▁placement	-13397
▁seventeen	-13398
▁struggled	-13399
▁Electronic	-13400
▁Eurovision	-13401
▁antibodies	-13402
▁comprising	-13403
▁businessman	-13404
▁rectangular	-13405
▁Consequently	-13406
EP	-13407
Go	-13408
xi	-13409
-80	-13410
000	-13411
Bre	-13412
Dec	-13413
asm	-13414
nor	-13415
sim	-13416
tar	-13417
▁Fu	-13418
▁RP	-13419
anta	-13420
auer	-13421
enez	-13422
ović	-13423
▁127	-13424
▁159	-13425
▁Ara	-13426
▁Cut	-13427
▁Ess	-13428
▁SMS	-13429
▁Sic	-13430
▁Sut	-13431
Saxon	-13432
aurus	-13433
ifier	-13434
▁Gang	-13435
▁Joan	-13436
▁Kyle	-13437
▁dive	-13438
thouse	-13439
▁1911,	-13440
▁1961,	-13441
▁Buddh	-13442
▁Bulld	-13443
▁Rosen	-13444
▁corps	-13445
▁drown	-13446
▁grave	-13447
▁neuro	-13448
▁trout	-13449
▁(1999)	-13450
▁Newman	-13451
▁Porter	-13452
▁Venice	-13453
▁breaks	-13454
▁glands	-13455
▁permit	-13456
▁voters	-13457
▁Gardens	-13458
▁Harbour	-13459
▁Preston	-13460
▁flooded	-13461
quartered	-13462
▁criteria	-13463
▁Formation	-13464
▁aftermath	-13465
▁awareness	-13466
▁belonging	-13467
▁principle	-13468
▁ammunition	-13469
▁comparable	-13470
▁suspension	-13471
▁understood	-13472
▁Minneapolis	-13473
▁Underground	-13474
▁destination	-13475
▁implemented	-13476
▁configuration	-13477
EF	-13478
▁†	-13479
.),	-13480
dem	-13481
orf	-13482
urd	-13483
▁7-	-13484
bage	-13485
city	-13486
cler	-13487
eyer	-13488
oton	-13489
▁$20	-13490
▁126	-13491
▁161	-13492
▁30%	-13493
▁Doc	-13494
▁Gaz	-13495
▁Hes	-13496
▁Opp	-13497
▁ris	-13498
aiser	-13499
erals	-13500
itted	-13501
metre	-13502
osely	-13503
outed	-13504
▁Camb	-13505
▁Cann	-13506
▁Lich	-13507
▁Teen	-13508
▁cens	-13509
▁diff	-13510
▁iPad	-13511
▁ties	-13512
German	-13513
acular	-13514
dimens	-13515
kinson	-13516
▁Bangl	-13517
▁Birds	-13518
▁Edgar	-13519
▁Gates	-13520
▁Large	-13521
▁Leigh	-13522
▁Maple	-13523
▁craft	-13524
▁filmm	-13525
▁magic	-13526
amation	-13527
issions	-13528
▁Darwin	-13529
▁Scully	-13530
▁Tasman	-13531
▁allies	-13532
▁expert	-13533
formerly	-13534
▁Concern	-13535
▁Hammond	-13536
▁Transit	-13537
▁Vermont	-13538
▁outlets	-13539
▁veteran	-13540
▁Resident	-13541
▁aviation	-13542
▁boarding	-13543
▁colleges	-13544
▁teachers	-13545
▁Robertson	-13546
▁Secondary	-13547
▁artifacts	-13548
▁assembled	-13549
▁ecosystem	-13550
▁numbering	-13551
▁propeller	-13552
▁thirteenth	-13553
▁coordinates	-13554
▁descendants	-13555
▁posthumously	-13556
MD	-13557
-1.	-13558
aho	-13559
amy	-13560
hal	-13561
kar	-13562
nal	-13563
tee	-13564
▁0,	-13565
▁1⁄	-13566
▁Ja	-13567
▁Ky	-13568
▁UP	-13569
▁′′	-13570
atha	-13571
cies	-13572
isha	-13573
ishi	-13574
orum	-13575
pect	-13576
phan	-13577
▁Ivy	-13578
▁McN	-13579
▁Nas	-13580
▁Seg	-13581
▁gat	-13582
adder	-13583
eason	-13584
elfth	-13585
inces	-13586
inite	-13587
itely	-13588
iture	-13589
yself	-13590
▁"...	-13591
▁(130	-13592
▁Bear	-13593
▁Desc	-13594
▁Fras	-13595
▁Glee	-13596
▁Have	-13597
▁Rank	-13598
▁Slav	-13599
▁answ	-13600
▁lith	-13601
▁tens	-13602
entric	-13603
overty	-13604
phabet	-13605
▁1936,	-13606
▁1963,	-13607
▁1977,	-13608
▁Level	-13609
▁Money	-13610
▁badly	-13611
▁knock	-13612
▁ruins	-13613
▁snake	-13614
colored	-13615
▁Airbus	-13616
▁Barnes	-13617
▁Contin	-13618
▁Gothic	-13619
▁Horror	-13620
▁Panama	-13621
▁asking	-13622
▁convex	-13623
▁empire	-13624
▁remake	-13625
▁rowers	-13626
Japanese	-13627
ibraries	-13628
▁Finally	-13629
▁cleared	-13630
▁escaped	-13631
▁moments	-13632
▁reminis	-13633
▁warrant	-13634
▁entirety	-13635
▁Greenland	-13636
▁addressed	-13637
▁inhabited	-13638
▁provinces	-13639
▁shortened	-13640
▁hypothesis	-13641
▁merchandise	-13642
▁negotiations	-13643
▁interpretation	-13644
Pa	-13645
So	-13646
uh	-13647
aft	-13648
eve	-13649
▁IB	-13650
▁TH	-13651
agus	-13652
cock	-13653
elic	-13654
hone	-13655
ints	-13656
iors	-13657
iott	-13658
▁116	-13659
▁Ana	-13660
▁Liz	-13661
▁Nem	-13662
▁Oct	-13663
▁amp	-13664
▁bab	-13665
atche	-13666
athon	-13667
ipper	-13668
isure	-13669
▁1899	-13670
▁Yard	-13671
▁brig	-13672
▁cave	-13673
▁epic	-13674
▁item	-13675
▁pill	-13676
▁wait	-13677
ellers	-13678
ocracy	-13679
osevel	-13680
▁1980.	-13681
▁Adela	-13682
▁Daley	-13683
▁Fifth	-13684
▁Manor	-13685
▁Opera	-13686
▁Mariah	-13687
▁abnorm	-13688
▁arrive	-13689
▁herald	-13690
▁livery	-13691
▁mascot	-13692
▁reward	-13693
ordinate	-13694
▁Higgins	-13695
▁Popular	-13696
▁affects	-13697
▁conspir	-13698
▁orbital	-13699
▁tallest	-13700
ictionary	-13701
itational	-13702
▁Buddhist	-13703
▁generate	-13704
▁phylogen	-13705
▁switched	-13706
▁tracking	-13707
▁veterans	-13708
▁Bulgarian	-13709
▁Catherine	-13710
▁allocated	-13711
▁conceived	-13712
▁conscious	-13713
▁authorized	-13714
▁developers	-13715
▁orchestral	-13716
▁wheelchair	-13717
▁Achievement	-13718
▁progressive	-13719
▁collaborated	-13720
▁photographer	-13721
▁consideration	-13722
▁parliamentary	-13723
27	-13724
▁$9	-13725
▁AL	-13726
▁Aj	-13727
▁Ny	-13728
drop	-13729
fold	-13730
ials	-13731
iary	-13732
▁30.	-13733
▁49.	-13734
▁50%	-13735
▁Dol	-13736
▁Ned	-13737
▁Ord	-13738
▁Own	-13739
▁ell	-13740
▁sau	-13741
There	-13742
amore	-13743
uming	-13744
▁Cond	-13745
▁Solo	-13746
▁fees	-13747
▁marg	-13748
▁rays	-13749
▁sink	-13750
▁vacc	-13751
ectors	-13752
houses	-13753
itches	-13754
manuel	-13755
▁1954,	-13756
▁1955,	-13757
▁Antar	-13758
▁Dubai	-13759
▁Percy	-13760
▁Stage	-13761
▁Tiger	-13762
▁arena	-13763
▁marry	-13764
▁shops	-13765
▁widow	-13766
▁Martha	-13767
▁Powers	-13768
▁Wander	-13769
▁amphib	-13770
▁convin	-13771
▁courty	-13772
▁emblem	-13773
▁merely	-13774
▁mutual	-13775
▁priest	-13776
▁toured	-13777
▁tradem	-13778
▁unders	-13779
▁voyage	-13780
unctions	-13781
▁Finnish	-13782
▁Student	-13783
▁colored	-13784
▁pointed	-13785
▁restore	-13786
▁seating	-13787
egsmarine	-13788
roduction	-13789
▁Movement	-13790
▁Phillips	-13791
▁Sergeant	-13792
▁imperial	-13793
▁praising	-13794
▁spectrum	-13795
▁pregnancy	-13796
▁preparing	-13797
▁substrate	-13798
▁temperate	-13799
dimensional	-13800
▁Individual	-13801
2-	-13802
BL	-13803
De	-13804
Or	-13805
rah	-13806
zed	-13807
ango	-13808
asha	-13809
days	-13810
fast	-13811
hart	-13812
omed	-13813
phae	-13814
▁20.	-13815
▁Bod	-13816
▁Laf	-13817
▁Mol	-13818
▁Voy	-13819
▁ram	-13820
orded	-13821
ounge	-13822
quiry	-13823
▁1897	-13824
▁Cauc	-13825
▁Craw	-13826
▁Kind	-13827
▁Lear	-13828
▁Wend	-13829
▁axis	-13830
▁fulf	-13831
▁incl	-13832
▁whit	-13833
ficial	-13834
iology	-13835
ittees	-13836
ported	-13837
rifice	-13838
urally	-13839
▁1920,	-13840
▁1946.	-13841
▁1948,	-13842
▁1970.	-13843
▁Syria	-13844
▁algor	-13845
▁bread	-13846
▁dying	-13847
▁feeds	-13848
▁forth	-13849
▁manip	-13850
▁trick	-13851
▁zones	-13852
corrhiz	-13853
osevelt	-13854
▁Franco	-13855
▁Gibson	-13856
▁Marcus	-13857
▁Plains	-13858
▁labour	-13859
▁seemed	-13860
▁staged	-13861
▁transp	-13862
missions	-13863
regation	-13864
▁Collect	-13865
▁Current	-13866
▁Lithuan	-13867
▁beliefs	-13868
▁cooking	-13869
▁drummer	-13870
▁generic	-13871
▁leather	-13872
Hungarian	-13873
▁Bachelor	-13874
▁Brighton	-13875
▁actively	-13876
▁gathered	-13877
▁messages	-13878
▁moisture	-13879
▁pitching	-13880
▁proceeds	-13881
▁steadily	-13882
▁wildlife	-13883
▁anthology	-13884
▁confusion	-13885
▁destroying	-13886
▁moderately	-13887
▁phenomenon	-13888
▁decorations	-13889
▁demonstrate	-13890
▁insufficient	-13891
▁interactions	-13892
IC	-13893
Pro	-13894
iri	-13895
org	-13896
enne	-13897
usty	-13898
▁(32	-13899
▁146	-13900
▁Dud	-13901
▁Sag	-13902
▁Syl	-13903
▁Tib	-13904
▁UCI	-13905
▁hub	-13906
▁liv	-13907
licts	-13908
omous	-13909
oples	-13910
quest	-13911
shine	-13912
tempo	-13913
umped	-13914
▁Tolk	-13915
▁Wick	-13916
▁beta	-13917
▁boss	-13918
▁obsc	-13919
acking	-13920
reated	-13921
▁1968.	-13922
▁1985.	-13923
▁Blair	-13924
▁Logan	-13925
▁Score	-13926
▁Venus	-13927
▁brass	-13928
▁codes	-13929
▁logar	-13930
▁looks	-13931
▁postm	-13932
▁posts	-13933
▁sizes	-13934
▁taxes	-13935
▁tends	-13936
▁Scotia	-13937
▁Surrey	-13938
▁Vocals	-13939
building	-13940
▁harvest	-13941
▁scandal	-13942
▁stomach	-13943
▁threats	-13944
▁trading	-13945
▁trumpet	-13946
▁uranium	-13947
▁Adelaide	-13948
▁Antilles	-13949
▁Jennifer	-13950
▁Phillies	-13951
▁Scholars	-13952
▁carriers	-13953
▁currency	-13954
▁homeless	-13955
▁pregnant	-13956
▁printing	-13957
▁receiver	-13958
▁affecting	-13959
▁poisoning	-13960
▁stability	-13961
▁Eventually	-13962
▁Timberlake	-13963
▁mysterious	-13964
▁unexpected	-13965
▁permanently	-13966
▁transformed	-13967
▁Communications	-13968
▁identification	-13969
44	-13970
OR	-13971
aca	-13972
dal	-13973
lem	-13974
oni	-13975
oub	-13976
▁Sr	-13977
apor	-13978
erat	-13979
iche	-13980
imus	-13981
lims	-13982
oths	-13983
qual	-13984
▁20-	-13985
▁22.	-13986
▁220	-13987
▁Bak	-13988
▁Ful	-13989
▁MVP	-13990
▁Pin	-13991
▁Som	-13992
▁vig	-13993
andin	-13994
opard	-13995
▁(186	-13996
▁Cave	-13997
▁Ferr	-13998
▁Golf	-13999
▁Reed	-14000
▁Tall	-14001
▁Zero	-14002
▁fate	-14003
▁sear	-14004
▁wart	-14005
forest	-14006
▁1966.	-14007
▁Creat	-14008
▁Haven	-14009
▁Marqu	-14010
▁Saudi	-14011
▁Stark	-14012
▁Strat	-14013
▁Treas	-14014
▁cater	-14015
▁chord	-14016
▁march	-14017
classic	-14018
iratory	-14019
omplete	-14020
▁(2015)	-14021
▁Auburn	-14022
▁Joshua	-14023
▁bomber	-14024
▁floors	-14025
▁hyphae	-14026
▁orient	-14027
▁runway	-14028
aircraft	-14029
election	-14030
▁Daniels	-14031
▁Fiction	-14032
▁Gabriel	-14033
▁Marshal	-14034
▁Reading	-14035
▁distant	-14036
▁endemic	-14037
▁farming	-14038
▁package	-14039
▁remixed	-14040
▁rounded	-14041
▁Yugoslav	-14042
▁sediment	-14043
▁Currently	-14044
▁Roosevelt	-14045
▁depiction	-14046
▁pollution	-14047
▁requiring	-14048
▁surpassed	-14049
▁telephone	-14050
▁Associated	-14051
▁Operations	-14052
▁assignment	-14053
▁directions	-14054
▁elementary	-14055
▁positively	-14056
▁explanation	-14057
▁investigate	-14058
▁Kriegsmarine	-14059
oj	-14060
tz	-14061
ña	-14062
Col	-14063
ahl	-14064
alg	-14065
des	-14066
omo	-14067
pts	-14068
wyn	-14069
▁BM	-14070
▁Cu	-14071
iast	-14072
isan	-14073
itus	-14074
lain	-14075
mium	-14076
mons	-14077
nine	-14078
oser	-14079
sten	-14080
urse	-14081
▁...	-14082
▁156	-14083
▁16-	-14084
▁210	-14085
▁AFI	-14086
▁Dre	-14087
▁Lif	-14088
▁Raf	-14089
▁fed	-14090
▁iOS	-14091
▁myc	-14092
aping	-14093
boats	-14094
etter	-14095
lance	-14096
oning	-14097
oween	-14098
▁1885	-14099
▁1894	-14100
▁Flat	-14101
▁Gonz	-14102
▁Nebr	-14103
▁Sega	-14104
▁adds	-14105
▁carn	-14106
▁hung	-14107
▁penn	-14108
▁seiz	-14109
▁shed	-14110
closed	-14111
umping	-14112
▁Brend	-14113
▁Brisb	-14114
▁Guest	-14115
▁Riley	-14116
▁cabin	-14117
▁index	-14118
▁indie	-14119
▁nests	-14120
usement	-14121
▁Eugene	-14122
▁Madrid	-14123
▁answer	-14124
▁cheese	-14125
▁iPhone	-14126
▁Airways	-14127
▁Arabian	-14128
▁Monster	-14129
▁Runners	-14130
▁Solomon	-14131
▁martial	-14132
▁nucleus	-14133
▁optical	-14134
▁preview	-14135
▁warfare	-14136
▁wealthy	-14137
▁Bolliger	-14138
▁Trinidad	-14139
▁equation	-14140
▁fountain	-14141
▁infected	-14142
▁lineback	-14143
▁uncommon	-14144
▁Challenge	-14145
▁Mastering	-14146
▁activated	-14147
▁composers	-14148
▁hospitals	-14149
▁redevelop	-14150
▁affiliated	-14151
▁referenced	-14152
▁withdrawal	-14153
▁Constantine	-14154
▁citizenship	-14155
▁commemorate	-14156
▁ingredients	-14157
▁destinations	-14158
▁Á	-14159
-70	-14160
arr	-14161
ete	-14162
ikh	-14163
▁8:	-14164
▁9%	-14165
▁CH	-14166
Conn	-14167
boro	-14168
icia	-14169
isch	-14170
thal	-14171
▁ITV	-14172
▁Lep	-14173
▁jaw	-14174
ethel	-14175
inery	-14176
▁Bund	-14177
▁Evan	-14178
▁Mumb	-14179
▁True	-14180
▁debt	-14181
▁dece	-14182
▁file	-14183
▁mbar	-14184
▁polo	-14185
atever	-14186
ayette	-14187
orrect	-14188
tained	-14189
themed	-14190
unning	-14191
▁1951,	-14192
▁1958,	-14193
▁Block	-14194
▁Brock	-14195
▁Rever	-14196
▁Shiva	-14197
▁brake	-14198
▁comet	-14199
▁pharm	-14200
▁reass	-14201
ulatory	-14202
▁Albion	-14203
▁Almost	-14204
▁Galile	-14205
▁Ladies	-14206
▁Legion	-14207
▁Mirror	-14208
▁Shangh	-14209
▁Wednes	-14210
▁dining	-14211
▁plaque	-14212
▁plasma	-14213
▁versus	-14214
ancellor	-14215
▁Belarus	-14216
▁Elliott	-14217
▁Hunting	-14218
▁Located	-14219
▁Pirates	-14220
▁Systems	-14221
▁cluster	-14222
▁trilogy	-14223
▁trouble	-14224
ibilities	-14225
▁Nebraska	-14226
▁Randolph	-14227
▁Software	-14228
▁corridor	-14229
▁governed	-14230
▁surprise	-14231
▁Athletics	-14232
▁Blackburn	-14233
▁Lightning	-14234
▁computers	-14235
▁directing	-14236
▁disturbed	-14237
▁supporter	-14238
▁Yugoslavia	-14239
▁accordance	-14240
▁challenged	-14241
▁efficiency	-14242
▁encounters	-14243
▁physically	-14244
▁underwater	-14245
▁viewership	-14246
▁Observatory	-14247
▁achievement	-14248
▁complicated	-14249
▁fundamental	-14250
9-	-14251
ál	-14252
-12	-14253
▁1-	-14254
▁Dy	-14255
Just	-14256
odic	-14257
onso	-14258
opot	-14259
orms	-14260
tail	-14261
▁(35	-14262
▁114	-14263
▁20%	-14264
▁90%	-14265
▁Pos	-14266
▁Pra	-14267
▁Rhe	-14268
▁Rhy	-14269
Black	-14270
arded	-14271
chard	-14272
opath	-14273
rians	-14274
▁1896	-14275
▁1925	-14276
▁Avon	-14277
▁edit	-14278
▁hunt	-14279
▁rept	-14280
illion	-14281
▁1978.	-14282
▁Baron	-14283
▁Hutch	-14284
▁Mercy	-14285
▁Monte	-14286
▁caves	-14287
▁empty	-14288
▁moons	-14289
istical	-14290
▁Calvin	-14291
▁Easter	-14292
▁Forbes	-14293
▁Kaiser	-14294
▁Philos	-14295
▁Singer	-14296
▁carved	-14297
▁cooler	-14298
▁drives	-14299
▁quoted	-14300
▁radial	-14301
▁ranged	-14302
▁submar	-14303
▁unanim	-14304
▁victim	-14305
▁Culture	-14306
▁Taunton	-14307
▁costume	-14308
▁creates	-14309
▁desired	-14310
▁differs	-14311
▁equally	-14312
▁pursuit	-14313
▁renewed	-14314
▁Brisbane	-14315
▁employee	-14316
▁hardware	-14317
▁managers	-14318
▁remarked	-14319
▁removing	-14320
▁steering	-14321
▁struggle	-14322
▁suburban	-14323
▁targeted	-14324
▁thorough	-14325
▁warships	-14326
▁Guatemala	-14327
▁Testament	-14328
▁conflicts	-14329
▁improving	-14330
▁microscop	-14331
▁parenthes	-14332
▁planetary	-14333
▁specified	-14334
▁televised	-14335
▁Recordings	-14336
▁Wolverines	-14337
▁mechanisms	-14338
▁separation	-14339
▁instruction	-14340
▁resignation	-14341
▁restrictions	-14342
▁automatically	-14343
.'	-14344
7-	-14345
OH	-14346
fa	-14347
wy	-14348
ος	-14349
Rad	-14350
ele	-14351
hig	-14352
idy	-14353
mid	-14354
vre	-14355
▁ot	-14356
ados	-14357
card	-14358
erne	-14359
igue	-14360
ivic	-14361
quel	-14362
seat	-14363
▁158	-14364
▁Lys	-14365
▁Mam	-14366
Every	-14367
leigh	-14368
osity	-14369
urnal	-14370
▁Chop	-14371
▁Gael	-14372
▁Kerr	-14373
▁Shir	-14374
▁Tues	-14375
▁cogn	-14376
▁emig	-14377
▁scen	-14378
▁seal	-14379
ashire	-14380
ishops	-14381
oulder	-14382
ounsel	-14383
ustral	-14384
▁1938,	-14385
▁1953,	-14386
▁1973.	-14387
▁Basil	-14388
▁Being	-14389
▁Getty	-14390
▁Scots	-14391
▁Tracy	-14392
▁doubt	-14393
▁Allies	-14394
▁Cinema	-14395
▁Except	-14396
▁assets	-14397
▁assign	-14398
▁grades	-14399
▁salary	-14400
▁shapes	-14401
▁slopes	-14402
▁termed	-14403
ccentric	-14404
▁Animals	-14405
▁Brandon	-14406
▁Coaches	-14407
▁Muslims	-14408
▁Tolkien	-14409
▁gravity	-14410
▁kitchen	-14411
▁shelter	-14412
▁Colombia	-14413
▁Geoffrey	-14414
▁Shanghai	-14415
▁asteroid	-14416
▁conquest	-14417
▁drainage	-14418
▁explains	-14419
▁grandson	-14420
▁preceded	-14421
▁speakers	-14422
▁upcoming	-14423
millimeter	-14424
▁Mabillard	-14425
▁continent	-14426
▁elaborate	-14427
▁nicknamed	-14428
▁paperback	-14429
▁performer	-14430
▁Lancashire	-14431
▁challenges	-14432
▁charitable	-14433
▁prohibited	-14434
▁statements	-14435
▁treatments	-14436
▁reminiscent	-14437
▁metropolitan	-14438
▁redesignated	-14439
▁comprehensive	-14440
▁headquartered	-14441
▁strengthening	-14442
▁communications	-14443
43	-14444
BE	-14445
oi	-14446
ycl	-14447
▁"'	-14448
▁Og	-14449
....	-14450
FIFA	-14451
alan	-14452
bery	-14453
hell	-14454
ieve	-14455
imon	-14456
just	-14457
oise	-14458
onny	-14459
rous	-14460
tons	-14461
▁129	-14462
▁141	-14463
▁650	-14464
▁ACC	-14465
▁Hey	-14466
▁Sau	-14467
▁Syn	-14468
▁coc	-14469
▁sou	-14470
North	-14471
apped	-14472
thood	-14473
▁000-	-14474
▁Erie	-14475
▁Glou	-14476
▁Hale	-14477
▁Shep	-14478
▁Sons	-14479
▁Uran	-14480
▁exem	-14481
▁feud	-14482
▁horm	-14483
▁slot	-14484
▁toss	-14485
▁yoga	-14486
effect	-14487
fields	-14488
market	-14489
rients	-14490
▁1943.	-14491
▁1949,	-14492
▁1962.	-14493
▁Audio	-14494
▁drops	-14495
▁saint	-14496
▁stems	-14497
British	-14498
welling	-14499
▁Canber	-14500
▁Monday	-14501
▁argues	-14502
▁danger	-14503
▁firing	-14504
▁resort	-14505
▁reveal	-14506
▁Griffin	-14507
▁Maurice	-14508
▁cabinet	-14509
▁dioxide	-14510
▁evident	-14511
▁explore	-14512
▁reveals	-14513
▁revival	-14514
▁sharing	-14515
▁suscept	-14516
▁Michelle	-14517
▁Theodore	-14518
▁belonged	-14519
▁cylinder	-14520
▁invented	-14521
▁protests	-14522
▁complexes	-14523
▁dissolved	-14524
▁exercises	-14525
▁postmiles	-14526
▁procedure	-14527
▁sensitive	-14528
▁sociology	-14529
▁unchanged	-14530
stitutional	-14531
▁colleagues	-14532
▁definitions	-14533
▁manuscripts	-14534
▁downloadable	-14535
▁geographical	-14536
▁reconstruction	-14537
96	-14538
▁_	-14539
▁u	-14540
Car	-14541
acs	-14542
afe	-14543
umm	-14544
usk	-14545
▁Aw	-14546
▁Gy	-14547
▁RI	-14548
both	-14549
urus	-14550
▁132	-14551
▁Did	-14552
▁Gas	-14553
▁Ski	-14554
▁dop	-14555
▁une	-14556
World	-14557
idium	-14558
lette	-14559
ookie	-14560
osome	-14561
▁Berk	-14562
▁Gren	-14563
▁Isab	-14564
▁Kids	-14565
▁Swim	-14566
▁Tell	-14567
▁beef	-14568
▁cott	-14569
▁deer	-14570
▁dism	-14571
▁ions	-14572
▁push	-14573
ensing	-14574
psilon	-14575
▁1936.	-14576
▁1956,	-14577
▁Athen	-14578
▁Cecil	-14579
▁Ferry	-14580
▁Jesse	-14581
▁Merit	-14582
▁Randy	-14583
▁Venez	-14584
▁dozen	-14585
▁elite	-14586
▁ghost	-14587
▁modes	-14588
isition	-14589
legraph	-14590
▁Barcel	-14591
▁Beyond	-14592
▁Gerald	-14593
▁Miguel	-14594
▁Multip	-14595
▁Romans	-14596
▁Safety	-14597
▁Vienna	-14598
▁analys	-14599
▁Fischer	-14600
▁Private	-14601
▁Romania	-14602
▁burning	-14603
▁cuisine	-14604
▁runners	-14605
ographers	-14606
▁Numerous	-14607
▁Produced	-14608
▁centered	-14609
▁contents	-14610
▁marketed	-14611
▁mistaken	-14612
▁performs	-14613
▁boyfriend	-14614
▁offspring	-14615
▁scientist	-14616
▁Bangladesh	-14617
▁Generation	-14618
▁broadcasts	-14619
▁endangered	-14620
▁northbound	-14621
▁recitative	-14622
▁accomplished	-14623
▁achievements	-14624
▁associations	-14625
▁intervention	-14626
▁neighbouring	-14627
▁predecessors	-14628
AP	-14629
NO	-14630
uba	-14631
alis	-14632
arag	-14633
lamm	-14634
ogle	-14635
umer	-14636
▁Dup	-14637
▁FBI	-14638
▁Fav	-14639
▁Por	-14640
▁Sah	-14641
▁Tyr	-14642
▁Zoo	-14643
▁fle	-14644
esium	-14645
great	-14646
iddle	-14647
illus	-14648
nolds	-14649
ocese	-14650
ooter	-14651
rafts	-14652
▁Burg	-14653
▁Fear	-14654
▁Hipp	-14655
▁Lore	-14656
▁Shop	-14657
▁WASP	-14658
▁bott	-14659
▁odor	-14660
▁spir	-14661
▁verb	-14662
Christ	-14663
gotten	-14664
iduous	-14665
player	-14666
ricken	-14667
▁1921.	-14668
▁1975.	-14669
▁1978,	-14670
▁Bened	-14671
▁Jamie	-14672
▁Kenya	-14673
▁Lords	-14674
▁Minaj	-14675
▁Omaha	-14676
▁Trent	-14677
▁draws	-14678
▁genet	-14679
▁joins	-14680
▁patch	-14681
▁penet	-14682
▁raids	-14683
▁sandy	-14684
▁soils	-14685
▁stall	-14686
▁swing	-14687
iblical	-14688
▁Batter	-14689
▁Levine	-14690
▁Rapids	-14691
▁Sunder	-14692
▁dollar	-14693
▁nights	-14694
▁panels	-14695
▁ritual	-14696
etheless	-14697
▁Canucks	-14698
▁Forever	-14699
▁Serbian	-14700
▁academy	-14701
▁divorce	-14702
▁replica	-14703
▁skating	-14704
▁thereby	-14705
▁twelfth	-14706
▁Hawaiian	-14707
▁Twilight	-14708
▁antibiot	-14709
▁embarked	-14710
▁juvenile	-14711
▁priority	-14712
▁Democrats	-14713
▁Parachute	-14714
▁Paramount	-14715
▁Political	-14716
▁ancestors	-14717
▁automatic	-14718
▁averaging	-14719
▁disorders	-14720
▁preseason	-14721
▁proceeded	-14722
▁concurrent	-14723
▁corruption	-14724
▁friendship	-14725
▁girlfriend	-14726
▁monitoring	-14727
▁personally	-14728
▁remembered	-14729
▁technologies	-14730
▁autobiography	-14731
▁advertisements	-14732
.:	-14733
73	-14734
éd	-14735
-25	-14736
BSD	-14737
▁Ki	-14738
fman	-14739
isor	-14740
▁171	-14741
▁Bil	-14742
▁Iss	-14743
▁Kol	-14744
▁Oil	-14745
▁Tin	-14746
armed	-14747
dered	-14748
▁Cran	-14749
▁Hawk	-14750
▁Left	-14751
▁Peak	-14752
▁Rare	-14753
▁bike	-14754
▁bind	-14755
▁gale	-14756
▁hipp	-14757
▁pace	-14758
League	-14759
aunted	-14760
modern	-14761
▁(1978	-14762
▁1935,	-14763
▁1937.	-14764
▁1957,	-14765
▁1981.	-14766
▁Payne	-14767
▁Plate	-14768
▁Veter	-14769
▁pilgr	-14770
▁skill	-14771
▁soror	-14772
Russian	-14773
ificate	-14774
▁Angels	-14775
▁Arabia	-14776
▁Fergus	-14777
▁Mumbai	-14778
▁Strait	-14779
▁antiqu	-14780
▁cotton	-14781
▁deputy	-14782
▁fabric	-14783
▁jersey	-14784
▁mosque	-14785
▁summar	-14786
▁Baldwin	-14787
▁Tribune	-14788
▁biology	-14789
▁bombers	-14790
▁farmers	-14791
▁lacking	-14792
▁tissues	-14793
▁Canberra	-14794
▁Hereford	-14795
▁Thursday	-14796
▁concepts	-14797
▁predator	-14798
▁sometime	-14799
▁valuable	-14800
▁Lactarius	-14801
▁discharge	-14802
▁emotional	-14803
▁explosive	-14804
▁literally	-14805
▁overnight	-14806
▁seriously	-14807
▁substance	-14808
▁virtually	-14809
▁fraternity	-14810
▁lighthouse	-14811
▁spectators	-14812
▁prominently	-14813
▁respiratory	-14814
81	-14815
Co	-14816
FS	-14817
▁|	-14818
▁Å	-14819
Nov	-14820
cht	-14821
fra	-14822
ieu	-14823
ión	-14824
jar	-14825
rip	-14826
▁Va	-14827
Life	-14828
alia	-14829
amus	-14830
aran	-14831
boys	-14832
essa	-14833
haul	-14834
idas	-14835
iker	-14836
inas	-14837
requ	-14838
▁(51	-14839
▁103	-14840
▁107	-14841
▁162	-14842
▁Ari	-14843
▁HBO	-14844
▁Kaz	-14845
▁Rot	-14846
▁aft	-14847
court	-14848
entin	-14849
ocrat	-14850
oline	-14851
ovsky	-14852
▁Fork	-14853
▁Hort	-14854
▁Look	-14855
▁Marl	-14856
▁Yale	-14857
▁dict	-14858
▁glob	-14859
▁tale	-14860
loaded	-14861
ogenic	-14862
▁1915.	-14863
▁Advis	-14864
▁Annie	-14865
▁Dover	-14866
▁Milan	-14867
▁rises	-14868
▁vault	-14869
▁Æthel	-14870
olithic	-14871
ounding	-14872
▁(1995)	-14873
▁Estate	-14874
▁Manuel	-14875
▁beauty	-14876
▁infant	-14877
▁infect	-14878
▁leaked	-14879
▁regist	-14880
▁Armenia	-14881
▁Capitol	-14882
▁Factory	-14883
▁Jeffrey	-14884
▁Present	-14885
▁painter	-14886
▁routine	-14887
▁temples	-14888
▁bachelor	-14889
▁commands	-14890
▁interred	-14891
▁reporter	-14892
▁resolved	-14893
▁Animation	-14894
▁Barcelona	-14895
▁Friedrich	-14896
▁copyright	-14897
▁influenza	-14898
▁lifestyle	-14899
▁reservoir	-14900
▁contracted	-14901
▁quantities	-14902
▁regulation	-14903
▁essentially	-14904
▁foundations	-14905
▁collectively	-14906
▁consistently	-14907
▁fortifications	-14908
pm	-14909
vy	-14910
él	-14911
acco	-14912
adal	-14913
hang	-14914
mits	-14915
oufl	-14916
▁Cos	-14917
▁Eis	-14918
▁Fun	-14919
▁Log	-14920
▁Maz	-14921
▁Sed	-14922
▁Typ	-14923
dated	-14924
throp	-14925
▁(192	-14926
▁Huff	-14927
▁Luft	-14928
▁Pend	-14929
▁Troy	-14930
▁barb	-14931
▁bicy	-14932
▁cord	-14933
▁inch	-14934
▁rats	-14935
▁surn	-14936
arsity	-14937
flight	-14938
urrect	-14939
▁1913.	-14940
▁Birth	-14941
▁Botan	-14942
▁Clear	-14943
▁Devon	-14944
▁Names	-14945
▁Shore	-14946
▁Squad	-14947
▁Words	-14948
▁alpha	-14949
▁blast	-14950
▁crypt	-14951
▁ellip	-14952
▁fairy	-14953
avorite	-14954
bearing	-14955
enhagen	-14956
umbered	-14957
▁Broken	-14958
▁Capcom	-14959
▁Hebrew	-14960
▁Others	-14961
▁Selena	-14962
▁Telugu	-14963
▁galaxy	-14964
▁helium	-14965
▁indoor	-14966
▁latest	-14967
▁refurb	-14968
▁suffer	-14969
▁unlock	-14970
▁Conserv	-14971
▁Jessica	-14972
▁Lebanon	-14973
▁Neptune	-14974
▁Scandin	-14975
▁aquatic	-14976
▁granite	-14977
▁nervous	-14978
▁putting	-14979
▁venture	-14980
Americans	-14981
corrhizal	-14982
▁Computer	-14983
▁Examples	-14984
▁Sanskrit	-14985
▁Senators	-14986
▁floating	-14987
▁heaviest	-14988
▁mobility	-14989
▁timeslot	-14990
▁Detective	-14991
▁Palestine	-14992
▁Wednesday	-14993
▁auxiliary	-14994
▁digitally	-14995
▁eccentric	-14996
▁fragments	-14997
▁monuments	-14998
▁parasites	-14999
▁recognize	-15000
▁Constantin	-15001
▁Sunderland	-15002
▁critically	-15003
▁extinction	-15004
▁incomplete	-15005
▁industries	-15006
▁speculated	-15007
▁submarines	-15008
▁adaptations	-15009
▁realignment	-15010
▁implementation	-15011
66	-15012
BT	-15013
NC	-15014
WF	-15015
eb	-15016
bey	-15017
eur	-15018
oan	-15019
ław	-15020
▁Mü	-15021
▁ze	-15022
alus	-15023
elia	-15024
leen	-15025
mass	-15026
▁26.	-15027
▁27.	-15028
▁Duc	-15029
▁Miz	-15030
books	-15031
estab	-15032
▁Page	-15033
▁Stam	-15034
▁Tang	-15035
▁Wade	-15036
▁Wald	-15037
▁Wilm	-15038
▁dors	-15039
▁duet	-15040
▁wool	-15041
▁1911.	-15042
▁Glenn	-15043
▁Heath	-15044
▁Hindi	-15045
▁Maced	-15046
▁Parad	-15047
▁abbre	-15048
▁clips	-15049
▁fatal	-15050
▁immun	-15051
▁integ	-15052
▁lover	-15053
▁overd	-15054
▁shirt	-15055
▁trips	-15056
▁upset	-15057
▁(1997)	-15058
▁Butter	-15059
▁Conway	-15060
▁Corner	-15061
▁Vander	-15062
▁Worlds	-15063
▁affair	-15064
▁prosec	-15065
▁slaves	-15066
structed	-15067
▁Amanita	-15068
▁Grammar	-15069
▁belongs	-15070
▁custody	-15071
▁inflamm	-15072
▁missile	-15073
▁plastic	-15074
▁poverty	-15075
▁rolling	-15076
▁secular	-15077
southwest	-15078
▁Critical	-15079
▁Millwall	-15080
▁ancestor	-15081
▁farmland	-15082
▁feelings	-15083
▁relevant	-15084
▁rerouted	-15085
▁suddenly	-15086
songwriter	-15087
▁Halloween	-15088
▁Principal	-15089
▁athletics	-15090
▁batteries	-15091
▁descended	-15092
▁eruptions	-15093
▁potassium	-15094
▁societies	-15095
▁Petersburg	-15096
▁provisions	-15097
▁Renaissance	-15098
▁consequence	-15099
▁departments	-15100
▁exploration	-15101
▁mountainous	-15102
▁Indianapolis	-15103
▁broadcasting	-15104
▁investigated	-15105
SC	-15106
mm	-15107
▁‘	-15108
abi	-15109
agi	-15110
▁EC	-15111
▁IX	-15112
Sing	-15113
alom	-15114
amen	-15115
esta	-15116
omat	-15117
opal	-15118
than	-15119
▁139	-15120
▁149	-15121
▁80%	-15122
▁Kem	-15123
▁Lyr	-15124
▁Pod	-15125
▁Pon	-15126
▁thy	-15127
assis	-15128
aukee	-15129
cence	-15130
hydro	-15131
tains	-15132
ussia	-15133
▁(2):	-15134
[...]
